#version: 0.2 - Trained by `huggingface/tokenizers`
Ġ Ð
Ð ¾
Ð µ
Ð °
Ñ Ĥ
Ð ¸
Ñ ģ
Ð ½
Ð »
Ñ Ģ
Ð¾ Ð
Ġ t
h e
Ġ a
Ñ ĥ
Ð° Ð
i n
Ðµ Ð
Ñ ı
Ñ Į
Ñ ĭ
Ġ w
Ġ Ñģ
Ġ s
ĠÐ ½
Ñ ĩ
ĠÐ ¿
ĠÐ ²
Ð º
Ġ h
Ġt he
ĠÐ ¾
r e
Ð ²
n d
ÑĤ Ð¾
Ġ o
ĠÐ ¸
Ð ´
Ð° Ð»
o u
i t
e d
Ġ b
a t
in g
i s
Ð ¼
Ġ he
e r
ĠÐ º
Ġa nd
Ñģ ÑĤ
Ġt o
Ð¾Ð ²
Ñ Ī
Ðµ Ð½
o n
- -
Ġ c
Ġ --
Ġ f
ĠÐ ±
³ Ð¾
Ġ m
ĠÐ ´
Ñ ħ
Ġ Ñĩ
e n
Ġt h
Ðµ Ð»
Ġ d
a s
ÑĤ ÑĮ
Ñ İ
l l
Ġ ÑĤ
Ġ n
Ð½ Ð°
Ðµ ÑĢ
ĠÐ µ
ĠÐ½ Ðµ
e s
ĠÐ ¼
Ð½ Ð¾
Ġ l
Ð¾Ð ¼
Ġo f
o r
Ġ p
ĠÐ¿ ÑĢ
a n
Ġh a
Ġ in
Ġ '
o t
Ð°Ð ·
Ð¸ Ð»
Ð°Ð º
Ð ±
Ð¾ Ð»
a r
Ġ Ñĥ
ĠÐ ·
Ðµ ÑĤ
o m
ĠÑĩ ÑĤÐ¾
Ð ¿
Ġ ÑĢ
l e
i m
i d
Ġb e
u t
Ð½ Ð¸
ĠÐ± Ñĭ
Ð¾Ð ´
Ð ¶
o w
Ð ·
Ð¾ ÑĢ
Ġth at
ÐµÐ ¼
Ġhe r
Ġ Ñ
l y
Ð ¹
ĠÐ½ Ð°
Ġh is
Ð°Ð ²
Ġ e
Ġ g
Ñģ Ñı
Ġw as
ĠÐ¿ Ð¾
Ð¸ Ð½
Ġw h
Ð ³
Ġ I
Ð¾Ð ¹
Ñģ ÑĮ
i c
ĠÐ¾ Ð½
Ñģ Ðº
v e
Ġn ot
Ð° Ð½
Ġo n
it h
s e
l d
ĠÑ į
Ġ re
Ġw ith
Ġ y
ĠÐ ¶
s t
Ġ it
Ġs a
. .
ÐµÐ ²
Ð°Ð ¼
ĠÐ »
e t
en t
ĠÐ±Ñĭ Ð»
ĠÐ ³
ĠÐ Ĳ
Ð¸ Ð²
ÐµÐ ´
i on
Ñ ī
ÐµÐ½ Ð¸
Ġha d
Ð° ÑĤÑĮ
Ð°Ð» Ð°
Ð¸ ÑĤ
Ð¾Ð ³
g h
Ð½ Ñĭ
Ġy ou
Ð°Ð ´
Ð¾Ð ³Ð¾
ĠÑģ Ðº
Ġh im
v er
Ġs he
Ð¾ ÑĤ
ÐµÐ ¹
Ð° Ñı
Ġa s
c e
Ġ u
Ñ Ĩ
Ð ³Ð¾
Ġ ÑĤÐ¾
ĠÐ¾ ÑĤ
Ð¾Ð ±
Ð° Ñģ
a l
ĠÐ² Ñģ
ÑĢ Ð¾
ĠÐ Ĵ
Ð¸ Ñĩ
Ð¾Ð ¶
ÑģÑĤ Ð²
ÐµÐ º
Ġa t
Ġf or
ĠÐ ŀ
Ġs t
ĠÐº Ð°Ðº
e re
ĠÐ Ŀ
Ð¸ Ð¼
Ġ A
i r
a d
Ð° ÑĢ
ĠÐ¾ Ð½Ð°
gh t
ĠÑģÐº Ð°Ð·
Ġ r
ĠÑģ Ð²
Ġ T
a y
ĠÐµ Ð³Ð¾
ĠÐ² Ñĭ
ĠÐº Ð¾
Ġa n
Ð» Ð¸
Ð° ÑĤ
ou ld
ÐµÐ ³Ð¾
u r
Ð» Ñı
Ð´ Ð°
Ġ is
Ġ Ñı
o o
ÑĢ Ñĥ
Ġ Ñħ
i f
Ġb ut
he r
' s
Ð¸ Ð´
Ð¾Ð º
Ġsa id
ĠÐ¾ Ð±
ÐµÐ ¿
ĠÐ ļ
, '
ÑĤÐ¾ ÑĢ
ĠÑį ÑĤÐ¾
Ðº Ð¾
Ġ S
on s
ÐµÐ ±
Ð½ Ñĥ
Ð¸ ÑĤÑĮ
ĠÑģ ÑĤ
Ġ L
c t
Ġ H
es s
Ð¾Ð² Ð¾ÑĢ
e e
ĠÐ Ľ
k y
c h
. '
ĠÐ¿ÑĢ Ð¸
Ġ k
r i
ĠÑį ÑĤ
t er
e v
ĠÐ ¡
ĠÐ½ Ð¾
Ġm e
r o
ĠÐ²Ñģ Ðµ
Ð½ Ðµ
ĠÐµ Ðµ
Ð°Ð ¶
i ll
Ġ K
ic h
ÐµÐ ·
ĠÐ¿ Ð¾Ð´
s s
ĠÑģÐ² Ð¾
ĠÑĤ Ð°Ðº
a in
Ð¸ Ð¹
Ġs o
Ġs h
Ð¸ Ðº
a ll
Ð» Ð°
a m
h ing
ÐµÐ» ÑĮ
ou t
p e
ĠÐ· Ð°
ĠÐĽ ÐµÐ²
Ð¾Ð» ÑĮ
Ð¾ Ñģ
an t
Ð¸Ð» Ð°
ĠÐ±ÑĭÐ» Ð¾
Ġa ll
Ðµ Ñģ
ĠÐ Ķ
a nd
ĠÑĢ Ð°Ð·
ÑģÑĤ ÑĮ
q u
Ñĥ Ð¶
Ð» ÐµÐº
ĠT he
ĠÐ ĺ
ev in
a re
ĠL evin
Ð¾Ð ·
Ð½ Ñı
Ġha ve
ĠÑģ Ð»
Ð¼ Ñĥ
Ġd o
o re
ÐµÐ½ ÑĮ
.. .
Ñĥ Ð¼
i l
ÑĢ Ð°
ons ky
Ñĥ Ð´
Ð»ÐµÐº Ñģ
u s
Ð¸ Ñħ
ĠÐĲ Ð»ÐµÐºÑģ
Ġ V
b le
ĠÑģÐºÐ°Ð· Ð°Ð»
ver y
a k
ĠÐ Ł
ĠÐºÐ¾ ÑĤÐ¾ÑĢ
Ðµ ÑĪ
Ġe x
? '
l f
Ð¾ ÑĪ
om e
ĠÐ¸ Ð·
ĠÐ¶ Ðµ
Ġw he
ĠÐĽÐµÐ² Ð¸Ð½
Ġn e
e ll
Ġs u
u l
Ð» ÑĮ
Ġf r
Ñĭ Ð²
Ġwh ich
Ġk n
p p
ĠÐ ³Ð¾
n a
Ðµ Ñĩ
Ġa b
ĠH e
Ð¾Ð¼ Ñĥ
Ġwh o
ÑģÑĤ Ð¸
ÐµÐ½ Ð½Ð¾
Ð¾Ð³ Ð´Ð°
i ght
ÐµÐ ¶
ĠÐ °
at ion
ĠÐ³ Ð¾Ð²Ð¾ÑĢ
! '
Ġc on
Ġon e
Ð°Ð» Ð¸
oo k
it t
Ġd e
u st
ÐµÐ» Ð°
Ñī Ðµ
ĠÐ ¯
Ġ B
Ġa l
Ġwh at
a c
ĠÐµ Ð¼Ñĥ
Ġc h
ÑĢ Ð¾Ð²
ĠÐ¿ ÐµÑĢ
se lf
Ðº Ð°
Ð°Ð¼ Ð¸
Ñĥ Ñĩ
ÐµÐ½Ð¸ Ðµ
Ġ W
ar d
Ð½ ÑģÐº
ĠÑģ Ð¿
Ġ P
Ġfr om
Ðº Ñĥ
Ġ O
Ġ j
o v
â Ģ
Ġs ee
Ġb y
ÑĢÑĥ Ð³
ĠÐ» Ð¸
Ð¸ Ðµ
ĠÐ ¢
Ġ âĢ
ĠâĢ ĵ
Ġ qu
Ġl i
ĠÐŀ Ð½
Ġw ere
ÑĪ Ðµ
ĠÐ¾ Ð´
ÐµÐ½Ð¸ Ñı
Ñĥ ÑĤ
ĠÐ» Ñİ
Ñĥ Ð²
Ðµ ÑģÑĤ
ĠÐ¿ Ð¾Ð»
b l
Ñģ Ð»
Ġin t
Ð°Ð» Ð¾
Ġg o
ĠÐ ľ
Ġth ou
Ġ C
ÐµÑĢ ÑĮ
Ġ M
Ñı ÑĤ
Ġthe y
Ñĭ Ð¹
es t
is t
ĠÑģ ÐµÐ±
Ġw ould
in d
Ġab out
Ð»ÑĮ ÐºÐ¾
Ġu p
Ð¾Ð ¿
ĠÑĥ Ð¶
Ð¾ Ñĩ
Ġw or
Ġd id
ÑĥÐ² ÑģÑĤÐ²
he d
Ġl ook
it e
Ġth is
Ñĭ Ð¼
ĠÑĢ Ñĥ
ĠÐ¼ Ð¾Ð³
n t
Ð½Ð¸ Ð¼
Ġ ÑĪ
Ð°Ð ±
ere d
Ġ v
Ġthe m
Ñĥ Ñİ
ÐµÐ ³
Ġ "
ĠÑĤÐ¾ Ð»ÑĮÐºÐ¾
k ed
ar t
g e
' t
Ð¾ Ðµ
r a
ou s
Ġo r
ĠA n
Ð¸ Ð·
Ðº Ð¸
Ñħ Ð¾Ð´
e l
Ð½ Ð¾Ð³Ð¾
Ġo ut
Ð½Ñĭ Ð¼
a u
er s
re ss
Ð°Ð ¿
ĠÑģ Ð°Ð¼
at e
Ġwhe n
ĠÐ² Ð¸Ð´
ĠÐ· Ð½Ð°
Ġthe re
ot her
Ġc ould
Ð°Ð½ Ð´
ÑĢÐ¾ Ð½ÑģÐº
ĠÐĴ ÑĢÐ¾Ð½ÑģÐº
on g
Ð° Ñİ
ĠÐĲ Ð½
Ġkn ow
Ġl e
Ġa m
Ġbe en
ĠÐ´ Ð²
nd er
Ġm y
Ð¸Ð» Ð¸
Ð¸ Ð½Ð°
oo d
if e
ĠÐ² Ð·
Ñĥ ÑĪ
r onsky
ĠÐĿ Ð¾
Ñģ Ð¿
a ce
ĠÑģ ÑĤÐ¾
Ġn o
Ġu n
ĠV ronsky
Ð°Ð ¹
Ġp o
Ġs m
ĠÑģÐºÐ°Ð· Ð°Ð»Ð°
ĠS he
Ġw ill
ĠAn na
ĠÐ± ÑĥÐ´
h at
ĠÐĲÐ»ÐµÐºÑģ Ð°Ð½Ð´
r y
Ġa re
ÐµÐ¿ ÐµÑĢÑĮ
Ġ D
Ġm an
Ġ im
k e
on e
Ġn ow
ÑģÑĤ Ð°Ð²
ĠÑĤ Ñĭ
ĠÐ¿ÑĢ Ð¾
u re
Ñĭ Ðµ
or t
ĠÐĲÐ»ÐµÐºÑģÐ°Ð½Ð´ ÑĢÐ¾Ð²
ĠÐ»Ñİ Ð±
Ðµ Ñħ
Ġon ly
Ġa g
o ll
o ve
ĠÐ¿ÑĢ ÐµÐ´
w ay
am e
ĠÐº ÑĢ
ĠÐŀ Ð½Ð°
ĠÑĩ ÑĥÐ²ÑģÑĤÐ²
Ð½Ñĭ Ð¹
Ð» Ð¾
ow n
v en
ĠÐ¸ Ð¼
ĠÐ´ Ð»Ñı
Ñ Ħ
Ġb r
Ð½Ð¾ Ðµ
ÑĢ Ð°Ð²
ĠÐ³ Ð»
Ð¸ÑĤ ÐµÐ»ÑĮ
Ġs p
ĠÑģ Ð¼
ÑĤ Ð¾Ð±
Ð´ Ðµ
Ġthou ght
ÑĢÐ¾ Ñģ
Ġs e
ĠB ut
i ve
i le
t her
ĠÑĩ ÑĤÐ¾Ð±
ĠÐ±ÑĭÐ» Ð°
ĠÐ´ ÐµÐ»
Ð°Ð´ ÑĮ
ĠÑħ Ð¾ÑĤ
v ing
ĠÐ¡ ÑĤ
ĠÐ¶ ÐµÐ½
Ð°Ð ³
Ġan y
Ġha nd
ĠÐ¿Ð¾ ÑĤ
Ð°Ð½ Ð¾Ð²
are n
Ð½ Ð¾Ð¹
ĠÐ¾ Ð¿
Ð» Ñĭ
ÑĤ Ð¸
ĠÑĤ ÐµÐ¿ÐµÑĢÑĮ
Ġ very
Ð° Ð½Ð¸
ĠÐ¾ Ñĩ
itt y
m e
c i
e w
Ġthe ir
ĠÐ½ Ð°Ð´
Ð¸ÑĤ Ð¸
ĠÐ± Ð¾Ð»ÑĮ
ĠÐº Ð¾Ð³Ð´Ð°
ÑĢ Ð¸
Ġc om
Ġc an
o l
ou nd
o se
Ġt im
Ð°Ð» ÑĮ
ĠÐ¾ÑĤ Ð²
ĠK itty
ur n
all y
i g
Ñģ Ð»Ð¸
Ð¸Ð» ÑģÑı
in k
ĠÐµ ÑīÐµ
Ġu nder
ĠÐ´ ÑĢÑĥÐ³
id e
ĠÐļ Ð¸ÑĤÐ¸
ou r
Ġsa y
Ñı ÑĤÑĮ
ÑĢ Ðº
Ġp e
Ġe very
ĠÐ´ ÑĥÐ¼
Ð½Ñĭ Ðµ
Ġa f
Ġa r
Ñĭ Ñħ
ĠÐµ Ð¹
p le
Ð» Ð¾Ð²
Ð»Ñĭ Ð±
ĠÐ¾ Ñģ
Ð°Ñı ÑģÑĮ
Ġ if
Ġm ore
ĠO bl
Ð¾ÑĤ ÑĢ
ĠObl onsky
ĠÐ½ ÐµÐ³Ð¾
o s
ĠÐ· Ð½
as t
ĠÑĥ Ð»ÑĭÐ±
ÐµÐ¼ Ñĥ
it y
ĠÐ¿ Ð¾Ðº
Ñĥ Ð¿
Ġw e
Ð¸ Ñı
Ð³ Ð»Ñı
Ġbe g
t hing
ĠÐĲ ÑĢÐº
Ð°Ð» ÑģÑı
ĠÐĲÑĢÐº Ð°Ð´ÑĮ
Ġw ent
f ore
ÐµÐ» Ð¾Ð²
ĠÐ¼ Ð¾Ð¶
ĠÐ¼ Ñĭ
Ġ N
Ġto o
Ġbe c
el t
p l
Ð¾Ð» Ð¶
Ð° ÐµÑĤ
ÑĢ Ð°ÑĤ
ĠÑĢ Ð°Ñģ
p t
ÑĢ ÐµÐ¼
ĠÐ»Ð¸ ÑĨ
Ġc o
ĠÐĶ Ð°
u n
ĠÑĥÐ¶ Ðµ
ÐµÐ½ Ñı
d d
ĠÐ¼ Ð½Ðµ
ĠÐĲÐ»ÐµÐºÑģÐ°Ð½Ð´ÑĢÐ¾Ð² Ð¸Ñĩ
m ent
Ð° Ñħ
is h
Ñĥ ÑĢ
ÑĪ Ð¸
ĠÐ¼ ÑĥÐ¶
ĠÑģ Ð¾
a ble
as s
Ġf elt
c ess
Ġh ow
ĠÐ±Ñĭ ÑĤÑĮ
Ġhim self
re d
Ñĩ Ð°
ar y
Ġyou r
ĠA nd
ĠÐ¡ÑĤ ÐµÐ¿
Ġp l
ĠÐĲÑĢÐºÐ°Ð´ÑĮ Ð¸Ñĩ
ss i
ÑĢ Ð°Ð¶
aren in
m ed
ĠÐ½ Ð¸
ÐµÑĪ ÑĮ
Ġtim e
ĠK arenin
Ġint o
r in
Ġp re
Y ou
Ġd is
o d
at ed
ic e
i ed
ĠÐ¿Ð¾ ÑģÐ»
i e
Ġag ain
Ðµ ÑĤÑĮ
ÑģÑĤ ÑĢ
Ðº Ð¾Ð¹
ĠÐ¼ ÐµÐ½Ñı
Ġe y
Ġim p
ĠÑģ Ð¾Ð²
Ð´ ÐµÐ»
Ð¸ Ñģ
Ð¸Ð¼ Ð¸
Ġf ace
Ġsh ould
ĠÐ¾ Ð½Ð¸
Ġo ther
ee l
ĠÑĩÑĤÐ¾Ð± Ñĭ
Ð¸Ð» Ð¾
Ġg l
ĠÑģÑĤ Ð°ÑĢ
ĠÐĴÑĢÐ¾Ð½ÑģÐº Ð¸Ð¹
Ġth ink
ĠÐ½ Ð¸Ñĩ
f ul
ĠÐ¾Ñĩ ÐµÐ½ÑĮ
Ġunder st
in e
Ġof f
le as
Ð°Ð² ÑĪ
ĠÑģÐµÐ± Ñı
Ġf eel
Ġl ong
ĠÐ½ Ð¸Ðº
ĠÐ´ Ð¾
ĠÑģÐµÐ± Ðµ
Ġ G
e ct
Ð½Ñĥ Ð»
ĠÑįÑĤ Ð¾Ð³Ð¾
ĠÐ±ÑĭÐ» Ð¸
ĠÐĲÐ½ Ð½Ð°
ac k
ĠÐ §
a g
Ð¾ÑĢ Ð¾ÑĪ
Ġey es
o st
ĠP rin
Ġc ome
oll y
Ð½Ð° Ñı
ak e
ĠÐ¡ ÐµÑĢ
Ġli ke
au se
n ess
ou nt
ĠÑĤ Ð¾Ð³Ð¾
a p
om et
Ġs ome
Ġc ons
ĠÑĤ Ð¾Ð¼
Ġe ven
ĠÐ³Ð» Ð°Ð·
Ðµ Ðµ
ÑĮ Ñı
s ky
ĠÐ¡ÑĤÐµÐ¿ Ð°Ð½
Ġthe n
ĠI t
Ġj ust
Ġt r
u ll
c k
ing s
Ġas ked
ĠÐ ķ
ĠÐ Ń
Ġh as
ĠÑĩ ÐµÐ¼
Ð½Ñĭ Ñħ
Ġo ver
ad y
Ð°Ð»Ð¾ ÑģÑĮ
Ġbe fore
ĠÑĥ Ð²
Ġt e
ĠÑĥ Ð´
i ld
Ġd own
ĠD olly
ĠÐ² ÐµÑĢ
u m
Ð¾ Ð½
ĠÐ½ ÐµÐ¹
Ġm ust
ĠÐĺ Ð²
Ġs omet
ĠÐ² ÑĢÐµÐ¼
Ġl ove
ÐµÐ» Ð¾
Ġu s
Ġp ro
Ġwith out
w ard
Ġd on
Ġp leas
Ð» Ð¸Ð²
Ñĥ Ð±
ĠÑĩ ÐµÐ»Ð¾Ð²
ĠÑ Ħ
ĠÐ¶ Ð¸Ð·
ion s
Ð´ Ñĥ
ĠÐ½Ð¸Ñĩ ÐµÐ³Ð¾
v ed
al k
w n
Ġst r
ĠÑĢ Ð°Ð´
ĠÑĤ ÐµÐ¼
Y es
ĠÐ² Ð¾Ð·
an ce
ĠÐĿ Ñĥ
ri ed
he n
ĠÐ² Ð¾
ĠÐĲÐ»ÐµÐºÑģ ÐµÐ¹
Ġ E
ĠÐ ĳ
ĠÐºÐ¾ ÑĤÐ¾
Ġcon t
ou gh
Ġc l
Ġqu ite
ĠÐ¸ Ñħ
Ġa c
ĠÑĩÐµÐ»Ð¾Ð² ÐµÐº
ĠÑĤ ÐµÐ±
ÐµÐ» Ð¸
ÐµÑĤ ÑģÑı
Ðº Ðµ
ĠÐº Ð½Ñı
Ġex p
a ch
e nd
t h
re n
ad e
ĠÑħ Ð¾ÑĢÐ¾ÑĪ
Ð¸ ÑĢ
Ġt urn
en ed
Ðµ Ñı
Ġw ant
Ð¸ÑĤÐµÐ»ÑĮ Ð½Ð¾
Ġl ife
Ġsomet hing
Ð½ Ð¾Ð¼
Ġb l
o y
Ġf ir
ĠÑģ Ð´ÐµÐ»
Ġs pe
ĠÐ¿ Ð»
ĠÐ± Ð¾Ð»
Ð°ÑĤÑĮ ÑģÑı
Ġw ife
ĠÑģ Ð¾Ð±
Ð¸ÑĤ Ðµ
f f
ĠÐ¼ Ð¾Ð»
ĠÑĥ Ð¼
i ly
ĠÐ¾ ÑģÑĤ
ĠÐ½ Ð°Ð¿
ÐµÑĤ Ðµ
Ġr o
ĠÐ²Ð· Ð³Ð»Ñı
Ñ Ĭ
ĠÐ¿ Ð¾Ð¼
Ġsa w
ĠÐļ Ð°Ðº
Ġwor d
ĠÐ· Ð°Ð¼
Ð¿ Ð¾Ð¼
Ġm u
Ġbe t
Ġ F
ÑĢ Ñı
Ġth an
Ġbeg an
ÑĤ Ðµ
Ð¾Ð² Ð°Ð»
Ð¸Ð½ Ñı
Ġkn ew
Ġch ild
Ġha pp
ĠÐ¸ ÑģÐ¿
Ġaf ter
ak ing
ĠÐŃ ÑĤÐ¾
ĠÐ½ ÐµÐ¿
Ġo ld
ĠÑģÐ» Ð¾Ð²
ĠÐ¿Ð¾Ð» Ð¾Ð¶
.. .'
Ð¾Ð»ÑĮ ÐºÐ¾
ÐµÑĢ Ð¶
ÑĢ Ð°Ð·
ÐµÑĢ Ð´
ÑĪÐ¸ ÑģÑĮ
ar s
ĠÐĺÐ² Ð°Ð½Ð¾Ð²
Ð» Ñİ
en ce
Ġg ood
k a
Ñĭ ÑĤ
Ġg et
Ġl et
ĠÐ¿Ð¾ Ð½Ð¸Ð¼
ĠÐ¿Ð¾ Ñĩ
m b
an g
ĠÐ¾Ñģ Ð¾Ð±
Ð¾ Ñİ
Ġsa me
Ð½ Ð¾Ð²
Ð³ Ð¾Ð²Ð¾ÑĢ
ĠÐµ ÑģÑĤÑĮ
pe ct
ĠÐ²ÑĢÐµÐ¼ Ñı
a ir
Ġg r
Ġa way
Ġw ay
Ð½ Ñĩ
Ġt w
Ð¼ Ð¸
ÑĪ ÐµÐ»
f t
Ġw om
at h
Ġd ay
Ñģ Ð¼
ĠÐ¿ Ð¾Ð²
ĠÑ Ĩ
Ġst ill
Ð½Ñĥ Ñİ
Ġunderst and
Ġ (
Ġbec ause
ĠÐ¿Ð¾ Ð½Ñı
Ð¸Ð»Ð° ÑģÑĮ
Ġbr other
ĠÐ¿Ð¾ÑĤ Ð¾Ð¼Ñĥ
ĠÐ ĵ
Ðµ ÑģÐº
Ġne w
ĠÐ³Ð¾Ð²Ð¾ÑĢ Ð¸Ð»
ĠÐ ł
ĠÐ¿ÑĢ Ð°Ð²
Ð¸Ð² ÑĪ
ĠÐ½ Ð¸Ð¼
ÑģÑĤÐ² Ð¾
Ġsm ile
ĠÐ¼Ð¾Ð¶ ÐµÑĤ
Ġ en
ĠÐ¸ Ð»Ð¸
ĠÐ±ÑĥÐ´ ÐµÑĤ
Ñĭ ÑĪ
Ġh us
ĠÐ´ Ð¾Ð»Ð¶
a ve
ĠÐ½Ðµ Ðµ
a b
ĠÐ½ Ð¾Ð²
Ñĩ Ð°Ñģ
Ġmu ch
b and
Ñĥ Ñħ
ĠÐ½ ÐµÐ²
Ġd es
ĠÐ¾Ð¿ ÑıÑĤÑĮ
ĠÐ½Ð° Ñĩ
t ing
Ġhus band
Ð° ÑĪ
ĠÐ¿ Ð¾ÑĢ
Ġc ame
Ġp art
Ġre m
Ð°Ð· ÑĭÐ²
ĠÐ¾ÑĤÐ² ÐµÑĩ
E R
c ed
is hed
Ð°Ð»Ð° ÑģÑĮ
Ġ ent
Ðµ Ñİ
ĠÐ² ÐµÑģ
Ð½Ð¾ ÑģÑĤÐ¸
u d
re e
h y
Ġ X
Ð» ÐµÐ½
e p
ĠÐ± ÐµÐ·
ĠÐ´ Ð¾Ð¼
n g
ĠÐµ ÑģÐ»Ð¸
Ġnot hing
ÐµÐ½Ð¸ Ð¸
a v
ĠÐ± Ð»
Ð½Ð¾ ÑģÑĤÑĮ
Ġg re
ÑĢ Ð¾Ð´
way s
Ð½Ð¸ Ðº
Ġ R
a ge
Ġt alk
ĠÑģÑĤ ÑĢ
if f
Ð¸ÑĤÑĮ ÑģÑı
ssi ble
n e
Ġh or
ĠÐ§ ÑĤÐ¾
ic k
Ġne ver
Ġsu ch
i z
s w
ĠÐ¿ÑĢ Ð¾Ñģ
ĠÐ½Ð°Ð´ Ð¾
Ð´ Ñı
Ġr ight
it ion
Ġher self
i v
i ous
Ġo wn
Ġp r
Ġan sw
Ġfir st
he v
Ġm ade
Ġat t
Ġgo ing
i es
ĠÐ± ÑĢÐ°ÑĤ
ÐµÐ³ Ð´Ð°
Ġth ose
i re
ĠÑĢ ÐµÑĪ
ĠÐĶ Ð¾Ð»
ĠPrin cess
as ant
Ð½Ð¸ Ðµ
Ġhe ad
Ġlook ed
ĠÑĢÑĥ ÐºÑĥ
ÑĢ Ð°Ñģ
ĠÐ½ ÑĥÐ¶
ĠÑĤÐ¾ ÑĤ
ul t
itt le
Ġb ack
Ġsee med
W ell
ĠÐĿ ÐµÑĤ
Ġp ut
ĠÐ¡ÐµÑĢ Ð³
ÑĢ ÐµÐ´
Ð¸Ð½ Ñĥ
ĠÐ³Ð¾ Ð»Ð¾Ð²
Ġal ways
Ġevery thing
Ġw ell
Ġf ri
Ġl ittle
Ð¸ Ð¸
Ð¾Ð¿ ÑĢÐ¾Ñģ
ĠÐĶÐ¾Ð» Ð»Ð¸
m an
ĠÐ £
Ð¾ ÑģÑĤ
Ð° Ñĩ
Ġt ell
ĠÐº Ð¾Ð¼
a it
ver s
a ct
om ent
Ġm oment
ÑĨ Ð°
ĠÐ²Ñģ ÐµÐ³Ð´Ð°
ĠÑģÐ¿ ÑĢÐ¾Ñģ
Ġhe re
ĠÐºÐ¾ÑĤÐ¾ÑĢ ÑĭÐµ
n er
ĠÐ¼ Ð¸Ð½
ent ly
Ġwhe re
ĠÐ¾ÑģÐ¾Ð± ÐµÐ½Ð½Ð¾
ĠÐ² Ð´
ĠÐ² Ð¿
Ġh o
ĠÑĢÐ°Ð· Ð³Ð¾Ð²Ð¾ÑĢ
a z
Ñģ Ðµ
ĠÐ· Ð°Ð±
Ġm at
Ġha ving
n y
Ð¸ Ð¶
ĠÑĤ ÑĢ
ĠÐ½Ðµ ÑĤ
B ut
o ple
Ġo p
Ð½Ðµ Ðµ
ou se
ÐµÑĢ ÑĪ
Ġw r
Ġro om
ĠÐ³ ÑĢÐ°
ÑĨ Ñĥ
ĠÑįÑĤ Ð¾Ð¼
Ġre p
Ð»Ð° ÑģÑĮ
ĠÐºÐ¾ÑĤÐ¾ ÑĢÐ¾
Ġexp ress
Ġs at
Ġpe ople
Ġtw o
are d
ĠÐ³Ð¾ Ð»
ĠÐ¼Ð¸Ð½ ÑĥÑĤ
T he
n ing
ĠÑįÑĤ Ð¸
c l
Ð½ ÑĮ
Ġth r
Ġre c
Ġfor g
Ð½Ñĥ Ð²
Ġto ward
Ġc ar
Ġf l
ĠÐ¿ÑĢ Ð¾Ð´
ÐµÐ½Ð¸ ÐµÐ¼
ÑģÑĤÐ² Ð°
ÑĤÐ¾ Ñı
Ġp ass
ĠÐ¿ÑĢ ÐµÐ¶
ĠÐ¾ÑĤ Ðº
Ġqu est
an ge
ĠÐĽÐµÐ² Ð¸Ð½Ð°
Ġwor k
Ġa d
ĠÑģÐºÐ°Ð· Ð°ÑĤÑĮ
W hat
Ġre l
ĠÑģÐ²Ð¾ Ñİ
Ðµ Ñī
Ġa pp
ĠÐ¿ Ð¾Ð·
ĠÐ² Ð°Ñģ
ĠÐ· Ð°Ð¿
Ð¾Ð¶ Ðµ
ĠÐ²Ñĭ ÑĢÐ°Ð¶
Ġlook ing
l ed
Ġon ce
I I
T ER
Ġsm il
ĠÐĺÐ²Ð°Ð½Ð¾Ð² Ð¸Ñĩ
ĠÐ Ĺ
Ġa dd
Ðº Ð¾Ð¼
Ġre s
ĠÐ±Ð¾Ð»ÑĮ ÑĪÐµ
ĠÐ±Ð¾Ð» ÐµÐµ
Ð°Ð½Ð¸ Ñı
H A
u e
ĠÑģ ÑĩÐ°
ĠÐĿ Ðµ
Ð¾ÑĪ ÐµÐ»
ĠÑģÐ¼ Ð¾ÑĤÑĢ
ĠÐ²Ñģ Ð¿Ð¾Ð¼
ĠÐ»Ð¸ÑĨ Ð¾
Ġword s
ĠÐ² Ð¾Ð¿ÑĢÐ¾Ñģ
ÑģÐº Ð¸Ð¹
ĠÐºÐ¾ÑĤÐ¾ÑĢ ÑĭÐ¹
ÑĤ ÐµÑĢ
Ġhe ard
Ġe v
Ð¸Ð² Ð°Ñı
Ġ You
Ð¸ ÑĪ
ĠÐ¸ Ð½
is s
Ð°Ð»Ð¸ ÑģÑĮ
O h
ÑĢ Ð¾Ð¼
Ġh ouse
ot h
ÑĢÑĥ Ð´
ĠÐ¢ Ñĭ
ĠÐ·Ð½Ð° Ñİ
Ġcons id
o z
Ð½Ð¾ Ñİ
Ġany thing
Ġtoo k
Ñı Ð·
Ġs c
Ġc le
ÑĭÐ¼ Ð¸
ĠÐ²Ð´ ÑĢÑĥÐ³
l ov
ĠÐº Ð°Ð¶
Ġp er
ĠÑģÐ¾Ð² ÐµÑĢÑĪ
ĠÐ´ÐµÐ» Ð¾
ĠÐ² Ð¾Ñģ
ĠÐ¿ÐµÑĢ Ð²
" ,
at her
ro om
Ð¸Ð»Ð¾ ÑģÑĮ
t ed
ĠÐ´ ÐµÑĤ
Ġy et
ĠÑģÐ²Ð¾ ÐµÐ¹
ĠÑĢÐ°Ð· Ð²
Ġan other
ÑĢÐ° ÑĪ
ÑĥÐ´ ÑĮ
Ġle ft
ĠÐ» ÑĥÑĩ
ĠÑįÑĤÐ¾ ÑĤ
Ġa p
ĠÐ¿ÑĢ Ð¸Ð²
Ð· Ñı
Ð¾ÑĤ Ð¸Ð²
ĠÐ·Ð½ Ð°Ð»
ĠÐ½ ÐµÐ´
ĠÑĩ Ð°Ñģ
Ġwh ile
Ð¾Ð· Ñı
h a
le x
ĠÐ¶ ÐµÐ»
ow ed
Ġc all
ĠÑħ Ð¾Ñĩ
Ġsh all
Ġbe l
Ñĥ ÑģÑĤ
Ð°Ð· Ð°Ð»Ð¾ÑģÑĮ
Ġwh om
s hev
ĠÐ² ÑģÑĤÑĢ
Ġd iff
ĠK oz
ny shev
HA P
ĠKoz nyshev
ĠÐ´ ÐµÐ½ÑĮ
ĠW hen
ĠÐ¾Ð´ Ð¸Ð½
ĠÐºÑĢ Ð°Ñģ
HAP TER
u p
in ess
Ġto ld
ÐµÑĢ Ð¸
ĠC HAPTER
ĠÐ¶ÐµÐ½ Ñī
ĠÐ¶Ð¸Ð· Ð½Ð¸
ÑĢ Ñĭ
Ġhe l
ĠÐ· Ð°Ðº
Ð°Ð² Ð½Ð¾
Ð°Ð¶ Ðµ
Ġfeel ing
ÑģÐ¼ Ð¾ÑĤÑĢ
Ñı Ð»
Ñĭ Ñĩ
Ġm other
Ġre pl
! --
ĠÐ´ ÐµÐ»Ð°
" .
Ġhand s
ĠÑĥÐ² Ð¸Ð´
Ġchild ren
Ġthe se
ar ly
Ġit s
ere st
Ġk ind
ĠÐ»Ñİ Ð´
ull y
me mb
o nd
Ġbe ing
Ġme an
ĠÐºÐ¾ÑĤÐ¾ÑĢÐ¾ Ðµ
N o
ĠÑħ Ð¾Ð·Ñı
dd en
ĠÐºÐ½Ñı Ð³
ĠÐ² Ð¾Ð»
ĠÐ· Ð°Ð²
Ġre t
Ġint erest
ĠÐ±Ð¾Ð»ÑĮ ÑĪ
Ġf e
ÐµÑģÑĤ Ðµ
I t
ÑģÑĤ ÑĢÐ¾
ĠÐ´ Ð¾Ðº
ĠÑĢ Ð°Ð±
ĠT h
ain ed
Ġdo or
Ġv o
p er
t y
Ð¸Ð½ Ñĭ
ĠÐ³Ð¾Ð²Ð¾ÑĢ Ð¸ÑĤÑĮ
Ġs er
ation s
ĠÐ¿ÑĢÐ¾Ð´ Ð¾Ð»Ð¶
o ot
Ð» Ðµ
ĠÐ² Ð¼
Ġst o
Ġthou gh
re ady
Ġha r
Ġwho le
Ð½ÑĭÐ¼ Ð¸
Ð°Ð½Ð¸ Ðµ
Ġhel p
is e
Ð¾Ð² Ð¾Ð»ÑĮ
ĠÐ¼ Ð¾
ĠÑĥ Ð·
Ġre memb
ÑĨ Ðµ
Ð°ÑĤ ÐµÐ»ÑĮ
ĠÐ¼Ð¾Ð³ Ñĥ
Ðº Ð¾Ð²
ĠÐº Ð°ÑĢ
Ġm ight
Ġyou ng
ĠÐĴ Ñĭ
ĠÐ¿ÑĢÐ¸ ÐµÑħ
Ġwom an
ĠÐ³Ð¾Ð» Ð¾Ñģ
ĠÐº Ð¾ÑĢ
ĠÐĶ Ð°ÑĢ
Ġcon vers
Ġal ready
Ġpe asant
w e
ÐµÑĢ Ð±
an c
Ð°Ðº Ð¾Ð¼
ĠI n
ĠÑħÐ¾ÑĤ ÐµÐ»
Ġrepl ied
ĠÑĤ Ð²
Ð¾Ðº Ð¾Ð¹
ĠÐ¡ÐµÑĢÐ³ ÐµÐ¹
Ġfri end
u al
Ġm ind
ĠThe y
ĠÐ½Ð¸Ðº Ð¾Ð³Ð´Ð°
Ð½ÑĥÐ» ÑģÑı
ĠÑĤÐµÐ± Ñı
Ð¾ ÑģÑĤÑĮ
Ð² Ð¸
ĠÐ³ Ð»Ñı
Ġr ound
Ñĩ Ð¸ÑĤ
Ġo ur
er ing
ĠÐ´ Ð¾Ð±
ro v
ĠÐŁ ÐµÑĤ
ĠP et
ĠÑĥÐ¶ Ð°Ñģ
ĠÐ²Ð¸Ð´ ÐµÐ»
Ġmat ter
Ð° ÑģÐº
ĠÑģ Ð¸Ð»
ar m
ĠA lex
ÐµÐ»ÑĮ Ð·Ñı
ĠÐ¿Ð¾ÑģÐ» Ðµ
Ð½Ð¾ ÑĪ
ÑģÑĤÐ² ÐµÐ½
Ġor d
Ġbet ter
r ow
Ñĥ Ð³
Ñĩ Ð¸Ðº
Ġwh y
ÑĨ Ñĭ
ĠÐ²ÑģÐµ Ñħ
s o
t e
ĠÑģ ÐµÑĢÐ´
Ġd one
Ġin d
ĠÐĴ ÑģÐµ
ÑĢÐ° Ñī
ĠÑĩÑĥÐ²ÑģÑĤÐ² Ð¾Ð²Ð°Ð»
od y
n ot
Ñı Ð¶
ĠÐ½ ÐµÐ¼
Ġquest ion
ĠÐ½Ð° Ñģ
ĠÐ½ÑĥÐ¶ Ð½Ð¾
dden ly
Ðµ ÑģÑı
Ðº Ð°Ð¼Ð¸
ÑģÑĤ ÑĥÐ¿
Ġm ar
ĠÑĥ Ð±
ĠÐ¿Ð¾ Ñģ
pp ed
ĠÑħÐ¾ÑĢÐ¾ÑĪ Ð¾
ĠÐ¾ÑģÑĤ Ð°Ð½Ð¾Ð²
a w
f ully
ĠÐ´ Ð°Ð¶Ðµ
ĠÐ³ Ð´Ðµ
ov ed
ĠC ount
ĠÑĤÐ¾ÑĤ ÑĩÐ°Ñģ
Ð½ Ñİ
Ġw ait
ĠÐ¾ Ð¶
ĠÐĴÑĢÐ¾Ð½ÑģÐº Ð¾Ð³Ð¾
Ð± ÑĥÐ´ÑĮ
ÐµÑĤ Ð°
ĠW hat
Ġret urn
ÑĤ Ð¾Ð²
Ð½Ð¸ Ð±ÑĥÐ´ÑĮ
Ð¸Ñĩ ÐµÑģÐº
ĠÐ²Ñĭ Ñģ
ĠÐ± ÐµÑģ
ĠÐ½Ðµ Ñģ
Ð¸Ð»Ð¸ ÑģÑĮ
ĠÐ³Ð»Ð°Ð· Ð°
ĠÑĤÐµÐ± Ðµ
i red
s h
Ð¼ Ð¾
Ġth ing
ÐµÑĢ Ð°
ry ing
or d
ow ing
ig n
Ġcont in
Ġac c
ĠÐ¼Ð¾Ð» Ð¾Ð´
A nd
ĠÑĩ ÐµÑĢ
Ġd ra
Ġl ast
Ð°Ð½ ÑĤ
ĠÑģÐ²Ð¾ ÐµÐ³Ð¾
Ġpo s
Ġpre s
ĠÐ¶Ð¸Ð· Ð½ÑĮ
ĠÐ³ÑĢÐ° ÑĦ
i k
ĠÐ» Ð¾ÑĪ
Ġap pe
Ñı Ñģ
ĠÑģÐ²Ð¾ Ðµ
ĠÐ¼Ð¾Ð³ Ð»Ð°
Ġconvers ation
ĠÐ² Ð¾ÑĤ
ĠÐº Ð¾Ð»
ĠÐ¼ Ð°Ð»
Ġre ad
Ġas k
ÐµÐ¶ Ð´Ñĥ
Ġthr ough
ÑĤÐµÑĢ ÐµÑģ
m s
ĠÐ½ ÐµÐ»ÑĮÐ·Ñı
Ð¸Ð½ Ðµ
ĠÑģÑĤÐ¾ ÑĢÐ¾
Ġturn ed
ĠÐ¿ÑĢÐµÐ¶ Ð´Ðµ
Ð¼ Ð¾Ð¶
Ġf ind
ĠÐ´ Ð°
ĠÐĴ Ð°ÑĢ
Ġex pect
Ð¸ÑĪ ÑĮ
v i
Ġa ct
Ġd re
ĠÐ¶ Ð¸Ð²
ÑģÑĤÐ°Ð² Ð»Ñı
Ð½ ÐµÐ¹
ĠÑģ Ñĭ
ĠÐ´ ÐµÐ²
ĠÑĩ ÐµÐ³Ð¾
Ġd ress
ĠÐŀ Ð±
Ġde c
ĠÐ¾ Ðº
Ġd in
ĠÐĿ Ð¸Ðº
in ce
ĠÐ² Ð°Ð¼
Ġcon f
ĠÐ»ÑĥÑĩ ÑĪÐµ
Ð¾ ÑģÑĤÐ¸
Ġf am
ĠÐ± Ð¾Ð³
ĠÐ´ Ð¾Ð»
ĠÑĥ Ð¿
ic t
ĠÐ¢ Ð°Ðº
ĠÐ´ÑĥÐ¼ Ð°Ð»
ĠÐ³Ð»Ñı Ð´Ñı
Ñı Ð²
Ġo b
Ġc al
Ġth ings
ÐµÐ¹ ÑģÑĤÐ²
Ġsu ddenly
ÑĤ Ñĥ
Ð² Ðµ
Ġhe art
Ġp ain
c c
e ver
ĠÐ½ Ñĭ
Ġm et
Ġm ake
Ġd ist
Ġl ist
Ġin v
ĠÐ· Ð²
Ġre f
Ġal one
Ġj oy
Ð°Ñİ ÑĤ
Ġcan not
ĠÐ¿ Ð¾Ð¶
ĠÐ´ ÑĥÑĪ
ÑģÐº Ð¾Ð»ÑĮÐºÐ¾
ĠÐ¿Ð¾Ð´ ÑĥÐ¼
Ġvo ice
Ġpos ition
Ð¾ÑĢ Ð¾Ð²
ĠÐ¶ Ð°Ð»
ĠÐĴ Ð¾ÑĤ
ĠÐļ Ð¾Ð³Ð´Ð°
ĠS o
ĠÐ³Ð¾Ð²Ð¾ÑĢ Ð¸Ð»Ð°
a il
Ð¸ ÑģÑĮ
Ġt ake
ĠÐ¾ÑĤ Ð½Ð¾ÑĪ
ĠÐ²Ñģ ÐµÐ¼
Ð°Ñİ Ñī
ĠÐ¿Ð¾ÑģÐ» ÐµÐ´
Ġev id
Ġc are
Ġal so
ĠÐ¾ÑĤÐ²ÐµÑĩ Ð°Ð»
ÑĢ ÑĭÐ²
Ġs l
Ġe l
ĠÐ¿ÑĢÐ¸ Ð±
ĠÐ±ÑĥÐ´ ÑĤÐ¾
ĠÐ²Ð·Ð³Ð»Ñı Ð´
r u
Ñı Ñī
ĠÐ½ ÐµÐ¼Ñĥ
ĠÐ² ÑģÑı
is ed
as e
ÑĢÑĥ Ð¶
ĠÐ¾Ð± ÐµÐ´
au ght
Ð¾Ð³ Ð¾Ð²Ð¾ÑĢ
ĠÑģÐ¿ Ð¾ÐºÐ¾Ð¹
p s
Ġm ost
ĠÐ¼ ÐµÐ¶Ð´Ñĥ
Ð½Ð¸ Ñı
ent ion
ri age
Ġme et
ĠÑģÐ» ÑĭÑĪ
ĠÐºÐ¾ÑĤÐ¾ÑĢ Ð°Ñı
ĠÑģ Ð¾Ñģ
Ġb oth
ÑĪ Ð»Ð°
ĠÐ· Ð°Ð´
ÐµÐ½Ð½Ð¾ Ðµ
ĠÑĥÐ»ÑĭÐ± ÐºÐ¾Ð¹
ĠÐ²Ð¼ ÐµÑģÑĤÐµ
Ð° Ð½Ð°
at ing
ĠÐ´ Ð¾ÑĢ
ĠÑģÐ²Ð¾ Ð¸
ĠÑĥÐ»ÑĭÐ± Ð°ÑıÑģÑĮ
ĠX X
ĠÐºÐ¾Ð¼ Ð½Ð°
ĠÐ¸Ð½ ÑĤÐµÑĢÐµÑģ
he s
Ġw at
ci ally
Ġimp o
d ay
l ess
v an
Ð» Ð°Ð´
ÑĮ Ðµ
ou ght
ĠÑĤ Ð¾Ð¶Ðµ
ĠÑĥ ÑģÐ¿
ĠÑģÑĤ Ð°Ð»
ĠÐ»ÑİÐ± Ð¾Ð²
ĠÐ¿Ð¾ÑĤ Ð¾Ð¼
a ving
ĠÑĤ Ñĥ
ĠÑĥ ÑĤ
Ġansw ered
ĠÑħÐ¾Ð·Ñı Ð¹
Ġs il
Ð¸Ð´ Ð½Ð¾
Ð¾Ðº Ð¾
ĠÐ¾Ð´ Ð½Ð¾
os c
ĠÑģÐ¾Ð²ÐµÑĢÑĪ ÐµÐ½Ð½Ð¾
Ġ es
re t
Ġc he
ÐµÑĢ ÐµÐ²
Ġe nd
Ġg u
Ġwant ed
osc ow
in ed
Ñĭ Ðº
Ġm en
et y
ĠÐ¾Ð± ÑĬ
us ed
ĠÐĽÐµÐ²Ð¸Ð½ Ñĥ
ĠM oscow
ate ly
Ð½ Ð¾Ð¼Ñĥ
ÐµÑĢ ÐµÐ´
ct or
ĠR u
Ġcontin u
t en
Ñı Ð´
Ġh ome
Ġp ers
Ġg ive
Ġnot ic
Ġre g
ÑĢÑĥ Ñİ
ĠÐ¿ÑĢÐ¸ ÑıÑĤ
ĠÑįÑĤ Ð¸Ð¼
Ġsu b
ĠO n
ĠÑģÐ»Ð¾Ð² Ð°
Ġgre at
er t
ĠI van
ce pt
ĠT hat
ĠThe re
ĠPrin ce
id ed
Ġre ally
ĠÐ¡ Ð²
Ġsp o
Ñĩ Ð½Ð¾
ĠÐº Ð°Ð·Ð°Ð»Ð¾ÑģÑĮ
Ð¾Ð² Ð°ÑĢ
Ġm or
ĠÑĤ ÑĥÑĤ
Ġg ot
Ġspe ak
in t
Ġs im
ĠÐ½ Ð°Ð¼
ĠÐ¾ ÑģÑĤÐ°Ð²
ĠÐ¸ ÑģÐº
ĠÐ· Ð°Ð³
Ð¸Ð½ Ð¾Ð²
ÑģÐº Ð¾Ð³Ð¾
ĠÑįÑĤ Ñĥ
Ð¾ ÑģÐº
Ġm ay
ĠÑĤ Ðµ
Ð¾Ð¼ Ð½
ĠÐ³ ÑĥÐ±
ÑĥÐ¶ Ð´
Ġaf f
Ġimpo ssible
ÑĮ Ñİ
Ġs on
Ġs et
ĠÐµ Ñħ
ĠÑģÐ» ÑĥÑĪ
Ġdo es
Ġpo ssible
ĠÐ´ÐµÐ» Ð°ÑĤÑĮ
ĠÐ¾Ñĩ ÐµÐ²
ĠÐ¸ÑģÐ¿ ÑĭÑĤ
ĠRu ssi
H E
Ñı ÑģÑĮ
ÑģÐº Ð¾Ð¹
ĠÐ¿ÐµÑĢ ÐµÐ´
Ġimp ort
i gh
ÑĢ Ð°Ð½
Ġw ish
Ġs ide
ĠÐ½ Ð¾Ð³
ÐµÐ½ Ð°
Ġc our
Ġc ount
ĠÐ¼ ÑĥÑĩ
ar k
ĠÑģÐ²Ð¾ Ð¸Ð¼
ÑĢÐ¸ ÑıÑĤ
ÑģÑĤ Ð»Ð¸Ð²
Ġg i
ee p
ÐµÐ· Ð´
Ð½Ñĩ Ðµ
ĠÑģÐ¿ÑĢÐ¾Ñģ Ð¸Ð»
Ġadd ed
m er
u c
Ðº Ð¸Ð¹
is ter
Ñħ Ð¾ÑĤ
Ð½Ð° Ñĩ
ĠÐ¼ Ð°ÑĤ
ĠÐ¿ÑĢ Ð¾ÑĪ
Ġin st
Ġin ter
Ð°Ðº Ð¸
ĠÐ» ÐµÐ³
ĠÐĿ Ð°
ĠÐºÐ¾ Ð½
ĠÐ¼Ð¾Ð¶ Ð½Ð¾
Ġexpress ion
ĠCount ess
Ð» Ð°Ñģ
Ġt re
ĠÐ½ Ð°Ð·
Ġf in
ĠÐ¿ÑĢ Ð¾ÑĤÐ¸Ð²
ak en
ĠÑħÐ¾ÑĤ ÐµÐ»Ð°
ĠÐ·Ð°Ð¼ ÐµÑĤ
Ġw ished
Ð¾Ð² Ð°Ð»Ð°
ĠÐ´ ÐµÑĢÐµÐ²
ĠÐ¿ÑĢ ÐµÐº
Ġy es
Ġde l
ĠÐ¿Ð¾Ð» ÑĥÑĩ
aren ka
w ing
Ġt er
Ġs ou
ĠÐ½ Ð°Ð²
Ġb re
ĠÐ±Ñĭ Ð²
Ġr ose
ĠÑı Ñģ
ĠH is
ĠÐ½Ð¸Ðº Ð°Ðº
H ow
m or
Ġt able
ĠÑģ Ð¸Ð´
ou d
Ġf oll
ĠÐ¼ Ð½Ð¾Ð³Ð¾
ĠÑĥ ÑģÐ»
ĠÐŀ ÑĤ
ĠÐºÐ¾ Ð½Ñĩ
ĠÐ¾Ð± ÑĢÐ°ÑĤ
ÐµÐ· Ð¶
Ġso on
ĠÐ¼ÑĥÐ¶ Ð¸Ðº
Ġt ried
ĠÐ² ÐµÐ»
Ð² ÐµÑĢ
Ð´ ÐµÑĤ
en s
Ġy e
ĠÐ¿ÑĢÐ¸ Ð·
ĠÐºÐ¾ÑĤÐ¾ÑĢ Ð¾Ð¹
ĠÑĢÐ°Ñģ ÑģÐº
ĠÐĴÐ°ÑĢ ÐµÐ½ÑĮ
j ect
he re
ÐµÐ½Ð¸ Ñİ
ĠS t
ÐµÑģ ÑĤÐ¾
us hed
ĠÐºÐ¾ÑĤÐ¾ÑĢ Ð¾Ð³Ð¾
Ġturn ing
ĠÐºÐ°Ð¶ Ð´
we en
ĠÐ¾ÑĩÐµÐ² Ð¸Ð´Ð½Ð¾
i al
ĠÑģ ÐµÐ¼
ĠÐ¿ Ð¾Ð¹
Ġo cc
Ð°Ð» Ñĥ
Ġf re
Ġf ell
Ġf ound
ĠÐ· Ð°ÑĤ
Ġg ir
ĠÐ²Ñģ ÐµÐ³Ð¾
ere nt
Ð¸Ð¼ Ð¾
Ġsu ff
ac hed
ĠÐĲÐ»ÐµÐºÑģÐ°Ð½Ð´ÑĢÐ¾Ð² Ð½Ð°
ĠÑĩÑĥÐ²ÑģÑĤÐ² Ð¾
) ,
b ody
g et
Ġ .
ĠÑĤ ÑıÐ¶
Ġl ight
Ġre al
ÐµÐ´ ÑĮ
ĠH ow
ĠÑįÑĤ Ð°
ĠÑħÐ¾ÑĤ Ñı
v es
Ð° ÐµÐ¼
Ñģ ÐµÐ¼
Ñĥ ÑģÐº
Ġs ur
ĠÐ¾ Ð³Ð»Ñı
Ð² Ð¾ÑĢ
it her
ÐµÐ½ Ð¾
Ġg ave
Ġdo ctor
ĠV arenka
ĠÐķ ÑģÐ»Ð¸
ĠÑĢÐ°Ð± Ð¾ÑĤ
Ġa w
ÑģÑĤ Ð°
or m
Ð¾Ð» Ð¾Ð´
ar ing
ĠÐ· Ð°Ñģ
Ð½Ñĥ Ð»Ð°
ĠÑģÐ» ÑĥÑĩ
ĠÐ²Ð¸Ð´ ÐµÑĤÑĮ
ĠÐ·Ð½ Ð°ÐºÐ¾Ð¼
ĠÑĥÐ´ Ð¸Ð²
ĠÐ³Ð¾Ð»Ð¾Ð² Ñĥ
c hed
e m
Ð¸ Ð³
ĠÐ¿ Ð¾Ð¿
en er
ĠÑĤ Ð¾Ð¼Ñĥ
an k
Ġwhe ther
ĠÑĢÑĥ ÐºÐ¸
Ġpl ace
Ġunderst ood
ĠÑģÐ´ÐµÐ» Ð°ÑĤÑĮ
Ġbet ween
ĠÐł Ð°Ð·
ĠÐĶÐ°ÑĢ ÑĮÑı
Ġevid ently
Ðµ ÑĨ
Ð» Ð¸Ñĩ
Ġb us
is f
Ġm er
Ġd r
ĠÑĤ ÑĢÑĥÐ´
ic al
Ð¸ÑĤ ÑģÑı
ĠÑģÐº Ð°Ð¶
Ġst ood
Ġne ed
ĠÐ´ÑĢÑĥÐ³ Ð¾Ð¹
Ġsay ing
' ll
W hy
Ġ ir
Ð´ ÑĭÐ²
ĠÐ¿ÑĢ Ð¸Ð´
ĠÑĥ Ñģ
Ð· ÑĮ
ĠÑģÐ² Ð¾Ð¹
ĠÐľ Ð¸Ñħ
Ġv is
Ġent ered
a ut
Ñģ Ð¸
ĠÑĤ Ð°Ð¼
et s
ĠA t
ĠÐ·Ð½Ð° Ñĩ
Ġco nd
ĠÐ¼Ð¸Ð½ÑĥÑĤ Ñĥ
Ġapp ro
Ġbel ie
Ñĥ Ð´Ð°
ĠÐ½ Ð¸Ñħ
ĠÐ¿ Ð¸ÑģÑĮ
Ġst ep
ĠÐ³Ð¾ ÑĢ
ĠÐºÐ¾ÑĤÐ¾ ÑĢÑĥÑİ
Ġhar d
Ġgir l
Ðµ ÑģÑĤÑĮ
Ġs ister
Ġb o
ĠÑĢ ÐµÐ±
ĠÐ¾ÑĤ Ñĩ
ĠÐ¾ÑĤ Ð´
pe cially
ĠÑĢÐ°Ð· Ð´
ĠÐ¼Ñĭ Ñģ
Ġgl ad
Ġsmil ing
Ð¸ Ð½Ð¸
Ġb es
ÑĤÑĮ ÑģÑı
ĠÑĥ Ðº
Ð³ Ð¸
ic ult
ĠÑħ Ð¾Ð´
ĠÐ¾Ð± ÑīÐµ
Ġqu ick
ĠÐ¼Ñĭ ÑģÐ»Ð¸
Ġpleas ed
ĠÐ²ÐµÑģ ÐµÐ»Ð¾
o p
ĠÐ² ÑģÑĤ
Ġh ur
ĠÐ´ ÑĥÑĢ
ĠÐ³Ð¾ ÑģÑĤ
Ġcom p
ĠÑĢÐ°Ñģ Ð¿
cess ary
ĠÑģÐ¾Ð² ÑģÐµÐ¼
ĠG od
ĠÐ½ÐµÐ¿ ÑĢÐ¸ÑıÑĤ
ang ed
Ġsou l
h sky
r it
Ð°Ð ³Ð¾
Ġth ree
ĠÑĤ ÐµÑħ
Ġin f
Ġwom en
ĠÐ½Ð° ÑħÐ¾Ð´
ĠÐľ Ð¾ÑģÐº
Ġmy self
Ð¸Ñı Ð¶
Ð°ÐµÑĤ ÑģÑı
Ġpleas ure
Ġdes p
ĠÐ´Ð¾Ðº ÑĤÐ¾ÑĢ
ĠÐ¿ÑĢÐ¸Ð± Ð°Ð²
Ñı Ð³
ĠÐ´ ÐµÐ¹ÑģÑĤÐ²
ĠÑģÐ² ÐµÑĤ
Ð»Ð¸ ÑģÑĮ
ĠÐ´Ð² Ð°
ĠÐºÐ½ÑıÐ³ Ð¸Ð½Ñı
ĠÐ¡Ð² Ð¸ÑıÐ¶
Ð´ Ð¾ÑĢÐ¾Ð²
ic ul
Ð¸Ð² Ð°Ð»
Ġan g
Ġli ve
ĠÐ¿ÑĢÐ¾ ÑģÑĤ
ĠÐ·Ð½ Ð°Ð»Ð°
ĠÐ¿Ð¾Ð² ÑĤÐ¾ÑĢ
v in
y az
Ġt rying
en ing
Ġbe h
ĠS vi
ĠÑĩÐµÐ»Ð¾Ð²ÐµÐº Ð°
Ġdin ner
ĠÐ´Ð¾ÑĢ Ð¾Ð³
Ġes pecially
yaz hsky
ĠSvi yazhsky
u ck
Ġb ri
ÑĪ ÐµÐ³Ð¾
ĠÐ¿ÑĢ Ð¾Ð²
ĠÑĥ Ñĩ
ĠÐ· ÐµÐ¼
Ð¶ Ðµ
ÐµÐ½Ð¸ Ð¹
ĠÐŁ ÑĢ
ĠÑĪ Ð°Ð³
Ð»Ð¾ Ð½ÑģÐº
ĠÑĥÐ· Ð½
ĠÐĿÐ¸Ðº Ð¾Ð»
i p
Ġ Y
Ġb ad
as h
ĠÐ½Ðµ ÑģÐºÐ¾Ð»ÑĮÐºÐ¾
ÑģÐº Ð¾ÑĢ
Ġre pe
ĠÐŀ Ð½Ð¸
ĠÑįÑĤ Ð¾Ð¹
ĠÐ¿Ð¾Ð´ Ð½Ñı
Ġse en
ĠÐ´Ð¾Ð»Ð¶ ÐµÐ½
Ġcall ed
ĠÐŀÐ± Ð»Ð¾Ð½ÑģÐº
o ck
u nt
Ġ ve
ĠÐ ¥
ÑĤ ÑĢ
ĠÐ½Ðµ Ð¾Ð±
ÐºÐ° Ñħ
bl es
ĠÑģÐ°Ð¼ Ð°
Ġthought s
ÑĥÑĢ Ð³
ĠÐ¼ÑĥÐ¶ Ð°
b ur
ÑĪ Ð¸Ð¹
ĠÐĲÐ»ÐµÐºÑģ ÐµÑı
ĠÐ±ÑĥÐ´ Ñĥ
Ġbr ought
Ġbeg in
ment s
ie f
Ġcar riage
ĠÐ½Ñĭ Ð½ÑĩÐµ
s es
ĠÐ± ÐµÐ»
Ġl au
Ġin s
Ð½Ð¸ ÐºÐ°
Ð¸Ð² ÑĪÐ¸ÑģÑĮ
ĠÐļ Ð°ÑĢ
ĠÐļ Ð¾Ð½
ÑĭÐ² Ð°Ð»
ĠÐ´Ð² Ð¾ÑĢ
ĠÑĩÑĥÐ²ÑģÑĤÐ² Ñĥ
ĠÐľÐ¸Ñħ Ð°Ð¹
Ð» ÐµÐ½Ð¸Ðµ
ĠÑģ ÑĩÐ¸ÑĤ
ÐµÐ½ Ð½Ð¾Ð³Ð¾
ĠÐ¿ÑĢ Ð¸Ð½
ĠÐ²Ñĭ Ð¿
us h
ĠÐ´Ð² Ð¸Ð¶
ĠÐ¿ÑĢÐ¾ Ð¸Ð·
ĠÐ³Ð» Ð°Ð²
Ġhapp y
ĠÐ½ÐµÑģ ÑĩÐ°
! "
a id
g g
Ð° ÐµÑĪÑĮ
Ġl and
ĠÑĥ ÑģÑĤ
le ep
Ð¾Ð´ Ð°
Ġex c
Ġex pl
ĠTh is
Ðµ ÑģÑĮ
ÑĤ Ñĭ
on t
ĠÐ´ Ñĥ
ÑģÑĤÐ² Ð¸Ðµ
ĠÐ¾Ð± ÑĢÐ°Ð·
ac es
ci ety
ĠN o
Ġother s
air s
ĠÐ²ÐµÑģ ÐµÐ»
Ġtalk ing
iz ed
ÐµÑĢÐ± ÑĥÑĢÐ³
Ġcontinu ed
o g
Ġ ill
Ð° ÑĦ
Ð» ÑģÑı
ĠÐ² ÐµÑĩ
ĠÐ· Ð°Ð½
ĠÐ¶ ÐµÐ»Ð°
ĠÐ¸Ð· Ð²
ĠÑģÑĤÐ¾ Ð»
Ġcom m
ĠÐ¾ÑĤÐ² ÐµÑĤ
Ġbec ame
ĠÐ¿Ð¾Ð»Ð¾Ð¶ ÐµÐ½Ð¸Ðµ
Ġconsid er
H e
ÑĤ Ð°ÐºÐ¸
Ġs ince
Ñĩ ÐµÐ¼
ĠÐº ÑĤÐ¾
ow s
ĠC h
Ġse c
Ġco ld
Ġlong er
ĠÐ¡ÐµÑĢ ÐµÐ¶
ĠÑģÑĩÐ° ÑģÑĤÐ»Ð¸Ð²
Ġsto pped
i x
ĠÐ´ Ð°Ð²Ð½Ð¾
Ġst and
Ġne cessary
Ġde f
Ġho ld
ĠÐ»Ð¾ÑĪ Ð°Ð´
Ġnotic ed
ĠÐ¿ÑĢÐµÐº ÑĢÐ°Ñģ
get her
ĠÑĢÐµÐ± ÐµÐ½
bur g
i a
i ble
Ð» Ð¾Ð¶
Ð² Ð¾Ð´
ĠÐ´ ÐµÑĢÐ¶
Ġd iv
Ġn ur
or s
ent ed
ĠÐĲ Ñħ
ĠS er
ro ss
ain t
Ġcom ing
Ġthink ing
ĠÑģÐ¾Ð± Ð¾Ð¹
ĠÐ¿Ð¾Ñĩ ÑĥÐ²ÑģÑĤÐ²
ĠÐ´Ð¾Ð¼ Ð°
Ġpeasant s
Ġel se
Ġcour se
Ġcount ry
Ġbelie ve
Ġt aking
it ed
on st
Ġc or
Ġf ather
en se
ĠÑĥ Ð³
Ð½Ð¸ Ð¹
Ð°Ð½ Ð½Ð¾
Ġre ce
ĠÐŀ Ð´
ĠÐ¾Ð´ Ð½Ð°
ĠÐĲÐ½ Ð½Ñĭ
Ġansw er
ĠPet ers
ĠÑģÐ¾Ñģ ÑĤÐ¾Ñı
ĠÐµÑħ Ð°ÑĤÑĮ
I N
Ð Ŀ
id es
Ġe ver
ĠÐ¿Ð¾ ÑĪÐµÐ»
ÐµÐ¹ ÑĩÐ°Ñģ
ĠÑįÑĤ Ð¸Ñħ
il i
itt ing
ress ed
Ġar t
Ġoff ic
ĠÐ³Ð»Ð°Ð· Ð°Ð¼Ð¸
Ġlet ter
Ġop in
ĠÐ¾Ð±ÑĬ ÑıÑģ
ĠÐľÐ¸ÑħÐ°Ð¹ Ð»Ð¾Ð²
ÑĢ Ð¾Ð±
Ñĥ Ðº
Ġw on
Ġs ent
ĠÐ½ Ð°Ðº
Ġh um
ĠÐ¼ Ð½
Ġe ff
ĠÐ²Ñĭ ÑħÐ¾Ð´
il ity
ĠPeters burg
? "
l ing
ĠÐ ¤
ĠÑģ Ð¾Ð³
at t
Ð¾Ð² Ð°ÑĤÑĮ
ÐµÐ½ Ñĭ
Ġd et
ĠÐ½Ð° ÑĢÐ¾Ð´
Ġg ener
ĠÐĴ Ð°Ñģ
Ð½Ñĥ Ð»Ð°ÑģÑĮ
ĠÑģÐ²Ð¾ Ð¸Ñħ
ĠÐ¢ ÐµÐ¿ÐµÑĢÑĮ
Ġman y
um p
Ġappe ared
Ġfam ily
T hat
v o
er n
Ġf oot
es lov
ĠÐ¼ Ð¸Ð»
Ð¾Ð» Ð¾Ð¶
ow er
ĠT HE
ĠÐ²Ñĭ Ð±
ĠÑħ Ð¾Ð»Ð¾Ð´
ÐµÑħ Ð°Ð»
ĠÐĲÐ»ÐµÐºÑģÐ°Ð½Ð´ÑĢÐ¾Ð²Ð¸Ñĩ Ð°
Ġstr ange
ĠÐ²ÑģÑĤÑĢ ÐµÑĩ
ÑģÐ¼Ð¾ÑĤÑĢ Ñı
ert ain
eslov sky
Ðµ ÑģÑĤÐ¸
Ð¸ ÑĨ
at ure
ÐµÐ½ Ð½ÑĭÐ¹
Ġm ove
ÐµÐ» Ñı
Ñİ Ñī
ĠÐ½Ðµ ÑģÐ¼Ð¾ÑĤÑĢÑı
Ġbe aut
Ð½Ð¸ Ð²
ĠÑģÐ²Ð¾ ÐµÐ¼
Ġv i
ci al
ĠAlex and
Ġord er
aught er
Ñĥ Ñģ
ĠÐ² Ð½Ð¸Ð¼
Ð² Ð¾Ð»
it s
Ġb ed
ĠÐ½Ð° ÑĪ
Ð¸Ð½ Ð¾Ð¹
Ġre st
ĠÑįÑĤ Ð¾Ð¼Ñĥ
ĠV eslovsky
one y
Ġpass ed
Ġsmil ed
ĠÐ»ÑİÐ´ ÐµÐ¹
f ort
Ġ [
Ð¸ ÑĢÐ°
ĠÐ² Ð¾Ð´
ÑģÑĤ Ð°Ð½ÑĤ
ĠÐ± Ð»Ð¸
le ct
ur ing
ĠÑģÐ» ÑĥÐ¶
Ġsu pp
Ð´Ðµ ÑģÑĮ
ĠÐ´ÑĥÐ¼ Ð°ÑĤÑĮ
ĠÐ»Ð¸ÑĨ Ð°
Ġac qu
ĠÐ±ÑĢÐ°ÑĤ Ð°
Ġbeh ind
Ġt aken
ĠÐ¿ Ð¾Ð³
ĠÐ¿ Ð°ÑĢ
er y
as on
ĠÐ±Ñĭ ÑģÑĤÑĢÐ¾
ĠÐĴ ÐµÑģ
ĠÐĽ Ð¸Ð´
ĠÐ·Ð° Ð½Ð¸Ð¼
Ġqu i
Ġim ag
ci ous
ĠÐ¿Ð¾Ð½Ð¸Ð¼ Ð°Ñİ
Ġreturn ed
ĠÐ¼Ð°Ð» ÐµÐ½ÑĮ
ĠSo ciety
ĠÐļÐ¾Ð½ ÑģÑĤÐ°Ð½ÑĤ
o ver
x t
z ha
Ð° ÑĨ
ÑĤ Ð°
Ð¸ ÑģÑĤ
Ġd ri
ere zha
Ġk iss
ĠÑģÐ¾ Ð¾Ð±
ĠÐ²ÑĭÑĢÐ°Ð¶ ÐµÐ½Ð¸Ðµ
ĠÐ²ÑģÑĤÑĢ ÐµÑĤ
Ġmor ning
Ð¸ Ñī
Ñĭ Ð»
Ġd ou
ĠÐµ Ð´
ĠÐ¿ÑĢ Ð¾Ð³Ð¾Ð²Ð¾ÑĢ
ut e
ÐµÐ´ Ñĥ
Ġst ra
ĠÑĤÐ°Ðº Ð¾Ðµ
ÑģÑĤÑĮ Ñİ
ĠÐľ Ñĭ
Ð°Ð¹ ÑĤÐµ
Ġdis c
ĠÐ¿ÑĢÐ¾Ñģ ÑĤÐ¾
Ġdra wing
b er
ĠÐ¿ Ð¾Ð±
ĠÐ² Ð¸Ð½Ð¾Ð²
ĠÐº Ð½Ð¸
ĠÐ´ Ð¾Ñģ
Ġn ight
Ġl ab
Ð°Ð· Ð°ÑĤÑĮ
ĠÐ¾Ð± ÑĢÐ°Ñī
ĠV as
ov na
ĠÑģÐ°Ð¼ Ð¾Ðµ
ĠÑĢÐ°Ñģ Ñģ
ÑĭÐº Ð½Ð¾Ð²
ĠÐ¼ÑĭÑģ Ð»ÑĮ
Ġ ed
Ð» ÐµÐ½Ð¸Ñı
Ġb est
Ġto gether
ĠÐ²Ñģ Ñİ
ĠÐºÐ¾ÑĤÐ¾ÑĢ ÑĭÑħ
Ġde ar
ÑĪÐµ Ðµ
Ġthere fore
Ð°Ð²ÑĪ Ð¸Ð¹
Ġeven ing
Ð»Ñİ Ð±
Ġhor ses
Ġdiff erent
Ġter ri
h ay
Ñĥ ÑīÐµ
Ġb ook
is ing
Ġf act
Ñİ ÑĤ
ĠÐ¼ Ð°ÑĤÑĮ
Ġof ten
ĠÐ¿ÑĢ Ñı
Ġha ir
ĠÑĢ Ð¾Ð´
ĠÐ¿Ð¾ ÑģÐ¼Ð¾ÑĤÑĢ
Ġwh ite
Ð»Ð¸ ÑĪ
ĠM ik
Ġar m
os ed
ĠÑĥÐ´ Ð¾Ð²Ð¾Ð»ÑĮ
ren ch
ĠÐ¿Ð¾Ñĩ ÑĤÐ¸
Ġvis it
ĠMik hay
f ter
ĠÑģ ÐµÐ¹ÑĩÐ°Ñģ
Ġs ound
ĠÐ² Ð°ÑĪ
Ð² ÐµÑĤ
Ġf ore
as ter
ĠA s
ĠS h
ĠÐ¿ÑĢÐ¸ Ðº
Ġwor ld
ĠÐ²Ð¸Ð´ ÐµÐ»Ð°
ĠÐĳ ÐµÑĤ
Ð¿Ð¾Ð¼ Ð¸Ð½Ð°
ĠF rench
Ġhor se
ĠRussi an
c ul
Ġw ind
ĠÑģ Ð´
Ġh igh
Ġo pp
at ur
ĠÐ± Ð°ÑĢ
Ġm oney
Ġin c
Ġst art
Ġr id
ĠÐļ Ð°ÑĤ
ĠÑģÑĤ ÑĢÐ°ÑĪ
ĠÐ¸Ð· Ð±
ÑĭÐ² Ð°Ñı
ĠÐ´ÑĥÐ¼ Ð°Ð»Ð°
ĠÐ¿Ð¾Ð½Ñı Ð»
ĠÐ¾ÑĤÐ²ÐµÑĩ Ð°Ð»Ð°
ÑĢÐµÐ´ ÐµÐ»
ĠÐĴÐµÑģ Ð»Ð¾Ð²
ĠÐ¸ Ð³
ĠÐ´ ÑĥÑħ
ĠÐ¿ÑĢ ÐµÐ»
Ð¾Ð» Ð½
Ġg one
Ġre ady
ĠÑĤÐ¾ Ð»
Ġst ud
ĠÐ²Ñĭ ÑĪÐµÐ»
ĠÑģÑĤ ÑĢÐ°
ant ine
Ġj o
ĠÐ²Ð· Ð´
Ġus ual
ĠÐ²Ð¿ ÐµÑĢÐµÐ´
ĠMikhay lov
ÑĢ ÐµÐ·
Ñĥ Ð½
Ġto r
ĠÐ´ Ð°Ð¼
ĠÑĤ Ð¾Ð³Ð´Ð°
ĠÑģÐº Ð¾ÑĢ
ĠÑĤÐ¾ Ð½
ĠA ll
ĠS erezha
ch ing
ich ol
ĠÐ³Ð¾Ð²Ð¾ÑĢ Ð¸Ð»Ð¸
ĠW e
ress ing
med i
ĠÐ±Ð» Ð°Ð³
Ġpr om
ĠÐ¾ÑģÐ¾Ð±ÐµÐ½Ð½Ð¾ ÑģÑĤÐ¸
ĠÑģÐ¸Ð» ÑĮ
Ð°Ð»Ñĥ Ð¹
ÑģÐºÐ¾ÑĢ Ð±
onst antine
ichol as
ĠÐ´ Ð°Ð²
Ð°Ð´ ÑĨ
ĠÐ° Ð½
ra ct
ĠÑģÑĤÑĢ Ð°Ð´
Ġconsid ered
ĠÐ¼Ð°ÑĤ ÐµÑĢÐ¸
ĠÐĳÐµÑĤ ÑģÐ¸
u b
Ġ J
ĠÐ² Ð°Ð¶
ou n
Ġhe ar
ÐµÐ½ Ð½ÑĭÐ¼
ĠÐ· Ð´Ð¾ÑĢÐ¾Ð²
Ð½Ð¸ Ð¸
Ð°Ñģ Ð¾Ð²
ir d
Ġr a
ĠÐ¾Ð± Ñī
ĠÐ¸Ð· Ð¼
Ġar ri
ĠN icholas
ĠÐ¿Ð¾Ð² ÐµÑĢ
Ġad v
Ġrememb ered
ets y
Ġ ide
ĠÑģ ÐµÑģÑĤ
ĠÐ½ Ð°Ð¹
Ġh at
ĠÐ¾ ÑģÐºÐ¾ÑĢÐ±
Ð² Ð°ÑĤ
Ġf ull
Ġm ist
ĠÐ´ Ð¾Ñĩ
ĠÑĩ Ð°
ĠÑĤ Ð°
Ġl at
ĠÐºÐ¾ÑĤÐ¾ÑĢ ÑĭÐ¼
ĠW hy
ĠÐ¿ÑĢÐµÐ´ ÑģÑĤÐ°Ð²
Ð½ÑĥÐ² ÑĪÐ¸ÑģÑĮ
Ġdiff icult
m ost
ÑĢ Ð¸Ñĩ
Ġs w
Ġs or
Ñİ Ð±
Ð¾Ð¼ Ðµ
Ġha lf
Ġe ach
ĠÐ¶ Ð´
ĠB etsy
ĠÐľ Ð½Ðµ
ÑıÑĤ ÐµÐ»ÑĮ
Ġle ave
ĠÐ»ÑİÐ± Ð²Ð¸
ÐµÐ»Ð¾ ÑģÑĮ
ĠÐ²Ð¾Ð· Ð¼Ð¾Ð¶
Ġad m
ĠÑģÑĩÐ° ÑģÑĤÑĮ
ĠÐºÐ°Ð¶ ÐµÑĤÑģÑı
Ġbes ide
ĠÐ² ÐµÑģÑĮ
ĠÐº Ð°Ð±
Ġto ne
ĠÐ¼ ÐµÑĢ
ĠÐ¿Ð¾ ÑģÑĤ
ĠI f
ĠÐ¶ Ð¸ÑĤÑĮ
Ð¾ÑĤ Ð¾Ð¼
ĠÑģÐ» ÐµÐ·
ĠC onstantine
ĠÐ¸Ð¼ ÐµÐ½Ð½Ð¾
Ġsp ir
Ġus ed
ĠÐ¿Ð» Ð°ÑĤÑĮ
ars h
ĠÐ½Ð°Ñĩ Ð°Ð»
Ð°ÑĤÐµÐ»ÑĮ Ð½Ð¾
Ġcal m
Ġimport ant
b t
i ved
l ish
Ð» ÐµÐ´
ĠÐ¸ Ð´
Ġm oved
ĠÐ´ ÑĢÑĥ
ve l
ÑģÑĤÐ² Ðµ
ĠÐ³Ð¾ ÑĤÐ¾Ð²
Ġevery body
ab ly
Ġhor r
arm ing
ĠÐ´Ñĥ ÑĪÐµ
medi ately
h o
Ð¸ ÑģÐº
Ġs n
ĠÐ½ ÐµÐ·
ĠÐ¸ Ñģ
Ġc ertain
Ġm aking
as ed
Ġn or
Ġl oved
ÐµÑĤ Ñĭ
al ked
ÑģÑĤÐ² Ð¸Ñı
ĠA g
ill ed
ĠÐŁ Ð¾Ñģ
ÐµÑĩ Ð°ÑĤ
ĠÐ¢ Ð¾Ð»ÑĮÐºÐ¾
Ġpo int
ove red
ĠÐ·Ð°Ð¼ ÐµÑĩ
Ġpart icul
Ð¸Ð¶ Ñĥ
Ġres pect
Ġcle ar
ĠÐ¾ÑĤÐ½Ð¾ÑĪ ÐµÐ½Ð¸Ñı
Ġbri ght
Ġed uc
ĠÑģ Ð°Ð´
ĠÐ½ ÐµÐ¶
ĠÐ¿ Ð¸Ñģ
Ġf all
ĠÐ± Ð¾
Ġl ay
Ġp ast
ĠÐ· Ð´ÐµÑģÑĮ
Ġg az
ÑģÑĤÐ² ÐµÐ½Ð½Ð¾
ĠT o
ĠH er
Ġk e
Ð½Ðµ ÑĪ
ĠÐºÐ¾ÑĤÐ¾ÑĢ Ð¾Ð¼
Ð¾ÑĪ Ð»Ð°
ac ed
ĠÑģÐ¿ ÑĢÐ°ÑĪ
ĠÑģÐ¼ ÐµÑĢ
Ġagain st
ĠÐºÐ½Ñı Ð·ÑĮ
The re
ĠÐ¿ÑĢÐ¾Ð´Ð¾Ð»Ð¶ Ð°Ð»
Ġvi ew
p r
y ing
Ġ est
ĠÐ ¨
Ñĭ Ð´
ĠÐ² Ñĩ
Ġf a
ĠÐ¼ Ð¾Ð¹
ĠÑĥ Ð½Ð¸
id ly
se l
Ġre ason
ĠÐ¿ÑĢÐ¸ Ñģ
ro ad
am ed
ĠÑģÐ» ÐµÐ´
ĠÐºÑĢ Ð¾Ð¼Ðµ
Ġte ars
Ġhapp ened
ĠÐ¾Ð¶ Ð¸Ð´
ĠÐ¿Ð¾Ð´ÑĥÐ¼ Ð°Ð»
Ġdiv or
s k
Ñ į
Ġb all
Ġc e
Ġc r
ĠÑĩ Ð¸ÑĤ
ĠÐ½Ðµ Ñİ
an ced
Ġe as
ĠÑģÐ² ÑıÐ·
ĠÐºÐ¾ Ñģ
if ic
ĠW ell
Ġpre p
ĠÐ²ÑģÐ¿Ð¾Ð¼ Ð½
ĠÐ»ÑİÐ´ Ð¸
ĠÑıÑģ Ð½Ð¾
Ġqui et
Ð»Ð¸ÑĪ ÐºÐ¾Ð¼
d u
g r
y d
ÑĤ ÑĢÐ°
Ð¸ Ñİ
Ñı Ð½
ĠÐ½ ÐµÐ½
Ñĩ ÐµÐ³Ð¾
ĠÐ¿ Ð°Ð»ÑĮ
Ð¼ Ð°Ð½
ĠÐ´ Ð¾Ð²
ĠÑģÑĤ Ð°Ð»Ð¾
ĠThe n
Ð¾Ð· Ð¼Ð¾Ð¶
ĠÐĲÐ½ Ð½Ðµ
Ġim mediately
ĠE ng
Ġpres ent
Ġexpect ed
Ð½ ÐµÐ¼
ĠÑģ Ð»Ð¸ÑĪÐºÐ¾Ð¼
ĠÐ¾ ÑħÐ¾ÑĤ
Ð¾Ð´ ÑĥÑĪ
al th
ÑģÑĤÐ² Ñĥ
oo l
ĠH aving
ĠÐ½Ð¾ Ñĩ
Ġfr ont
ÑĭÐ² Ð°ÑĤÑĮ
ĠÐ¿ÐµÑĢ ÐµÐ¼
ĠAlex is
Ġmar ried
Ġsub ject
Ġgi ven
ĠÐ²ÐµÑĩ ÐµÑĢ
ĠAlexand rov
Ġterri ble
. ]
u nd
Ð¾ Ñħ
ÑĤ Ð²
ĠÑģ Ð¾Ð¼Ð½
ĠÐ² ÑģÐº
Ðº Ð¸Ðµ
Ġc ur
ĠÑĤ ÐµÐ»
ĠÑĤ Ð¾Ð¹
ĠÑĤ ÑĢÐ¸
ĠL yd
Ġsh out
Ġsh ort
pp ing
ĠÐ³Ð¾ ÑģÐ¿
Ġch ange
ĠÐĲÐ½ Ð½Ñĥ
ĠÑħÐ¾ÑĤ ÐµÐ»Ð¾ÑģÑĮ
Ġany one
ĠN ow
Ġcons cious
end ed
ĠÐ½ÐµÐ² Ð¾Ð»ÑĮ
Ġrel ations
ĠÑħÐ¾Ñĩ Ñĥ
Ġser v
ĠÐŁÐµÑĤ ÐµÑĢÐ±ÑĥÑĢÐ³
Ġopin ion
ĠLyd ia
g s
Ñı Ð»Ð°
Ġs it
Ġf ar
ĠÐµ Ð·
Ġl aw
ĠÐ¿ÑĢ Ð¸Ñĩ
ĠÐ¿ÑĢ ÐµÐ·
ĠÐ» Ð°Ðº
Ġas s
ĠA fter
ĠÑģÐ²Ð¾ ÐµÑİ
Ġab ove
ĠÐ·Ð½Ð° ÐµÑĪÑĮ
Ġhapp iness
Ġday s
ĠÐ¿ÑĢÐ¸ÐµÑħ Ð°Ð»
Ġwait ing
ĠÐ±ÐµÑģ Ð¿
ĠÐ»ÑİÐ±Ð¾Ð² ÑĮ
Ġpers on
Ġbus iness
Ġquick ly
Ġstra ight
ĠÐ¿ÑĢÑı Ð¼Ð¾
sel ves
k s
u se
Ð¸ Ð´Ð°
Ñı Ñħ
ĠÐ² Ð¾ÑĪÐµÐ»
ÑĤÐ¾ Ñĩ
is hing
ĠÑĢ Ð°ÑģÐº
Ð½Ð¸ ÑĤÑĮ
Ð¸Ð² Ð°ÑĤÑĮ
if ul
ĠÐ¿Ð¾Ð´ Ð¾ÑĪÐµÐ»
ÐµÐ¶ Ð´
Ġde ath
ĠÐ¿ÐµÑĢ ÐµÐ±
ĠÐ·Ð½Ð° ÑĤÑĮ
Ġun ple
ol unt
Ġco at
Ġcont r
ĠÐ¿Ð¾Ð½Ñı ÑĤÑĮ
ĠÐ´ÐµÑĤ ÐµÐ¹
ĠÐ´Ð¾Ð± ÑĢ
ĠÐ·Ð°Ð³ Ð¾Ð²Ð¾ÑĢ
ĠÐĴÐ°ÑĢÐµÐ½ÑĮ ÐºÐ°
Ġlau gh
ĠÑģÐ¾Ð³ Ð»Ð°Ñģ
ÑĤ Ð¾Ð³Ð¾
Ð½ ÐµÐ²
Ġs itting
Ðº Ð¸Ñħ
ÑĪ ÐµÐ¹
as ov
Ġp at
ĠÐ³ ÑĢÑĥ
Ð»Ñı Ð¿
ĠÐ¿ÐµÑĢ ÐµÑģÑĤ
Ġli ved
Ġli ps
ĠÑĪ Ð»ÑıÐ¿
ĠÑĤÑĭ ÑģÑı
ĠÐ²Ð¾ Ð¾Ð±
ĠÑģÐ´ÐµÐ» Ð°Ð»
ĠÐ¿Ð¾Ð»Ð¾Ð¶ ÐµÐ½Ð¸Ñı
ĠÐ±Ð» ÐµÑģÑĤ
ÑĨÑĥ Ð·
Ġdec ided
ĠÐ·Ð°Ð½ ÑıÑĤ
Ġke pt
Ġunple asant
Ð° Ð½Ð¾
ĠÐ² Ð»ÑİÐ±
Ðº Ð¸Ð¼
Ġh on
ÐµÑĢ Ðº
ÐµÑĢ Ð²
ĠÐ¼ ÐµÐ´
Ġp ri
ĠÑ ī
Ġli ving
ĠÐ¾Ð´ Ð½Ð¾Ð³Ð¾
ĠÐ½Ð°Ð¿ ÑĢÐ°Ð²
anc ing
ÑĢÐ°Ð½ ÑĨÑĥÐ·
Ġsur pr
Ġrepe ated
ĠEng lish
i en
k ing
t he
Ðµ ÐµÑĤÑģÑı
Ġh ost
ĠÑĢ ÑıÐ´
ÐµÐ´ ÐµÑĤ
Ġk eep
Ġne xt
ĠÐ³Ð¾Ð²Ð¾ÑĢ Ð¸ÑĤ
ĠÐ¶ÐµÐ½ Ð°
Ġar r
un g
Ġtr ue
ĠÐ½ÐµÐ² Ð¾Ð·Ð¼Ð¾Ð¶
ire ct
ĠIvan ovna
ĠÐ¿Ð¸ÑģÑĮ Ð¼Ð¾
ĠÐ²Ð¸Ð½Ð¾Ð² Ð°ÑĤ
ĠÐ² ÑħÐ¾Ð´
Ð² ÐµÐ¹
ĠÐº ÑĢÑĥÐ³
ĠÐº ÑĥÐ¿
ĠÐº ÑĥÐ´Ð°
ĠÐ» ÐµÑĤ
ĠÐ²Ñĭ ÑģÐº
Ð½Ñĥ ÑĤÑĮ
ĠÐ¿Ð¾Ð´ ÑĢÐ¾Ð±
Ġde p
Ġal most
ĠÑĢÑĥ Ð±
ĠÐ´Ð² ÐµÑĢÑĮ
ĠÐ¡ÑĤÐµÐ¿ Ð°Ð½Ð°
Ġpre v
ĠÑĢÐ°Ð´ Ð¾ÑģÑĤ
Ġfir m
ĠÑģÑĭ Ð½Ð°
Ġocc up
ĠÐļÐ¾Ð½ÑģÑĤÐ°Ð½ÑĤ Ð¸Ð½
Ġdivor ce
ĠÐ½ÐµÐ²Ð¾Ð»ÑĮ Ð½Ð¾
i an
Ġp ict
ĠÐ¿Ð¾ Ñħ
Ġu se
ĠÑĤÐ¾ ÑĢ
Ġr an
ĠÐ²Ñĭ Ð·
pe nd
Ġex t
Ð¸Ðµ ÑģÑı
ĠÑĢÑĥ Ñģ
ra id
ĠÐ·Ð½Ð° ÐµÑĤ
ĠÐ´Ð² ÐµÑĢÐ¸
ĠÐ¿Ð¾Ðº ÑĢÐ°Ñģ
ĠÐĲÑĢÐºÐ°Ð´ÑĮÐ¸Ñĩ Ð°
ĠÑģÑĤÐ°ÑĢ Ð¸Ðº
ect ed
ect ion
Ġspe aking
Ð°Ð·ÑĭÐ² Ð°Ñı
ĠÑģÐ¿ÑĢÐ¾Ñģ Ð¸Ð»Ð°
Ġho pe
ĠÑĤÐ² ÐµÑĢÐ´
ĠÐ³ÑĢÐ°ÑĦ Ð¸Ð½Ñı
ĠÐ´ÐµÐ² ÑĥÑĪ
Ġspo ke
ĠÑĤÑĭÑģÑı Ñĩ
O N
W e
Ġ ÑĪÐµ
Ġw alk
ĠÑģ ÐµÐ»
Ġb u
ĠÐº Ð»
ĠÐ± ÑĢ
ĠÐ¼ ÐµÑģÑĤÐ¾
ut h
ĠÐ¿Ð¾ ÑģÐ¿
ÑģÐº Ð¸
ÐµÐº Ð¾
Ġfor mer
Ġab s
ig ure
Ġaf raid
ĠÐ´Ð¾Ð»Ð¶ Ð½Ð¾
ĠÐ¶ÐµÐ½Ñī Ð¸Ð½Ð°
ĠÐ´Ð¾Ð» Ð³Ð¾
ĠÐ½Ð°Ð· Ð°Ð´
Ġfell ow
b at
r ing
Ġt ou
ĠÐ¾ Ð³
ou bles
ĠÐ± Ð°Ð»
ĠÐ´ ÐµÑģÑı
Ġd ro
Ġl ar
ar ked
Ġwh is
Ġit self
am p
Ġex ist
ĠÐ²Ð· ÑıÐ»
Ġsm all
Ġcom ple
ĠÐ»Ð¸ÑĨ Ðµ
ach ing
ĠÑģÑĤÑĢ Ð°Ð½
ĠÐ²Ð¾Ñģ Ð¿Ð¾Ð¼Ð¸Ð½Ð°
Ġye ar
ĠÐºÐ°Ð± Ð¸Ð½
c her
e al
Ðº Ð¾Ð³Ð¾
Ġc ase
Ġm aster
Ġn ame
ĠÐ¿ÑĢ Ð¸ÑĤ
Ð°Ð· Ð°Ð»
Ġst ay
ĠÐĿ Ð°Ð´
Ġdo ing
ĠÐ¿ÑĢÐµÐ´ ÑģÑĤÐ°Ð²Ð»Ñı
ĠÐ´ÑĢÑĥÐ³ Ð¸Ñħ
ĠÐ´ÑĥÐ¼ Ð°Ñİ
ap s
Ð½Ð¾ÑģÑĤÑĮ Ñİ
ĠÐ¼Ð¸Ð½ÑĥÑĤ Ñĭ
Ġforg et
II I
ĠÑĩÐµÑĢ ÐµÐ·
ĠÑģÑĤÐ¾ÑĢÐ¾ Ð½Ñĭ
Ġfoll owed
Ġstep s
Ġnur se
atur al
l es
m en
Ð Ķ
Ð¾ Ñī
re s
Ġb oy
ÐµÐ½ Ð½ÑĭÐµ
Ġf ew
Ġf igure
ĠÐ± Ð¾ÑĢ
Ñħ Ð²Ð°ÑĤ
Ġd irect
ot e
Ð°Ð² Ð°ÑģÐ¾Ð²
Ð¾Ð¶ Ð´
ÐºÐ¾ Ðµ
ĠÑĤÐ°Ðº Ð¾Ð¹
Ġch anged
Ġsee ing
ĠÐ»ÑİÐ± Ð¸Ð»
ĠÐ¶ÐµÐ½ Ðµ
ĠÐ¶ÐµÐ½ Ñĭ
Ġpre t
Ġpro p
ĠF or
ĠÑĨ ÐµÐ»
Ġdes ire
ĠÐ²Ð¾Ð» Ð¾Ñģ
ÐµÑĢÐ± Ð°ÑĨ
ĠÐļÐ°ÑĤ Ð°Ð²Ð°ÑģÐ¾Ð²
Ð°Ð»ÑĥÐ¹ ÑģÑĤÐ°
a le
b ed
b ut
ĠÐ ©
Ñĥ Ñī
Ðº Ð°Ñı
at av
Ġl ess
Ġp ur
ĠÐ¿ÑĢ Ð¾Ñĩ
Ġu na
ĠÑģÑĤ Ð°Ð»Ð°
ÑīÐµ Ðµ
ov ing
bl ed
ĠM ary
ÑĥÑİ Ñī
ĠÐ³Ð» ÑĥÐ¿
ive ly
Ġbec ome
ĠÐ¸ÑģÐ¿ ÑĥÐ³
ĠÐ¿ÑĢÐ°Ð² Ð´Ð°
ĠÐ²Ð¿ ÐµÑĩÐ°ÑĤ
Ġlist ened
Ġfre sh
ĠSh cher
ĠÐ´ÑĢÑĥ Ð³Ð¾
Ġpict ure
atav asov
ĠShcher bat
k en
Ð» ÐµÐ½Ð½Ð¾
Ġw o
ĠÑģ ÑĥÐ´
ĠÑģ ÑĢÐµÐ´
Ð¼ Ð°
Ġl o
Ġl ad
ĠÑĢ Ð°Ð²
Ġnot e
ĠÑĤÐ¾ ÑĩÐ½Ð¾
Ð¾Ð± Ð¾Ð´
Ġr un
ĠK atavasov
ort s
Ġfeel ings
Ġte nder
Ġpleas ant
Ġget ting
ious ly
ĠÑģÐ¼Ð¾ÑĤÑĢ ÐµÐ»
Ġdre ad
Ġfin ished
ĠÐµÐ· Ð´
I f
g ed
ÑĢ Ðµ
Ñı Ð¼Ð¸
Ġh our
Ġc ir
Ġf ine
Ġd aughter
Ġp u
Ġha ll
Ð½Ð¸ ÐµÐ¼
ĠÐĲ Ð³
Ð¸Ð² Ð°ÑıÑģÑĮ
ĠÑģÐº ÑĥÑĩ
ev ed
Ð½Ðµ ÑĨ
ÑĥÐ¶ Ðµ
ÑĥÐ¼ ÐµÐµÑĤÑģÑı
ĠÐŁ Ð¾
Ġli ked
Ġun c
ĠÑĩÑĥÐ²ÑģÑĤÐ² Ð¾Ð²Ð°Ð»Ð°
ĠÐ¾Ð¿ ÑĢÐµÐ´ÐµÐ»
ÑĢÐ¸ ÑĨ
ĠÐĵ Ð¾Ð»
Ġrem arked
ĠÐ´Ð¾Ð¼ Ð¾Ð¹
ĠÑĤÑĢ ÐµÐ±
ĠÑĩÐ°Ñģ ÑĤÐ¾
Ġinterest ed
ĠÑĢÐ°Ð·Ð´ ÑĢÐ°Ð¶
ĠÐºÐ½Ð¸ Ð³
ÑĢ ÑĭÑĤ
Ñĥ ÑĤÑĮ
Ġs ign
ĠÐº Ð¾Ð³Ð¾
Ġc ap
Ġf ing
Ġin qu
Ð¿ Ð¾Ð´
Ġre ached
ĠÐ» ÐµÑģ
Ġme mor
ÐµÐ· Ð´Ð°
Ġch ief
ĠÑĢÑĥ ÐºÐ°Ð¼Ð¸
Ġknow ing
Ġsp ite
Ġar ms
ĠÑĥÐ´ ÐµÑĢÐ¶
Ġrem ained
Ġwr ong
ĠÐ¿ÐµÑĢÐ² ÑĭÐ¹
Ġrememb er
ru pt
ĠÐŀÐ±Ð»Ð¾Ð½ÑģÐº Ð¸Ð¹
Ġhold ing
Ġacqu aint
ĠÐ°Ð½ Ð³
Ġeduc ation
ĠÐ© ÐµÑĢÐ±Ð°ÑĨ
ĠÐĲÐ³ Ð°ÑĦ
Ðµ ÐµÑĤ
Ñĥ Ð»
ĠÐ² Ð¸Ð¶Ñĥ
ĠÐ¾ Ð½Ð¾
ÐµÐ½ Ð½ÑĭÑħ
im ed
Ð¾Ð´ Ð°ÑĢ
ÑĨ ÐµÐ²
ÑģÑĤÐ² Ð¾Ð¼
ĠÐŀ Ñĩ
ĠÐ²Ñĭ Ð¹
ĠÐ¿Ð¾Ð´ ÑħÐ¾Ð´
Ġcon c
ĠW ith
ĠÐºÑĢ Ð¸Ðº
ĠÐ¸Ð¼ ÐµÑĤÑĮ
Ġbr ing
ĠN ot
ĠE very
Ġexp er
Ġfri ght
Ġrep ly
Ġforg ot
Ġmean ing
ĠÐ»Ð¾ÑĪ Ð°Ð´ÑĮ
isf ied
Ġbegin ning
ĠÑĩÑĥÐ²ÑģÑĤÐ²Ñĥ Ñı
Ġgener al
ĠÑģÐ´ ÐµÐ»Ð°
ĠÐ²Ñĩ ÐµÑĢÐ°
a h
l i
t ered
Ð½ ÐµÐ³Ð¾
ÑĮ Ð¸
ĠÐ½ ÑĢÐ°Ð²
ĠÐ´ Ðµ
ĠÐ´ Ð½Ñı
an y
ĠÑĢ ÐµÐ²
Ð½Ð¸ Ñĩ
Ð°Ð² Ð°Ñı
Ġe mb
ÑģÐº Ð¸Ðµ
Ð½Ñĥ ÑĤ
ĠÐ¢ Ð¾
Ġthem selves
ÑĢÐ°Ð² Ð»Ñı
ĠÑģÐ¼ ÐµÑĪ
Ġpl ay
Ġpleas e
ĠÐ²Ð¾Ð· Ð²
Ġatt ention
ĠÑĤÐ² Ð¾
ĠÐ¾ÑģÑĤÐ°Ð½Ð¾Ð² Ð¸Ð»ÑģÑı
Ġset t
Ġdr ink
ĠÐ¡Ð²Ð¸ÑıÐ¶ ÑģÐºÐ¸Ð¹
ĠÐ¿ÑĢÐ¾Ð³Ð¾Ð²Ð¾ÑĢ Ð¸Ð»
ĠÐ´Ð¾Ñģ Ð°Ð´
Ð» Ð¸Ð½
ĠÐ¼ ÑĢÐ°
Ġl ate
or y
Ð¸Ð» ÑĮ
ar ily
Ð½Ð¸ ÑĨÑĥ
Ġst e
ere n
ev na
ĠÐ¿Ð¾Ð´ ÑĬ
Ġsu n
Ġfr own
Ġup on
ÑĪÐ¸ Ð±
ie ld
Ġgl anced
iz e
Ġcle arly
ĠÐ¿ÑĢÐ¸Ð² ÑĭÑĩ
Ġlar ge
b ility
l aw
m p
Ñģ Ð¾ÑĢ
ĠÑģ Ð¾Ð·
ĠÑģ Ð¼Ñĥ
Ð² Ð¸Ð½
Ġo u
ing ly
ĠÐ± ÐµÑĢ
Ġp ower
Ġg ent
ÑģÐº Ð¸Ð¼
Ġre d
ĠÐ³ Ð¾Ð´
ĠÑģÐº Ð°Ñĩ
ay a
ĠO ne
ĠÑĢÐ°Ð´ Ð°
ĠÐ¿Ð» ÐµÑĩ
ÑıÐ· Ð°Ð½
Ġper f
ĠÐºÑĢÐ°Ñģ Ð¸Ð²
ash vin
og n
ĠÐ¿Ð¾ÑĩÑĥÐ²ÑģÑĤÐ² Ð¾Ð²Ð°Ð»
Ġsor ry
Ð¸ Ð±
ÑĢ Ð°Ð¼
ĠÑģ ÑĥÑīÐµ
ĠÐ½ Ð¸Ð¼Ð¸
ÑĪ Ð¸Ð¼
Ġm in
ĠÐ´ Ð°Ð»
ĠÐ´ Ð°Ð»ÑĮ
Ġd uring
Ð½Ð° ÑĤÑĮ
ĠÐ¼ ÐµÑĪ
ĠÐ¼ ÐµÑģÑĤ
Ð½Ð¾ Ñģ
Ġp ity
om m
le nd
ĠÐ¿Ð¾ ÑĨ
Ð°Ð½ Ñĭ
Ñī ÐµÐ²
ĠÑģÐº Ð¾Ð»ÑĮÐºÐ¾
Ġas h
ĠÑģÐ² Ð¾Ð±Ð¾Ð´
Ġan im
ĠÐĺ Ð·
us hing
ĠÐ¿ÑĢÐµÐ´ Ð»Ð¾Ð¶
ĠÑĩÑĥÐ²ÑģÑĤÐ² Ð°
Ð°Ð»ÑĮ ÑĩÐ¸Ðº
Ġco ach
Ġte a
ĠÐ¼Ð¾Ð» Ñĩ
ĠÐ¿Ð¾Ñĩ ÐµÐ¼Ñĥ
ĠÑĢÐµÑĪ Ð¸ÑĤÐµÐ»ÑĮÐ½Ð¾
Ġfe et
ĠÑĥÑģÐ¿ Ð¾ÐºÐ¾
ĠÐľÐ¾ÑģÐº Ð²
Ġstand ing
Ġbeaut iful
ĠShcherbat sky
a used
Ðµ ÐµÐ¼
Ð» ÐµÑĤ
ÑĢ Ð¾ÑĤÐ¸Ð²
ĠÑģ Ð±
en ka
Ġl ady
Ð°Ðº Ð¾
Ð· Ð°
Ġe ither
Ð¸Ð² Ð°Ð»Ð°
ĠÐ²Ñĭ ÑĪÐ»Ð°
ĠÐļ Ð½Ñı
ÐµÐ½ÑĮ Ðµ
Ġsu c
ÑĭÐ² Ð°Ð»Ð°
ÐµÐ¶ Ð°Ð»
ĠÐ»ÑİÐ± Ð¸ÑĤÑĮ
ĠÐ»ÑİÐ± Ð»Ñİ
Ġtim es
Ð°ÐµÑĤ Ðµ
Ð°Ð²ÑĪ ÐµÐ³Ð¾
ĠÐķ Ð¼Ñĥ
Ġop ened
ĠÑĥÐ¶Ð°Ñģ Ð½Ð¾
ĠÑģÐµÑĢÐ´ ÑĨÐµ
Ġmeet ing
Ġir rit
ĠÐ½ÐµÐ¾Ð± ÑħÐ¾Ð´
ĠÐ±Ð»Ð¸ Ð·
Ġdou bt
Ġwind ow
ĠÐ³Ð¾ÑģÐ¿ Ð¾Ð´
ĠÐ¿Ð¾ÑģÐ¿ ÐµÑĪ
A h
Ġa ble
Ñĭ ÑģÐ»
Ġs leep
Ð¼ Ð¾ÑĤÑĢ
ĠÐº Ð°Ð·
Ð³Ð¾ ÑĢ
ĠÐ¾ÑĤ Ð¿
ĠÐŁ Ð¾Ð´
ÐµÑĩ ÑĮ
ÑģÑĤÐ¸ Ðµ
ĠÐĴÑĢÐ¾Ð½ÑģÐº Ð¾Ð¼Ñĥ
ĠÐ¿ÑĢÐµÐ´ Ð¿
Ġsp lend
Ġtr ain
ĠÐ²ÑĢÐµÐ¼ ÐµÐ½Ð¸
Ġgr ass
ath a
ĠÐ´Ð¾Ð»Ð¶ Ð½Ð°
ab y
Ġrec ogn
Ġinter rupt
ĠÐ»ÐµÐ³ ÐºÐ¾
Ġye ars
em pt
ĠY ashvin
ĠÐ¾Ð±ÑĢÐ°Ð· Ð¾Ð²
ĠÐ¡ÐµÑĢÐµÐ¶ Ð°
ĠÐĴÐµÑģÐ»Ð¾Ð² ÑģÐºÐ¸Ð¹
ĠMikhaylov na
Ð°Ð´ÑĨ Ð°ÑĤÑĮ
l u
ĠÐ½ Ð°Ð±
ĠÐ² ÐµÐ´ÑĮ
Ð´ ÑĥÐ¼
Ġb ur
ÑĪ Ð¸Ñħ
Ġp h
ĠÑĢ Ð°Ð²Ð½Ð¾
Ð½Ð¸ Ñħ
Ð³ Ð¾Ð²Ð°ÑĢ
ÑģÐº Ð¸Ñħ
ĠÐ³ ÑĢÐ¾Ð¼
Ð³Ð¾ ÑĤÐ¾Ð²
Ð¾Ð¶ Ð¸Ð´
ĠÐºÐ°Ðº Ð¾Ð¹
ĠÐ¾Ð± Ð¼Ð°Ð½
ĠÐ¿ÑĢÐ¸ ÑģÐ»
ĠÑģÐ²Ð¾ Ð¸Ð¼Ð¸
ĠÐ·Ð° ÑĩÐµÐ¼
Ġsu re
ĠÐ³Ð¾ ÑĢÑı
ĠÐ³Ð¾Ð²Ð¾ÑĢ Ñİ
ĠÐ¯ ÑĪ
ĠÐ¾Ð´ Ð½Ð¾Ð¹
ĠÑĢÑĥ ÐºÐ¾Ð¹
ĠÐ·Ð½Ð° Ñı
Ġam ong
ĠÐ¶ÐµÐ½ Ñĥ
ĠÑģÑĤÐ°ÑĢ Ð°ÑıÑģÑĮ
ang er
ĠÐ²ÑĭÑģ Ð¾Ðº
Ġwat er
ĠÑĥÑģÐ» Ð¾Ð²
ĠÐ¾Ð±ÑĢÐ°ÑĤ Ð¸Ð»ÑģÑı
ĠÑĢÐ°ÑģÑģÐº Ð°Ð·ÑĭÐ²
ĠÐ¾Ð³Ð»Ñı Ð´ÑĭÐ²
Ġrece ived
ĠÐĴÐ°Ñģ ÐµÐ½ÑĮ
ĠÐĽÐ¸Ð´ Ð¸Ñı
Ġshout ed
Ġou ght
S he
c y
Ð¸ ÐµÐ¼
Ġt ra
ĠÐ½ Ð°Ð·ÑĭÐ²
ĠÐ¾ ÑĪÐ¸Ð±
Ð² Ð°ÑĢ
ĠÐº ÑĥÑĩ
ÐµÐ½ Ð½Ð¾Ð¹
Ġf ond
ĠÐ±Ñĭ ÑģÑĤÑĢ
ÐµÐ½Ð¸ ÑĤÑĮ
ÐµÐ½Ð¸ ÑīÐµÐ²
Ġr ap
Ġr oubles
ĠÐ¾Ð± ÐµÑī
Ġso ft
Ġwor se
ĠÐ¸Ð¼ ÐµÐ»
Ġforg ive
Ġmean s
ĠÐ²Ð¾Ð» Ð½
Ġind iff
Ġsl ight
Ġsil ent
Ġreg ard
ĠÐ¾ÑĤÑĩ Ð°Ñı
Ġsec ond
Ġtor ment
Ġide a
ĠAg atha
Ġcontr ary
Ġash amed
t s
u ss
ÑĢ Ð¾Ð¶
ÑĢ Ð¸Ðº
Ġs ense
ĠÐ½ ÐµÐ»Ð¾Ð²
ÑĪ Ð°Ñı
ĠÐµ Ñİ
an s
Ð¾Ð± ÑĢ
ĠÐ¿Ð¾Ð´ Ð½Ð¸Ð¼
Ġsh ame
Ġal ong
Ġpo in
Ġstr uck
ĠÐĺÐ²Ð°Ð½Ð¾Ð² Ð½Ð°
ĠÑģÐ¼Ð¾ÑĤÑĢ ÐµÑĤÑĮ
ĠÐ¶ÐµÐ» Ð°Ñı
ĠÑĥÐ²Ð¸Ð´ Ð°Ð»
Ġfriend s
ĠÐ³ÑĥÐ± ÐµÑĢ
mor row
Ġhard ly
ĠÐ²ÑģÑĤ Ð°Ð»
eal ous
ĠÐĵÐ¾Ð» ÐµÐ½Ð¸ÑīÐµÐ²
ĠÐŀÑĩ ÐµÐ½ÑĮ
c hev
e f
p ly
Ġt ill
ĠÐ² ÐµÑī
it ing
Ġb aby
ĠÐ± ÑĢÐ¾Ñģ
ĠÐ´ Ð»Ð¸Ð½
ĠÑĩ ÑĢÐµÐ·
Ð¾Ð» Ð½Ðµ
ÐµÑĤ Ñĥ
ĠÐ¿Ð¾ ÑģÑĤÑĥÐ¿
Ð°Ð½ ÑĮÑı
Ġst ate
Ġr u
ĠÑħ ÑĥÐ¶Ðµ
ÑĤÐ¾ÑĢ Ð¾Ð¶
ri ly
am a
ĠÑĢÐ°Ð· Ð±
ĠÑĪ ÐµÐ»
Ġman ner
ĠÐ¿ÑĢÐ¾ Ñī
Ġag ree
ĠÐºÑĢ Ñĭ
ĠÐ¸Ð¼ ÐµÑİ
Ġyour self
Ġimp ress
ward s
Ġbl ack
Ġrem ain
ĠÐ¾ÑĤÐº ÑĢÑĭ
led ge
ail s
ĠÐ¸ÑģÐ¿ÑĭÑĤ ÑĭÐ²Ð°Ð»
ĠÐľÐ¾ÑģÐº Ð²Ðµ
ĠÐ¿ÑĢÐ¸Ð±Ð°Ð² Ð¸Ð»
ĠÐ´ÐµÐ¹ÑģÑĤÐ² Ð¸ÑĤÐµÐ»ÑĮÐ½Ð¾
ĠÐĿÐ¸ÐºÐ¾Ð» Ð°Ð¹
ĠÐ¿ÑĢÐ¸ÑĤ Ð²Ð¾ÑĢ
ĠÐ´Ðµ ÑıÑĤÐµÐ»ÑĮ
Ġgent le
Ġcoach man
h aps
s and
Ñģ Ð¸Ð¸
ÑĢ ÐµÐº
Ġt ri
Ġs k
ĠÐ² Ð°
Ð´ ÐµÑĢÐ¶
Ð¾Ð² Ð°
ÑĪ Ð»Ð¸
ÐµÐ½ Ð½Ð°Ñı
Ġc art
Ġc ause
Ġc ried
ot t
ÑģÐº Ð¾Ð¼
ÐµÐ´ Ð»Ð¸Ð²
ĠÐºÐ°Ðº Ð¾Ðµ
ĠA r
ĠÐ¾Ð± ÑĭÐºÐ½Ð¾Ð²
ĠÐ¿ÑĢÐ¸ Ð³Ð¾ÑĤÐ¾Ð²
ĠÑģÐ²Ð¾ ÐµÐ¼Ñĥ
ĠÐ·Ð° ÑģÑĤ
Ġab road
ÐºÑĥ Ñİ
Ġthou sand
ĠC omm
ÑĢÐ°Ð² ÐµÐ´Ð»Ð¸Ð²
Ġse nd
ĠÐ¡ÑĤ Ð¸Ð²
ol en
ĠÑĥÐ² ÐµÑĢ
Ġstr ong
ĠX V
iv es
Ġquest ions
ĠÐ¿Ð¾Ð· Ð²Ð¾Ð»
anc es
ĠÐ¾Ð¶ Ð¸Ð²
Ġinv olunt
ĠÐ´ÑĥÑĪ Ð¸
ĠÑģÐ»ÑĭÑĪ Ð°Ð»
Ġgu il
ĠÑĤÑıÐ¶ ÐµÐ»
Ġang ry
ĠÐ³Ð»Ð°Ð² Ð½Ð¾Ðµ
ĠÐ»Ð¾ÑĪÐ°Ð´ Ð¸
ĠÐ¿ÑĢÐ¸Ðº Ð°Ð·
Ġuna ble
Ġexper ien
Ġfright ened
a imed
e c
e x
m it
Ð Ĳ
Ð¸ ÑĢÐ¾Ð²
it ions
Ġm ention
Ġd ut
Ġd ark
ĠÑĤ ÐµÑĢ
Ġl ost
Ġp ort
Ð½Ð¸ ÑĨÑĭ
ĠÐ» Ð¾Ð¶
Ð°ÑĤ Ð¸
ĠÐ¿ÑĢÐ¸ ÑħÐ¾Ð´
ĠÐ¿Ð¾Ð´ Ð»Ðµ
ĠÐŁ Ð¾ÑĤÐ¾Ð¼
Ġle ar
ĠÐ»ÑİÐ± Ð¸ÑĤ
Ð»Ð¾ Ð½
Ġpe cul
ish chev
ĠÐ³Ð»Ð°Ð· Ð°Ñħ
Ġtr ou
ĠÐ¾ÑģÑĤ Ð°Ð½
ĠF r
iz ing
ĠÐ³Ð¾Ð»Ð¾Ð² Ð¾Ð¹
ĠÐ²Ð¿ Ð¾Ð»Ð½Ðµ
ĠÐ¶ÐµÐ½Ñī Ð¸Ð½Ñĭ
ĠÑĢÐ°Ð± Ð¾Ñĩ
Ð¾ÑģÑĤÑĮ Ñİ
Ġpres ence
ĠÐ³Ð¾ÑĢ Ð´
Ġbo x
ĠVas enka
Ġstud y
ĠÐ±Ð»Ð°Ð³ Ð¾Ð´Ð°ÑĢ
ĠÐ¿Ð»Ð°ÑĤÑĮ Ðµ
eren ce
Ġpecul i
A R
e ad
Ġ Yes
ÑĤ Ñı
Ñĥ Ð·
Ñĩ ÐµÑĤ
Ð´ ÐµÐ¼
Ġhe ld
ÐµÐ½ Ð½ÑĥÑİ
Ġc row
Ġc ross
ll e
Ð± Ñĭ
ĠÐ· Ð»
Ð¿ Ð¸ÑĤ
Ð¾Ð¹ ÑĤÐ¸
ĠÐĴ ÐµÐ´ÑĮ
ad ame
ĠÑħ ÑĥÐ´
Ġme ant
ĠÐŁ ÑĢÐ¾
Ġex cl
Ġne ar
Ġch ar
Ġj ealous
ÑĤÐ¸ Ñı
ĠÐ´ÑĢÑĥÐ³ Ð¸Ðµ
ĠÑĦ Ð¸Ð³
ÑĤÐ¾Ñı Ñī
ĠÐ´ÐµÑĤ Ð¸
ĠÑĢÐ°Ð·Ð² Ð¾Ð´
ĠÐ·Ð°Ð² ÑĤÑĢÐ°
Ġask ing
Ġgi ving
ĠÐ¿ÑĢÐ¸Ð· Ð½
ĠÐ¸Ð·Ð² ÐµÑģÑĤ
ĠÑĢÐµÐ±ÐµÐ½ ÐºÐ°
Ġoffic ial
Ġcrow d
a pe
o c
ÑĤ Ð°Ð»ÑĮ
Ð½ Ð¾Ð´ÑĥÑĪ
Ġt alked
ĠÑģ Ñİ
ĠÐ² ÑģÑĤÐ°Ð²
Ġb ro
Ġf illed
Ġm on
Ġm ere
ĠÑĤ Ð¸Ñħ
ÐµÑĢ Ð³
ĠÐ¼ Ð°Ð»ÑĮÑĩÐ¸Ðº
Ġp ay
Ġp ap
ĠÐ¿ÑĢ Ð¸Ð½Ñı
Ð¾Ð» ÐµÐ½
Ġsa ke
ĠÐ³ ÑĢÑĥÐ´
ĠÑģÑĤ ÑĭÐ´
ĠÐ¿ÑĢÐ¸ Ð½Ð¸Ð¼
ĠÐ¿ÐµÑĢ ÐµÐ³
bl ing
ĠÐĴÑĢÐ¾Ð½ÑģÐº Ð¸Ð¼
ĠÑģÑĤÐ¾ Ð»ÑĮ
ĠÐ¼ÑĥÐ¶ Ñĥ
ĠÐ½Ð°Ð¿ Ð¸Ñģ
ĠÐ¾ÑĤÐº Ð°Ð·
ĠÑħÐ¾Ñĩ ÐµÑĤ
ĠÐ³Ð¾Ð»Ð¾Ñģ Ð¾Ð¼
ĠÐ¶Ð°Ð» ÐºÐ¾
ĠÐºÐ¾Ð¼Ð½Ð° ÑĤÑĥ
ĠOn ly
Ġve x
Ġstart ed
ĠÐ½ÐµÐ½ Ð°Ð²
ĠÐ²Ð»ÑİÐ± Ð»ÐµÐ½
ĠÐ´ÑĢÑĥÐ³Ð¾ Ðµ
olen ishchev
N ot
b ly
h ile
i er
p ed
r ist
w here
Ñģ ÑĤÐ¾
Ġw in
Ġs ight
Ð² Ð°Ð»
Ġb ody
Ġc oll
Ġf ur
ĠÐ± ÑĥÐ¼
Ġha y
Ġe m
Ñī Ð¸Ðº
Ð¾ÑĤ Ð°
ÑĨ Ð°ÑĢ
ĠÐºÐ°Ðº Ð¸Ðµ
ĠÐ¡ Ðº
Ġcon n
ĠÐ¿ÐµÑĢ Ðµ
ÐµÑĢÑĮ ÐµÐ·
ĠÐ·Ð½Ð° ÐµÑĤÐµ
Ġcom fort
Ġgl ancing
ĠG olenishchev
Ġpro f
ĠÑģÐ»Ð¾Ð² Ð¾
ĠÐ¿Ð¾Ð»Ð¾Ð¶ ÐµÐ½Ð¸Ð¸
ĠÐ¿Ð¾Ð½Ñı Ð»Ð°
Ġgre w
ĠÐ±ÑĢÐ°ÑĤ Ñĥ
Ġrec all
Ġmatter s
ĠÐ´ÐµÐ² Ð¾Ñĩ
Ġtre m
ĠÑĥÑģÐ» ÑĭÑħ
Ġdesp air
ix ed
ĠÑģÐºÐ¾ÑĢ Ð¾
und red
ĠÐ¾Ð³ ÑĢÐ¾Ð¼
ĠÐĿÐ°Ð´ Ð¾
ĠÑĢÐ°Ð² Ð½Ð¾Ð´ÑĥÑĪ
' ve
u k
Ġa vo
in ite
ĠÑģ ÐµÑĢÑĮÐµÐ·
Ġs ort
re r
Ġhe alth
ÑĪ Ð¸Ðµ
ĠÑĤ Ð¾Ð²Ð°ÑĢ
ĠÐ¼ Ð¾Ðµ
ĠÑĢ Ð¾Ð±
Ð½Ð¸ Ð·
ÑĨ Ð¸Ð¸
ĠÐĴ Ð¾
ĠÑģÐ» Ð°Ð²
Ġex cept
Ġde m
ĠÑģÐ¿ Ð¾ÑĢ
Ġle gs
ĠÐ´Ð² ÑĥÑħ
ĠÑĥÐ»ÑĭÐ± Ð½ÑĥÐ»ÑģÑı
ĠÐĲÑĢÐºÐ°Ð´ÑĮ ÐµÐ²
ĠÐ¼ÑĥÐ¶ Ñĩ
Ġdis s
ĠÐĺÐ² Ð°Ð½
ĠÐ¿Ð» Ð°ÑĤ
ÑģÐ¼ ÐµÑĪ
Ð¸Ð²ÑĪ Ð¸Ð¹
ud e
ĠÐ²ÑģÐ¿Ð¾Ð¼ Ð¸Ð½Ð°
ĠÐ´ÐµÐ½ÑĮ Ð³Ð¸
ĠÐºÐ°ÑĢ ÑĤ
Ġlist ening
ĠÐ²ÑģÐµÐ¼ Ð¸
ĠÑģÑĩÐ°ÑģÑĤÑĮ Ðµ
Ġspir it
Ġlaugh ing
Ð²ÐµÐ¹ ÑĨÐ°ÑĢ
ÐĶ Ð°
Ġwo nder
! ...
E D
E N
k aya
p ar
u gg
Ġ ut
Ð½ Ð°ÐºÐ¾Ð¼
in ing
Ġs ing
Ġh undred
ĠÐ´ ÑĢÑĥÐ¶
Ġn atural
Ġl oud
Ġha b
Ð¾ÑĢ Ð¼
ĠÐ¶ Ð¸Ð»
ch ool
ter day
Ġne ck
ĠÐ° ÑĢ
ĠÐľ Ð°ÑĢ
Ġknow n
Ġle ast
Ġle aving
ĠÑģÑĤÐ¾ ÑıÐ»
ÑĦ Ð¸ÑĨ
Ġcl ose
ĠÑģÐ¼Ð¾ÑĤÑĢ ÐµÐ»Ð°
ĠÑħÐ¾Ñĩ ÐµÑĪÑĮ
ĠÐºÐ¾ÑĢ Ð¾ÑĤ
te ve
Ġappe ar
ĠÐºÐ¾Ð» Ñı
Ġdre am
ĠÐ¿Ð¾Ð¶ Ð°Ð»ÑĥÐ¹ÑģÑĤÐ°
Ġsim ple
Ġsim ply
Ġdel ight
Ġsuff er
ĠÑĤÑıÐ¶ ÐµÐ»Ð¾
ÑĥÐ½ Ð´
Ġcir c
ĠÐ¿Ð¾ÑĨ ÐµÐ»Ð¾Ð²
Ġinvolunt arily
g u
g th
u ation
Ð ¯
Ð Ĵ
Ġs we
ĠÐ½ Ð°Ð³
ĠÐ¿ ÑıÑĤÑĮ
ÑĪ ÑĥÑİ
Ġc re
Ġf al
ĠÐ¼ Ð¾ÑĢ
ĠÐ¼ Ð°Ð»Ð¾
om p
ĠÐ½Ð° Ñħ
ĠÐ³ Ð°Ð´
Ð¸ÑĤ ÐµÐ»
Ġst ation
ĠÑģÐ² ÐµÑĤÐµ
ÐµÐ· Ð´Ðµ
ĠÐ»Ð¸ ÑĪ
ĠM adame
ĠÑĪ ÑĥÑĤ
ĠÐ´Ð² Ðµ
ure d
ĠÐ»Ð¸ÑĨ Ð¾Ð¼
ĠÑģÐ´ÐµÐ» Ð°Ð»Ð°
ĠÐ¿Ð¾Ð½Ð¸Ð¼ Ð°Ð»
Ġrem ark
up id
ĠIvan ich
Ġimport ance
ĠÐºÐ°Ð¶Ð´ ÑĭÐ¹
ĠÐ´ÑĥÑĢ Ð½Ð¾
Ġlab ou
ĠÑģÐ¼ÐµÑĢ ÑĤÐ¸
i ent
s er
u ally
Ð¾ ÑĤÑĮ
Ð° ÑģÑĤ
Ð¸ ÑĤÐ¾
Ð» Ñĥ
ĠÑģ Ð¸Ð»Ð°
Ġs y
Ð´ Ð²
Ġb it
Ġb ott
Ġm id
Ð½Ð¾ ÑģÑĤ
Ġl ow
or ter
ĠÐ· Ð°Ð»
Ð°Ð½ Ð½Ð¾Ðµ
Ġst ew
ur ch
Ð½Ðµ Ñģ
Ġso l
Ð¸Ñħ ÑģÑı
ĠÐ¶Ðµ ÑģÑĤ
Ġqu ar
ĠÑģÐ°Ð¼ ÑĭÐµ
Ġpo st
ĠÐ±ÑĥÐ´ ÑĥÑĤ
Ġag o
ĠÑĥÐ² Ð°Ð¶
Ġspe cial
ĠÐ½Ð°Ð¿ ÑĢÐ¾ÑĤÐ¸Ð²
ĠÐ´Ð¾Ð»Ð¶ Ð½Ñĭ
ÐµÑī Ð¸Ðº
Ġfe ar
Ġacc ount
ĠÐ½Ð¾Ð³ Ð¸
ĠÐŀÑĤ ÑĩÐµÐ³Ð¾
ĠÑĥÐº Ð°Ð·ÑĭÐ²Ð°Ñı
ĠÐļÐ°ÑĢ ÐµÐ½
ili ar
Ġfoot man
Ġdri ve
Ġarri ved
ĠÐ¸Ð´ ÑĤÐ¸
ĠÐ²Ð¾Ð¾Ð± ÑĢÐ°Ð¶
Ġdread ful
Ġsplend id
a pp
b y
ĠÐ ĸ
ĠÐ¿ Ð¾Ð³Ð¾Ð²Ð¾ÑĢ
ĠÐ² Ð°Ð³Ð¾
Ġd ull
ĠÑĤ ÑĢÑĥ
ĠÑĤ ÑĢÐ°Ð²
Ð± Ð°
ĠÑĥ ÑģÑĤÑĢÐ¾
Ð°Ð² Ð°Ð»
ĠÐ¿Ð¾ ÐµÑħÐ°Ð»
Ð°Ð½ Ð½ÑĭÐ¹
Ġon es
Ġst upid
if ied
Ġsh owed
ant s
ÑĥÐ¶ ÐµÐ»Ð¸
ĠÑģÐ» Ð¾Ð¶
ĠÑģÐ» Ð°Ð±
Ġsu m
ĠÐ³Ð¾Ð²Ð¾ÑĢ ÑıÑĤ
Ġj ump
ÑĪÐµ Ñİ
ĠÑģÐ°Ð¼ Ð¾Ð¼
ĠÐºÑĢ Ð°Ð¹
Ð»Ð¾ ÑģÑĮ
ĠÐ¶ÐµÐ½ Ð¾Ð¹
ĠÐ¾ÑĤÐ² Ð¾ÑĢ
ĠÐ´ÑĢÑĥÐ³ Ð°
Ġgl ass
ĠÐķ Ð¹
Ð»Ñİ Ð´
Ġgr own
ĠÐł Ð¾Ñģ
Ð¸Ð²ÑĪ ÐµÐ³Ð¾
ĠÐ½Ð¾Ð² Ð¾Ðµ
ĠÐºÐ¾Ð¼Ð½Ð° ÑĤÑĭ
Ð½Ð°Ñĩ Ð°Ð»Ð°
ĠÐłÐ°Ð· Ð²Ðµ
ĠCh rist
ĠÐ¸Ð·Ð¼ ÐµÐ½
Ġlat er
ĠÐ¿ÑĢÐ¸Ñģ ÑĥÑĤ
du ced
ĠAlexandrov ich
Ġcomple te
ĠÐ¿Ð¾ÑģÐ¿ÐµÑĪ Ð½Ð¾
ĠÐ½ÐµÐ»Ð¾Ð² ÐºÐ¾
Ġexperien ced
Ġstew ard
D o
s ide
Ð» Ð°Ð³
Ġt en
ĠÐ½ ÐµÐ±
ĠÐ¿ ÑıÑĤ
ĠÐ¾ ÑĦÐ¸ÑĨ
Ġc ou
Ġf ive
Ġp ull
im es
Ð½Ð¸ ÑĨ
ĠÐ¿Ð¾ Ð½
ÑģÐº Ð¾Ð¼Ñĥ
Ð°Ð½ Ð½ÑĭÐµ
ĠÐ» ÐµÐ¶
ĠÐ» Ð°ÑģÐº
ad ow
ĠÑģÑĤ Ð°Ð½
Ġsh oot
Ġsee ms
ĠÑģÑĤÐ¾ Ñı
ĠÐ´ÐµÐ» Ðµ
ĠÐ¿Ð¾Ðº Ð°Ð·Ð°Ð»Ð¾ÑģÑĮ
Ġdis p
ĠÐ´Ð¾ ÑģÑĤ
ĠÐ½Ð°Ð¿ ÑĢÑı
ĠÐ¿Ð¾Ð¼ Ð¾Ñī
ang ing
ĠÐ±Ð» Ð°Ð³Ð¾
Ð°Ñĩ ÐµÐ¼
ĠÑĢÐ°Ð·Ð³Ð¾Ð²Ð¾ÑĢ Ð°
Ġwr ote
Ġrel ig
ĠÐĹ Ð°
Ġres ult
Ð½Ñİ Ñİ
Ġdre w
ĠÐ±Ð¾Ð³ Ð°
ĠÐ¿Ð¾Ð´ÑĥÐ¼ Ð°Ð»Ð°
Ġcare fully
ĠRussi a
Ġcond ition
Ġhur ried
Ġexpl ain
Ġhorr or
Ġsett led
Ġexcl aimed
Ġlabou rer
C ome
in s
ĠÐ½ Ñı
ĠÐ¿ Ð°Ð¿
Ġh ot
ĠÐ¾ Ð·
Ð² ÐµÐ´
Ð¼ Ð¸ÑĤ
Ð¾Ð² Ð°Ð»Ð¸
ÑĪ ÐµÐ¼Ñĥ
ÐµÐ½ ÑĤ
Ġf ixed
Ġm us
Ġm aid
en e
en ess
Ġth in
Ġd ev
ÐµÑĢ Ñħ
Ġl a
Ġl ed
Ð½Ð¸ ÑĨÐ°
ÐµÐ´ Ð¸Ð½
Ġas leep
ĠÐ¾ÑĤ ÑĬ
ĠÐ²Ñģ Ð»ÐµÐ´
ĠÐºÐ°Ðº Ð¸Ð¼
ÑĢÑĥ ÑĪ
ĠÐĶ Ð»Ñı
Ð½Ñı Ñı
Ġch air
ĠÐ¿ÐµÑĢ ÐµÐ²
ĠÐ¾Ð´ Ð½Ñĥ
ÐµÑģÑĤ Ð½Ð¾
ĠÐľ Ð¾Ð¶
est s
Ġknow s
ĠD o
ĠÐ´ÐµÐ» Ð°Ð»
os ing
ĠÐ¼Ð¾Ð¶ ÐµÑĪÑĮ
ĠG r
ĠÐ²Ð¾Ñģ Ð¿Ð¸ÑĤ
ĠÐ½ÐµÐ´ Ð¾ÑģÑĤ
ĠÐ¶ÐµÐ½Ñī Ð¸Ð½
ĠÐ¿ÑĢÐ¾Ð´Ð¾Ð»Ð¶ Ð°Ð»Ð°
ĠÐ¿ÑĢÐ¸Ð· Ð½Ð°
ĠÑģÐµÐ¼ ÐµÐ¹
Ġland own
Ġexc ited
ĠÐºÑĢÑĭ Ð»ÑĮ
Ġguil ty
Ġpeculi ar
I s
a ven
e ar
g i
g hed
t ic
Ñģ Ð°
Ð» ÐµÐ½Ð¸ÐµÐ¼
Ġt ry
Ñĭ Ð¿
ĠÑģ Ð¸Ñı
ĠÐ½ Ð°Ð»
ĠÐ½ ÐµÑĢ
ĠÐ² Ð¾ÑĢ
it ies
Ġm ent
ĠÑĩ ÑĥÑĤÑĮ
Ġth ird
ĠÐ¿ÑĢ Ð¾Ð¿
Ð¸Ð» Ð¸Ñĩ
Ð¾Ð» Ñĩ
Ġe lect
ĠI s
ÑģÐº ÑĥÑİ
Ð°Ð½ ÑĮÐµ
ÐµÐ´ ÐµÐ¼
Ġr ather
ĠÑģÐ² ÐµÐ¶
ter ing
out h
us ion
Ġsu per
ard s
ĠM y
ĠÐ¼Ð¾Ð³ Ð»Ð¸
Ġle an
ĠÐ»ÑİÐ± Ð¸Ð»Ð°
Ġse lf
Ġpe ace
Ġbeg un
Ġimp ro
Ġgl ance
ĠÐ²Ð¾Ð· Ð±
Ġbl ushed
ĠÐ²Ð·Ð³Ð»Ñı Ð½ÑĥÐ»
ĠÐ½Ð°Ñĩ Ð°Ð»Ð°
Ġpr ay
Ġput ting
Ġexpress ed
Ġrec oll
Ġsto p
Ġacc ord
ĠÐ½Ñĭ Ð½ÐµÑĪ
ĠÐ²Ð·Ð³Ð»ÑıÐ´ Ð¾Ð¼
ĠÐ·Ð°Ð´ ÑĥÐ¼
ĠÐ´ÐµÑĢÐµÐ² Ð½Ðµ
ĠÐ¿ÑĢÐ¸Ð±Ð°Ð² Ð¸Ð»Ð°
ĠÐ²Ð·Ð´ Ð¾Ñħ
Ġparticul arly
ĠÐ±Ð»ÐµÑģÑĤ ÑıÑī
ĠÐ¿Ð¾ÐºÑĢÐ°Ñģ Ð½
Ġlad ies
b r
o at
Ð» Ð°Ð²
Ð» ÐµÐ¹
ĠÐ½ Ð¸Ð·
ĠÐ´ ÐµÐ½
ĠÐ´ Ð¾Ð²Ð¾Ð»ÑĮ
es ides
ĠÐ¼ Ð½Ð¾Ð¹
Ġl if
Ð± Ñĥ
ĠÑĥ ÐµÑħ
ĠÐ½Ð° ÑģÐ¼ÐµÑĪ
Ð¸Ð½ Ð°Ð»
Ð°Ð´ Ð¸
Ġst ren
ĠÐĿ Ð¸Ñĩ
Ð¸Ð¼ Ð°Ñı
ĠÐ¾Ð± Ðµ
ĠÐ¾Ð± Ð°
ĠÐ¾Ð± Ð»
ĠS teve
Ġsh ow
Ð¾Ñģ Ð¾Ð±
ĠÐ³Ð¾ ÑĢÐ¾Ð´
ÐµÑĩ Ñĥ
ĠÐ¿Ð¾Ð» Ð¾Ð²
Ð°Ñİ ÑģÑĮ
ĠÑģÑĤÐ¾ Ð»ÑĮÐºÐ¾
Ġpo l
ort un
ĠÐ¸Ð¼ ÐµÐµÑĤ
Ġsp ent
Ġsp ring
Ġcom pl
ÑıÑĤÑĮ ÑģÑı
Ð°Ð²ÑĪ Ð°Ñı
ag es
Ġtr uth
ĠÐ²ÐµÑĢ Ð½Ð¾
Ð½Ð¸Ðº Ð¾Ð¼
ĠÐ·Ð°Ð± Ð¾ÑĤ
Ġop en
Ġpass ion
ĠÐŁÐµÑĤ ÑĢÐ¾Ð²
Ġfam iliar
Ġpain ful
ĠÐ¾Ð±ÐµÐ´ Ð°
Ġaff airs
ĠÑģÐ»ÑĥÑĪ Ð°Ð»
Ġyes terday
ĠÑĥÑģ Ð¸Ð»
ĠÐ½ÐµÐ¿ÑĢÐ¸ÑıÑĤ Ð½Ð¾
Ġdisc uss
Ġcertain ly
Ġeas y
ĠÐ²ÑģÐº ÑĢÐ¸Ðº
ĠÐ¿ÑĢÐµÐ· ÑĢ
ĠÐ½ÐµÐ²Ð¾Ð·Ð¼Ð¾Ð¶ Ð½Ð¾
ĠÐ¿Ð¾Ð´ÑĢÐ¾Ð± Ð½Ð¾ÑģÑĤÐ¸
Ġfing ers
Ġforgot ten
Ġinterrupt ed
ĠÐ¯ÑĪ Ð²Ð¸Ð½
ĠÑĤÐ¾Ð²Ð°ÑĢ Ð¸Ñī
Ġfal se
gi us
A ll
T h
c es
Ð ŀ
Ð½ Ð°ÐºÐ¾
Ðº Ð¸Ð¼Ð¸
ÑĤÐ¾ Ñİ
Ġb owed
Ġto wn
Ġc ut
Ġc overed
Ġm il
Ġd eep
Ġl it
ĠÐ¿ÑĢ Ð¾ÑĪÐµÐ»
ot ion
im ent
Ġe le
Ð¾Ð¹ Ð´Ñı
Ġnot ice
ĠÐ³ ÑĢ
ĠÐ¾ÑĤ ÑĤÐ¾Ð³Ð¾
ir t
Ġan n
Ð°ÑĤ ÑĢ
ĠÐ¾Ð± Ð¾
Ð¾Ð»ÑĮ Ð·
ĠÐĶ Ð¼Ð¸ÑĤ
Ð½Ñı Ð»
ac ing
ĠO h
Ġint im
ĠM arsh
ĠÐ¼Ð¾Ð³ ÑĥÑĤ
ĠÐ¼Ð¾Ð³ Ð»Ð¾
Ġle ad
ĠÐºÑĢ ÐµÐ¿
Ġse par
ĠÐ¾Ñģ ÑĤÐ¾ÑĢÐ¾Ð¶
Ð¸Ð¼Ð¸ ÑģÑı
ĠÐ½ÐµÐ¿ ÑĢ
Ġnew s
Ġen g
ĠÐ´Ð¾Ð¼ Ðµ
ĠÐ·Ð°Ð± Ñĭ
ĠÐ·Ð°Ð¿ Ð¸ÑģÐº
ĠÐĹ Ð°ÑĩÐµÐ¼
Ġsc re
ĠÑĩÐ°Ñģ Ð¾Ð²
ĠÑĥÐ²Ð¸Ð´ Ð°Ð²
ĠÐ¾Ð±ÑĢÐ°ÑĤ Ð¸Ð»Ð°ÑģÑĮ
Ġappro ached
Ġmove ment
ĠÑģÐ¾Ð¾Ð± Ñī
Ġlab our
ĠÐ¾Ð±ÑĢÐ°Ñī Ð°ÑıÑģÑĮ
Ġprom ised
ĠÐŁÐ¾Ñģ Ð»Ðµ
Ġfa ult
Ġsit uation
? ..
A S
c he
d le
i pe
Ð ¢
Ð¸ Ð¿
Ð½ ÐµÑĤ
Ġw ishing
Ñĩ Ð¸Ð²
ĠÐ² Ð½Ñĥ
it ation
Ġb ar
ĠÐº ÑĥÑĢ
Ġm arsh
ĠÑĩ ÑĥÐ¶
Ġn ice
ĠÐ¼ Ð¸ÑĢ
ĠÐ¼ ÐµÑģÑı
ĠÐ¿ÑĢ Ð¾Ð±
ar r
ĠÑĢ ÐµÐ»Ð¸
Ġg ri
ÑģÐº Ð°Ñı
ĠÐ» ÐµÑģÑĤ
ce ll
ÑĢÐ¾ ÑĩÐµÐ¼
Ġst re
Ġr ising
oo f
ĠÑħ Ð»
ra ce
ous ly
Ġsm o
ĠÐ¿ÑĢÐµÐ´ Ð²Ð¾Ð´
ĠÑģÐ¼ ÐµÑı
ĠÐ´ÑĢÑĥÐ³ Ð¾Ð³Ð¾
ĠÐ´ÑĢÑĥÐ³ ÑĥÑİ
Ġsay s
ÑĢÐµÐ¼ ÐµÐ½Ð½Ð¾
ĠÐ½Ð¸Ðº ÑĤÐ¾
Ġstr ugg
ĠÑĢÐ°Ð´ Ð¾ÑģÑĤÐ¸
Ġen ough
ĠÑģÑĤÑĢ Ð¾Ð³Ð¾
ĠÐºÐ¾ÑĤÐ¾ÑĢÐ¾ Ñİ
Ġres ol
ĠÐ¶ÐµÐ» Ð°Ð»
ĠXX V
ĠÐ²ÐµÐ» Ð¸Ðº
ĠSer gius
ĠÐ¾Ð±ÑĬÑıÑģ Ð½
ĠÑĤÐ¾Ð» Ð¿
ĠÑģÐ»ÐµÐ· Ñĭ
ĠÑĤÐµÐ» ÐµÐ³
ĠÐ°Ð½Ð³ Ð»Ð¸Ñĩ
ĠÑģÐ¾Ð· Ð½Ð°
ĠAr k
ĠMarsh al
A n
T hen
o pe
v al
Ð° Ñī
Ð» Ð¾Ð¼
he ad
Ġa ir
Ñĥ Ð»ÑĮ
ĠÐ¿ ÑĥÑĤ
Ġh ast
Ġo bl
ĠÐ¸ Ð½Ð°Ñĩ
Ð¾Ð² Ð°Ð»Ð¾
ĠÐ½Ðµ Ð¸Ð·
Ð± Ðµ
ut ion
Ð°Ð² Ð»Ð¸Ð²
Ð³ Ð½Ð¾Ð²
ÑģÐº Ð¾Ðµ
Ð¾Ð± ÑĢÐ°Ð·
ĠÐºÐ°Ðº Ð°Ñı
Ð¸Ð¼ ÑģÑı
Ġr aces
ĠL and
am an
Ð½Ñı ÑĤ
Ð¼Ñĥ ÑĢ
ĠÐŁ ÑĢÐ¸
Ġex act
Ġne ither
ĠB e
ĠÐ¿Ð¾Ð» ÐºÐ¾Ð²
ĠÑĢÑĥ Ðº
ĠÑĪ Ð²ÐµÐ¹ÑĨÐ°ÑĢ
Ġun ha
ĠÐºÑĢ ÐµÑģ
ĠÐ³Ð» ÑĥÐ±
Ġse ver
ĠÐ¿Ð¾Ðº Ð°Ð·
Ġcl osed
Ġac ross
ĠÐ±Ð¾Ð» ÐµÐ·
hy s
ĠX I
ÑĭÑĩ Ð°Ð¹
Ġread ing
ÑıÑī ÐµÐ½
Ġche er
Ġmer ry
Ġinf lu
Ġdef inite
Ġgaz ing
ĠÐ¨ ÑĤÐ°Ð»ÑĮ
Ġpri est
Ġoccup ied
Ġmemor y
ah l
Ġimpress ion
Ġtrou ble
ĠÐ¸Ð½Ð°Ñĩ Ðµ
Ġunha pp
? ...
t o
u ct
Ð» ÐµÑĩ
ĠÑģ Ð¾Ñĩ
ĠÐ¿ ÑĥÑģÑĤ
ĠÐ² ÑĤÐ¾ÑĢ
nd ing
at es
ĠÐº ÑĢÐ¾Ð²
on y
Ġf arming
Ġm ut
ĠÐ´ ÐµÑĤÑĮ
Ġth re
ĠÐ¼ Ð³Ð½Ð¾Ð²
Ġp hys
Ð°Ðº Ð¾Ð²
im e
ut es
Ð°Ð² ÑĪÐ¸ÑģÑĮ
ĠÐ¿Ð¾ ÑģÑĤÐ°Ð²
ĠÐ¿Ð¾ ÐµÐ·Ð´
ÐµÐ² Ð¸Ñĩ
ent y
ÑĨ Ð°Ð¼Ð¸
ĠÐ¾ÑĤ ÑĨÐ°
ad i
ĠÐºÐ¾ ÑĦ
ĠÐļ Ð¾ÑĢ
ĠÑģÑĤ Ð°Ð½Ð¾Ð²
ĠÐĽ Ð¸Ð·
ĠÑĤÐ°Ðº Ð¾Ð³Ð¾
Ġwho se
Ġch arming
ĠP rov
Ġj ud
Ġint ell
ĠÑĪ Ð¸ÑĢ
ĠÑģÑĤÐ¾ Ð»Ð°
ĠÐ¿Ð¾ÑĤ ÐµÑĢ
ĠÐ¾Ð¿ ÑĥÑģÑĤ
ĠÐ¾Ñģ Ð²
ĠÐ¼Ñĭ ÑģÐ»
ÑģÑĤÑĢ Ð¾Ð¹
leas e
Ð¾ÑĢÐ¾ÑĪ Ð¾
ĠÐĳ Ñĭ
ĠÐºÐ½Ñı Ð¶
ĠÐ¿Ð¾Ð¼ ÐµÑīÐ¸Ðº
Ð»Ñİ Ñĩ
Ġatt ract
The y
ÑĢÐ¾Ð¼ Ðµ
ĠÐ±Ð¾Ð»ÑĮÑĪ Ð¾Ð¹
Ġmar riage
ĠÐ½ÐµÑģ Ð¾Ð¼Ð½
Ġob ser
ĠÐ¿Ð¾ÑģÐ»ÐµÐ´ Ð½ÐµÐµ
ĠSt ahl
ĠÑĥÐ·Ð½ Ð°Ð»
ĠÐ»Ð¾ÑĪÐ°Ð´ ÐµÐ¹
IN G
Ġkiss ed
ĠÑģÑĤÑĢÐ° Ñħ
ĠJ ust
ĠÐ½Ð°Ð¹ ÑĤÐ¸
ĠÐºÐ°Ð±Ð¸Ð½ ÐµÑĤ
Ġdem and
ĠArk ady
ĠLand au
' m
T o
o ld
Ã ¨
Ġ U
ĠÑģ ÐµÑĢ
ĠÑģ ÐµÐ»Ð°
Ġs le
is ion
Ġm outh
ĠÑĩ Ð»ÐµÐ½
Ġp ressed
ĠÐ· Ð°ÑĢ
ic es
ic ally
Ð°Ð¼ Ð°
ÐµÐ½Ð¸ Ð½Ð°
Ð¾Ð± Ð¾Ð¹
ĠÐļ ÑĢÐ¾Ð¼Ðµ
ÐºÐ¾ Ñİ
ĠÐĲÐ»ÐµÐºÑģ ÐµÑİ
ak es
ĠÐºÐ¾ÑĤÐ¾ÑĢ Ð¾Ð¼Ñĥ
ĠÐ¿ÐµÑĢ ÐµÐ½
ĠÑģÐ¿ ÑĥÑģÐº
Ġsee m
Ġgo ver
el s
ĠÐ¿ÑĢÐ¾ Ð¸Ñģ
ĠÐ¿ÑĢÐµÐ´ Ñģ
Ġwe ak
ary a
Ġdis g
ĠÑģÐ¾Ð² ÐµÑĤ
ag ed
ĠÑĦ Ð¸Ð·
ĠÐ¿ÑĢÐ°Ð² Ð¾
ne y
Ġpr oud
ĠÐ±ÑĢÐ°ÑĤ Ð¾Ð¼
Ġser ious
ĠÐ´Ð¾Ð» Ð³
ĠXX X
ĠÑħÐ¾Ð·ÑıÐ¹ ÑģÑĤÐ²Ð¾
Ġinst ead
ĠÐ±ÑĭÐ² Ð°ÐµÑĤ
ĠÑģÐ¸Ð´ ÐµÐ»
Ġsuff ering
Ġappro aching
rit sky
ĠÐļÐ°ÑĢ ÐµÐ½Ð¸Ð½Ð°
ĠÐ¿ÑĢÐµÐºÑĢÐ°Ñģ Ð½Ð¾
Ġeff ort
ĠÑģÐ¾Ð¾Ð± ÑĢÐ°Ð¶
ĠÐ¿Ð¾ÑģÐ¼Ð¾ÑĤÑĢ ÐµÐ»
ĠÐŁÐµÑĤÐµÑĢÐ±ÑĥÑĢÐ³ Ðµ
Ġpoin ting
ĠÐĿÐ¸Ñĩ ÐµÐ³Ð¾
ĠÐ´ÐµÑĤÑĮ Ð¼Ð¸
i eved
Ð ļ
Ñı Ð¼
ĠÑģ ÐµÐº
ĠÑģ Ð¾Ð»Ð½
Ġs ick
Ġs chool
Ġb ird
ĠÐº Ð°ÑĤ
Ġp et
ow ers
Ġg ard
Ġwith in
Ð¾ÑĤ Ñĥ
ĠÐ¾Ð± Ð´ÑĥÐ¼
ÐºÐ¾ Ð½Ñĩ
ter n
ĠÑĤÐ°Ðº Ð¸Ð¼
am ing
are r
Ġcon cl
ĠÑģÐ°Ð¼ Ð¾Ð¹
ĠÑģÐ°Ð¼ Ð¾Ð³Ð¾
ĠÐ²Ð· ÑıÐ²
Ġhow ever
Ġcont empt
ĠÐ¼Ð¾Ð» ÑĩÐ°
ĠÐ²Ð·Ð³Ð»Ñı Ð½ÑĥÐ²
ĠÐ¿Ð¾Ð¼ Ð¾Ð³
Ð¾Ñİ ÑģÑĮ
Ġrep ro
ĠÐ¾ÑĤÐº ÑĢÑĭÐ²
ĠÐ¿Ð¾Ð· Ð²
ĠÐ²ÑĭÑĢÐ°Ð¶ ÐµÐ½Ð¸ÐµÐ¼
Ġadd ressing
ĠÐ³Ð¾Ð»Ð¾Ñģ Ð°
ĠÐºÐ¾ÑĢ Ð¼
ĠÐ¼Ð¾Ð»Ð¾Ð´ Ð¾Ð¹
ĠÑģÐ¿Ð¾ÐºÐ¾Ð¹ Ð½Ð¾
ĠÐ¿ÑĢÐ¸ÑıÑĤ Ð½Ð¾
ĠÐ½ÐµÐ¾Ð± ÑĭÐºÐ½Ð¾Ð²
Ġcor ner
Ġdet ails
ĠÑģÑĤÑĢÐ°ÑĪ Ð½Ð¾
Ġprep ared
Ġarr ange
ĠÑĤÐ²ÐµÑĢÐ´ Ð¾
Ġacquaint ance
Ġsuc cess
Ġchar act
Ġhab it
Ġsever al
c oat
i ven
l s
p ic
Ġ ver
Ð¾ Ð½ÐµÑĨ
ÑĤ Ð¾Ð¶
Ð» Ð°ÑĤ
ĠÑģ Ð¶
ĠÐ½ Ð¾Ð¶
Ġhe av
Ġc and
Ġf our
Ġf ield
as es
ĠÐ¿ÑĢ Ð¾ÑĤ
ĠÐ¿ÑĢ Ð¸Ð¼
Ð¾Ð» Ð¾
Ð¾ÑĢ ÑĤ
se t
se qu
ĠÑģÐº ÑĢÑĭ
ĠÐ²Ñģ ÐµÐ¹
ÑģÑĤÐ² ÐµÐ½Ð½Ð¾Ðµ
Ġan x
Ð°Ð¶ Ð´
ĠÑĤÐ°Ðº Ð¸Ðµ
Ġsh ook
Ġcon vin
Ġde ce
ĠB esides
ĠÑģÐ¿ Ð¾ÑģÐ¾Ð±
Ġun f
Ġun if
ĠÐ¿ÑĢÐ¾ ÑħÐ¾Ð´
ĠÐ»ÑİÐ± Ð¸Ð¼
Ð¸ÑĤÐµÐ»ÑĮ Ð½ÑĭÐ¼
ÑĢÐ°Ð¶ Ð´
Ġshould ers
pect ed
ĠÐ¿ÑĢÐ°Ð² Ð°
Ġinterest ing
ĠÐ¿ÑĢÐ¸ÐµÑħ Ð°Ð»Ð°
Ġord ered
ĠÑĥÐ¿ ÑĢÐµÐº
Ġsil ence
Ġnotic ing
ĠÐ·Ð°Ð¼ÐµÑĤ Ð¸Ð»
ĠÐ½Ð¸ÐºÐ°Ðº Ð¾Ð³Ð¾
ĠÑģÐºÐ°Ð¶ Ñĥ
ĠÐ·Ð½Ð°Ñĩ ÐµÐ½Ð¸Ðµ
ĠÐ¾ÑĤÑĩ ÐµÐ³Ð¾
ĠÐ´Ð¾ÐºÑĤÐ¾ÑĢ Ð°
ĠÐ½ÐµÑģÑĩÐ° ÑģÑĤ
Ġsec ret
ĠÐ²ÑĭÐ± Ð¾ÑĢ
ĠÐ´Ð¾Ñĩ ÑĮ
ĠÐ²Ð¾Ð·Ð¼Ð¾Ð¶ Ð½Ð¾
Ġsurpr ised
Ġpur p
ĠÐ²Ð¿ÐµÑĩÐ°ÑĤ Ð»ÐµÐ½Ð¸Ðµ
Ġmere ly
Ġdiss at
ĠÐºÐ¾Ð»Ñı ÑģÐº
A D
D on
c hes
h ov
l ook
Ð ¡
ÑĤ ÐµÐ»ÑĮ
in ary
Ġs ir
Ġs ix
ĠÐ¿ ÐµÑĤ
ÑĤÐ¾ Ð»
it ude
ed om
ĠÐº ÐµÐ¼
ĠÐº ÑĢÑĥÐ¶
Ð¾Ð² Ð°Ð½Ð¸Ñı
ÑĪ ÐµÐ´
Ġc at
Ġm o
Ġm iss
ĠÐ´ ÑĢÐ¾Ð¶
ĠÑĩ ÐµÐ¼Ñĥ
Ġd ie
as ka
ĠÑĢ Ñĭ
Ġre qu
ÑĢÐ¾ Ð½
ÑģÑĤÐ² Ð¸ÐµÐ¼
ĠÐĿ Ð¸
ĠÐĿ ÐµÑģ
ĠÑı Ð²
ĠÑģÑĤ ÑĥÐ¿
ant ly
are nt
Ð¾Ð· Ð´
us ing
ĠÐŁ ÑĢÐ°Ð²
ac he
Ġwor th
Ð°Ð½Ð¸ Ð¸
ig hed
ĠÐ¾Ñģ Ð½Ð¾Ð²
Ð¾ÑĤÑĢ ÐµÐ±
ĠÐ¿Ð¾Ðº Ð¾ÑĢ
ĠÑĦ ÑĢÐ°Ð½ÑĨÑĥÐ·
ĠÐ·Ð°Ð¼ ÑĥÐ¶
ĠÐ¿Ð¾Ð½Ð¸Ð¼ Ð°ÐµÑĤ
ĠÐ½ÐµÐ² ÐµÑĢ
Ġwr ite
Ġwr iting
ĠÐ¸Ð½ Ð¾Ð³Ð´Ð°
Ġhands ome
ĠÐ¼Ð¾ Ñı
ĠÐ´Ð¾Ð± ÑĢÐ¾Ð´
ĠÐ½Ð°Ð¼ ÐµÑĢ
ĠÐ²ÐµÐ» ÐµÐ»
Ġreal ized
ĠÑħÐ¾Ð´ Ð¸ÑĤÑĮ
ĠÐľÐ¸ÑħÐ°Ð¹Ð»Ð¾Ð² Ð½Ð°
ĠÐ½Ð°Ðº Ð¾Ð½ÐµÑĨ
Ġimag ine
ĠÐ¿ÑĢÐµÐ» ÐµÑģÑĤ
Ġest ate
ĠÐ¿ÐµÑĢÐµÐ¼ ÐµÐ½
ÐµÐºÐ¾ ÑĤÐ¾ÑĢ
ĠÐĲÐ³Ð°ÑĦ ÑĮÑı
li ke
ĠÐ¿ÑĢÐ¸ÐºÐ°Ð· ÑĩÐ¸Ðº
ĠÐĺÐ²Ð°Ð½ ÑĭÑĩ
ĠÐ¿Ð¾Ð½ ÑĢÐ°Ð²
ĠÐľÐ¾Ð¶ ÐµÑĤ
Ġlandown er
! ..
i ver
n ature
p ing
Ð½ Ð½Ð¾
ÑĢ Ð°Ð´
ÑĢ ÐµÑĪ
Ġs ens
Ñĩ Ðµ
Ġh id
ÑģÑĤ Ðµ
Ġc aused
Ġm is
ĠÑĤ ÑĢÐ¾
Ġp ie
ĠÐ¶ Ð°ÑĢ
st on
Ð°Ð¼ ÐµÑĤ
ĠÐ³ ÑĢÑı
ÐµÐ½Ð¸ ÑĤ
ĠÑģÐº ÑĢÑĭÐ²
Ġu nt
ÑĨ Ð¾Ð²
Ġfor ce
Ð»Ð¸ Ð¶
ĠÑħ Ð¾ÑĤÑĮ
Ð¾Ðº Ð°ÑĤ
ĠL aska
ĠÐĽ Ð°ÑģÐº
ev ich
ĠÐ¿Ð¾Ð´ Ð¾ÑĪÐ»Ð°
ĠÐ¿Ð¾Ð´ ÑĤÐ²
ÑĥÐ¼ Ñı
Ġex am
ÐµÑĩ Ð¸
ÐµÐ½Ð½Ð¾ Ñİ
Ġcon v
bl ic
Ġint ro
ÐµÑĢÑĮ Ñİ
ure s
ĠÑħÐ¾ÑĤ Ð¸ÑĤÐµ
ĠÐ´ÑĢÑĥÐ³ Ð¸Ð¼
ĠÐ´ÑĥÐ¼ Ð°ÐµÑĪÑĮ
Ġte le
hen s
Ġro ad
ĠÑĨ Ð²ÐµÑĤ
ĠÐ¿Ð¾ÑĢ ÑĤÑĢ
Ġgre y
Ġatt ent
ĠÐ¡ÐµÑĢÐ³ ÐµÑı
Ġcar ried
ĠÐĺÐ²Ð°Ð½Ð¾Ð²Ð¸Ñĩ Ð°
ĠÐ½ÐµÐ´ Ð¾Ð²Ð¾Ð»ÑĮ
Ġbel ong
Ġdress ed
Ġgu ess
ĠÐ¾Ð±ÑĬ ÑıÐ²
Ġspo il
ĠÐ¿ÑĢÐ¸Ð´ ÑĥÐ¼
ĠÐĿÐ¸ÐºÐ¾Ð» Ð°
ĠÑģÐ¾ÑģÑĤÐ¾Ñı Ð½Ð¸Ðµ
Ġbeaut y
Ġfore st
ĠÐ¸Ð³ ÑĢ
ĠÐ¶Ð´ Ð°Ð»
ĠÐ²ÑģÐ¿Ð¾Ð¼Ð½ Ð¸Ð»
Ġwalk ing
ĠÐ²Ð¾Ð·Ð² ÑĢÐ°Ñī
ĠÐ¡ÑĤÐ¸Ð² Ð°
Ġport ra
Ġmon th
ĠÐ²ÑģÐ¿Ð¾Ð¼Ð¸Ð½Ð° Ñı
Ġsum mer
ĠÐ½Ð°Ð¿ÑĢÑı Ð¶
ĠÐĶÐ¼Ð¸ÑĤ ÑĢÐ¸Ñĩ
Ġobl ig
o or
p uk
t hat
Ñģ Ñĥ
ÑĢ ÐµÑģÑĤ
Ñı Ð»Ð°ÑģÑĮ
Ñĭ ÑģÐº
ĠÑģ Ð½Ð°ÑĩÐ°Ð»Ð°
ĠÐ¿ Ð¾Ð»ÑĮÐ·
ĠÐ¾ Ð³Ð¾ÑĢ
re ct
Ð² Ð°
Ð´ Ð¾
Ġb ig
is m
Ġc aught
ĠÐ± Ð°Ð±
ĠÐ± Ð¾ÑİÑģÑĮ
Ġm oving
Ġth ick
ĠÐ¼ Ð¸Ð¼Ð¾
ĠÑĥ Ð¹
ĠÑĥ ÑĩÐ°
Ð¿ ÑĥÑħ
ĠÑĢ ÐµÐ´
Ġe arly
Ð¸ÑĤ ÐµÐ»Ñı
ĠÐĴ ÐµÑĢ
Ġfor m
ĠÐ²Ñĭ ÑĢÐ°Ð·
ĠÐ¾Ð± ÑıÐ·Ð°Ð½
ĠÑģÑĤ Ð°Ð»Ð¸
Ġne arly
ul s
ust om
ĠB ar
ĠÐ¾Ð´ Ð½Ð¾Ð¼
Ġv al
ĠÐ²Ð¸Ð´ Ð½Ð¾
ĠD mit
Ġcom es
ĠN ik
ĠÐĲÐ»ÐµÐºÑģÐ°Ð½Ð´ÑĢÐ¾Ð²Ð¸Ñĩ Ñĥ
ĠÐ¼ÑĥÐ¶ ÐµÐ¼
ĠE x
Ġbl ame
ĠÑģÐ¾Ð± Ð¾Ñİ
ĠÐ½ÐµÐ¿ ÑĢÐ°Ð²
ĠÐ½Ð°Ñĩ Ð¸Ð½Ð°
Ġent ire
ĠÐ¿Ð¾Ð· Ð´
ÑıÐ» ÑģÑı
ĠÑĥÐ· Ð½Ð°ÑĤÑĮ
Ġrememb ering
ĠÑĥÐ± ÐµÐ´
ĠÐ¿Ð¾Ñģ ÑĤÐ¾Ñı
ĠÐ¾Ð¶ Ð¸Ð´Ð°
ĠÐ¾Ð±ÐµÐ´ Ð°ÑĤÑĮ
ĠÐ³Ð¾ÑģÑĤ Ð¸Ð½
ĠÑģÑĤÐ¾Ð» Ñĥ
Ġhum ili
att le
Ġvisit ors
ĠÐ²ÑģÐ¿Ð¾Ð¼Ð½ Ð¸Ð»Ð°
Ġfirm ly
ĠÑĤÐ¾ÑĢ Ð¾Ð¿
ON S
Ġdro ve
Ġwhis p
ĠÐļÐ½Ñı Ð³
ĠÐĴÐ°ÑģÐµÐ½ÑĮ ÐºÐ°
Ġwin ter
Ġfur ther
Ġpurp ose
hov sk
i b
Ð» ÑĥÑĪ
ÑĢ ÐµÐ½Ð¸Ñı
in ation
ĠÐ½ ÐµÐº
Ġh ung
ou red
Ġb ir
at re
at ive
ĠÐº Ð°Ð¼
ĠÐº Ð¾Ð¿
Ġf ut
ll ed
Ð¾Ð´ Ð½Ð¾
ĠÐ½Ð° ÑĢÐ¾
ĠÐ½Ð° ÑĪÐµÐ»
st airs
Ġsa l
ÑĢÐ¾ ÑĪ
ir ty
ĠÐ²Ñĭ Ð³
Ð»Ð¸ Ñı
ĠL E
ĠÐ¿Ð¾Ð´ Ð¾Ð±
ÑĢÐ° ÑĦ
ĠÐ³Ð¾Ð²Ð¾ÑĢ Ñı
Ġde al
ard on
ĠÐ¾Ð´ Ð½Ð¸Ð¼
ĠM e
ĠÐ¿ÑĢÐµÐ´ Ð¼
Ġse at
ĠÐ¿Ð¾Ðº Ð°
Ġco ff
ÑģÑĤÑĢ ÐµÑĩÑĥ
Ð°Ð²ÑĪ Ð¸Ðµ
ĠG er
ap a
Ð»Ð¸Ð² Ð¾
th ough
Ġafter wards
Ð½Ð¸Ðº Ð¾Ð²
ĠÐ£ Ð¶
ĠÐ·Ð°Ð± ÑĭÐ»
ĠÐ²Ð¾Ñģ ÑĤÐ¾ÑĢ
ĠÐ¶ÐµÐ» ÐµÐ·
Ġdra w
ĠÑģÑĤÐ¾ÑĢÐ¾ Ð½Ñĥ
Ġconf ess
Ġref lect
Ġsl ow
ĠÐºÐ¾Ð¼Ð½Ð° ÑĤÐµ
Ġwat ch
cept ion
ĠÐ³ÑĥÐ± Ñĭ
ĠÐ½Ð°Ð² ÑģÑĤÑĢÐµÑĩÑĥ
Ġbre ak
Ġfre edom
Ġcond itions
Ġhur t
ĠÐ¿Ð¾Ð²ÑĤÐ¾ÑĢ Ð¸Ð»
ĠÑģÑĩÐ¸ÑĤ Ð°Ð»
ĠÐ²Ð½Ð¸Ð¼ Ð°ÑĤÐµÐ»ÑĮÐ½Ð¾
ĠÐ¿ÑĢÐµÐ» ÐµÑģÑĤÑĮ
ĠÐ¾ÑĤÐ½Ð¾ÑĪÐµÐ½Ð¸Ñı Ñħ
gr am
Ġsurpr ise
ĠÑģÐºÑĥÑĩ Ð½Ð¾
ĠÐ´Ð°Ð»ÑĮ ÑĪÐµ
ĠÐ¼ÐµÑģÑĤ Ð°
Ġbur st
ĠÐ³Ð¾ÑĢÑı Ñĩ
Ġslight ly
Ġdut y
ĠÐ½Ð°Ñħ Ð¼ÑĥÑĢ
Ġquar re
Ġhurried ly
Ġunhapp y
Ġcharact er
puk hovsk
ĠÐ¾Ð³Ð¾ÑĢ Ñĩ
pukhovsk oy
b ably
i ber
r ich
r icult
Ð¾ ÑıÑĤ
Ñı Ð½ÑģÐº
Ġw is
Ġw et
Ġw ood
ĠÑģ Ð¾Ð´
Ñĩ ÑĤÐ¾
ĠÐ² Ð¾ÑĪÐ»Ð°
re ad
re me
re hens
Ġhe aring
Ġc ig
Ġf ree
en cy
ĠÐµ ÑģÑĤÐµ
Ġp ressing
ĠÐ¿ÑĢ Ð¾Ð¼
ĠÑĥ Ñħ
ĠÑĢ ÐµÐ·
le t
Ð¾Ð´ Ñĭ
ĠÐ¿Ð¾ ÑĪÐ»Ð°
ĠÐ¿Ð¾ Ñį
Ð°Ð½ Ðµ
Ð°Ð½ ÑĮ
ce ed
ÑĨ ÐµÐ¼
ĠÐ¾ÑĤ Ð»Ð¸Ñĩ
Ð¾Ð¶ Ñĥ
ĠÐŀ Ð¿
ĠÑģÐ² ÑıÑīÐµÐ½
Ð¾Ðº Ð°
ĠÐ¾Ð± ÑĭÑĩ
ĠÑģÑĤ Ð°ÑĤÑĮ
ĠÑĢÐ°Ð· Ð³Ð¾Ð²Ð°ÑĢ
Ð¾Ð· Ð²
ĠÐ³Ð¾ ÑĢÐ°Ð·
ÐµÐ½Ð¸Ñı Ñħ
ĠÐ¿Ð¾Ð» ÑİÐ±
Ġout side
Ġun ex
ĠD on
ĠÑģÐ¼ ÑĭÑģÐ»
ound ed
Ð³Ð»Ñı Ð´ÑĭÐ²
Ġpl aced
ÑģÑĤÑĢ Ð°Ð½
ĠÑģÑĤÐ°ÑĢ Ð°Ð»ÑģÑı
ĠÐ¡ÐµÑĢ Ð¿ÑĥÑħ
ĠÐ²ÐµÑĢ Ð¸ÑĤÑĮ
Ġbl ushing
ĠÑĥÐ¼ ÐµÑĢ
Ġhapp en
ĠÐ³Ð¾Ð»Ð¾Ð² Ðµ
ĠÐ¿Ð¾Ð· Ð½Ð°ÐºÐ¾Ð¼
ĠÐ²ÑģÐ¿Ð¾Ð¼ Ð½Ð¸Ð²
Ġsc y
Ġsc ar
ĠÑĢÐ°Ð·Ð² Ðµ
ĠÑĩÐ°Ñģ Ñĭ
ĠÐºÑĢÐ°Ñģ Ð½Ðµ
ĠTh ough
Ġind e
Ð¸ÑĩÐµÑģÐº Ð¸
ĠÑģÑĤÐ¾ÑĢÐ¾ Ð½
Ġact ion
Ġlist en
ĠÐ·Ð² Ñĥ
ĠÐ¸ÑģÐº ÑĥÑģ
Ġfoll owing
ĠÑģÐ»ÑĥÑĩ Ð°
isf act
ĠÐ²ÑģÑĤ Ð°Ð»Ð°
ĠÑĥÐ·Ð½ Ð°Ð²
ĠÐ±ÑĥÐ´Ñĥ Ñī
ĠÐ¿ÑĢÐ¸Ð½ ÐµÑģ
ĠSer pukhovskoy
ĠÐ²ÑģÑĤÑĢÐµÑĤ Ð¸Ð»
vel op
ĠÑĥÐ½Ð¸ Ð¶
ĠÐ·Ð°Ð³Ð¾Ð²Ð¾ÑĢ Ð¸Ð»
ĠÐ´ÐµÑģÑı ÑĤ
ĠÐľÐ¾ÑģÐºÐ² Ñĥ
ĠÐ²ÐµÑī Ð¸
ĠÐ²Ð° ÑĪÐµ
Ġpap er
Ð´Ð² Ð¾ÐºÐ°ÑĤ
ĠÐ·Ð°Ð¿Ð¸ÑģÐº Ñĥ
Ġinflu ence
ĠÐ¼ÑĭÑģÐ» ÐµÐ¹
ĠArkady evna
Ġgover ness
ĠÐ¿ÑĢÐ¾Ð¸Ñģ ÑħÐ¾Ð´
ĠÐ³Ð¾ÑģÑĤÐ¸Ð½ ÑĥÑİ
ĠÐļÐ½ÑıÐ³ Ð¸Ð½Ñı
Ġfut ure
ĠGer man
ĠÐ³Ð¾ÑĢÐ°Ð· Ð´Ð¾
ĠÐ¡ÐµÑĢÐ¿ÑĥÑħ Ð¾Ð²
. "
0 0
I n
M y
k n
Ð Ł
Ð¾ Ð½Ð°
Ð» Ð¾ÑĤ
ÑĢ Ð¾Ð³
Ñĥ Ñı
Ñĥ ÐµÑĤ
in es
ĠÑģ Ð½Ð¸Ð¼
ĠÐ½ ÐµÐºÐ¾ÑĤÐ¾ÑĢ
ĠÐ² ÑģÑĤÑĥÐ¿
ĠÐ² Ð½Ð¸Ð·
Ġh ig
Ð² Ð¸Ð´
it al
er k
on c
Ġf av
ĠÐ± Ð¾Ðº
Ġm a
Ġm ed
ĠÐ´ Ð°ÑĤÑĮ
ÐµÑĢ Ñĥ
ĠÐ¼ ÐµÐ»
ĠÐ¼ ÑĥÐ½Ð´
ĠÐ¿ÑĢ Ð¾Ðº
ĠÐ· Ð¸Ð¼
Ð½Ð¸ ÑĤÐµ
Ġe at
ic ated
ĠÐ¶ Ð°Ð»Ð¾
ÐµÐ² Ð°
Ð°Ð¼ Ð¿
ĠÐ» Ð¸Ñĩ
Ġr ing
oo se
Ð½Ñĥ ÑĤÑĮÑģÑı
ĠÑģÑĤ ÐµÐ¿
ĠÑĤÐ°Ðº Ð°Ñı
ĠÑģÐºÐ°Ð·Ð°Ð» Ð¸
ĠÐºÐ¾ÑĤÐ¾ÑĢ ÑĭÐ¼Ð¸
ĠÐĽÐµÐ²Ð¸Ð½ ÑĭÐ¼
ĠÐ³Ð¾ ÑģÑĤÐ¸
itt ed
Ġde pend
ĠÑģÐ¿ Ð°Ñģ
ÑĥÐ² ÐµÑĢ
ist s
ĠÑĢÑĥ ÐºÐ°Ñħ
ĠÑĪ ÐµÐ¿
Ġv an
art h
Ġknow ledge
ĠÐ²Ð· ÑıÑĤÑĮ
ĠÐ²Ð· ÑıÐ»Ð°
ĠÐ±Ð¾Ð»ÑĮ Ð½Ð¾
ĠÐ¿Ð¾Ðº Ð°Ð·ÑĭÐ²
Ġpl an
ĠÐ¿Ð¾ÑģÐ» ÑĭÑĪ
ĠÐ²ÐµÑĢ Ð½ÑĥÐ»ÑģÑı
ĠÐ²Ð¾Ð· ÑĮ
Ġcl ass
ĠÐĵ ÑĢÐ¸
Ġpart y
ĠÑģÑĤÑĢ Ð°Ð½Ð½Ð¾
Ġmoment s
Ġrel ation
iss ion
ĠÐ¿ÐµÑĢÐ² ÑĥÑİ
ĠÑĥÐ± ÐµÐ¶Ð´
ĠXX I
Ġreg ret
ĠÑģÐ»ÑĥÑĩ Ð¸Ð»Ð¾ÑģÑĮ
ĠÐ¿Ð¾Ð¿ ÑĢÐ°Ð²
ĠÑĤÑĢÑĥÐ´ Ð¾Ð¼
ĠÐ³Ð¾ÑģÑĤ Ð¸Ð½Ð¾Ð¹
Ġcomm on
Ġeff ect
Ġview s
ĠÐ³ÑĢÑĥ Ð±
Ġhon est
Ġtender ness
Ġpu blic
ĠÐ¿ÑĢÐµÐ´Ð»Ð¾Ð¶ ÐµÐ½Ð¸Ðµ
Ð¼Ð¾ÑĤÑĢ Ñı
Ġrap idly
ĠÐ³ÑĥÐ±ÐµÑĢ Ð½ÑģÐº
Ġswe et
Ġsy mp
Ġshoot ing
Ġconvin ced
ĠDmit rich
Ġwhisp ered
ĠÐ½Ð°ÑĢÐ¾ ÑĩÐ½Ð¾
Ġunex pected
b s
h ow
l as
n et
Ã ©
Ñģ ÑĥÐ´
ÑĢ Ð°Ðº
ÑĢ ÐµÑĤ
ĠÑģ ÐµÐ´
ĠÑģ ÐµÑĢÐµÐ´
ĠÐ¿ Ð»Ð¾
Ð² Ð¸Ð½Ñĥ
it able
Ð¾Ð² Ð¾Ð¹
Ġf un
ĠÐ´ Ð¾Ð³
ĠÑĤ Ð¾Ð±Ð¾Ð¹
ĠÐ½Ðµ Ð¾Ð¶Ð¸Ð´
Ġl aughter
ĠÐ¿ÑĢ Ðµ
Ð°Ðº ÑĤÐµÑĢ
id ent
Ð¾ÑĢ Ð²
ĠÐ½Ð° ÑģÐ»
Ġe c
Ġe arth
ĠÐ» ÑĥÐ³
Ġst ret
ir ing
Ð°ÑĢ Ð°ÐºÑĤÐµÑĢ
Ġr ail
ĠÐ·Ð° ÑģÑĤÐ°Ð²
Ġall ow
Ð½Ñı ÑĤÑĮ
ĠÐŁ Ð¾Ð¶
ÑģÑĤÐ¸ Ñı
ĠÑģÐ¿ Ð°ÑĤÑĮ
Ġj our
ÐµÑħ Ð°Ð»Ð°
Ġag ricult
ĠÐ¡ÑĤ Ð°ÑĢ
Ġey e
Ð°Ð²ÑĪ Ð¸Ñħ
Ð°Ð²ÑĪ ÑĥÑİ
ĠÐķ ÑīÐµ
Ġsomet imes
ĠÑĥÐ¼ Ð¾Ð»
ĠÑĨ ÐµÑĢÐº
Ð¸Ð²ÑĪ ÐµÐ¹
Ð¸Ð²ÑĪ Ð°Ñı
Ġforg iven
ĠÐ²Ð¾Ð¿ÑĢÐ¾Ñģ Ñĭ
ĠÐºÐ½ÑıÐ³ Ð¸Ð½Ð¸
ĠÑģÐ¸Ð» Ñĭ
ĠÐ¾Ðº ÑĢÑĥÐ¶
Ġconf used
ĠÐ±Ð¾Ð³ Ñĥ
ĠÐ±Ð¾Ð³ Ð°ÑĤ
ĠÑĥÐ¿ Ð¾ÑĤÑĢÐµÐ±
ĠÐ¸ÑģÐº ÑĢ
ĠÐ´ÐµÑĢÐµÐ² Ð½Ñİ
ĠÑģÐ¸Ð´ ÐµÐ»Ð°
ĠÐ¿Ð¾Ð¹ Ð¼
ĠÐłÐ°Ð· ÑĥÐ¼ÐµÐµÑĤÑģÑı
Ġexpl an
ĠÐ¿Ð¾ÑĩÑĥÐ²ÑģÑĤÐ² Ð¾Ð²Ð°Ð»Ð°
ĠÐŀÐ´ Ð½Ð¾
Ġhum an
ĠÐµÐ´ Ð¸Ð½
ĠÑĥÐ´Ð¾Ð²Ð¾Ð»ÑĮ ÑģÑĤÐ²Ð¸Ñı
Ġopp os
ĠÐ¸Ð·Ð± ÐµÐ³
ĠÑģÑĤÑĢÐ°Ð´ Ð°Ð½Ð¸Ñı
Ġspir its
ĠÐ¸Ñģ ÑĤÐ¾ÑĢ
ĠÑģÐ¼ÐµÑĢ ÑĤÑĮ
ĠÐ´Ð¾Ð² Ð¾Ð»ÐµÐ½
ĠAlexandrov na
Ġlaw y
ĠÑĪÐ»ÑıÐ¿ Ñĥ
Ġhon our
ĠÑĢÑĥÐ± Ð»ÐµÐ¹
ĠÐºÑĢÐ¸Ðº Ð½ÑĥÐ»
ĠÐ¼ÑĢÐ° Ñĩ
Ġfrown ing
ĠÑģÐ¼Ñĥ Ñī
ĠÐ½ÐµÐ¾Ð±ÑħÐ¾Ð´ Ð¸Ð¼
ĠÐ¾ÑģÑĤÐ°Ð½ Ð°Ð²Ð»Ð¸Ð²
ĠÐłÐ¾Ñģ ÑģÐ¸Ð¸
ene ath
ĠÐ¾ÑģÑĤÐ¾ÑĢÐ¾Ð¶ Ð½Ð¾
ĠÑģÐ¾Ð»Ð½ ÑĨÐµ
nature d
Ġcoff ee
O f
S o
W here
b ar
h ood
j o
j oy
r or
Ð¾ ÑħÐ¾ÑĤ
ÑĢ Ð°Ð³
ÑĮ ÐµÐ¹
Ġw a
Ġw ee
Ġw alked
ĠÑģ ÑĥÐ¼
ĠÑģ Ð°Ð¼Ð¸
Ġs qu
re ed
ĠÐ¸ Ð´ÐµÑĤ
ÑĪ ÐºÐ°
Ġc ry
Ġc ru
ĠÐ´ Ð¾Ð¿
ĠÑĩ ÐµÑģÑĤ
ÐµÑĢ ÑĤ
ĠÐ¼ ÐµÐ½ÑĮ
or n
ĠÑĥ ÐµÐ·Ð¶
ĠÑĢ ÑĥÑĩ
Ġbe ll
Ġg all
ld er
ĠÑĤÐ¾ Ñİ
ĠÐ¾ÑĤ ÑĭÑģÐº
Ġr ate
ĠÑħ ÑĢÐ¸
ĠÑħ Ð°ÑĢÐ°ÐºÑĤÐµÑĢ
ĠÐ¿Ð¾Ð´ Ð±
ĠThe se
... "
ul ar
ĠÑģÐ¿ Ð°Ð»ÑĮ
ĠO f
ĠM ama
ist ed
Ġv ar
ĠÑģÐ°Ð¼ ÑĭÐ¹
ĠÐ²Ð¸Ð´ Ð°Ð»
Ġpo ssi
ĠÐºÑĢ Ð¸Ñĩ
ÑĤÐ¸ Ð¸
Ð°Ð½Ð¸ Ð¹
ĠÑĥÐ»ÑĭÐ± ÐºÑĥ
ish a
ĠÑģÑĤÐ°ÑĢ ÑĭÐ¹
ĠÐ½Ð¸Ðº Ð¾Ð³Ð¾
ĠÑĦ Ð¸Ð»
Ð´Ñĥ Ñħ
ĠÐ²Ð¾Ð· Ð´ÑĥÑħ
end ing
Ð¸ÑĢ Ð°Ñı
Ġen joy
ĠÐ½ÐµÐ² Ñĭ
anc y
ĠPet er
ĠÐ½Ð°Ñģ ÑĤÐ¾ÑıÑī
ĠÐ¾ÑģÑĤÐ°Ð½Ð¾Ð² Ð¸Ð»Ð°ÑģÑĮ
Ġdist ur
Ġevid ent
Ġinst ant
Ġtre es
Ġbes ides
ĠÑĢÐ°ÑģÐ¿ Ð¾Ð»Ð¾Ð¶
Ġlau ghed
Ġcomm un
ĠÐ¾ÑĤÐ²ÐµÑĤ Ð¸Ð»
ĠÐ¿ÑĢÐµÐ´ÑģÑĤÐ°Ð² Ð¸ÑĤÑĮ
Ġdifficult y
ÑĢÐ¸Ñĩ Ð°Ð»
Ġce ased
ĠÐ½Ð¾Ñĩ ÑĮ
Ġserv ice
ĠÐ¿Ð¾Ñħ Ð¾Ð¶
ĠÐ²ÑĭÐ· Ð²
Ġtou ched
ĠÐ²ÑĭÐ¹ ÑĤÐ¸
Ġconc ern
ĠÐ¼ÑĢÐ° ÑĩÐ½Ð¾
ĠShcherbatsky s
Ġph il
ĠÐ¿ÑĢÐ¸ÑģÐ» ÑĥÑĪ
Ġindiff erent
ĠÐ¾Ð±ÑĭÐºÐ½Ð¾Ð² ÐµÐ½Ð½Ð¾
ĠÐ²ÑģÑĤÐ°Ð² Ð°Ñı
Ġbro ken
Ġavo id
Ġjump ed
ĠÐ¾ÑĦÐ¸ÑĨ ÐµÑĢ
Ġstren gth
Ġgard en
ĠÐĿÐµÑģ Ð¼Ð¾ÑĤÑĢÑı
ĠÐ´Ð¾Ð±ÑĢÐ¾Ð´ ÑĥÑĪ
Ġtele gram
Ġportra it
Ġoblig ed
Ġslow ly
Ġwis hes
g ing
w o
Ġ Z
Ð° ÑĢÐ¾
ĠÑģ ÑĥÐ´ÑĮ
ĠÑģ ÑģÐ¾ÑĢ
ĠÐ¿ Ð¾Ð²Ð¾ÑĢ
ĠÐ² Ð¾ÑĪ
ĠÐ² ÑĢÐ°Ð¶Ð´
ĠÐ² Ð»Ð¸Ñı
Ðº Ð¾Ð»
Ġh ate
Ð² Ð¾Ð·
Ġb are
Ġb ore
Ġb eneath
at hing
ĠÐº ÑĢÑĥ
ĠÐº Ð°Ð¿
ÑĪ Ð»Ð¾
Ġf et
ĠÐ± ÐµÐ´
Ġm aman
ĠÐ´ Ð¸Ð²
ĠÑĤ ÐµÐ¿
ĠÐ¼ Ð°Ñħ
Ġp un
Ġin n
Ġbe ar
ÑģÐº Ð¾Ð²
Ġyou th
ÐµÐº Ð¸
Ġfor ward
Ġst ern
ĠA l
Ġr ace
ĠL et
Ġme adow
ĠÑĢÐ°Ð· ÑĥÐ¼
Ġne arer
Ġde ad
ĠW hile
ĠÑģÐ¿ ÑĢÐ°Ð²ÐµÐ´Ð»Ð¸Ð²
ĠP ests
ĠP apa
ĠÐ¿Ð¾Ð» Ð°Ð³
Ġup set
Ġlook s
ĠÑĪ Ð°ÑĢ
Ð°Ð± Ð¾ÑĤ
ĠÐ·Ð½Ð° ÑĩÐ¸ÑĤ
ĠÑĩÑĥÐ²ÑģÑĤÐ² ÑĥÑİ
ÑĦ ÑĢÐ°Ð½ÑĨÑĥÐ·
ĠÑģÐ¼ ÐµÑħ
ĠÐ´ÐµÐ» Ñĥ
ĠÐ¾Ð¿ ÑĢÐ°Ð²
ĠÐ´ÑĢÑĥÐ³ Ð¾Ð¼
Ġar gu
ĠÑĥÐ»ÑĭÐ± ÐºÐ°
ĠÐ¿Ð¾Ðº Ð»Ð¾Ð½
Ġshould er
ĠÑĩÐµÐ»Ð¾Ð²ÐµÐº Ñĥ
ĠÑħÐ¾ÑĢÐ¾ÑĪ Ð°
Ġen orm
ĠÐ½Ð¾Ð² Ð¾Ð¹
ĠÑĢÐµÑĪ Ð¸Ð»
Ġwork ing
Ġper haps
ĠÐ¿ÐµÑĢÐ² Ð¾Ðµ
ĠÐ¼Ð¾ ÐµÐ¹
ĠÐŁÐµÑĤ ÑĢÐ¸ÑĨ
Ġdin ing
ĠÑĥÑĤ ÐµÑĪ
Ġes c
Ġaff air
ĠÐ¿ÑĢÐ¾ÑĪ ÐµÐ´
Ġocc ur
ĠHow ever
Ġsur r
ĠÑĥÐ´Ð¸Ð² Ð»Ñı
Ġmer rily
ĠÑģÐºÐ°Ð¶ ÐµÑĤ
ĠÑĢÐ°ÑģÐ¿ Ð¾ÑĢ
ĠÐ¿ÑĢÐ¾Ð¸Ð· Ð²Ð¾Ð´
Ġexc ite
Ġnur s
ĠÐ¼Ð½ Ð¾Ð³
ĠÐ¼Ð½ ÐµÐ½Ð¸Ðµ
ĠÐ²Ð½Ð¸Ð¼ Ð°Ð½Ð¸Ðµ
ĠÑģÐºÐ¾ÑĢ ÐµÐµ
Ġra ised
Ġsn ipe
ĠÑĤÐ¾ÑĢ Ð¶Ðµ
ĠÑĥÑģÐ»Ð¾Ð² Ð¸Ñı
Ġspirit ual
Ġcirc le
ĠGr isha
Ġment al
Ġexact ly
ĠÐ¿ÐµÑĤ ÐµÑĢÐ±ÑĥÑĢÐ³
ĠÐ³ÑĢÑı Ð·
Ġentire ly
Ġfav our
ĠÑĨÐµÑĢÐº Ð²Ð¸
ĠPests ov
Ġenorm ous
K Y
L et
N ow
O R
m ov
p orter
s u
Ð §
Ñı Ñı
Ġs us
Ġs ighed
Ð² ÑĭÑĩÐ°Ð¹
Ġb oot
Ð¼ ÐµÑı
Ð¾Ð² Ð°Ð»ÑģÑı
Ġc ent
Ġf u
Ġf arm
as k
Ġn ature
ĠÐ¼ ÐµÐ½
Ġp rin
ĠÑĥ ÐµÑħÐ°Ð»
ĠÐ· ÑĥÐ±
Ð½Ð¸ ÐºÑĥ
Ð½Ð¸ ÐºÐ¸
Ġe ars
se m
ĠÐ¶ ÐµÐ½Ð¸
Ð¸Ð² Ð°Ð»ÑģÑı
Ð¾ÑĤ ÑĢÐ¸
ĠÐ¾ÑĤ ÐµÑĨ
al ed
ĠÑģÐ² Ð¸Ð´Ð°
ĠS u
ĠÐ¿ÑĢÐ¸ ÑĪÐµÐ»
ĠÐ¿ÑĢÐ¸ ÐµÐ·Ð¶
ill ing
ĠÐ¿Ð¾Ð´ Ð´ÐµÑĢÐ¶
ĠÐ° Ð´Ð²Ð¾ÐºÐ°ÑĤ
ĠÐ³Ð¾Ð²Ð¾ÑĢ Ð¸ÑĤÐµ
Ġwhat ever
ĠÐ¾Ð´ Ð½Ð¸
Ð¾Ñĩ ÑĮ
ĠÐĲÐ½ Ð½Ð¾Ð¹
Ġpo ck
ĠÐ±ÑĥÐ´ ÐµÐ¼
Ð°Ð»ÑĮ Ð½Ð¾
Ġoff ended
ĠÑĥÐ´ Ð°ÑĢ
Ġpro per
Ġstr anger
Ð¸ÑĢ Ð°ÑĤÑĮ
ĠÐ¿Ð¾Ð¼ Ð¾Ð»Ñĩ
ĠÐ¸ÑģÐ¿ Ð¾Ð»
ĠÐ¿Ð¾Ð½Ð¸Ð¼ Ð°ÑĤÑĮ
Ġgr ound
Ġdes ired
ĠÐ¿Ð¾ÑĢ Ð°Ð¶
Ġent er
Ġtell ing
Ġvo ices
ĠÐ²Ð¼ ÐµÑģÑĤÐ¾
ĠPet ritsky
Ġreturn ing
sh ip
Ġdec ide
Ġcal Ã¨
Ġche st
ĠÐ¿ÑĢÐ¾ÑĤÐ¸Ð² Ð¾Ð¿
Ġdel ic
ĠÑĢÐ°ÑģÑģÐº Ð°Ð·
Ġaw are
ĠÐ¿ÑĢÐ¾Ð³Ð¾Ð²Ð¾ÑĢ Ð¸Ð»Ð°
Ġrid icul
ĠÐ´ÑĥÑħ Ð°
oun c
Ġsn ow
ĠÐ¾Ð¶Ð¸Ð´ Ð°Ñı
ĠÑģÐ¾Ð¼Ð½ ÐµÐ²
ĠÐ¼ÐµÐ´ Ð»ÐµÐ½Ð½Ð¾
Ġinqu ired
ĠEvery thing
ĠÑģÐ¼Ñĥ ÑĤ
Ġmin utes
ĠÐ³ÑĢÐ¾Ð¼ ÐºÐ¾
ĠÑĩÑĢÐµÐ· Ð²ÑĭÑĩÐ°Ð¹
ĠFr om
ĠÑĦÐ¸Ð³ Ñĥ
ĠÑĤÐ¸Ñħ Ð¾
ĠÑģÐ¸Ð»Ð° Ñħ
ĠÐ²Ð¾Ð·Ð± ÑĥÐ¶Ð´
ĠÐ²Ð½Ñĥ ÑĤÑĢ
Ġdissat isfied
ĠÐĿÐ¸ÐºÐ¾Ð»Ð° ÐµÐ²
ĠNik ol
Ġsymp ath
ĠÐ²ÑĢÐ°Ð¶Ð´ ÐµÐ±
ÑĦÑĢÐ°Ð½ÑĨÑĥÐ· ÑģÐºÐ¸
Ġexcite ment
ĠcalÃ¨ che
b e
m per
n ers
r ou
u z
Ð¾ ÑĦ
ÑĢ Ð¾Ð¿
in ct
Ġw ar
ĠÐ² Ð½ÐµÑĪ
Ġh ind
Ġh ide
ĠÐ¾ Ð²
ĠÐ¾ ÐºÐ¾Ð½Ñĩ
ou ra
Ġb ent
Ġhe aven
on ed
Ġf ro
Ġf aces
Ġm ach
Ġd anger
ll i
ĠÐ½Ðµ ÑģÐ¿
ĠÐ½Ðµ ÑĩÐµÐ³Ð¾
ĠÐ¼ Ð°Ð½
Ġp it
Ġp or
Ġp aid
ÐµÑĤ Ð²ÐµÑĢ
Ð°Ð² Ð¸Ñģ
ĠÑį Ð½
et h
al id
ĠÐ²Ñģ Ð¿
Ġr ushed
ĠT it
ĠT ur
ĠÐ²Ñĭ Ð³Ð¾Ð²Ð¾ÑĢ
ĠÐ²Ñĭ ÑģÑĤÑĥÐ¿
Ð½Ñĥ Ð»Ð¸ÑģÑĮ
ĠH ere
ĠÐ¿ÑĢÐ¸ Ð³
ĠÐ½Ð¾ Ñģ
Ð»Ð° ÑĪ
Ġall owed
ĠÐŁ Ð¾Ð¼
Ġch o
ĠÑĢÑĥ ÐºÐ¾Ð²
Ġam b
ĠÐ´Ð² ÐµÑĢ
ĠÑģÑĤÐ¾ Ð¸ÑĤ
Ġno ble
Ġbr ide
Ð¸ÑĤÐµÐ»ÑĮ Ð½Ð¾Ðµ
Ð°Ð½Ð¸ ÐµÐ¼
Ġco st
Ð¸Ñģ ÑĤÐ¾
ĠÐķ Ð³Ð¾
ĠÑħÐ¾ÑĢÐ¾ÑĪ ÐµÐ½ÑĮ
Ġspe cially
Ð¸ÑĤÐµ ÑģÑĮ
ĠÐ¸ÑģÐ¿ Ð¾Ð»Ð½
ĠÐĵ Ð´Ðµ
Ġen c
ĠÐ¿Ð¾ÑĢ ÑıÐ´
ĠÐ±Ð» ÐµÑģÐº
Ġsat isfied
Ġcle an
ĠÐ¿ÑĢÐ¸Ð² ÐµÐ·
ĠÑħÐ¾Ñĩ ÐµÑĤÑģÑı
Ġinterest s
ĠÐ¿ÑĢÐ¸ÐµÑħ Ð°Ð»Ð¸
Ġact iv
Ġinv alid
ĠÐ·Ð² ÑĥÐº
Ð°ÑİÑĤ ÑģÑı
ĠÐ¿Ð¾Ð¶ Ð°Ð»
ĠÑĥÑĤ ÑĢÐ¾Ð¼
Ġspo ken
ĠÐ½Ð°Ð· Ð½Ð°Ñĩ
ĠÐ¿Ð¸ÑģÑĮ Ð¼
ĠÐ¡Ð²Ð¸ÑıÐ¶ ÑģÐºÐ¾Ð³Ð¾
ĠÐ´Ð¾ÑĢÐ¾Ð³ Ð¸
ĠÐ´Ð¾ÑĢÐ¾Ð³ Ñĥ
Ġill ness
Ġrece ive
Ġbed room
over n
Ġinc re
Ġarri val
Ġparticul ar
Ġfa ith
Ġconscious ness
Ġarr anged
ĠÑĢÐ°Ð´Ð¾ÑģÑĤ Ð½Ð¾
Ġdirect ion
Ġemb arr
Ġperf ect
ĠÐ½Ð°Ð± Ð»ÑİÐ´
ĠÐ´ÐµÑıÑĤÐµÐ»ÑĮ Ð½Ð¾ÑģÑĤÐ¸
ĠÑģÑİ Ð´Ð°
Ġvex ed
ĠÐ½ÐµÐ½Ð°Ð² Ð¸Ð´
ĠÐ±ÑĥÐ¼ Ð°Ð³
ĠChrist ian
ĠÑģÑĤÐ¾Ñı Ð»Ð¸
Ġlean ing
ĠÑģÐ¼ÐµÑı ÑģÑĮ
Ġunif orm
Ð¾ÑıÑĤ Ð½Ð¾
Ġscy the
Ġlawy er
ĠÑĢÑĥÐºÐ¾Ð² Ð¾Ð´
Ġembarr ass
c ri
k in
r on
Ġt ight
Ġa im
Ñĥ ÑģÑĮ
ĠÑģ Ð½
ĠÐ² ÐºÑĥ
at or
ÑģÑĤ ÐµÑĢ
ÑĪ ÑĮ
Ġc up
Ġd ying
Ñİ ÑģÑĮ
ĠÐ½Ðµ Ñĩ
ĠÐ½Ðµ Ñħ
ĠÐ½Ðµ ÑĥÐ´
ĠÐ¼ ÐµÑĩ
ĠÐ¿ÑĢ Ð¸Ð¼Ð¸
Ð½Ð¸ ÑĨÐµ
Ð¾ÑĢ Ð´
ĠÐ½Ð° ÑĤ
Ġe ight
Ġg un
ĠÐ¿Ð¾ ÐµÐ´Ñĥ
Ð¸Ð½ Ñİ
Ð¸Ð½ ÐµÐ¹
Ð¾Ð¹ Ð´ÐµÐ¼
ve re
ÑĨ Ð¸
ĠÐŀ ÑģÑĤÐ°Ð²
ad ed
Ð°ÑĢ ÑĮ
ĠÐ¿ÑĢÐ¸ Ð¶
ĠÐ¿ÑĢÐ¸ ÐµÐ¼
ĠÐ¿Ð¾Ð´ Ð¾Ð·
ss ess
ĠÑĢÐ°Ð· ÑĥÐ¼ÐµÐµÑĤÑģÑı
Ð½Ñı Ð»Ð°
ĠÐ³Ð¾ ÑģÑĥÐ´
ÐµÐ¶ Ð°Ð»Ð°
Ġcon sequ
ac y
Ġch urch
ĠÑĪ ÐºÐ¾Ð»
ĠÐĲÐ»ÐµÐºÑģÐ°Ð½Ð´ÑĢÐ¾Ð² Ð½Ðµ
ĠÐ¾ÑĤÐ² ÐµÑĤÐ°
ĠÐ·Ð½ Ð°Ð¼
ĠÐ·Ð½ Ð°Ð»Ð¸
Ġdis m
od ka
ĠÑģÐ¾Ð² ÐµÑģÑĤÐ½Ð¾
Ġgl o
ĠG overn
Ġac cept
ĠÐ½ÐµÐ¿ Ð¾
ĠÐ½ÐµÐ¿ ÑĢÐµÐ¼ÐµÐ½Ð½Ð¾
ĠÑĨ ÐµÐ»ÑĮ
Ġunderstand ing
Ġen er
ĠÐ½Ð¾Ð² ÑĭÑħ
ĠÐ¿Ð¾ÑĢ Ð°Ð·
av es
ĠÐ¿ÑĢÐ¾Ñģ Ð¸ÑĤÑĮ
Ð¾ÑģÑĤ Ñı
Ġrec onc
ĠÑĢÐ°Ð·Ð² Ð¾Ð´Ð°
Ġbel ieved
Ġord ers
ĠÐ¶Ð¸Ð·Ð½ÑĮ Ñİ
Ġche e
Ġaff ection
ĠÑģÐ»ÑĥÑĪ Ð°Ñı
Ġfin ish
ĠÐ±ÑĭÐ² Ð°Ð»Ð¾
ĠÐ¾Ð³Ð»Ñı Ð½ÑĥÐ»ÑģÑı
ĠÐ·Ð°Ñģ Ð¼ÐµÑı
ĠÑĥÐ·Ð½ Ð°Ð»Ð°
Ġbad ly
ĠÐ´Ð²Ð¾ÑĢ ÑıÐ½
Ġexpl ained
ĠÑĢÐµÐ±ÐµÐ½ Ð¾Ðº
Ð²Ð¾Ð» Ð½Ð¾Ð²
ĠÐ±Ð»Ð¸ Ð¶Ðµ
Ġkiss ing
ĠVas ily
ĠÑĥÐ´Ð¾Ð²Ð¾Ð»ÑĮ ÑģÑĤÐ²Ð¸Ðµ
ĠÐ·Ð´Ð¾ÑĢÐ¾Ð² ÑĮÐµ
ĠÑĩÐ° ÑīÐµ
ĠÐ½ÐµÐ· Ð°Ð²Ð¸Ñģ
ĠÐ»Ð°Ðº ÐµÐ¹
ĠÐ²Ð¾Ð¾Ð± ÑīÐµ
ĠÑĢÑıÐ´ Ð¾Ð¼
ĠÐ²Ð¸Ð½Ð¾Ð²Ð°ÑĤ Ð°
Ġext reme
ĠÑĨÐµÐ» ÑĭÐ¹
Ġhour s
Ġirrit ated
ĠÐ½ÐµÐ¾Ð±ÑħÐ¾Ð´ Ð¸Ð¼Ð¾
Ġrecogn ized
ĠÐļÐ°ÑĢÐµÐ½ Ð¸Ð½
by e
Ð½Ð¸ÑĨ ÐµÐ¹
Ġrelig ion
Ġlabourer s
ĠÐ½ÐµÐ´Ð¾ÑģÑĤ Ð°ÑĤ
Ġpol it
Ġann oun
Ġintim ate
An na
Ġintell ig
ĠÐ¿Ð¾Ñį ÑĤ
Ġfu lf
E S
L Y
Q u
j ust
Ġt ast
he w
Ñĥ Ð»Ñı
Ñı Ð±
ĠÑģ ÑĬ
ĠÐ¿ Ð¸ÑĤÑĮ
ĠÐ² ÐµÑĤ
Ð² Ð¾
Ġb road
at he
Ð¼ Ñĭ
ÑĪ Ð¸Ð¼Ð¸
Ġc ases
Ġf if
Ġm are
ÐµÐ» ÐµÐ½
Ġd est
Ġl oving
Ġp ale
Ð· Ð°Ð´Ð¸
Ġe ar
ic s
Ð°Ð½ Ñı
Ġsa d
ĠÐ» ÐµÐ²
Ð¸Ð² Ð°ÑĤÑĮÑģÑı
Ð¾ÑĤ Ð¾Ð¹
ce ly
ĠÐĴ Ð¿
ĠÐ²Ñĭ ÑĪÐµ
ÑĤÐ¾ÑĢ Ð°
ĠH AD
ĠÑĤÐ°Ðº Ð¸Ñħ
ain ing
Ð¾Ñģ Ð¾ÑĦ
ĠÐŁ ÐµÑģ
ÑĭÐ² Ð°Ð»Ð¸
ĠÐ° Ðº
ĠÐľ Ð°ÑĤ
ÑıÑĤ ÑģÑı
ĠÑģÐ°Ð¼ ÑĭÐ¼
ĠÐ²Ð¸Ð´ Ð¸Ð¼Ð¾
ĠÑģÑĤÐ¾ ÑıÐ²
ĠÑģÑĤÐ¾ ÑıÐ»Ð°
Ġman age
ĠÐ¸Ð¼ ÐµÐ»Ð°
ĠÐ¿Ð¾Ðº Ð°Ñĩ
Ġdis ag
ĠÐķ Ð²
ĠÑĦ ÑĢÐ°Ð·
ĠÑĢÐ°Ð´ Ð¾ÑģÑĤÑĮ
ĠE ven
ĠÑĩÐµÐ»Ð¾Ð²ÐµÐº Ð¾Ð¼
ĠÐ²Ð·Ð³Ð»Ñı Ð´Ð°
Ġtw enty
ĠÑĨ ÐµÐ½
ĠÐ½Ð¾Ð² Ð¾Ð³Ð¾
Ġent r
Ð»ÐµÐ½ Ñĭ
av na
Ġgre et
ĠÐºÐ¾Ð¼ Ð¸Ñģ
ĠÑĤÑĢ ÐµÑĤÑĮ
ĠÐĹ Ð½Ð°
ĠÐ¶ÐµÐ» Ð°Ð»Ð°
ĠÐ·Ð°Ð² Ð¸Ñģ
ĠÐĶÐ°ÑĢ ÑĮÐµ
ĠÑģÐµÑĢÐ´ Ð¸ÑĤÐ¾
Ġwait ed
ĠÐ±ÐµÑģ ÐµÐ´
vi ew
ĠÑģÑĭ Ð½
Ġconf ir
Ġob t
Ġob st
ĠÐ·Ð² Ð¾Ð½
ĠÐ´ÑĥÑĪ ÐµÐ²
ĠÐ¾ÑĤÐ½Ð¾ÑĪ ÐµÐ½Ð¸Ð¸
Ð°ÑİÑī Ð¸Ð¹
ĠÐ¼ÑĥÑĩ Ð¸ÑĤÐµÐ»ÑĮÐ½Ð¾
ĠÐ·Ð°Ð¼ÐµÑĤ Ð¸Ð²
ĠÐºÐ¾Ð½Ñĩ ÐµÐ½Ð¾
Ġir on
ĠÐ¼ÑĭÑģ Ð»Ñı
ĠÐ¿ÑĢÐ¾Ð² Ð¾Ð´
ĠÐ´Ð²Ð¸Ð¶ ÐµÐ½Ð¸Ðµ
ÐĿ ÐµÑĤ
Ġsupp er
Ġra ising
Ġlat ter
ĠÐ¼ÐµÑĢ Ðµ
ĠÐ¸Ñģ Ñĩ
Ġquiet ly
ĠÐ¿Ð°Ð»ÑĮ ÑĤÐ¾
Ġacquaint ances
Ġindiff erence
Ġgentle man
Ġtrem bling
Ġmid dle
ĠÐ¿Ð°Ð¿ Ð°
ÑĢÐµÑģÑĤ Ð°Ð½Ð½Ð¾
ONS KY
ĠÑģÐ»ÑĥÑĩÐ° Ðµ
Ġoppos ite
ĠÑĦÐ¸Ð» Ð¾ÑģÐ¾ÑĦ
ĠÐ¼ÐµÐ½ ÐµÐµ
ĠÐ²Ð½ÑĥÑĤÑĢ ÐµÐ½
ĠNikol avna
' re
O U
g er
i or
i ving
m a
r ict
u x
Ġ Ñİ
ÑĢ ÐµÐ±
ĠÑģ Ð¾Ð»
ĠÑģ Ð¾ÑĢ
ĠÑģ ÑĥÐ¿
ĠÐ² Ð°Ð¼Ð¸
ĠÐ² Ð³Ð»ÑıÐ´ÑĭÐ²
Ð² Ð¸Ð¶
ĠÐº Ð»Ð°Ñģ
Ġc attle
Ġf le
Ġf ail
Ġm ill
ĠÐ´ Ð¾Ð¶Ð¸Ð´
ĠÑĤ Ð°Ð½
ĠÐµ Ð´ÐµÑĤ
ĠÐ¼ ÐµÑģÑĤÐµ
ĠÑĥ ÑħÐ¾Ð´
ĠÐ· ÐµÑĢÐº
om ing
ÐµÐ¼ ÑĮ
ÑģÑı ÑĤ
ĠÐ³ Ð°Ð»
ĠÐ³ Ð¾Ð´Ð°
Ð¸Ð² Ð°Ð»Ð¸
ÑĨ Ð¾Ð¼
ĠÐ¾ÑĤ Ð´ÐµÐ»
ĠÐ²Ñģ ÐµÐ¼Ñĥ
ĠÐĿ ÐµÐ²
ĠA N
Ð°ÑĢ Ð´
Ð»Ð¸ Ð·
ĠÐļ ÑĤÐ¾
ĠÐļ Ð¾ÑģÑĤÑı
ĠÐ¿ÑĢÐ¸ ÐµÐ´ÐµÑĤ
Ġme mb
ĠÑĤÐ°Ðº Ð¾Ð¼
ain s
Ġso ld
Ð¸Ðº Ð¸
ÐµÑģ ÑģÐ¾ÑĢ
ĠÑĢÐ°Ð· Ð¼
ĠÑĢÐ°Ð· ÑĢÐµÑĪ
ĠÐ¸Ð· Ð²Ðµ
itt ee
Ġde cl
ĠÐ¿ÐµÑĢ ÐµÐ¿
ĠÐ¢ ÑĥÑĤ
ĠÐ¢ Ð²ÐµÑĢ
ĠC ounc
Ð¾Ñĩ Ð¸Ð»
ĠÑģÐ°Ð¼ Ð¾
Ġpo or
Ġag reed
ĠÐ¾Ð¿ Ð°Ñģ
Ġtim id
Ġar ound
pl es
Ġpro bably
ĠÐ¿Ð¾Ð¼ Ð¾ÑĩÑĮ
Ġen v
ĠÐ½Ð¾Ð² ÑĭÐµ
ĠÑĤÑĢ ÐµÑĤ
Ġrep uls
ĠÐ¾ÑĤÐº ÑĢÑĭÑĤ
ĠÐ²ÑĭÑĢÐ°Ð¶ ÐµÐ½Ð¸Ñı
ĠÐ½ÐµÐ´ Ð¾
ĠÐ·Ð°Ðº Ð¾Ð½
ĠÐ´ÐµÐ»Ð° ÐµÑĤ
Ġkind ly
ĠÐ¿ÑĢÐ¸ÐµÑħ Ð°ÑĤÑĮ
row s
Ġmar ry
Ġexpect ing
ĠÐ¾Ðº Ð½Ð¾
ĠÐ¾Ðº Ð¾Ð»Ð¾
Ġref used
ĠÑħÐ¾Ð·ÑıÐ¹ ÑģÑĤÐ²Ð°
ĠÐ·Ð°Ð¼ÐµÑĤ Ð¸Ð»Ð°
ĠÐ½Ð°Ð² ÐµÑĢÑħ
ĠÐ½Ð¸ÐºÐ°Ðº Ð¾Ð¹
Ġocc as
ĠÑĢÐ°Ð±Ð¾ÑĤ Ð°ÑĤÑĮ
Ġbus y
ĠÑĥÑģ Ð¸Ð»Ð¸
ĠÐ¾Ð±ÑīÐµ ÑģÑĤÐ²Ð¾
ĠÐ½Ð°ÑħÐ¾Ð´ Ð¸Ð»
Ġang rily
ĠÐ¿ÑĢÐ¾ÑģÑĤ Ð¸ÑĤÑĮ
ĠÑĪÐ°Ð³ Ð¸
ĠÐ¥ Ð¾ÑĤ
ĠÐ¿ÑĢÐ¾Ð¸Ð· Ð²
ĠÐ½Ð°ÑĢÐ¾Ð´ Ð°
Ġmove ments
ĠÐĽÐ¸Ð´ Ð¸Ð¸
Ġimag ined
Ġfore head
ĠÐ½ÐµÐ· Ð°Ð¼ÐµÑĤ
Ġfall en
Ġgaz ed
ĠÑģÐ¿ÑĢÐ°ÑĪ Ð¸Ð²Ð°Ð»
ĠÐ¾Ð¶Ð¸Ð´ Ð°Ð»
ific ant
ĠÐ³ÑĢÑĥ ÑģÑĤ
ĠÑĢÑĥÐ± Ð°ÑĪ
ĠÐ¿Ð¾ÐºÑĢÐ°Ñģ Ð½ÐµÐ²
Ġbu ild
ĠÐºÐ» ÑĥÐ±
ĠÐ²Ð¾ÑģÐ¿Ð¾Ð¼Ð¸Ð½Ð° Ð½Ð¸Ñı
ĠÑģÑĥÑīÐµ ÑģÑĤÐ²
Ġjealous y
ĠÐ²ÑģÐ»ÐµÐ´ ÑģÑĤÐ²Ð¸Ðµ
Th is
Ġcheer ful
ĠProv ince
Ġdisg ust
tern al
ĠÐĽÐ°ÑģÐº Ð°
Ġattent ively
ĠÑģÑĤÐµÐ¿ ÐµÐ½Ð¸
ĠÐ´Ð¾Ð³ Ð°Ð´
Ġexplan ation
ĠÑħÑĢÐ¸ ÑģÑĤÐ¸
Ð§ ÑĤÐ¾
Ġboot s
Ġpor ch
ĠÐ³Ð¾ÑģÑĥÐ´ Ð°ÑĢ
ĠÐ¸ÑģÑĩ ÐµÐ·
W hen
i vers
n ed
n ight
p h
r ate
y a
Ð ĺ
Ðµ ÑĤÐ¾
Ð° ÑģÑĮ
Ñģ Ñĭ
Ð» ÐµÐ²
ÑĢ Ð¾Ðº
Ġt all
ĠÐ¿ Ñĩ
ĠÐ² Ð¸Ð·
Ð² Ñĭ
Ð´ Ð¸Ð²
it ary
Ġb on
ÐµÐ½ Ð½ÑĭÐ¼Ð¸
Ġm od
ĠÐ¼ ÐµÐ»ÑĮ
ĠÐ¼ Ð¸Ð»Ð¾
Ġp ath
ĠÐ¿ÑĢ ÐµÐ²
ĠÐ¿ÑĢ ÐµÑģÑĤ
Ð¸Ð» Ð¸Ð¹
ĠÑĢ Ð¾ÑĤ
ĠÑĢ ÑĥÐ¶
ĠÑĢ ÐµÑĩÐ¸
Ġg ame
Ð°Ð½ Ð½Ð¾Ð³Ð¾
Ð°Ð½ Ð½Ð°Ñı
Ġre jo
ent s
Ð°Ð´ Ð°Ð¼
ĠÐ¾ÑĤ Ð½Ð¾Ñģ
Ġst ri
ĠÐĿ Ñĭ
ĠÑģÐºÐ°Ð· Ð°Ð½Ð¾
ur d
Ġme as
ain ted
Ġsh one
Ġsh owing
ĠÐ·Ð° Ñī
ĠÐŁ Ð¾Ñĩ
ÐµÐ½Ð½Ð¾ ÑģÑĤÑĮ
ĠÐ³Ð¾Ð²Ð¾ÑĢ Ð¸ÑĪÑĮ
Ġcon st
itt en
ÑīÐµ Ñİ
ĠW AS
ov a
ov es
Ġint ention
ĠÑĢÑĥ ÐºÐµ
Ġv odka
Ġle g
ĠÐ²Ð· Ð²Ð¾Ð»Ð½Ð¾Ð²
Ġsp read
ĠÐ¾ÑĤÐ² ÑĢÐ°Ñī
os op
ĠÑĥÐ»ÑĭÐ± Ð½ÑĥÐ»Ð°ÑģÑĮ
ĠÐ»Ð¸ÑĨ Ñĥ
Ġpl ough
ĠKarenin a
Ġover coat
ĠÐ²ÐµÑĢ Ñħ
Ġpro ve
Ġpro duced
Ġwant s
ĠÑģÐ¾Ð± Ð°Ðº
ĠÐ¿Ð¾Ñĩ ÑĤ
Ġgr owing
ĠÐ¿Ð¾Ð½Ñı ÑĤÐ¸Ñı
ĠÐĵ ÑĢÐ°ÑĦ
ĠÐ½ÐµÐ² ÐµÑģÑĤ
Ġent re
Ġent ering
ud ed
ĠÑģÐ¿ÑĢÐ¾Ñģ Ð¸ÑĤÑĮ
Ġcar p
Ġfl oor
ĠÐ·Ð°Ð¿ Ð°Ñħ
ĠÐ±Ð¾Ð»ÑĮÑĪ Ð¾Ðµ
ĠÐºÐ¾Ð» ÐµÐ±
ĠÐ¼Ð°Ð» ÐµÐ¹
ĠÑģÑĤÐ¾ÑĢÐ¾ Ð½Ðµ
Ð¸ÑĪÑĮ ÑģÑı
Ġdec ision
Ġob ject
ĠÐ´ÑĥÑĪ Ñĥ
ĠÐ¶Ð°Ð» Ð¾Ð²
ĠÐ²ÑģÑı ÐºÐ¾Ð³Ð¾
Ġsil ently
ĠÑģÐ»ÑĥÑĪ Ð°ÑĤÑĮ
ĠÑĤÑĢÑĥÐ´ Ð½Ð¾
Ġbo ld
ĠÐ½ÐµÑģÑĩÐ° ÑģÑĤÐ»Ð¸Ð²
ĠÐ¶ÐµÐ»Ð° Ð½Ð¸Ðµ
ĠÐ¸Ð·Ð² Ð¾Ð·
Ġsince re
Ġopin ions
ĠÐ¿Ð¾Ð³ Ð»Ñı
Ġmist ake
ĠÑģÑĩÐ°ÑģÑĤÑĮ Ñı
ĠÐ¿Ð»Ð°ÑĤÑĮ Ñı
ĠÐ¿Ð¸Ñģ Ð°Ð»
ĠÑģÐ²ÑıÐ· Ð¸
ĠÑģÐ¾Ð¼Ð½ ÐµÐ½Ð¸Ñı
Ġperson al
Ġpri v
ĠÐ±Ð¾ÑĢ ÑĮ
ĠÐºÐ½Ð¸Ð³ Ñĥ
Ġmin ute
Ġanim ated
Ġrecall ed
ĠÑĥÑģÐ»ÑĭÑħ Ð°Ð»
Ġsing le
ĠÐľÐ°ÑĢ ÑĮÑı
ĠÑĤÑĢÑĥ Ð´Ð°
Ġcomplete ly
ĠÐ»Ð°ÑģÐº Ð¾Ð²
Ġelect ions
ĠÐ´ÐµÐ½ ÐµÐ³
ĠÐ½ÐµÐ¿ÑĢ Ð¸Ð»Ð¸Ñĩ
ĠÑĢÐµÐ»Ð¸ Ð³
ĠÐ½ÐµÑģÐ¾Ð¼Ð½ ÐµÐ½Ð½Ð¾
ĠÐºÑĢÐ°ÑģÐ½Ðµ Ñı
isfact ion
ĠÐ¿Ð»Ð¾ Ñħ
Ġphil osop
ĠÐ¿ÑĢÐ¾ÑĤÐ¸Ð²Ð¾Ð¿ Ð¾Ð»Ð¾Ð¶
Ġglo om
ĠÑĤÑĢÐµÑĤ Ð¸Ð¹
ĠÐ¿ÑĢÐµÑģÑĤ ÑĥÐ¿
A T
H ave
I T
V IN
o int
v ol
y ond
Ð½ Ð°Ð´ÑĨÐ°ÑĤÑĮ
Ġt ired
Ñĥ Ð¹
Ñı Ñİ
ÑĮ Ð²
Ġw ra
ĠÑģ ÑħÐ¾Ð´
Ñĩ Ð°ÑĤ
ĠÐ¿ Ð¸ÑĪ
ĠÐ² Ð¾Ð¹
Ðº Ð°Ð¼
re ci
Ð´ Ð¸
er haps
ĠÑĩ ÑĥÐ´
as ing
ĠÑĤ Ñı
ĠÑĤ ÐµÐ»Ð¾
Ð½Ð° Ð½
Ð½Ð° Ñħ
ĠÐ¼ Ð¾Ñİ
Ġp ause
Ġp aused
Ġin cl
Ð¿ Ð¿
ĠÑĢ Ð°ÑģÑĤ
ĠÐ¿Ð¾ ÐµÐ´ÐµÐ¼
ic le
ÐµÐ² ÑĪÐ¸Ð¹
ĠÐ» Ð¾Ð²
Ð¾ÑĤ Ñĭ
ÑĨ Ð¾
ĠÑĤÐ¾ Ñĩ
ĠÑĤÐ¾ Ð½Ð¾Ð¼
Ġr ain
ĠÑģÐ² ÐµÑĤÐ°
Ð½Ñĥ Ð»Ð¸
ĠÐ¿ÑĢÐ¸ ÑģÑĤ
ĠÐ¿ÑĢÐ¸ Ð¿
ĠÐ¿Ð¾Ð´ Ð¿
ĠÑģÐ²Ð¾ Ñı
Ġsh irt
Ġdo g
ĠÐŁ Ð¾Ð»Ð¾Ð¶
Ġfr ank
Ġde velop
ĠÐ¿ÐµÑĢ ÐµÐº
ĠO r
ÑĪÐµ ÐµÑģÑı
ĠÐ¾Ð´ ÐµÐ²
ĠÐ¾Ð´ Ð½Ð¾Ð¼Ñĥ
ĠÐľ ÑĥÐ¶
ĠÑģÐ°Ð¼ Ð¾Ð¼Ñĥ
ĠÑĩÑĥÐ²ÑģÑĤÐ² Ð¾Ð²Ð°ÑĤÑĮ
Ġse vere
ĠÐ¶ÐµÐ½ Ð¾Ñİ
ci ence
ĠÐ½Ð°Ð´ ÐµÑı
os ity
un k
Ġdis ple
ĠÐ½Ð¸Ñĩ ÑĤÐ¾Ð¶
Ð°Ð²ÑĪ ÐµÐ¹
Ð°Ð²ÑĪ ÐµÐ¼Ñĥ
ĠG l
ĠÑĦ Ð¾ÑĢÐ¼
ĠÐ²Ð·Ð³Ð»Ñı Ð½ÑĥÐ»Ð°
ĠÐ¿Ð¾Ð¼ Ð½
ĠÑģÐ»Ð¾Ð² Ð°Ð¼Ð¸
ĠÐ½Ð°Ñĩ Ð°Ð»ÑĮ
ĠÐ¿ÑĢÐ¾Ñģ Ð¸Ñı
Ġwr itten
ĠÐ³Ð¾Ð» ÑĥÐ±
cl ock
Ġadd ressed
Ġcle ver
ĠÐ¿ÑĢÐ¸Ð² ÑĭÐº
ÑĥÑģÑĤ Ð¸ÑĤÑĮ
ĠÑĥÐ²Ð¸Ð´ Ð°Ð»Ð°
Ġhelp ed
ĠÐ¼Ð¾ ÑģÐºÐ¾Ð²
ĠÐºÐ°ÑĢ ÐµÑĤÑĥ
Ġfriend ly
ÑģÑĤÐ²ÐµÐ½ Ð½ÑĭÑħ
Ġpres ented
ĠÐĴÐ°ÑĢ Ð²Ð°ÑĢ
Ġdress ing
ĠÑģÐ»ÑĭÑĪ Ð°Ð»Ð°
Ġpers u
ĠÐ½Ð°Ð¼ ÐµÐº
Ġneed ed
Ġbri lli
ĠY et
ock s
ĠÐ¶ÐµÐ»Ð° Ð½Ð¸Ñı
ĠÑģÑĩÐ°ÑģÑĤÐ»Ð¸Ð² Ð°
Ġart ist
ĠÐĴÐ°Ñģ Ð¸Ð»Ð¸Ð¹
ĠÑħÐ¾Ð»Ð¾Ð´ Ð½Ð¾
ĠÐ²Ð¾Ð´ Ñĭ
Ġsupp ort
ĠÑĢÐ°ÑģÑģ ÑĥÐ¶Ð´
ĠÑĥÐ´Ð¾Ð²Ð¾Ð»ÑĮ ÑģÑĤÐ²Ð¸ÐµÐ¼
Ġadm it
ĠÐ¿Ð¸Ñģ Ð°ÑĤÑĮ
ĠÐ±ÐµÑģÐ¿ ÑĢÐµÑģÑĤÐ°Ð½Ð½Ð¾
ĠÐ¿ÐµÑĢÐµÐ± Ð¸Ð»
Ġhost ess
Ġbu y
Ġrun ning
Ġste pping
ĠÑĢÐ°ÑģÑģÐºÐ°Ð·ÑĭÐ² Ð°ÑĤÑĮ
Ġrap id
Ġtorment ed
Ġmention ed
Ġlear nt
ĠÑĦÐ¸Ð³ ÑĥÑĢ
ĠÐĲÑĢÐºÐ°Ð´ÑĮÐµÐ² Ð½Ð°
ĠÐºÑĢÐ°Ð¹ Ð½ÐµÐ¹
Ġpull ed
ĠÑģÑĤÐ°Ð½ ÑĨÐ¸Ð¸
Ġaccord ing
ortun e
Ġstrugg le
ĠÐ²ÐµÐ»Ð¸Ðº Ð¾Ð´ÑĥÑĪ
ĠÑĤÐµÐ»ÐµÐ³ ÑĢÐ°Ð¼
Ġphys ical
ĠÑĪÐ¸ÑĢ Ð¾Ðº
Ġcontempt u
ĠÐ¿Ð¾Ð´ÑĤÐ² ÐµÑĢÐ´
rehens ible
ĠÐŀÐ¿ ÑıÑĤÑĮ
Ġjour ney
Ġpossi bility
Ġesc ape
Ġnurs ery
Ġprin ci
ĠÐ½ÐµÑģÐ¿ ÑĢÐ°Ð²ÐµÐ´Ð»Ð¸Ð²
ĠÐ½ÐµÐ¿Ð¾ Ð½ÑıÑĤ
ĠÐĴÐ¿ ÑĢÐ¾ÑĩÐµÐ¼
- '
d e
g es
k ward
Ð» ÐµÐ·
Ñĥ ÑıÑģÑĮ
Ġw ore
Ġw ide
Ġw arm
ĠÑģ ÑĥÑħ
ĠÐ½ Ñĥ
ĠÐ² Ð¾Ðº
er ial
ĠÐº Ð°Ñĩ
ÑĪ ÐµÐ¼
Ġm ir
Ġm isf
Ġm otion
ĠÐ´ ÑĭÑĪ
ĠÑĩ Ð°Ð¹
ĠÑĩ Ð°ÑĪ
ĠÑĩ ÐµÑĤÑĭ
ĠÑĩ ÐµÑĤÐ²ÐµÑĢ
ÐµÐ» Ñİ
ĠÐ¼ Ð°ÑĪ
ĠÐ¼ Ð¸Ð½Ð¸
ĠÐ¼ ÑĥÐ·
Ġl im
or k
Ġp ar
ĠÐ· Ð°Ð»Ñĥ
Ġbe yond
Ð°Ð² ÑĤÑĢÐ°
Ġe ase
ĠÐ¿Ð¾ ÑĪÐ»Ð¸
Ð°Ð½ Ð½ÑĭÐ¼
ĠÐ³ Ð°Ð·
Ġu nd
ÑĨ ÐµÐ½
ad es
Ġr ub
ĠT vers
Ð»Ð¸ Ð¹
ĠL v
ĠÐĽ ÑĮÐ²
ch ief
ĠÐ¿Ð¾Ð´ Ð°Ð²
ĠÑĢÐ°Ð· Ð´ÐµÐ»
Ð½Ñı Ð²
ĠÑģÐ» ÐµÐ³
ĠÑģÐ» ÑĭÑħ
il t
ĠV las
ĠÐŁ Ð°Ð²
ĠÐŁ ÐµÑĢÐ²
ac ked
ov sky
ĠÐ¾Ð´ Ð½Ð°ÐºÐ¾
Ġgo es
ĠÐľ ÐµÑĤ
ĠÑĪ Ð»Ð°
Ġv ill
Ġv iv
art ment
ous ed
ĠÐ´Ð² Ð°Ð´ÑĨÐ°ÑĤÑĮ
Ġpo ssess
Ġag itation
ĠÐ¸Ð¼ Ð¸
Ġsp r
Ġse ized
ĠÐ±Ð¾Ð»ÑĮ Ð½Ð¾Ð³Ð¾
ĠÐ±Ð¾Ð»ÑĮ Ð½Ð¾Ð¹
ĠÐ´ÑĥÐ¼ Ð°ÐµÑĤ
ĠÑĢÐ°Ñģ ÑħÐ¾Ð´
ĠÐ´Ð¾ ÑģÑĤÐ°Ð²
ĠÑĥÐ¼ Ð°
Ġthan k
Ð½Ð¾Ð² ÑĮ
ĠÐ½Ð¾Ð² ÑĭÐ¹
ĠÐ½Ð¾Ð² ÑĭÐ¼
ĠÐ¿Ð¾ÑĢ ÑĤ
ĠÐ¾ÑĤÐ²ÐµÑĩ Ð°Ñı
ĠR e
ĠÑĤÑĢ ÐµÑħ
ĠÐ³ÑĢÐ° Ð½Ð¸ÑĨÑĥ
Ġrep ort
Ġapp reci
ĠÐĿÐµ ÑĥÐ¶ÐµÐ»Ð¸
ĠÐ·Ð°Ðº Ð»ÑİÑĩ
ĠÑħÐ¾Ð·Ñı Ð¸Ð½
ĠÐ±Ð¾Ð»ÑĮÑĪ ÑĥÑİ
Ġfe ared
Ġdoor way
ĠÐ¼Ð¾ Ð¸
Ð²Ð¸ Ð³
ĠÑĥÐ¶Ð°Ñģ Ð¾Ð¼
ĠÐ±ÐµÑģ Ñģ
ĠÐ¿Ð¾ÑģÐ»ÐµÐ´ Ð½Ð¸Ð¹
ĠÐ»ÑİÐ±Ð¾Ð² ÑĮÑİ
Ġdesp ite
Ġang er
ash ion
ĠÐ´Ð²Ð¸Ð¶ ÐµÐ½Ð¸Ñı
Ġoffic er
att hew
Ġdet er
ĠÐ²Ð½Ð¸Ð¼ Ð°Ð½Ð¸Ñı
ĠÑģÑĤÑĢÐ° ÑģÑĤ
Ġide as
ĠÑģÐµÑģÑĤ ÑĢÑĭ
Ġsw ath
ĠÑĩÐ¸ÑĤ Ð°Ð»
ĠÑĩÐ¸ÑĤ Ð°ÑĤÑĮ
ĠÐ·Ð°Ð½ÑıÑĤ Ð¸Ñı
ĠÐ´ÐµÐ²ÑĥÑĪ ÐºÐ°
ĠÐ±ÑĢ Ð°ÑĤÑĮ
Ġpret ty
ĠÐ©ÐµÑĢÐ±Ð°ÑĨ ÐºÐ¸Ñħ
ĠÐľÐ¾ÑģÐºÐ² Ñĭ
Ġregard ed
ĠÑģÑİ ÑĢ
ĠÐ¿ÐµÑĢÐµÐ³ Ð¾Ð²Ð¾ÑĢ
ĠÐ±ÑĥÐ¼ Ð°Ð¶
Ġconn ected
Ġsuffer ings
ĠÐ½Ñı Ð½Ñı
ĠÐ²ÑģÐºÑĢÐ¸Ðº Ð½ÑĥÐ»
ĠÑħÐ» ÐµÐ±
ĠÑģÐ¾Ñĩ ÑĥÐ²ÑģÑĤÐ²
ĠÐ¿Ð¾ÑĢÑĤÑĢ ÐµÑĤ
ĠBar bar
ĠLE VIN
Ġinde pend
ĠÐ¼ÑĥÐ½Ð´ Ð¸ÑĢ
Ġvan ished
Ġoccur red
Ġridicul ous
Ġdisag ree
ĠBarbar a
A Y
I S
V ery
a bles
d en
Ð ķ
Ð» Ð°Ðº
Ð» ÐµÐ³
Ñĥ ÑĢÐ¾Ð²
in ted
ĠÑģ Ð°Ð¿
Ġs ev
ĠÐ½ ÑĥÐ¼
ĠÐ¿ Ð°Ñħ
ĠÐ¿ Ð¾Ð¿ÑĢÐ¾Ñģ
ĠÐ² Ð½Ð¾Ð²ÑĮ
ĠÐ¾ ÑĤÐ¾
ĠÐ¾ Ñī
nd ed
it ated
Ġb ound
Ġhe ight
ĠÐº Ð¾Ð²
ĠÐº ÑĢÐ°
ÐµÐ½ Ð½Ð¾Ð¼
ĠÐ± ÐµÐ³
Ġm ou
Ġm ine
ĠÐ´ Ð¾Ð¶Ð´
ÐµÐ» Ð¸Ñĩ
Ġd ign
ĠÑĤ ÑĢÑı
Ġn ine
ÐµÑĢ Ð¾Ð¼
ĠÐ½Ðµ Ð¾Ð¿
ĠÐ¼ ÑıÐ³
Ġl ower
Ð°Ð· Ð´
ĠÑĥ ÑĪÐµÐ»
ĠÑĥ ÑģÑĤÑĢÐ¾Ð¹
om fort
Ð¿ Ð°Ð¶
ĠÑĢ Ð¾Ð²
ĠÑĢ ÐµÑĩÑĮ
le br
Ġher s
ic ked
Ð°Ð½ Ð½ÑĥÑİ
Ð°Ð½ Ð½ÑĭÐ¼Ð¸
ĠÑį ÐºÐ¸
Ġre ve
et rov
ĠÑģÐº Ð»Ð°Ð´
ĠÐ¾ÑĤ ÑĤ
Ð¾Ð¶ Ð¸ÑĤÑĮ
ĠÐĿ Ð°Ð¿
Ġr ib
ĠT any
ay s
ĠÐ²Ñĭ Ðº
ĠÐ²Ñĭ Ð´
ur ope
ĠH ave
ee per
ch ant
ĠÐ¡ Ð°Ð¼
ĠÐ¿Ð¾Ð´ Ð°Ð²Ð°Ñı
Ġso cial
il ed
ĠÐŁ Ð¾Ð»
Ġne g
Ġal though
Ġch at
ĠÐ¿ÐµÑĢ ÐµÑĪ
ĠP av
ind ed
ĠÑĪ ÑĥÐ±
Ð°Ð± Ð¾Ñĩ
ĠAn n
ĠÑģÐ°Ð¼ ÑĭÑħ
ĠÐ²Ð¸Ð´ Ð¾Ð¼
ĠÑģÑĤÐ¾ Ð»Ð¾Ð²
Ġun us
ĠÐ¿ÑĢÐ¾ ÑĦ
Ð¸ÑĤÐµÐ»ÑĮ Ð½ÑĭÐ¹
Ġsp ot
Ġsp orts
ĠÑħÐ¾ÑĤ ÐµÐ»Ð¸
Ð°Ð»ÑĮ Ð½Ð¾Ðµ
ĠÐ´ÑĥÐ¼ Ð°Ñı
os p
os y
ĠÐ¼Ð¾Ð¶ ÐµÑĤÐµ
ĠÑĢÐ°Ñģ ÑģÑĤ
ĠÑģÐ¾ ÐµÐ´
ĠÑģÐ¾ ÑģÑĤÐ°Ð²Ð»Ñı
Ġpl ain
Ġpl ans
Ġte eth
ĠÐ²ÐµÑĢ Ð¸Ð»
ĠE urope
ĠÐĳ Ð¾Ð»ÑĮ
ĠÐºÐ½Ñı Ð·Ñı
ĠÑĥÐ¼ Ð¸ÑĢÐ°
ĠÐ¾ÑģÑĤ Ð°Ð»ÑģÑı
Ġgr ou
ĠÐ¿Ð¾Ð² Ð¾Ð´
ĠÐĵ Ð¾Ð²Ð¾ÑĢ
Ð¸Ð²ÑĪ Ð¸Ðµ
ĠÐ¿Ð¾ÑĢ Ð°
Ð»ÐµÐ½ Ð°
ĠR E
ĠÐ£ Ð²Ð¸Ð´
ĠÐºÐ¾Ð¼ Ð°Ð½Ð´
ĠÑĢÐ°Ð·Ð³Ð¾Ð²Ð¾ÑĢ Ðµ
Ġroom s
Ġrep ent
cl es
Ġcar rying
Ġpass ing
ĠÐ²Ð¾Ð¿ÑĢÐ¾Ñģ Ð°
Ġev il
ĠÐ·Ð½Ð°Ñİ ÑĤ
Ġconsid ering
ĠÐ²Ð¾Ñģ ÐµÐ¼ÑĮ
ĠÐ½ÐµÐ´ Ð¾Ð²
ĠÑĩÐ°Ñģ Ð°
ĠÐ·Ð°Ðº ÑĢÑĭÐ²
ĠÐºÐ½ÑıÐ³ Ð¸Ð½Ðµ
ĠÐ¼Ð¾ ÐµÐ³Ð¾
ĠÑĤÐ² Ð¾Ðµ
ĠÑģÐµÑĢÐ´ ÑĨÐ°
Ġcontin ue
ĠÐ¼Ð¾Ð»Ð¾Ð´ ÑĭÐµ
Ġdra wn
ĠÐ³ÑĢÐ°ÑĦ Ð¸Ð½Ð¸
Ġdist rict
Ġjoy ful
Ð°ÑİÑī ÐµÐ³Ð¾
ĠÑĤÑĥ Ð´Ð°
Ġmor al
ĠÐ¾ÑģÑĤÐ°Ð² Ð¸ÑĤÑĮ
ĠÐ¸ÑģÐ¿ÑĭÑĤ ÑĭÐ²Ð°Ð»Ð°
ĠÐ¿ÑĢÐ¾ÑĪ Ñĥ
ĠÐ¿Ð¾Ð»ÑĥÑĩ Ð¸Ð»
Ġbre ad
Ġbre ath
ĠÑĢÐ°ÑģÑģÐº Ð°Ð·Ð°Ð»
ĠÐ¿Ð¾Ð¹ Ð´ÐµÐ¼
Ġlight ly
Ġreal ize
Ġaw kward
ĠÐ¿Ð¾Ð¿ ÑĭÑĤ
ĠÐ¾Ð±ÑīÐµ ÑģÑĤÐ²Ð°
ĠÐ³Ð¾ÑģÑĤ ÐµÐ¹
Ġcomp any
ĠÐ·ÐµÐ¼ Ð»Ñİ
ĠÑĪÐ°Ð³ Ð¾Ð¼
ĠÐŀÐ±Ð»Ð¾Ð½ÑģÐº Ð¾Ð³Ð¾
ÑĤÑĢ Ð°Ðº
ĠNo bility
Ġcold ly
ÐĿ Ðµ
Ġoffic ers
att ered
ÑİÑī ÐµÐ³Ð¾
fort un
Ġacqu ainted
ĠÐ¿Ð¾ÑģÐ¼Ð¾ÑĤÑĢ ÐµÐ»Ð°
Ġinc omp
ĠÐ´ÑĥÑħ Ð¾Ð²
ĠÑĤÐ¾Ð» ÑģÑĤ
ĠÐ²Ð¿ÐµÑĢÐµÐ´ Ð¸
Ġtor t
ĠÑģÐ¸Ð»ÑĮ Ð½Ð¾
ĠÐ±Ð¾ ÑıÐ»ÑģÑı
Ġce lebr
ĠÐ·Ð°Ð³Ð¾Ð²Ð¾ÑĢ Ð¸Ð»Ð°
ĠÑģÐ¾Ð³Ð»Ð°Ñģ ÐµÐ½
Ġdep ri
Ġformer ly
ĠÐ´ÐµÑģÑı ÑĤÑĮ
Ġexist ence
ĠÐ¾Ð±ÐµÑī Ð°Ð»
ĠÐ²Ð¾Ð»Ð½ ÐµÐ½Ð¸Ðµ
ĠComm ittee
ĠÐ´ÐµÐ²Ð¾Ñĩ ÐºÐ°
Ġwonder ful
Ġappear ance
Ġdelight ful
ĠÐ¿Ð¾Ð³Ð¾Ð²Ð¾ÑĢ Ð¸ÑĤÑĮ
Ġmus ic
ĠÐ²Ð¾ÑĢ Ð¾ÑĤ
Ġsuper f
Ġlif ted
ĠÐ·Ð°Ð±Ñĭ ÑĤÑĮ
ĠÐ¼Ð³Ð½Ð¾Ð² ÐµÐ½Ð¸Ðµ
ĠÑĦÐ¸Ð· Ð¸ÑĩÐµÑģÐº
Ġrepro ach
Ġpie ce
Ġconv ict
Ġscar cely
ĠÑĪÐµÐ¿ Ð¾ÑĤÐ¾Ð¼
ĠÐĵÑĢÐ¸ ÑĪ
Ġrail way
Ġagricult ure
ĠÐŁÐµÑģ ÑĨÐ¾Ð²
ĠÐĿÑĭ Ð½ÑĩÐµ
ĠÐ²Ð¾Ðº ÑĢÑĥÐ³
ĠÑįÐºÐ¸ Ð¿Ð°Ð¶
A lex
F or
O n
O ne
b ing
c ing
f orm
g n
i ence
u ff
Ð ĳ
Ġ id
ÑĤ Ð¸Ð²
ÑĤ Ð°Ð»Ð°
Ñģ Ð¸ÑĤ
Ð½ Ð°Ð»
Ð» ÑĥÑĩ
ÑĢ ÐµÐ¶Ð´
Ġw all
Ġw ine
ĠÑģ ÑĥÐ¶Ð´
ĠÑģ Ð·Ð°Ð´Ð¸
ĠÐ¿ ÑĥÑģÐº
ĠÐ² Ð»Ð°
ĠÐ² Ð°Ð»ÑĮ
Ð¾Ð² Ð°Ð½Ð¸Ðµ
Ð¾Ð² Ð»ÐµÑĤ
Ġf at
Ġm owing
Ġm ush
ĠÐ´ Ð¾Ð¼Ñĥ
Ñħ Ð¸Ñī
Ġd im
ĠÑĤ ÐµÑĤ
ĠÑĤ ÐµÐ½Ð¸
Ġn a
ÐµÑĢ ÑĤÐ²
Ġl ack
ĠÐ¿ÑĢ Ð¸Ð»
ĠÐ¿ÑĢ Ð°Ð·Ð´
an qu
ot ed
ot hes
Ð¶ Ð¸
ĠÐ½Ð° ÑģÑĤÑĢÐ¾
Ġg race
ĠÐ¿Ð¾ ÑĪ
ĠI N
ĠÐ³ ÑĢÐ¸
ĠÐ¾ÑĤ Ñģ
ĠÐ¾ÑĤ ÑĢÐ¸ÑĨ
Ġr adi
ĠT wo
Ð°ÑĤ ÑĥÑĢ
ons ense
ri es
ĠÐ¿Ð¾Ð´ Ñĩ
ĠÐŁ ÑĢÐµÐ´
ĠÐŁ Ð¾ÑģÑĤ
Ġwhe els
ÐµÐ½Ð½Ð¾ ÑģÑĤÐ¸
ĠÑģÐ¿ Ð°Ð»
ĠP lease
ĠÐ¢ Ð¸ÑĤ
Ġli es
ÑģÐ» Ð¾Ð²
Ġint ended
ĠM etrov
ÑħÐ¾Ð´ Ñı
ĠÑģÐ°Ð¼ Ð°Ñı
ĠÐ²Ð¸Ð´ Ð¸ÑĪÑĮ
ÑĥÑĪ ÐºÐ°
ĠÐ¿Ð¾Ðº Ð°Ð·Ð°ÑĤÑĮ
Ġwe aring
ĠÐ½Ð¸ ÑģÐºÐ¾Ð»ÑĮÐºÐ¾
ĠÐ½Ð¸Ðº Ð¾Ð¼Ñĥ
ag ue
ost ya
Ġtr anqu
ĠÐ²ÐµÑĢ Ð¾ÑıÑĤÐ½Ð¾
ĠÑĢÐ°Ð´ Ð¾ÑģÑĤÑĮÑİ
Ġcl oud
ĠÑģÐ¾Ð± ÑĢ
ĠÐŃÑĤÐ¾ ÑĤ
Ð¸Ð²ÑĪ Ð¸Ñħ
ĠÐ½Ð¾Ð² ÑĥÑİ
ÐµÑİ ÑģÑĮ
Ġpr ide
ĠÑĢÐµÑĪ Ð¸ÑĤÑĮ
ĠÐ¾ÑģÐ¾Ð±ÐµÐ½Ð½Ð¾ Ðµ
ĠÐ·Ð°Ð± ÑĭÐ²
Ġapp arent
ĠÐ¿ÑĢÐ¸Ð² Ð»ÐµÐº
Ġcall ing
ĠÐ±Ð¾Ð»ÑĮÑĪ Ð¸Ðµ
ĠÐŁÐµÑĤ ÑĢ
ÑģÑĤÐ²ÐµÐ½ Ð½Ð¾Ð³Ð¾
Ġref er
ĠÐ¾ÑĤÐ½Ð¾ÑĪ ÐµÐ½Ð¸Ðµ
Ġel b
ĠÑĥÑĤ ÑĢÐ°
Ġreg iment
ĠÐ¿ÑĢÐ¸ÑıÑĤ ÐµÐ»ÑĮ
Ġsim pl
ĠÐ¼Ð°ÑĤ ÐµÑĢÑĮÑİ
ĠÐºÐ¾Ð½ ÑĨÐµ
ĠÐ½Ð°Ð· Ð²
ĠSt re
ĠÐ¿Ð¾Ð¹ Ð´Ñĥ
ĠÐ·Ð°ÑĤ Ð¸Ñħ
ĠÐ·Ð°ÑĤ ÑĢÑĥÐ´
ĠÑģÐºÐ°Ð¶ Ð¸
Ġsmiling ly
ĠÐ¾Ð±ÑīÐµ ÑģÑĤÐ²Ðµ
ÑıÐ³ Ñĩ
ĠÐ¥ ÑĢÐ¸
ush ka
Ġcor rect
Ġeff orts
Ġrest r
ĠÐ¿Ð¾Ð³ Ð¸Ð±
ute ly
Ġbook s
ĠÐ¾Ð±Ñī ÐµÐ³Ð¾
Ġadv ice
Ġmist ress
ĠÑĤÐ° Ð¸Ð½
ĠÐ¿Ð¾ÑģÑĤ Ð¾Ð¹
ho ld
Ġprep aring
ĠÐ²ÐµÑĩÐµÑĢ Ð¾Ð¼
Ġserv ants
ĠÐ¿ÐµÑĢÐµÑģÑĤ Ð°Ð²Ð°Ñı
uth or
Ġwhis per
ĠÐ´Ð¾ÑģÐ°Ð´ Ð½Ð¾
Ġsun sh
Ġfrown ed
ĠÐ±ÐµÑĢ ÐµÐ·
ĠÐ¾Ð³Ð»ÑıÐ´ÑĭÐ² Ð°Ñı
ĠÐ²Ð¾Ð»Ð½ ÐµÐ½Ð¸Ñı
ĠÐ·Ð» Ð¾Ð±
ĠÐ¼ÑĥÐ¶Ñĩ Ð¸Ð½
ĠÐ¶ÐµÑģÑĤ Ð¾Ðº
Ġrecoll ect
ĠÐ¿Ð¾ÐºÑĢÐ°ÑģÐ½ ÐµÐ»
ĠÐ¿Ð¾ÐºÑĢÐ°ÑģÐ½ ÐµÐ»Ð°
ĠÐ°Ð½Ð³Ð»Ð¸Ñĩ Ð°Ð½
Ġmut tered
ĠÐĽÐ¸Ð· Ð°Ð²
Ġjud ge
ĠÐĳÑĭ Ð»Ð¾
Ġcand le
Ġmonth s
Ġval ue
ĠEx cell
ĠÐ½Ð°ÑģÐ» Ð°Ð¶Ð´
Ġgall op
Ġconcern ed
Ġfet ch
ĠÐ¿Ð¾ÐºÐ»Ð¾Ð½ Ð¸Ð»ÑģÑı
ĠÑĢÐ°ÑģÐ¿Ð¾ÑĢ ÑıÐ¶
ĠÑįÐ½ ÐµÑĢÐ³
Ġactiv ity
ĠÐ²Ð³Ð»ÑıÐ´ÑĭÐ² Ð°ÑıÑģÑĮ
Ġoccas ion
ĠÐ¸Ð·Ð²Ð¾Ð· ÑĩÐ¸Ðº
Ġpriv ate
ĠÐľÐµÑĤ ÑĢÐ¾Ð²
Ġdeter m
ĠTany a
Ð¾Ð²Ð»ÐµÑĤ Ð²Ð¾ÑĢ
Ġmush room
, "
O M
U R
a ily
e y
h od
i ke
i ps
i ety
k evich
l av
t able
u med
z z
Ġ ice
ÑĤ Ð¸Ðº
ÑĢ Ð°Ð»
Ġa uthor
ÑĮ ÑĤÐµ
Ġw ed
ĠÑģ Ð¾ÑĤ
ĠÑģ Ð¾Ð¶
Ñĩ ÐµÑģÐº
ĠÐ¿ Ð°Ð¼
ĠÐ¿ Ð°Ð´
ĠÐ² ÐµÐ´
ĠÐ² Ð½Ðµ
Ðº Ð¾Ð¼Ñĥ
Ðº ÐµÐ²Ð¸Ñĩ
Ġh ired
ĠÐ¾ Ð³Ð¾
ĠÐ¸ Ð½Ð¾
Ð´ ÐµÐ²
Ġb ank
on el
Ġc ro
Ġf ate
Ġm ag
Ġd u
Ġd ish
as ha
Ġn onsense
ÐµÑĢ ÐºÐ¾Ð²
Ġl en
Ġp ra
Ġp ushed
ĠÑĢ Ð¾Ð·
Ġbe at
ut ions
Ð½Ð¸ Ñİ
Ð¾ÑĢ Ð°
ly ing
Ġe lder
ÑģÐº Ð°
st ache
ĠÐ³ ÑĥÐ²ÐµÑĢ
Ð¸Ð² Ð°ÐµÑĤ
Ð°Ð´ Ð»
ĠÑģÐº Ð¾ÑĤ
Ð¾ÑĤ Ðµ
ĠÐ¾ÑĤ ÑĩÐ°
Ð¾Ð¶ Ð¸Ð»
ir ation
Ġr are
ĠT ush
Ð°ÑĤ ÑĭÐ¹
if y
ĠÑģÑĤ Ñĭ
ĠL e
ĠÑįÑĤ Ð¸Ð¼Ð¸
ĠÐ¿Ð¾Ð´ Ð°Ð»
ĠÐŁ Ð¾Ð¹Ð´ÐµÐ¼
Ð¾ÑĪ Ð»Ð¾
ĠÐ¸Ð· ÑĥÑĩ
ĠÐ¸Ð· Ð²Ð¸
ÐµÐ¶ Ð°Ð»Ð¸
ÐµÐ¶ Ð´Ðµ
ÑīÐµ ÐµÑģÑı
Ġch anging
ĠÐ¿ÐµÑĢ ÑĩÐ°ÑĤ
ĠÐ¢ ÑĥÑĪ
Ġli e
ĠÐ»Ñİ Ð´Ñı
ĠÐľ ÑıÐ³
ĠC our
ĠM atthew
Ġup stairs
Ð¾Ñĩ ÐºÑĥ
ĠÐ²Ð¸Ð´ Ðµ
Ġmy st
Ġsm ell
ĠD arya
ĠÑĩÑĥÐ²ÑģÑĤÐ² Ð¾Ð¼
ĠÐ½Ð°Ð´ ÐµÐ²
Ġcom r
ĠÑģÐ¾ ÑģÑĤÐ°Ð²
ĠÐĲÑĢÐºÐ°Ð´ÑĮÐ¸Ñĩ Ñĥ
Ġdis app
ĠÐ§ ÑĥÐ²ÑģÑĤÐ²
ĠÐ¡ÑĤÐµÐ¿Ð°Ð½ Ñĥ
ĠÑĥÐ´ Ð¾Ð²Ð»ÐµÑĤÐ²Ð¾ÑĢ
Ġcl ub
Ġbl ue
Ġspe nd
ĠÑģÐ¾Ð± Ð¸ÑĢ
Ġbet r
ĠÐ¿Ð¾Ð½Ð¸Ð¼ Ð°Ð»Ð°
Ġgr and
ĠÐ¿Ð¾Ð½Ñı Ð²
Ġdes ce
ĠÑģÑĤÑĢ Ð¾Ð³
Ġfl ushed
ĠÐ²ÑģÐ¿Ð¾Ð¼ Ð½Ð¸ÑĤÑĮ
ĠÐ²ÑģÐ¿Ð¾Ð¼ Ð¸Ð½Ð°Ð»
ĠÐ²Ð¾Ð¿ÑĢÐ¾Ñģ Ð¸ÑĤÐµÐ»ÑĮÐ½Ð¾
ĠÐ²Ð¾Ñģ ÑħÐ¸Ñī
ĠÐ¿ÐµÑĢÐ² Ð¾Ð¹
Ġap art
ÑĥÑģÑĤ Ð¸Ð»
ĠPet rov
ÑģÑĤÐ²ÐµÐ½ Ð½ÑĭÐµ
ĠÐ¿Ð¾Ñģ ÑĤÐ¾
Ġacc omp
ĠÐºÐ¾Ð» ÐµÑģ
ĠÐ¼Ð°Ð» ÑĭÐ¹
ĠÑĥÐ¿ Ð¾ÑĢ
Ġcal cul
ĠÐ¿Ð¾Ð¶ Ð¸Ð¼Ð°Ñı
ĠÐ¾ÑĤÐ½Ð¾ÑĪ ÐµÐ½Ð¸Ð¹
ĠÐ¿ÑĢÐ¸Ð± Ð»Ð¸Ð¶
ru ct
ĠÑģÐ»ÑĭÑĪ Ð°ÑĤÑĮ
Ġwat ching
ĠÑĥÑģÐ¿ ÐµÑħ
ĠÑĤÑĥ Ð°Ð»
Ġcontinu ally
Ġpers ons
HE N
ĠÐ½Ð¾Ð³ Ñĥ
ĠÐ¼ÑĥÐ¶Ð¸Ðº Ð¾Ð²
Ð²ÐµÑĢ ÑģÐ¸ÑĤ
ĠÐ·Ð½Ð°ÐºÐ¾Ð¼ ÑĭÑħ
ĠÑĥÐ´Ð¸Ð² Ð»ÐµÐ½Ð¸ÐµÐ¼
ĠÐłÐ°Ð· Ð³Ð¾Ð²Ð¾ÑĢ
ĠÐ·Ð½Ð°Ñĩ Ð¸ÑĤÐµÐ»ÑĮÐ½Ð¾
Ġcond uct
Ġgirl s
Ġhur ry
ĠÑĥÑĩ ÑĢÐµÐ¶Ð´
Ġrepe ating
ĠÐ¥ Ð¾ÑĢÐ¾ÑĪÐ¾
ĠÐ¿ÑĢÐ¸Ð½ Ð°Ð´Ð»
ĠÐ´Ð²Ð¸Ð¶ ÐµÐ½Ð¸ÐµÐ¼
ĠÑĥÐ³ Ð°Ð´
ĠÐŀÐ´ Ð¸Ð½
ĠÑģÐ¾ÑģÑĤÐ¾Ñı Ð½Ð¸Ð¸
Ġgener ally
Ġvisit or
ĠÐ¸Ð·Ð± Ð°Ð²
ĠÐ´Ð°Ð¼ Ñĭ
ĠÐ´Ð¾Ñĩ ÐµÑĢÐ¸
ĠÑĩÐ° ÑģÑĤÑĮ
ĠÐ¶Ð´ Ð°Ð»Ð°
ĠÐ²Ð¾Ð·Ð¼Ð¾Ð¶ Ð½Ð¾ÑģÑĤÐ¸
ĠÑģÐ°Ð´ ÑıÑģÑĮ
du ce
ĠÐ¿Ð°Ð»ÑĮ ÑĨÐ°Ð¼Ð¸
ĠÐ¿Ð¾Ð´ÑĢÐ¾Ð± Ð½Ð¾ÑģÑĤ
Ġabs ence
ĠÐ¿ÑĢÐ¾Ñĩ ÐµÐ»
Ġfing er
Ġmemor ies
Ġsuc ceed
ĠÑħÑĥÐ´ Ð¾Ð¶
ĠÐ³ÑĢÑĥÐ´ ÑĮ
Ġprof ess
Ġut tered
Ġbott le
ĠÐ½Ð°ÑģÐ¼ÐµÑĪ Ð»Ð¸Ð²
Ġele g
ĠÐ²ÑĤÐ¾ÑĢ Ð¾Ð¹
ĠU n
Ġweak ness
Ġbelong ed
ĠÐ¿Ð¾Ð·Ð´ Ð½Ð¾
Ġquarre l
ĠÑģÐ²ÑıÑīÐµÐ½ Ð½Ð¸Ðº
ĠÐ¡ÐµÑĢÐ¿ÑĥÑħÐ¾Ð² ÑģÐºÐ¾Ð¹
kn own
Ð²Ð¾Ð· ÑĮ
ĠÐŁÐµÑĤÑĢÐ¸ÑĨ ÐºÐ¸Ð¹
ĠÑģÐ½ ÐµÐ³
Ġintellig ent
ĠÐºÐ¾Ð¼Ð¸Ñģ ÑģÐ¸Ð¸
ĠÐ¥Ð¾ÑĤ Ñı
ĠÑĢÐµÐ»Ð¸Ð³ Ð¸Ð¸
Ġmisf ortune
ĠÑģÐ»ÐµÐ³ ÐºÐ°
Ġvill age
ĠÑģÑİÑĢ ÑĤÑĥ
Ġdisagree able
ĠÑģÐ°Ð¿ Ð¾Ð³
Ġmou stache
ĠÐ¿ÑĢÐ¾ÑĦ ÐµÑģÑģÐ¾ÑĢ
Alex is
ĠTush kevich
ĠÐ¢ÑĥÑĪ ÐºÐµÐ²Ð¸Ñĩ
) .
F rou
L E
b o
c use
d er
n ow
o e
o es
Ð» ÐµÐ½Ð¸Ñİ
Ġa ud
Ñĭ Ñģ
ĠÑģ Ð¸Ñħ
ĠÐ¿ ÑĮÑı
ĠÐ² Ð±
ĠÐ² Ð°ÑĢ
it es
is a
Ġhe s
er able
ĠÐº Ð¾Ð»ÑĮ
Ġto p
Ð¾Ð² Ð°ÑĤÑĮÑģÑı
ĠÐ± ÐµÐº
Ġm ood
Ñħ Ð°
ÐµÐ» ÑģÑı
as hed
ĠÑĤ Ð°Ð¹
ĠÐ¼ Ð°Ð´Ð°Ð¼
Ġl ying
Ġl amp
or se
Ġp ardon
ĠÐ¿ÑĢ Ð¾Ð³
ĠÐ¿ÑĢ ÐµÐ¿
Ð¾Ð» Ð°Ð³
ĠÑĢ Ð¾Ð¼
ĠÑĢ Ð°Ð½Ð¾
ĠÑĢ ÑĥÐ¼Ñı
Ġe qu
ĠÐ¶ Ð¸Ð»Ð°
ĠÐ³ Ð¸Ð¼
Ð½Ñĭ ÑĪ
al ity
Ġst airs
ĠÐĿ Ð¾ÑĢÐ´
ad ing
Ġr ang
ur y
ĠÑı Ð·
if t
ĠÐ¾Ð± Ð¼
ĠÐļ Ñĥ
ÐºÐ¾ Ð½Ð¾Ð¼
ch air
ĠÐ¿ÑĢÐ¸ ÑĪÐ»Ð°
ter s
are t
Ð¾Ð· Ð½ÑĭÑĪ
il ar
ĠÐĲÐ»ÐµÐºÑģ ÐµÐµÐ¼
Ġex ch
Ġex cell
Ġde bt
ĠB y
Ġch arm
ĠW HEN
ĠÐ¿Ð¾Ð» Ðµ
ĠÑĪ Ð»Ð¾
Ġam i
ĠÐ´Ð² Ð¸Ð³
Ġun w
Ġun fortun
ÐµÑħ Ð°Ð»Ð¸
Ġse ar
ĠÐ´ÐµÐ» Ð°Ñı
ĠÐ¡ÑĤ ÑĢÐµÐ¼
ol onel
ĠÐ¾Ñģ ÑĥÐ¶Ð´
Ġwe ary
Ġpl at
Ġpl ump
ack et
ap ed
Ġsome where
Ġcl othes
ĠÑģÐ´ÐµÐ» Ð°Ð»Ð¸
ĠÐ¿Ð» Ð°Ðº
ĠÐ²Ð·Ð³Ð»Ñı Ð´Ðµ
ĠÐ¸ÑģÐ¿ Ð¾ÑĢÑĤ
Ð¸Ð²ÑĪ ÐµÐ¼Ñĥ
ab in
ĠÐ½Ð¾Ð² Ð°Ñı
ĠÐ½Ð°Ñĩ Ð°ÑĤÑĮ
ER E
ĠÐ±Ð» ÐµÐ´
ĠÐ¡ÐµÑĢÐ³ ÐµÑİ
Ġmat erial
ĠÐ³ÑĢÐ° Ð½Ð¸ÑĨÐµÐ¹
Ġhouse hold
Ġper m
ĠÐ¶ÐµÐ» Ð°ÑĤÑĮ
ĠÐ´Ð¾Ðº Ð°Ð·ÑĭÐ²
Ġhar m
ĠÐ½ÐµÐ¼ Ð½Ð¾Ð³Ð¾
ĠÐ¶Ð¸Ð² ÐµÑĤ
ĠÑģÑĭ Ð½Ð¾Ð¼
ĠÐĿÐ¸Ðº ÑĤÐ¾
Ġmet hod
ĠÑĥÑĤ ÑĢÐ¾
Ġpers p
ĠÐ¿ÐµÑĢÐµÐ´ Ð°Ð»
ĠÐ¿ÑĢÐ¾ÑĪ ÐµÐ¿
ĠÐ¼ÑĥÐ¶Ð¸Ðº Ð¸
ĠÐ¿ÑĢÐ¸Ð´ ÐµÑĤ
ĠÐ¿Ð¸ÑģÑĮ Ð¼Ð°
ĠÐ¿Ð¾Ð²ÑĤÐ¾ÑĢ Ð¸Ð»Ð°
ĠÑĪÐ°Ð³ Ð¾Ð²
ÑĪÐ¸Ð¹ ÑģÑı
ĠÐ±ÐµÐ» ÑĭÐµ
ĠÑĥÐ³ Ð»Ñĥ
ĠÑĥÐ³ Ð¾Ð´Ð½Ð¾
Ġletter s
ĠÑģÐ»ÑĥÐ¶ Ð±Ðµ
Ġdri ving
ÑİÑĤ ÑģÑı
Ġmist aken
ĠAg ain
ĠÑĥÐ½Ð¸ Ð²ÐµÑĢÑģÐ¸ÑĤ
ĠÐ´Ð¾Ð² ÐµÑĢ
Ġserv ant
ĠÑĢÐ°ÑģÐº Ð°Ñı
ĠÑģÑĤÑĢÐ°Ð½ Ð½Ð¾Ðµ
Ġunc omfort
ĠÐ¿Ð¾Ð´ÑħÐ¾Ð´ Ñı
Ġste pped
ĠÐ´Ð°Ð» ÐµÐºÐ¾
ĠÐ´ÐµÑıÑĤÐµÐ»ÑĮ Ð½Ð¾ÑģÑĤÑĮ
Ġtri ump
ec ause
Ġdut ies
ĠÑģÑĤÑĭÐ´ Ð½Ð¾
Ġvex ation
ÑģÑĤÐ¾ Ð½
Ġavo ided
Ġcirc um
ĠMy ag
ĠÐ´Ð¾Ð²Ð¾Ð»ÑĮ Ð½Ð¾
ĠÑĥÐµÑħ Ð°ÑĤÑĮ
ĠÐ¿ÑĢÐµÐ·ÑĢ Ð¸ÑĤÐµÐ»ÑĮÐ½Ð¾
Ġmil k
Ġthre w
Ġattract ive
Ġobser ved
ĠÐºÐ¾Ð»ÑıÑģÐº Ñĥ
Ġcat ch
Ġintro duced
ĠÑĥÐ¹ ÑĤÐ¸
ĠÐ¿Ð¾ÑģÑĤÐ¾Ñı Ð½Ð½Ð¾
Ġcru el
ĠÐ¿Ð¾Ð²Ð¾ÑĢ Ð°Ñĩ
Ġfavour ite
Ġsus pic
ĠÑĩÑĢÐµÐ·Ð²ÑĭÑĩÐ°Ð¹ Ð½Ð¾
ĠÑĦÐ¸Ð³Ñĥ ÑĢÑĥ
Ġdest ro
ĠÐ½ÐµÐ·Ð°Ð¼ÐµÑĤ Ð½Ð¾
ivers ity
Ð½Ð°Ð½ ÑĤ
ĠTvers kaya
ĠVlas evna
Ġrib b
ĠAnn ushka
ĠÐ£Ð²Ð¸Ð´ Ð°Ð²
Ġincomp rehensible
ĠCour t
ĠÐĿÐ¾ÑĢÐ´ ÑģÑĤÐ¾Ð½
Ġuncomfort able
W ait
c r
f a
f or
g l
h ot
k ov
m n
Ð¸ Ð°
Ð» ÑĭÐ¹
Ġa ck
in on
ÑĮ ÐµÐ¼
ÑĮ Ð¼Ð¸
Ġs in
Ġs ky
ĠÐ¿ Ð°Ð»
ĠÐ² Ð¾Ð²
ÑĤÐ¾ Ð¸Ð½
Ð´ Ñĭ
Ġb al
Ġb urn
at ic
er v
Ġc ustom
Ġf ully
ĠÐ± Ð°Ð½
ĠÐ± ÑĢÐ¾Ð²
Ġm ad
ĠÑĩ Ð¸ÑģÑĤ
ÐµÐ» ÐµÐ¹
Ġd i
Ġd ar
Ġd ied
ÐµÑĢ Ðµ
ÐµÑĢ ÐµÐ·
ÐµÑĢ Ð°ÑĪ
ĠÐµ Ð²
ĠÐ¼ Ð¾Ðº
ĠÐ¼ Ð°Ð¼Ð°
Ġl ine
Ġp en
Ġp al
Ġp ill
ĠÐ¿ÑĢ Ð¸Ð»Ð¸Ñĩ
ar is
om an
Ġbe ard
Ð¸Ð½ Ð°Ð»Ð°
ĠÐ» ÐµÑĤÐ¾
Ð¸Ð² Ð°ÐµÐ¼
ÐµÐ´ Ð¾Ð²
ÑĨ ÐµÑģ
ÑĢÐ¾ Ðµ
ĠÐºÐ°Ðº Ð¾Ñİ
ĠÑģÐºÐ°Ð· Ð°Ð²
Ġr oll
Ġr od
Ġr osy
ĠÑģÐ² Ð¸Ð´
ĠÑģÐ² ÑıÑĤ
Ð°ÑĤ Ð°
ĠÐļ Ð¾Ð·Ð½ÑĭÑĪ
ĠS ome
ĠÑģÑĤ Ð°Ð²
ĠL isa
ĠL inon
Ð°Ð¶ ÐµÑĤÐµ
ĠÐ¿Ð¾Ð´ ÑħÐ²Ð°ÑĤ
ĠÑĢÐ°Ð· Ð½Ð¾
ĠÐŁ Ð°ÑĢ
Ġex ternal
ell e
Ġcon ce
Ġde gr
ĠW here
Ð½ÑģÐº Ð¸Ð¹
ÐºÑĥ Ð´Ð°
ĠO F
ĠÐ»Ð¸ Ð¿
Ġli ves
ĠÐ¾Ð´ Ð½Ð¾Ñİ
ĠM r
ĠÐ±ÑĥÐ´ ÐµÑĪÑĮ
ĠÐĲÐ»ÐµÐºÑģÐ°Ð½Ð´ÑĢÐ¾Ð² Ð½Ñĭ
ÐµÑħ Ð°ÑĤÑĮ
Ð¸ÑĤÐµÐ»ÑĮ Ð½Ð¾Ð³Ð¾
Ġsp ee
Ġsp ark
ĠÑģÐ¼ ÐµÐ»Ð¾
ĠÑģÐ¼ ÑıÐ³Ñĩ
ĠÐ¾ÑĤÐ² ÐµÑĢ
ĠÐ¿Ð¾Ðº ÑĢÐ¾Ð²
ĠÑĢÐ°Ñģ ÑģÐ¿
ĠÑģÐ¾ ÐµÐ´Ð¸Ð½
ÑģÑĤÑĢ ÐµÐ»
ful ness
Ð°Ð²ÑĪ Ð¸ÐµÑģÑı
ĠG o
ag ne
Ġpro ble
Ġbl ush
ĠÑĥÐ¼ ÐµÐ»
ĠÐ½Ð°Ð¿ Ð¾Ð¼
Ġmu d
Ġgr ow
Ð¸Ð²ÑĪ ÑĥÑİ
Ġgre en
Ġatt empt
ĠÐ³Ð¾Ð»Ð¾Ð² Ñĭ
ĠÐ¾Ð´Ð¸Ð½ Ð°ÐºÐ¾Ð²
ĠÐ¶ÐµÐ½Ñī Ð¸Ð½Ñĥ
ĠÑħÐ¾Ð·Ñı Ð¸Ð½Ð°
Ġhar ness
ĠÐĶÐ°ÑĢ ÑĮÐ¸
ĠÐ²ÑĭÑģ Ð¾ÐºÐ¾
ĠÐ¶Ð¸Ð² Ð¾
ĠÐ¶Ð¸Ð² Ð¾Ð¿
Ġref use
ĠÑģÐ¿Ð¾ÐºÐ¾Ð¹ ÑģÑĤÐ²Ð¸Ðµ
ĠÑģÐ¾Ñģ ÐµÐ´
ĠÐ¸ÑģÐº Ð°Ð»
ĠÑģÐ»ÑĥÑĪ Ð°Ð»Ð°
ĠÐ½Ð¾Ð³ Ð°Ð¼Ð¸
ĠSt ep
ĠÐºÐ°Ð¶Ð´ Ð¾Ð¼
ÑĥÑģÐº Ð°Ñı
ĠÐ·Ð½Ð°ÐºÐ¾Ð¼ ÑĭÐµ
ĠÐ´Ð¾ÑĢÐ¾Ð³ Ðµ
ĠÐ´Ð¾ÑĢÐ¾Ð³ Ð¾Ð¹
ĠÐ·ÐµÐ¼ Ð»Ðµ
Ġins ult
ĠÐ¿ÑĢÐ¸Ð½ ÑıÑĤÑĮ
ĠÑĥÑģÑĤ Ð°Ð½Ð¾Ð²
ĠCh urch
ĠÐ¼Ð½ ÐµÐ½Ð¸Ñı
ĠÐ¤ ÐµÐ´
ĠÐ¤ ÑĢÑĥ
ĠÐ¼Ð¸Ð» Ð°Ñı
ĠÐ¿Ð°ÑĢ ÑĤÐ¸Ð¸
ĠÐµÐ´ Ð²Ð°
ĠÐ´Ð¾Ñģ ÑĤÐ¾Ð¸Ð½
ĠÐ²Ð°ÑĪ ÐµÐ³Ð¾
atur ally
Ġjo ined
ĠÑģÐ¸Ð»ÑĮ Ð½ÐµÐµ
ĠÐ½Ð°Ð¹ Ð´
Ġcalm ly
Ġhorr id
ĠÑģÐ»ÐµÐ´ ÑĥÑİÑī
Ġeas ily
ĠÐ»Ð°Ðº ÐµÑı
ĠÐ±ÐµÑģÐ¿ Ð¾ÐºÐ¾
Ġdep art
Ġprev iously
Ġext ra
ĠÐ´ÐµÐ²ÑĥÑĪ ÐºÐ¸
Ġtou ching
ĠÐ²Ð¾Ð»Ð¾Ñģ Ñĭ
Ġinqu ir
ĠÐ¼Ð¾Ð»Ñĩ Ð°Ð»
ĠÐ¿ÑĢÐµÐ´Ð¿ Ð¾Ð»Ð¾Ð¶
Ġpap ers
Ġloud ly
ĠÐ¿Ð¾ÑĨÐµÐ»Ð¾Ð² Ð°Ð»
Ð¸ÑĤÐµÐ» ÐµÐ¼
Ġbott om
ĠÐ¾Ð· Ð°Ð±Ð¾Ñĩ
ĠÐ·Ð°Ð´ÑĥÐ¼ Ð°Ð»ÑģÑı
Ġdeep ly
ĠÐºÑĢÐµÐ¿ ÐºÐ¾
ĠÑħÐ» Ð¾Ð¿
ĠÑģÐ¿ÑĥÑģÐº Ð°Ñı
ĠÐ¿ÑĢÐµÐ´Ñģ ÑĤÐ¾ÑıÑī
ĠÐºÐ¾ÑĢÐ¼ Ð¸Ð»Ð¸
Ġver and
Ġheav y
Ġanx ious
Ġrequ ired
ĠÐŁÑĢÐ°Ð² Ð´Ð°
ĠÑĢÐµÐ´ ÐºÐ¾
ĠÐ£Ð¶ Ð°Ñģ
ĠÐ²Ð¾ÑģÑĤÐ¾ÑĢ Ð¶
ĠÐ·Ð²Ñĥ ÐºÐ¸
Ġstret ched
Ġbore d
Ġsurr ounded
ĠTit us
ĠÐ½ÐµÐ·Ð°Ð²Ð¸Ñģ Ð¸Ð¼
ĠÑĥÑģÐ¸Ð»Ð¸ Ñı
ĠExcell ency
ĠÑģÐ¾Ð¶ Ð°Ð»
Ġdish on
ĠÐ¿Ð¾ÑģÑĤÐ¾ ÑĢÐ¾Ð½
ĠÐļÑĥ Ð·ÑĮ
Ġplat form
ĠMyag kaya
Ġdestro y
Ġack now
I R
M ama
O W
W ho
a f
a is
a bl
b ted
i um
n atural
r om
r id
v est
w hile
y abin
z e
¤ ÑĢÑĥ
Ð ¤ÑĢÑĥ
ÑĤ Ð¾Ð¼
ÑĤ Ð°Ðº
Ð¸ ÑģÐ»
Ð½ Ð°Ð¶
ÑĢ Ð°ÑĤÑĮ
Ñĥ ÐµÑĤÑģÑı
in y
ĠÑģ ÑħÐ²Ð°ÑĤ
ĠÐ½ ÐµÐ³
ĠÐ¿ Ð»Ð°
ĠÐ¿ ÑĥÐ³
Ðº Ð°Ðº
Ð² ÐµÑģÑĤ
ÑĤÐ¾ ÑĢÑĥ
ĠÐ¸ ÑģÑĤ
Ġb ill
at ives
Ð¾Ð² ÑĭÐ¼
ĠÐ± Ð°ÑĤ
ĠÑĩ ÑĥÐ¶Ð´
en y
Ġth irty
Ġd ust
ĠÑĤ Ñī
ÐµÑĢ Ð½Ð¾
Ġl un
ar se
ĠÑĥ Ð»Ð¸
ĠÐ· Ð¾Ð»
id ence
Ð¾Ð´ Ð²Ð¸Ð¶
Ġhis t
ĠÐ¿Ð¾ ÑıÐ²
Ġwh ist
Ð°Ð½ Ñĥ
Ġre n
Ġre nt
Ġre ins
Ġy ell
ĠÐ¶ ÐµÐ½Ð¸ÑĤÑĮ
Ġsa ve
ÐµÐ´ ÐµÑĪÑĮ
Ð¸ÑĤ Ñĭ
Ð¸ÑĤ ÐµÐ»Ð¸
al s
Ð¸Ñĩ Ð¾Ðº
ÑģÑĤÐ² Ð¸Ð¸
ÐµÐº Ð°
ĠÐºÐ°Ðº Ð¾Ð³Ð¾
ĠÐºÐ°Ðº ÑĥÑİ
Ġr oof
ĠÑģÐ² Ð°Ð´ÑĮ
ÑĢÑĥ Ð±
Ð¸Ð´ ÑĨ
ĠÐ¾Ð± Ð½Ð°Ð¶
ĠS lav
ri but
ĠK uz
ĠÑĤÐ°Ðº Ð¾Ñİ
Ġso fa
Ġsh an
Ġsh ining
all en
Ð¾Ð»ÑĮ ÑĤÐµ
Ð¾Ñģ ÑħÐ¾Ð´
ĠÐĶ Ð°Ð¶Ðµ
ĠÑĢÐ°Ð· ÑĢÑĥÑĪ
qu et
Ð¼Ñĥ Ñĩ
ÑĢÐ° Ñĩ
ÑģÑĤÐ¸ Ð³
Ġde pt
Ġch amp
ĠÐ¿ÐµÑĢ ÐµÐ¶
ov ts
ĠÐ¢ ÑĥÑĢÐ¾Ð²
ĠÐ¿Ð¾Ð» ÐµÐ·
ĠÐľ Ð°Ñħ
ĠC olonel
ĠM ak
Ð¾Ñĩ Ð½Ð¾
Ð¾Ñĩ ÐºÐ¸
ĠÑĪ ÑĥÐ¼
Ġv ale
Ġv ague
ĠÐ²Ð¸Ð´ Ñĥ
Ð°Ñİ ÑīÐµÐµ
Ġun e
Ġun p
ĠÐ»ÑİÐ± Ð¸ÑĪÑĮ
ĠÐ¸Ð¼ Ñı
ĠÐ´ÐµÐ» Ð°Ð»Ð°
Ġhand ed
ĠÐ¿Ð¾ÑĤ ÑĢÐµÐ±
ol og
Ġtim idly
ĠÐ´ÑĢÑĥÐ³ Ð°Ñı
ĠÐ¿Ð¾Ðº Ð¾Ñģ
ĠÑĢÐ°Ñģ ÑģÑĤÑĢÐ¾
un e
ĠÑģÑĤÐ°ÑĢ Ð¾Ð¹
ĠÑģÑĤÐ°ÑĢ Ð°ÑĤÐµÐ»ÑĮÐ½Ð¾
Ġoff ered
ĠÐ´Ð¾ ÑħÐ¾Ð´
Ġtr ans
Ð¾Ð½ Ð¾Ð²
Ġlove ly
ĠÐ²Ð¾Ð· ÑĢÐ°Ð¶
ĠÐĳ ÐµÐ·
Ġbl ood
ĠÑģÐ´ÐµÐ» Ð°Ð²
ĠÐ¿Ð¾Ð½Ð¸Ð¼ Ð°Ñı
ĠÑĨ ÐµÑĢÐºÐ¾Ð²
Ġbrother s
ĠÐĵ Ð»Ð°Ð´
ĠÐł ÑıÐ±
ĠR yabin
ÑĢÐ°Ñģ Ð½Ð¾
ÑĢÐµÐ´ ÐºÐ°
ĠÑĤÑĢ Ð¸Ð´ÑĨ
ĠÐĺÐ²Ð°Ð½Ð¾Ð²Ð¸Ñĩ Ñĥ
ĠÑģÐ¼Ð¾ÑĤÑĢ ÐµÐ»Ð¸
ĠÐ´ÐµÐ»Ð° ÐµÑĤÑģÑı
ĠÐ´ÐµÐ»Ð° ÑİÑĤ
ĠÐ²Ð¾Ð» Ð½Ð¾Ð²
Ġsto pping
ĠÐºÐ°ÑĢ ÑĤÐ¾Ñĩ
ÑģÑĤÐ²ÐµÐ½ Ð½Ð°Ñı
Ġfind ing
Ġpain ted
Ġpain fully
ĠÐ¿Ð¾ÑģÐ»ÐµÐ´ Ð½Ð¸Ðµ
ĠÑĥÑĤ Ð²
ĠÑħÐ¾Ð·ÑıÐ¹ ÑģÑĤÐ²Ðµ
Ġgreat er
ĠÐ¿ÑĢÐµÐº ÑĢÐ°ÑĤ
ĠÐ½Ð¸ÐºÐ°Ðº Ð¸Ñħ
Ġfoll ow
ĠÐ¼ÑĥÐ¶Ð¸Ðº Ð°
ĠÐ·Ð°ÑĤ ÐµÐ¼
Ġaw ait
ĠÐ·Ð°Ñģ ÐµÐ´
Ġdr unk
Ġappro ach
ĠÑĥÑĩ ÐµÐ½
ĠÐ·ÐµÐ¼ Ð»Ð¸
ĠÐ¿Ð¾Ð´Ð½Ñı Ð²
ĠÐ´Ð²Ð¾ÑĢ Ñı
ĠÐ¡ÐµÑĢÐµÐ¶ Ñĥ
ĠÐŀÐ´ Ð½Ð°ÐºÐ¾
Ġsupp ose
Ð°Ð²ÑĪÐ¸Ð¹ ÑģÑı
ĠÐ²Ð·Ð´ Ð¾ÑĢ
Ġra pt
olunt e
Ġpat ient
ĠÐ²ÑĭÑģÐº Ð°Ð·Ð°ÑĤÑĮ
ĠÑĪÐµ Ñİ
ĠÑĪÐµ ÑģÑĤÑĮ
Ġtou ch
Ġboy s
Ġprop ose
ĠÐ¿Ð¾Ð´ÑĬ ÐµÐ·Ð´Ð°
Ġanim ation
ĠÐ¾Ð±ÑĢÐ°Ð·Ð¾Ð² Ð°Ð½Ð¸Ñı
ĠÐ²ÑĭÑģÐ¾Ðº Ð¸Ð¹
ĠÑĢÐ°ÑģÑģÐºÐ°Ð·ÑĭÐ² Ð°Ð»
ĠÐ¾Ð³Ð»ÑıÐ´ÑĭÐ² Ð°ÑıÑģÑĮ
Ġsoft ly
ĠÐ¿Ð¾Ð´Ð½Ð¸Ð¼ Ð°Ñı
ĠÐ¸Ð¼ÐµÑİ ÑĤ
ĠÐ¾ÑĤÐºÑĢÑĭ Ð»
ĠÑĤÑıÐ¶ÐµÐ» Ð¾Ðµ
ĠFr ou
Ġhealth y
ĠÑĢÐ¾Ð± ÐºÐ¾
ĠÐ²Ð°Ð³Ð¾ Ð½
Ġcou ple
Ġrelig ious
Ġhot el
ĠÐ²Ð·Ð´Ð¾Ñħ Ð½ÑĥÐ»
ĠÐ²ÑģÐºÑĢÐ¸Ðº Ð½ÑĥÐ»Ð°
Ġeng aged
ĠÐ¼ÐµÑģÑı ÑĨÐ°
ĠÐ°Ð½Ð³Ð»Ð¸Ñĩ Ð°Ð½Ð¸
adi ator
ĠÐºÐ½ÑıÐ¶ Ð½Ð°
Ġfield s
look ing
Ġhumili ation
Ġargu ments
Ġpock et
Ġsympath y
Ġmach ine
ĠTur ovts
ĠÐ¿Ð¾ÑįÑĤ Ð¾Ð¼Ñĥ
ĠÐľÐ°ÑĤ Ð²ÐµÐ¹
Ġentr ance
Ġfle w
ĠÑħÑĢÐ¸ÑģÑĤÐ¸ Ð°Ð½
ĠÐ¿ÑĢÐµÐ² Ð¾ÑģÑħÐ¾Ð´
ĠGl adiator
Ġbrilli ant
Ġcontemptu ously
ĠÐ¼Ð¸Ð½Ð¸ ÑģÑĤÐµÑĢ
ĠÐ½ÐµÐ¾Ð¿ ÑĢÐµÐ´ÐµÐ»
Ġgrou p
ĠÐ³ÑĢÐ¸ Ð±
ĠÐŁÐ¾ÑģÑĤ Ð¾Ð¹
ĠStre mov
Ġwed d
ĠÑģÑĤÑĭ Ð´Ð°
gl ass
Ġspee ch
Ġverand ah
Ġdept h
ĠÐ¢ÑĥÑĢÐ¾Ð² ÑĨÑĭ
Ġvale t
ĠÐĵÐ»Ð°Ð´ Ð¸Ð°
ĠÐłÑıÐ± Ð¸Ð½Ð¸
ĠRyabin in
. )
A N
A s
G o
H ere
O T
P lease
P erhaps
R ONSKY
S T
Y our
g y
i o
j or
v os
Ð Ń
Ġ 1
Ġ 2
Ð¾ Ð½Ñĭ
Ð¸ ÑĨÐ°
Ñģ ÐµÐ³Ð´Ð°
Ð½ Ð¾Ð³
Ð» Ð¾Ð±
ÑĢ Ð¸Ð½
ÑĢ Ð¸Ð¼
ÑĢ ÐµÑģ
Ġt ask
he art
he ther
Ġa ston
in a
in ist
ĠÑģ Ð½Ðµ
Ġs ong
ĠÐ² ÑĢÐ°Ð³
ÑĤÐ¾ Ðµ
Ġb ag
Ġb ought
er chief
ÑģÑĤ Ð°ÑĢ
Ð¾Ð² Ð°Ð»Ð°ÑģÑĮ
ÐµÐ½ ÐµÑĢ
ÐµÐ½ Ð½Ð¾Ð¼Ñĥ
Ġf old
ĠÐ± Ð¾Ð¶Ðµ
Ġm ess
Ġm aint
Ġm akes
ĠÐ´ Ð½Ð¸
ĠÐ´ Ð½ÐµÐ¹
Ġd ry
Ġn um
ÐµÑĢ Ð¾Ð²
ÐµÑĢ Ð¿
Ġl ace
Ġl oves
Ġp as
Ġp orter
Ġin ner
ĠÑĥ Ð½Ñĭ
ĠÑĥ Ð³Ð¾
ĠÐ· Ð°Ð¶
Ð½Ð¸ ÑĤÑĮÑģÑı
Ð¾Ð´ Ñĥ
Ġe t
Ð°Ð½ Ð½ÑĭÑħ
Ġy ield
ĠÐ» Ð¾Ð±
Ð¸Ð² ÑĪÐµÐµ
Ð°Ð´ Ð¾
Ġas ide
ÑĢÐ¾ ÑģÑĤ
Ġst y
Ġst oo
ĠA m
Ġr ust
ĠÐ²Ñĭ Ð´ÐµÑĢÐ¶
Ð»Ñı Ð»
ÑĢÑĥ Ñģ
Ġbut t
ĠÑįÑĤÐ¾ Ñİ
Ð½Ñĥ Ð»Ð¾
ch ik
ri ages
ĠÐ¡ Ð¾
ĠK ostya
Ġsh aking
ĠÐ·Ð° ÑģÑĤÐ°Ð²Ð»Ñı
ĠÐĶ Ð¾Ðº
ĠÑģÐ» Ð¾Ð¼
ĠV olunte
ĠV RONSKY
ak ed
ÑĭÐ² Ð°ÐµÑĤ
ÐµÐ¶ Ð°ÑĤÑĮ
ÐµÐ¶ Ð´Ð°
Ġal ive
ĠÐ¿Ð¾Ð» Ð¸ÑĤ
Ġgo ld
ĠM lle
est ed
ĠÑĪ ÐµÐ´
Ġle vel
ĠÐ´Ð² ÐµÐ½
ĠÑģÑĤÐ¾ Ð»Ðµ
Ġno is
ĠD uring
Ġim m
ĠÐ»ÑİÐ± ÐµÐ·
ĠÐºÑĢ ÐµÑģÑĤ
Ð»Ð¾ Ð½Ð¸Ð²
Ð¸ÑĤÐµÐ»ÑĮ ÑģÑĤÐ²Ð¾
ĠÑģÐ¼ Ð¾ÑĤÑĢÐ¸
ĠÑħÐ¾ÑĤ ÑıÑĤ
Ġany where
ĠÐ½Ð°Ð´ ÐµÐ»
ple x
ĠÐ¿Ð¾Ðº ÑĥÐ¿
ĠÑĢÐ°Ñģ Ñĩ
ĠÑģÐ¾ Ð½
Ġpl aces
od ore
ĠÑģÑĤÐ°ÑĢ Ð°Ñı
ĠÐ´Ð¾ ÑģÑĤÐ°Ð²Ð»Ñı
ĠÐ§ ÑĤÐ¾Ð±
Ġtr ous
ĠÑĩÐµÐ»Ð¾Ð² ÐµÑĩ
Ġstr ained
Ġbl iss
ĠÐ¿Ð» Ð°Ð½
ĠÑĥÐ¼ Ð¸Ð»
ÑĢÑı Ñĩ
ĠÐ½ÐµÐ¿ Ð¾Ð´Ð²Ð¸Ð¶
ÐµÑĢÐ¶ Ð´
ĠÐĺÐ²Ð°Ð½Ð¾Ð² Ð½Ñĭ
ĠÐ¿Ð¾Ð½Ð¸Ð¼ Ð°ÐµÑĪÑĮ
Ġgr as
ick ing
Ġpr oof
Ġatt end
Ġatt itude
ĠÑĢÐµÑĪ Ð¸Ð»ÑģÑı
Ġmat ch
ĠÑĤÑĢ ÐµÐ²
Ġop er
Ġthr own
Ġcar ry
Ġper plex
ĠÐ½ÐµÐ´ Ð°Ð²Ð½Ð¾
ĠÑĥÐ²Ð¸Ð´ ÐµÐ»
ĠÐ»ÑİÐ´ ÑĮÐ¼Ð¸
ĠÐ²Ð¾Ð» Ð¸
Ġfriend ship
ÑģÑĤÐ²ÐµÐ½ Ð½ÑĭÐ¼
ÑģÑĤÐ²ÐµÐ½ Ð½Ð¾Ð¹
Ġind ic
ĠÐ¼Ð¾Ð»Ð¾Ð´ ÑĭÑħ
Ġdist inct
Ġjoy fully
Ġcare s
ĠÐ²ÑģÑı ÐºÐ¸Ð¹
Ġend ed
ĠÐ³ÑĥÐ± Ð°Ð¼Ð¸
Ġdel iber
ĠÐ¼Ð½Ð¾Ð³Ð¾ Ðµ
ĠÐºÐ¾Ð½Ñĩ Ð¸Ð»
Ġaw ful
ĠÐ·Ð½Ð°ÐºÐ¾Ð¼ ÑĭÐ¼
em st
Ġdr ank
ĠÑģÐºÐ°Ð¶ Ð¸ÑĤÐµ
ĠÐ½ÐµÐ¿ÑĢÐ¸ÑıÑĤ Ð½Ð¾Ðµ
ĠÐ¿ÑĢÐ¾Ð² ÐµÐ»
ĠÐŁÑĢ ÐµÐ¶Ð´Ðµ
ĠÑĪÐ°Ð³ Ð°Ð¼Ð¸
ĠY our
ĠÐ¿Ð¾Ð´Ð½Ñı Ð»ÑģÑı
ĠÑĥÑģÑĤ Ð°Ð»
ĠÐ²ÐµÑģÐµÐ» ÑĭÐ¹
ĠÐ¶ÐµÐ»Ð° ÐµÑĤ
ĠÐŀÐ´ Ð½Ð°
ĠÐ²ÑĭÑħÐ¾Ð´ Ñı
ĠAlexand er
ĠÑģÐ»ÑĥÐ¶ ÐµÐ±
Ġdisc overed
ĠÐºÐ½Ð¸ Ð³Ð¸
ĠÑģÐ´ ÐµÑĢÐ¶
Ġjo ke
Ð°Ð´ÑĨ Ð°ÑĤÐ¸
Ġadv ant
Ġsor row
ĠÐ·Ð°Ð¼ÐµÑĩ Ð°Ð»
Ġbright ened
ĠÐ²Ñĩ ÐµÑĢÐ°ÑĪ
ĠÑģÐ²ÑıÐ· ÑĮ
ĠÐ¿ÐµÑĢÐµÐ± Ð¸Ð»Ð°
Ġcoat s
ĠÐ´Ð¾Ð±ÑĢ ÑĭÐ¹
ĠÑī ÐµÐº
the less
Ġprev ious
ĠÐ±Ð°Ð» Ð»Ð¾ÑĤ
ĠÐ²Ð·ÑıÐ» ÑģÑı
ĠÐºÐ°Ð±Ð¸Ð½ ÐµÑĤÐµ
ĠÑĨÐµÐ» ÑĥÑı
ĠÐ³Ð»ÑĥÐ¿ Ð¾
ĠÐ²Ð¿ÐµÑĩÐ°ÑĤ Ð»ÐµÐ½Ð¸Ñı
Ġlo ft
ĠÐ»ÐµÑģ Ð°
ĠÑĤÐ²Ð¾ Ñı
ĠÐ´Ð¾ÑģÐ°Ð´ Ð¾Ð¹
ĠÐ¿Ð¾Ð´ÑĬ ÐµÐ·Ð¶
ĠÐ¿Ð»ÐµÑĩ Ð¸
ĠÐ¿ÑĢÐµÐ´Ð¿ Ð¾Ð»Ð°Ð³
Ġrecogn ize
ĠÐ¸Ð¼ÐµÑİ Ñī
ĠÑĤÐµÑĢ ÑĢÐ°Ñģ
ĠÐ½Ð°Ð¿Ð¸Ñģ Ð°Ð»
ĠÐ²Ð»ÑİÐ±Ð»ÐµÐ½ Ð°
Ġcomfort able
ĠÐ¿Ð»Ð°ÑĤ ÑĦ
Ð¸Ð²ÑĪÐ¸Ð¹ ÑģÑı
Ð¸Ð²ÑĪÐµÐ³Ð¾ ÑģÑı
ĠÐ½ÐµÑĢ Ð°Ð·
ĠÑĢÐµÐ»Ð¸ Ð³Ð¸
Ġgri ef
Ġstre et
ĠÐ¿ÑĢÐµÐ´Ð²Ð¾Ð´ Ð¸ÑĤÐµÐ»ÑĮ
ĠÐ³Ð»ÑĥÐ± Ð¸Ð½Ðµ
ĠÐ¾ÑģÐ² ÐµÑī
Ġschool s
Ġbird s
ĠÑģÐºÑĢÑĭ ÑĤÑĮ
Ġmo ist
Ġunt il
ĠÑģÐ¾Ð´ ÐµÑĢÐ¶
Ġcig aret
ĠÐ½ÐµÐºÐ¾ÑĤÐ¾ÑĢ ÑĭÐµ
Ġhig her
ĠÐŁÐ¾Ð¶ Ð°Ð»ÑĥÐ¹ÑģÑĤÐ°
Ġforgiven ess
ĠÐ¸ÑģÐºÑĢ ÐµÐ½Ð½Ð¾
Ġwa ist
ĠÐ¼ÐµÐ½ÑĮ ÑĪÐµ
Ġdistur bed
ĠZ emst
ĠÐ¿Ð¾Ð»Ð°Ð³ Ð°Ñİ
ĠSu ddenly
ĠÐĿÐ¸ÐºÐ¾Ð»Ð°ÐµÐ² Ð½Ð°
ĠÐ²ÑģÐ¿ ÑĭÑħ
ĠÐ´Ð²ÐµÑĢ ÑıÑħ
ĠÐ¿ÑĢÐ¸Ð¼Ð¸ ÑĢ
ĠÐ½Ð°ÑĤ ÑĥÑĢ
ĠÐ·Ð½Ð°Ð¼ ÐµÐ½Ð¸ÑĤ
Ġconfir med
ĠÐ½ÐµÐ´Ð¾ ÑĥÐ¼
ĠÐŁÐ¾Ñĩ ÐµÐ¼Ñĥ
Ġentre at
Ġdisple ased
ĠÐ¿Ð¾Ð¼Ð½ Ð¸Ð»
ĠÐ¼ÑĥÐ· Ñĭ
ĠLv ov
Ġindepend ent
Ġreve aled
ĠÐ½ÐµÐ´Ð¾Ð² Ð¾Ð»ÐµÐ½
ĠÐ·Ð°ÑĤÑĢÑĥÐ´ Ð½
Ġlen gth
ĠÐ³ÑĥÐ²ÐµÑĢ Ð½Ð°Ð½ÑĤ
ĠÐ¿ÑĢÐµÐ¿ ÑıÑĤ
Ġexcell ent
Ġcircum st
hot in
Ġchamp agne
ĠÐľÐ°Ñħ Ð¾ÑĤ
Ġwedd ing
D ear
E x
J ust
L L
N A
R e
a wn
b el
b our
f l
k eeper
u le
u nder
w ed
w ise
y ev
Ð ł
Ð¾ Ñı
Ð½ Ð°Ð²
Ð» ÐµÐ½Ð¸Ð¸
he st
ĠÑģ Ð¾Ð¿
ĠÑģ ÑĢÐ°Ð²
ĠÑģ ÐµÐ½Ð¾
Ġs igh
Ñĩ ÐµÐ½Ð¸
ĠÐ¿ ÑĤÐ¸
ĠÐ¸ Ñī
ĠÐº Ð¾Ð¼Ñĥ
ĠÐº ÑĥÑģÑĤ
ĠÐº Ð°ÑĦ
Ð¾Ð² ÐµÑĤ
ÑĪ Ð¸ÐµÑģÑı
on om
Ġf ood
Ġf ancy
Ġf ashion
ĠÐ´ ÑĥÐ¿
ĠÐ´ Ð°ÐµÑĤ
ĠÑĩ ÐµÑģÑĤÑĮ
ÐµÐ» ÑİÐ±
Ġd irty
Ġn aturally
ÐµÑĢ Ñĭ
ĠÐ¼ Ð¸ÑĢÐ°
Ġl over
Ġp air
ĠÐ¿ÑĢ Ð¾Ð»
an im
Ġin ev
ot s
Ð¾Ð» Ð³Ð¾
ĠÑĢ Ð¾ÑģÑĤ
Ð½Ð¸ ÐºÐµ
Ð¾ÑĢ Ñī
ĠÐ½Ð° Ð¸Ð²
ĠÐ½Ð° ÑĢÑı
ĠÐ½Ð° ÑģÑĤÑĥÐ¿
ĠÐ½Ð° ÑĪÐ»Ð°
ĠÐ¿Ð¾ ÐµÐ´ÐµÑĤ
ĠI V
ic ed
ĠÑį ÐºÐ¾Ð½Ð¾Ð¼
st and
ĠÐ» Ð°Ð²
ĠÐ» Ð°Ð¼Ð¿
ĠÐ³ ÑĥÑģÑĤ
ĠÐ³ ÑĥÐ»Ñı
Ġfor med
ĠÐĿ ÐµÐ»ÑĮÐ·Ñı
Ġr ich
ĠÐ²Ñĭ ÑĤ
ĠÐ²Ñĭ ÑĢ
ĠÐ²Ñĭ Ð´ÑĥÐ¼
ĠÐ²Ñĭ ÑĪÐ»Ð¸
Ġan tic
ur al
Ð¸Ð´ Ð¾ÑĢ
ÐºÐ¾ Ð½
ĠÑģÑĤ ÐµÑģ
ĠÑģÑĤ ÑĥÐ»
ĠL ord
ĠL iber
Ġk illed
ri g
ĠÐ¡ Ð¿
ro l
Ð°Ð¶ ÐµÑĤÑģÑı
Ð°Ð¶ Ð¸ÑĤÐµ
ĠÐ·Ð° ÑĤÐ¾
ĠÐĶ ÐµÐ»Ð¾
ĠÑĢÐ°Ð· Ð¾Ñĩ
ĠÑĢÐ°Ð· Ð¾ÑĢÐ²
ĠÐĺ Ð»Ð¸
Ð¼Ñĥ ÑĢÑı
ĠÐ¸Ð· Ð¼ÑĥÑĩ
ĠÐ¸Ð· ÑĢÐµÐ´ÐºÐ°
Ġsu gg
ĠÐ³Ð¾Ð²Ð¾ÑĢ Ð¸
ĠB E
Ġch os
Ġsee king
ist ing
Ġwor ked
Ġv ain
ÑĥÑİ ÑĤ
Ð¾Ðµ Ñħ
ĠÐ²Ð¸Ð´ ÐµÐ»Ð¸
Ġam use
Ġno se
ĠÐ±ÑĥÐ´ ÐµÑĤÐµ
ĠÐ¿ÑĢÐµÐ´ Ð»Ð°Ð³
ĠÐ¸Ð¼ ÐµÐ»Ð¸
Ð¸ÑĤÐµÐ»ÑĮ Ð½ÑĭÐµ
Ð°Ð½Ð¸ Ñİ
ĠÐ±Ð¾Ð»ÑĮ Ð½Ð°
ast ic
ĠÐĲÐ»ÐµÐºÑģÐ°Ð½Ð´ÑĢÐ¾Ð²Ð¸Ñĩ ÐµÐ¼
ish ment
Ġpre c
ĠÐ½Ð¸Ñĩ ÐµÐ¼
Ġoff ice
Ġfeel s
ĠÐķ ÑģÑĤÑĮ
ĠÐŃ ÑĤÐ¸
ĠÐŃ ÑĤÐ°
ĠÑĥÐ² Ð»ÐµÐº
ĠÑĥÐ² ÐµÐ»Ð¸Ñĩ
ĠÑĢÐ°Ð´ Ð¸
ĠÐĳ Ð¾Ð¶Ðµ
Ð¸ÑĢ Ð°Ð»
Ġbl ess
ĠÑģÐ¾Ð± ÑģÑĤÐ²ÐµÐ½Ð½Ð¾
ÑĬ ÑıÑģ
ĠÐļÐ°Ðº Ð¾Ðµ
ĠÐ¿Ð¾Ð»Ð¾Ð¶ Ð¸Ð²
Ġlet ting
ĠÐ¿Ð¾Ð½Ñı ÑĤ
ĠÐĵ Ð»Ð°Ð²
Ġnew ly
ĠÐ¿ÑĢÐ°Ð² Ð´Ð¸Ð²
ab ility
Ð°ÑĪ Ð°
ĠÐ¿ÑĢÐ¾Ñģ Ð¸Ð»
ĠÐ²Ð¿ ÑĢÐ¾ÑĩÐµÐ¼
Ġho ped
Ġfl owers
ĠÐ¿Ð¾Ð· Ð¾ÑĢ
ĠÐ·Ð°Ð¿ Ð¸Ñģ
ĠÐ·Ð°Ð¿ Ð»Ð°Ðº
ĠÑĢÐ°Ð·Ð² ÑıÐ·
Ġdiff erence
ĠÐ·Ð°Ðº ÑĢÐ¸ÑĩÐ°Ð»
ĠÐ·Ð°Ð² Ð¸Ð´
Ġfe ver
Ġser iously
Ġhar vest
ĠÐºÐ¾ÑĢ Ð¸Ð´Ð¾ÑĢ
ĠÐ¿Ð¾Ñģ ÑĭÐ»
Ġwait er
Ð¸ÑĩÐµÑģÐº Ð¾Ðµ
ĠÐ±ÐµÑģ ÑģÐ¼
ĠÐ¾Ðº Ð½Ð°
ĠÐĿÐ¸Ðº Ð¾Ð³Ð´Ð°
Ġob v
Ð°ÑİÑī Ð¸Ð¼
Ġcare ss
ĠÐ´Ð¾ÑĢ Ð¾Ð¶
less ly
ĠÑĥÑģÐ¿ ÐµÐ»
Ġgu ard
Ġgreat ly
Ġsim ilar
ĠÐ»ÐµÐ³ ÑĩÐµ
How ever
ĠÐºÐ¾Ð½Ñĩ Ð¸ÑĤÑģÑı
ĠÐĴÐ°ÑĢÐµÐ½ÑĮ ÐºÐµ
ĠÐ¿Ð¾Ð¹ Ð¼Ð¸
Ġfre qu
ĠÐ·Ð½Ð°Ñĩ ÐµÐ½Ð¸Ñı
ĠÐ¾ÑĤÐ´ Ð°Ð²
ĠÐ¾ÑĤÐ´ Ð°ÑĤÑĮ
Ġdesp ise
ĠÑģÑĩÐ¸ÑĤ Ð°Ñİ
ĠÐ½ÐµÑģÑĩÐ° ÑģÑĤÐ¸Ðµ
gg ed
ĠÑĥÑģÑĤ Ð°Ð»Ð¾
ĠÑĥÑģÑĤ ÑĢÐµÐ¼
ĠÐ´Ñĥ Ñį
ĠÐ¾ÑĤÐ²ÐµÑĤ Ð¸Ð»Ð°
ĠÐ¿ÑĢÐµÐºÑĢÐ°Ñģ Ð½ÑĭÐ¹
Ġart icle
ĠÐ¾Ð±ÑĬÑıÑģ Ð½Ð¸ÑĤÑĮ
ĠÐľÐ¸ÑħÐ°Ð¹Ð»Ð¾Ð² Ð½Ñĭ
ĠÐ¼Ð¸Ð» ÑĭÐ¹
ÑİÑī Ð¸Ð¹
Ġimag ination
Ġdifferent ly
Ġopp ortun
ĠÐ±Ð°ÑĢ Ð¸Ð½
ĠÐ²Ð°Ð¶ Ð½Ð¾
ĠÑģÐ»ÐµÐ· Ð°Ð¼Ð¸
ĠÐ´ÑĢÑĥ Ð·
Ġball s
ĠÐ¿ÐµÑĢÐµÐ¼ ÐµÐ½Ð¸ÑĤÑĮ
ĠÐ¿ÑĢÐµÐ· Ð¸ÑĢÐ°
ĠÐ±ÐµÑģÐ¿ Ð¾ÐºÐ¾Ð¹
ĠÑĪÐ»ÑıÐ¿ Ðµ
ĠEnglish man
ĠÐºÑĢÑĥÐ³ Ð°
ĠÐ²ÑĭÑģÐº Ð°Ð·ÑĭÐ²
Ġprev ented
ĠÐ²Ð¾ÑģÐ¿Ð¾Ð¼Ð¸Ð½Ð° Ð½Ð¸Ðµ
ĠÐĲÐ³Ð°ÑĦ ÑĮÐ¸
ĠWith out
ĠÑģÐ´ÐµÐ»Ð° Ñİ
Ġplay ing
ĠÑģÐºÐ°Ñĩ ÐºÐ¸
ĠÐļÐ½Ñı Ð·ÑĮ
Ð°Ð²ÑĪÐµÐ³Ð¾ ÑģÑı
ĠÐºÐ°Ð· Ð°Ð»Ð¸ÑģÑĮ
ĠÐ½Ð°Ð·ÑĭÐ² Ð°Ð»
ĠÐºÑĥÑĩ ÐµÑĢÐ°
ĠÐ±ÑĭÑģÑĤÑĢ ÑĭÐ¼
Ġshame ful
ĠÑĤÐµÑĢ Ð¿
oc r
Ġem pt
Ġrecall ing
Ġtrem bled
ĠÐ²Ð¾Ð¾Ð±ÑĢÐ°Ð¶ ÐµÐ½Ð¸Ð¸
ĠÑĥÑģÑĤÑĢÐ¾ Ð¸ÑĤÑĮ
Ġpull ing
ĠÐ±Ð»Ð°Ð³Ð¾ ÑĢÐ¾Ð´
Ġimpro ve
Ġimpro per
ĠÐ±Ð»ÐµÑģÑĤÑıÑī Ð¸Ð¼Ð¸
ĠÐ·Ð°Ð±Ð¾ÑĤ Ñĭ
ĠÑĥÑģÐ¸Ð» Ð¸Ðµ
Ġmil itary
Ġsepar ated
ĠÐ»ÐµÑģÑĤ Ð½Ð¸ÑĨÐµ
Ġsmo oth
ĠÐ¿ÑĢÐµÐ´Ð²Ð¾Ð´ Ð¸ÑĤÐµÐ»Ñı
ĠÑģÐ¾Ð·Ð½Ð° Ð½Ð¸Ðµ
ĠÐ½ÐµÐ¸Ð· Ð²ÐµÑģÑĤ
ĠÑĢÑĥÐº Ð°Ð²
ĠÐ±Ð¾Ð»ÐµÐ· Ð½Ð¸
ĠÐļÐ¾ÑĢ ÑģÑĥ
ĠÐ¿Ð¾Ð·Ð² Ð¾Ð½
Ġheav ily
ĠÑĥÑĩÐ° ÑģÑĤÐ¸Ðµ
ĠÑģÐ½Ð¸Ð¼ Ð°Ñı
ĠÐ¿Ð¾ÑģÐ»ÑĭÑĪ Ð°Ð»ÑģÑı
Ġwee k
Ġvar ious
ĠÐ²Ð¾ÑĪ ÐµÐ´
ĠÐ´Ð¸Ð² Ð°Ð½
Ġdelic ate
Ġperfect ly
ĠÐ²ÐºÑĥ Ñģ
ĠÐ½ÐµÑħ Ð¾ÑĢÐ¾ÑĪÐ¾
ĠGovern ment
ĠÐºÐ»Ð°Ñģ Ñģ
ĠÐĵÑĢÐ°ÑĦ Ð¸Ð½Ñı
ĠÑģÐ²Ð¾Ñı ÑĩÐµÐ½Ð¸
ĠÐ¾Ð´ÐµÐ² Ð°ÑĤÑĮÑģÑı
Ġsuperf lu
Ġconvict ion
Ġna ive
ĠÐ¿ÑĢÐ¸Ð²Ð»ÐµÐº Ð°ÑĤÐµÐ»ÑĮ
ĠÐ¾ÑĤÑĩÐ° ÑģÑĤÐ¸
ĠÐ»ÑİÐ´Ñı Ð¼
ĠÐ§ÑĥÐ²ÑģÑĤÐ² Ð¾
Ġdar ling
Ġdepart ure
Ġextra ord
ĠKuz ma
ĠMak hotin
ĠVolunte ers
Ġantic ip
D olly
e lf
g ar
i bly
o pt
r ic
u g
u es
u me
v ice
y n
y ou
Ã ł
Ġ ign
Ðµ ÑģÑĤÐ²Ð°
ÑĢ ÐµÑħ
Ġt al
Ġa ge
Ġa unt
Ñĥ ÐºÐ°
ĠÑģ Ð¸Ð³
ĠÑģ ÑĩÐµÑĤ
Ġs ell
Ġs ides
Ġs ledge
ĠÐ½ ÐµÑĢÐ²
ĠÐ¿ ÑĥÑħ
ĠÐ² ÐµÐ·Ð´Ðµ
Ġb ow
Ġb ath
at a
ĠÐº Ð°Ð»
ĠÐº Ð°Ñģ
Ġc ol
Ġf ast
Ġf air
ĠÐ´ Ð°ÑĢ
ĠÐ´ ÑĭÑħ
ĠÑĩ ÑĤ
ĠÑĩ Ð¸Ð½Ð¾Ð²
en g
Ġd ine
Ñİ Ð¼
Ġn ation
ĠÐ½Ðµ ÑģÐº
or med
Ġp ract
ĠÐ¿ÑĢ Ð¾Ð¹
Ð¸Ð» ÐµÑĤ
ĠÑĥ ÑĢÐ¾Ðº
om pl
Ġbe aming
ut or
Ð¾ÑĢ Ð¾
Ð¾ÑĢ Ð¾ÑĤ
ĠÐ½Ð° ÑĪÐµ
ĠI I
ic ule
Ð°Ð½ Ð³
Ġre vol
Ġsa cr
ĠÐ» Ð¾Ð¿
ĠÐ³ Ð½ÐµÐ²
ver ing
Ð¾ÑĤ Ð²ÐµÑĤ
ĠÐ¾ÑĤ Ð±
Ð¾Ð± ÑīÐµ
ÑĢÐ¾ Ñİ
ĠÐĴ Ð·
ĠÐĴ ÑģÑı
ĠÐĴ Ð¾Ð·
ĠÐĿ ÐµÐ¿
Ġr is
ĠÑģÐ² Ð¸ÑģÑĤ
ĠÐºÐ¾ Ñĩ
ĠÐºÐ¾ Ð½ÑĮ
Ð»Ñı Ð²
ĠÑħ Ð¼ÑĥÑĢÑı
ĠÐ¾Ð± Ð²
ĠÐ¾Ð± ÑģÑĤÐ¾
ÑĤÐ¾ÑĢ Ð¾Ð¿
ĠÑģÑĤ Ñĥ
ĠÑģÑĤ ÐµÐº
ĠÐ¿ÑĢÐ¸ Ð¿Ð¾Ð´
ĠÐ¿ÑĢÐ¸ ÐµÐ·Ð´Ð°
ĠÐ¡ Ð»ÑĥÑĪ
ro id
ill y
ĠK ors
ĠÐ¿Ð¾Ð´ ÑĥÑĪ
Ġso le
Ġsh ri
Ġsh are
Ġsh adow
ĠÑĢÐ°Ð· Ð°
ĠThe odore
Ð½Ñı Ð»Ð¸
Ġdo gs
ÑĢÐ¾Ð² Ð¾Ð»ÑĮ
ĠÐ¿ÐµÑĢ ÐµÑģ
ĠW ait
ĠW ho
ĠW hether
ĠÑģÐ¿ Ð¾ÐºÐ¾
Ġint ent
ist ic
ist ant
ĠÑģÐ°Ð¼ ÑĥÑİ
Ð°Ñİ ÑīÐµÐµÑģÑı
Ġun re
Ġun natural
Ð°Ð¹ ÑģÑı
Ġpo et
Ġbr id
Ð¸ÑĤÐµÐ»ÑĮ Ð½Ð°
ĠÐ¶ÐµÐ½ Ð°ÑĤ
ĠÐ¾Ð¿ Ð¾Ð¼
ĠÐ½Ð°Ð´ ÐµÐ¶Ð´Ð°
ink ing
ĠÑĥÐ»ÑĭÐ± Ð°Ð»ÑģÑı
ĠÐ¿Ð¾Ðº ÑĢÑĭÑĤ
Ġwe ather
Ġwe alth
ĠN ord
ĠN ever
Ġbec oming
ĠÐĲÑĢÐºÐ°Ð´ÑĮÐ¸Ñĩ ÐµÐ¼
Ġimp at
Ġgl it
ĠÑģÑĤÐ°ÑĢ ÑĭÐµ
Ġoff er
Ð°Ð²ÑĪ Ð¸Ð¼
ag ing
ĠÐ¡ÑĤÐµÐ¿Ð°Ð½ Ð¾Ð¼
Ġte ach
ĠÑĦ Ð°Ð»ÑĮ
ĠÐĳ Ð¾Ð»
Ġcl oth
ĠÑħÐ¾ÑĢÐ¾ÑĪ Ð¸Ð¹
ĠÐ¿Ð» Ð¾ÑĤ
Ġro le
ĠÐļÐ°Ðº Ð¾Ð¹
ĠÐļÐ°Ðº Ð°Ñı
Ġhapp ens
ĠÑģÐ»Ð¾Ð² Ð°Ñħ
Ġget s
ĠÐ¾ÑģÐ¾Ð± ÐµÐ½Ð½ÑĭÐ¼
Ġgr ate
ĠÐ½ÐµÐ² Ð¸Ð½
ĠÐ¿Ð¾ÑĢ ÑĥÑĩ
Ġpart ed
ĠÐ¾ÑĤÐ²ÐµÑĩ Ð°ÑĤÑĮ
ud ing
ĠÑĢÐµÑĪ ÐµÐ½Ð¸Ðµ
ĠÐ½ÑĥÐ¶ Ð½Ñĭ
ĠÐ¡ÐµÑĢÐ³ ÐµÐµÐ¼
ĠÐ£ Ð¶Ðµ
ĠÐºÐ¾Ð¼ Ð¿
Ġmoment ary
ĠÐ·Ð°Ð± Ð»
ĠÑĤÑĢ Ð¾Ð³
Ġthr owing
ĠÐ·Ð°Ð¿ ÑĥÑĤ
ĠÐ·Ð°Ð¿ Ð»Ð°ÑĤ
ĠÐĹ Ð´ÐµÑģÑĮ
Ġsc ent
Ġper cept
Ġser ved
ĠÑĥÐ¶Ð°Ñģ Ð°
te en
Ġind ef
ĠÑĥÐ± Ð¸Ð»
Ġacc ompl
ĠÐ¼Ð¾Ð»Ð¾Ð´ ÑĭÐ¼
ĠÐ¶Ð¸Ð² Ð¾ÑĤ
Ġconf idence
Ġdist ance
ĠÑģÐ¿Ð¾ÐºÐ¾Ð¹ ÑģÑĤÐ²Ð¸Ñı
ĠÑģÐ¾Ñģ ÑĤÐ¾
Ġwat ched
ĠÑĥÑģÐ¿ ÐµÐ»Ð°
ĠÐ¾ÑģÑĤÐ°Ð² Ð°ÑĤÑĮÑģÑı
ÐµÐ·Ð´ Ð¾Ð¼
ĠÐ¿ÑĢÐ¾ÑĪ Ð»Ð¾
Ġinst it
Ġtre at
ĠÐ´ÐµÑĢÐµÐ² ÐµÐ½
ĠÐ¿Ð¾Ð»ÑĥÑĩ Ð¸ÑĤÑĮ
Ġbre athing
ĠÐ¼ÑĥÐ¶Ð¸Ðº Ð°Ð¼Ð¸
Ð²ÐµÑĢ Ñħ
ĠÐĴÐ°ÑĢÐµÐ½ÑĮ ÐºÑĥ
ĠÑģÐ»ÑĥÑĩ Ð°Ð¹
Ġneed s
ĠÐ³Ð¾ÑĢ Ðµ
ĠÐ¾Ð±ÑīÐµ Ðµ
ĠÐ´Ð¾ÐºÑĤÐ¾ÑĢ Ð¾Ð¼
ĠÐĿÐ¸ÐºÐ¾Ð» Ð°Ñı
ĠÐ¿Ð¾Ð´Ð½Ñı Ð»Ð°
ock ing
ĠÐ½ÐµÑģÑĩÐ° ÑģÑĤÑĮ
Ġexc use
ĠÐ²ÐµÑģÐµÐ» ÑĭÐ¼
ĠÑģÑĤÐ¾Ð» Ðº
ĠÑģÑĤÐ¾Ð» Ð¾Ð¼
Ġconsider ation
ĠÐ´ÐµÑĢÐ¶ Ð°Ð»
ÐĿ Ð¾
ÐĿ Ñĥ
ĠÐ²ÑĭÑħÐ¾Ð´ Ð¸Ð»
ĠÑģÐ¾Ð³ Ð»Ð°ÑĪ
ĠÐ¼Ð°Ð»ÐµÐ½ÑĮ ÐºÑĥÑİ
ĠÐ¿Ð¾Ð± ÐµÐ´
ĠÑĢÐ°ÑģÑģ ÐµÑĢÐ´
Ġsound ed
Ġrid icule
ÑĥÐ½ Ð´Ñĥ
ĠÐ´Ð°Ð¼ Ð°
Ġprom ise
ĠÑģÐµÑģÑĤ ÑĢÐ°
Ġdifficult ies
ĠÐ¶Ð´ Ð°Ð»Ð¸
Ġfall ing
Ġgaz e
ĠÑĥÐ½Ð¸ Ð·
ĠÐ¾Ð¶Ð¸Ð´ Ð°Ð»Ð°
Ġeas ier
Ġlaw s
ĠÐ±ÑĢ Ð°Ðº
Ġforget ting
Ġpret ended
ĠÐ²Ð¾Ð»Ð¾Ñģ Ð°Ð¼Ð¸
ĠÐ´ÑĢÑĥÐ³Ð¾ Ñİ
ĠÑģÑĢÐµÐ´ ÑģÑĤÐ²Ð¾
ĠÐµÐ·Ð´ Ð¸Ð»
Ġchief ly
ĠÐ°Ð½Ð³ Ð»Ð¸Ð¹
ĠÐ©ÐµÑĢÐ±Ð°ÑĨ ÐºÐ¸Ð¹
Ġbring ing
ĠNot hing
ĠÐ¿ÑĢÐ¸Ð²ÑĭÑĩ ÐºÐµ
ĠÑģÐºÐ°Ñĩ ÐµÐº
ĠÐ¿Ð»ÐµÑĩ Ð¾
ĠÑģÑĥÑīÐµ ÑģÑĤÐ²Ð¾
ĠÑģÐ²Ð¾Ð±Ð¾Ð´ Ñĭ
ĠÑĥÑģÐ¿Ð¾ÐºÐ¾ Ð¸ÑĤÑĮ
Ġtra p
ĠÐ¾ÑĤÑĩÐ°Ñı Ð½
Ġgentle men
ĠÐ·Ð°ÑģÑĤ Ð°Ð»
AR EN
Ġbro ke
ĠÐ¿ÑĢÐ¸Ð½Ð¸Ð¼ Ð°ÑĤÑĮ
ĠÐ¡Ðº Ð¾Ð»ÑĮÐºÐ¾
ĠÐĴÐ¾ Ð¾Ð±ÑīÐµ
Ġcre ature
Ð¸ÑĤÐµÐ» ÐµÐ¹
ĠÐ²Ð°Ð³Ð¾ Ð½Ð°
Ġones elf
ĠÐ¿ÑĢÐ¸ÑģÑĥÑĤ ÑģÑĤÐ²Ð¸Ðµ
ĠÐ¿Ð°Ð¿ Ð¸
ĠÐ·Ð°Ð´ÑĥÐ¼ ÑĩÐ¸Ð²
ĠÐ¾Ð±Ðµ Ð¸Ð¼Ð¸
ĠÐ¼ÐµÑģÑı ÑĨ
ĠÐ¾Ð±ÑĬÑıÑģÐ½ ÐµÐ½Ð¸Ñı
ĠBe fore
ĠÐ¿ÐµÑĢÐµÐ½ ÐµÑģ
ĠÑģÐ¾Ð¾Ð±ÑĢÐ°Ð¶ ÐµÐ½Ð¸Ñı
ĠÐ½ÐµÐ¾Ð±ÑĭÐºÐ½Ð¾Ð² ÐµÐ½Ð½Ð¾
Ġdece ived
Ġguess ed
Ġbir th
ĠÐ¿Ð¾Ð´Ð¾Ð± Ð½Ð¾Ðµ
ĠÑĥÑħ Ð°Ð¶
Ġhig hest
ĠÐ¶Ð°Ð»Ð¾ ÑģÑĤÐ¸
ĠÐ²Ð¾Ð·ÑĮ Ð¼
ĠÑģÐµÑĢÐµÐ´ Ð¸Ð½Ðµ
Ġfun ny
ĠÐ½ÐµÐ¾Ð¶Ð¸Ð´ Ð°Ð½Ð½Ð¾
ĠÐ¿ÑĢÐµ Ð¸Ð¼
Ġec onom
ĠÑģÐ¿Ð°Ð»ÑĮ Ð½Ñİ
ĠÐ²Ð¾Ð·Ð´ÑĥÑħ Ðµ
ĠÑĢÐ°ÑģÐ¿Ð¾Ð»Ð¾Ð¶ ÐµÐ½Ð¸Ð¸
ĠÐ¿ÑĢÐ¸ÑģÐ»ÑĥÑĪ Ð¸Ð²Ð°ÑıÑģÑĮ
ĠÐ¼Ð½Ð¾Ð³ Ð¸Ðµ
ĠÑĥÑģÐ»Ð¾Ð²Ð¸Ñı Ñħ
ĠÐ·ÑĥÐ± Ñĭ
sem bled
Ġdanger ous
Ġchee ks
Ġannoun ced
ES S
Ġfif ty
Ġobst ac
ĠÐ·Ð°Ñī Ð¸Ñī
Ġdevelop ment
Ġunus ual
Ġtort ure
Ġapparent ly
ĠÐ¿Ð°Ð¼ ÑıÑĤ
Ġunfortun ate
Ġmethod s
ĠÐ¿ÑĢÐ¾ÑĪÐµÐ¿ ÑĤÐ°Ð»Ð°
Ġtriump h
Ġrod e
ĠÑĢÐ°ÑģÑģÐ¿ ÑĢÐ°ÑĪ
heart ed
ĠÐºÐ°ÑĦ ÑĤ
ĠLiber al
ĠÑĢÐ°Ð·Ð¾Ñĩ Ð°ÑĢ
Ġsuperflu ous
ĠÐ¾Ð±ÑģÑĤÐ¾ ÑıÑĤÐµÐ»ÑĮ
ĠKors un
ĠÑģÐ¿Ð¾ÐºÐ¾ ÐµÐ½
ĠNord ston
' d
C H
G ood
K itty
O L
a pt
b ook
c ome
c ked
e es
e ve
h chik
k es
o cc
p ort
t le
u dd
v ation
w hat
Ð ľ
Ġ iz
Ð½ Ð°Ð·
Ð» Ð°Ð·
Ð» ÐµÐ½Ð¸Ð¹
Ñĥ ÑĦ
Ñı Ð½ÑĥÐ»
Ñĭ Ð½Ñı
Ġw ip
Ġs illy
ĠÐ½ Ð°Ð¼Ð¸
ĠÐ¿ ÑĭÑĤ
ĠÐ² ÐµÐ½
ĠÐ² ÐµÐ»Ð¸
ĠÐ² Ð¸Ð½Ñĥ
Ġh osp
ĠÐ¾ ÑģÐ»
re g
Ð² ÑĤÐ¾ÑĢ
nd ered
at s
Ġhe ated
ÑģÑĤ Ð°ÑĤÐ¸
Ð¾Ð² Ð¾Ð¼
Ð¾Ð² ÑĭÐµ
ÐµÐ½ Ð±
ÐµÐ½ ÑĤÐ°
Ġc ast
Ġc ows
Ġf an
ĠÐ± ÑĥÐº
Ġm own
ĠÐ´ ÐµÐ¿
ĠÐ´ Ð¸Ðº
ĠÐ´ Ð°Ð»Ð¸
ĠÐ´ Ð°Ñĩ
ĠÑĩ Ð°Ñİ
Ġd ared
Ġd aught
Ġd iver
ĠÑĤ Ð°ÑĢ
ĠÐ½Ðµ ÑıÑģ
ĠÐ¼ Ð½Ð¾Ñİ
Ġl aid
Ġl oose
Ð± ÐµÑĢ
ar row
ĠÑĥ ÑıÑģ
ĠÑĥ ÐµÐ´Ð¸Ð½
ĠÑĢ Ð¾ÑģÐº
id ing
ÐµÐ¼ ÑģÑı
Ð°Ð² ÑĪÐµÐµ
Ġg est
Ġg ives
ĠÐ¿Ð¾ ÑħÐ¾Ð´
Ð¸Ð½ ÑĤÐµÑĢÐµÑģ
Ð³ Ð°ÑĤÑĮ
ĠI II
Ġsa dd
ĠÐ» ÐµÐ½
ĠÐ» ÐµÑĩ
Ð¸Ð² Ð¾
Ð°Ð´ Ð¸Ð»
ÑĨ ÐµÐ¿
ĠÐ¾ÑĤ ÑģÑĤÐ°Ð²
Ð¾Ð± ÑĢÑı
Ġfor ty
ĠÐºÐ°Ðº Ð¸Ñħ
ĠA T
ad ows
ĠT H
ĠT O
ĠT ell
ay ed
ĠÐ²Ñĭ Ð´Ð°
ĠÐ²Ñĭ ÑģÑĤÐ°Ð²
ĠÐºÐ¾ Ð½Ñİ
ÐµÐ³Ð¾ ÑĢÐ¾Ð´
ĠÑı ÑĢÐº
ÑĢÑĥ Ñĩ
ĠÑħ Ð²
Ð¸Ð´ ÐµÑģÑı
ĠÐ¾Ð± Ð¸Ð´
ĠÑģÑĤ ÑĥÐ´
Ð°Ð¶ Ð¸
ÐµÐ· Ð´Ñĥ
ĠÐ¿Ð¾Ð´ Ñģ
Ġso bs
Ġsh y
Ġsh ape
am ent
ĠÐĶ ÑĢÑĥÐ³
and er
ĠÑĢÐ°Ð· Ñĥ
ĠÑĢÐ°Ð· ÑĢÑĭÐ²
ÐµÐ½ÑĮ ÐºÐ°
ÑĢÐ° ÑģÑĤ
us al
ĠV I
ĠV II
ĠV III
ĠÐŁ Ð¾Ð·Ð²
lf are
Ġab and
Ġde g
ust ed
Ġal tered
ac ity
ĠÐ¿ÐµÑĢ ÐµÐ»
ĠW h
ĠW ill
ĠP ro
ĠO N
ĠÐ¢ Ð°Ð¼
ĠÐ¾Ð´ Ð¾Ð±ÑĢÑı
ĠÐľ Ð¾Ð»Ð¾Ð´
ĠÐľ Ð°ÑĤÑĢ
ĠC ome
ĠM asha
Ð¾Ð¿ Ð¾Ð»
ĠÑĥÐ¶ Ð¸Ð½Ð°
Ġv ict
ĠÐ²Ð¸Ð´ Ð°Ð»Ð°
Ġam using
Ð¸Ð½Ð° Ñħ
Ġno vel
Ġun s
Ġsm art
Ġman aged
ĠÐ¿ÑĢÐ¾ ÑģÑĤÐ¸
Ð¸ÑĤÐµÐ»ÑĮ Ð½Ñĭ
Ġse ated
ci ent
Ð°Ð»ÑĮ Ð½ÑĭÐµ
Ġwe ar
Ġwe lfare
pl ace
ĠÐ¼ÑĥÐ¶ Ðµ
ass ad
ĠÐ¿Ð¾ÑģÐ» Ð°Ð½
Ð°Ð²ÑĪ Ð¸ÑħÑģÑı
ack s
ack ing
ap pe
ĠÑĥÐ² Ð»ÐµÑĩ
Ġte ar
Ġte aching
ĠÑĥÐ´ Ð¾Ð±
ĠÐ²ÐµÑĢ ÑģÑĤ
ĠÐ²ÐµÑĢ Ñİ
Ġstr ang
ĠE mper
Ġcont ented
ĠÐºÐ½Ñı Ð·
ĠÐ½Ð°Ð¿ Ð¾Ð»
ĠÐ¿Ð¾Ð¼ Ð¸Ð»
ĠÐ¿Ð¾Ð¼ Ð½Ñİ
ĠÐ¸ÑģÐ¿ ÑĢÐ°Ð²
ĠÐ¾ÑģÐ¾Ð± ÐµÐ½Ð½Ð¾Ð³Ð¾
Ð»ÐµÐ½ Ð½ÑĭÐ¼
Ð»ÐµÐ½ Ð½ÑĭÐ¹
Ð»ÐµÐ½ Ð½ÑĭÐµ
ĠÐ½ÑĥÐ¶ Ð½Ð°
ĠÐ½ÐµÑĤ ÐµÑĢÐ¿
Ġexpress ing
Ġsat isfaction
Ġad opt
Ġrel atives
lov na
ĠÐ´ÐµÑĤ ÑģÐºÐ¾Ð¹
ĠÑĢÐ°Ð·Ð² Ð»ÐµÐº
ĠÐ·Ð°Ðº ÑĢÑĭ
ĠÑĤÐ² Ð¾Ð¹
ĠÐ´Ð¾Ð± ÑĢÐ¾Ð²Ð¾Ð»ÑĮ
ÑģÑĤÐ²ÐµÐ½ Ð½ÑĭÐ¹
Ġord inary
ÑĥÐ³ Ð°
Ġquestion ing
ĠÑĩÐµÑĢ Ð½ÑĭÐ¼Ð¸
ĠÐ´Ð° ÑģÑĤ
vi al
Ġact ed
ĠÐ¶Ð¸Ð² Ð¾Ðµ
Ġconf usion
Ġdist ant
Ġinv ited
Ġref usal
ĠÐ·Ð°Ð´ ÐµÑĢÐ¶
Ġsil ver
ĠÐ¾ÑģÑĤÐ°Ð² Ð¸Ð»
ĠÐµÑħ Ð°Ð»
ĠÐ¸ÑģÐ¿ÑĭÑĤ Ð°Ð»
Ġinst ance
ĠÐ¿Ð¾Ð»ÑĥÑĩ Ð¸Ð²
ĠÐ½Ð°Ð² ÑģÐµÐ³Ð´Ð°
ĠÑģÐ¸Ð´ ÐµÐ»Ð¸
ĠÐºÐ¾Ð½Ñĩ Ð¸Ð»Ð¾ÑģÑĮ
ĠÐ²ÐµÐ» Ð¸Ñĩ
Ġsuff ered
ĠÐ¾Ð³Ð»Ñı Ð½ÑĥÐ»Ð°ÑģÑĮ
ĠÑĢÐ°Ð±Ð¾ÑĤ Ñĭ
ĠÐ·Ð°Ñģ Ð½ÑĥÐ»
Ġvis ible
ĠÐ·Ð½Ð°Ñĩ Ð¸Ð»Ð¾
Ġsister s
ĠÐ¾ÑĤÑĩ ÐµÑĤ
ĠÑĥÐº Ð»Ð°Ð´
ĠÑħÐ¾Ð´ Ð¸Ð»
ÑıÐ³ Ð¸Ð²Ð°Ñı
ĠÐ¿ÑĢÐ¾Ð² Ð¾Ð¶
ĠÐ¿Ð¾Ð´Ð½Ñı Ð»
Ġins ign
ĠÑģÑĩÐ¸ÑĤ Ð°ÑĤÑĮ
ĠÐ¶ÐµÐ»Ð° Ñİ
ĠÑĢÐµÐ±ÐµÐ½ ÐºÐ¾Ð¼
Ġdet ail
ĠÐ·Ð°Ð½Ð¸Ð¼ Ð°Ð»Ð¾
Ġterri bly
ĠÐ¿ÑĢÐ¸Ðº Ð°Ð¶ÐµÑĤÐµ
Ġhigh ly
ĠÐ¸Ð³ ÑĢÑĥÑĪ
ĠÐ´ÑĥÑħ Ðµ
Ð°Ð»ÑĥÐ¹ ÑĤÐµ
ĠÐ´Ð°Ð² Ð°Ð»
ĠÐ²Ð°Ð¶ Ð½Ð¾Ðµ
ĠÐ¸Ð·Ð¼ ÐµÐ½Ñı
ĠÐ¸Ð·Ð¼ ÐµÐ½Ð¸ÑĤÑĮ
Ġadv ance
ĠÐ´Ð¾Ñĩ ÐµÑĢÑĮÑİ
ĠÐ²ÑģÐº Ð¾ÑĩÐ¸Ð»
Ġass umed
ĠÑĢÐ°ÑģÐº Ð°
Ġhost ile
Ġkeep ing
ĠÐºÑĥÐ¿ Ð¸ÑĤÑĮ
ĠÐ²ÑĭÑģÐº Ð°Ð·
Ġprev ent
ĠÑģÑĤÐ°ÑĢÐ¸Ðº Ð°
ĠÑĤÑĭÑģÑıÑĩ Ð¸
ĠÐºÐ» ÐµÐ²
Ġdirect ly
ĠÐļÐ°ÑĤÐ°Ð²Ð°ÑģÐ¾Ð² Ð°
Ġpur su
Ġwo ke
Ġlo ss
eved ovsky
Ġcap ital
ĠÑĥÐ´ÐµÑĢÐ¶ Ð°ÑĤÑĮ
ĠÑģÐ´ÐµÐ»Ð° ÐµÑĤ
Ġpower ful
ĠÐ³Ð¾Ð´ Ñĥ
ĠÐ¿Ð»ÐµÑĩ Ð°Ð¼Ð¸
ĠÐ³Ð¾ÑģÐ¿Ð¾Ð´ Ð¸Ð½
ĠÐ¾Ð±ÑĢÐ°Ð·Ð¾Ð² Ð°Ð½Ð¸Ðµ
Ġph r
ĠÐºÑĥÑĩ ÐµÑĢ
ĠÐĵÐ¾Ð»ÐµÐ½Ð¸ÑīÐµÐ² Ð°
Ġtri vial
ĠÑĥÐ²ÐµÑĢ ÐµÐ½
Ġlear n
ĠÑĢÐ°Ð±Ð¾Ñĩ ÐµÐ³Ð¾
ĠÐ±Ð»Ð°Ð³Ð¾Ð´Ð°ÑĢ Ñı
ÑĤÑı Ð½ÑĥÑĤ
ĠÐ¼Ð°Ð»ÑĮÑĩÐ¸Ðº Ð°
Ġcoll ect
Ġconn ection
ĠÑģÐµÑĢÑĮÐµÐ· Ð½Ð¾
ĠÐ¼ÑĥÐ¶Ñĩ Ð¸Ð½Ñĭ
ĠÐºÐ°ÑĢÑĤ Ð¸Ð½Ñĭ
Ġdisp ute
ĠÐ´Ð¾ÑģÑĤ Ð°Ð»
ĠÐ½ÑĭÐ½ÐµÑĪ Ð½Ð¸Ð¹
ĠÐ¾Ð±Ð» Ð¾Ðº
Ġpassion ate
ĠÐ³ÑĢ ÐµÑħ
Ġann oy
ĠÐ¾Ð±Ð¾ Ð¸Ñħ
Ġsepar ate
ĠÐ¿Ð¾Ð»ÐºÐ¾Ð² Ð½Ð¸Ðº
ĠÐºÑĢÐµÑģ Ð»Ð¾
Ġdefinite ly
ĠProv in
Ġsle pt
Ðļ Ð°Ðº
ĠÑģÐµÐº ÑĢÐµÑĤ
Ġconcl uded
Ġanx iety
Ġdece ive
ĠÐºÐ¾Ð»ÑıÑģÐº Ðµ
ĠÐ´ÑĢÐ¾Ð¶ Ð°Ñī
ĠÐĴÐµÑĢ Ð½ÑĥÐ²ÑĪÐ¸ÑģÑĮ
ĠÐ¾Ð±ÑıÐ·Ð°Ð½ Ð½Ð¾ÑģÑĤÐ¸
Ġhung ry
ĠÐ¿ÑĢÐ¾Ðº ÑĢÐ¸ÑĩÐ°Ð»
Ġec st
ĠÐ¾ÑĤÑĭÑģÐº Ð¸Ð²Ð°Ñı
Ġinn oc
oura ble
ĠÐ¿ÑĢÐ¸Ð³ Ð»Ð°Ñģ
ĠÐ±ÑĥÐ¼Ð°Ð³ Ð¸
Ġembarrass ed
Ġconsequ ence
Ġener get
Ġextreme ly
Ġfulf il
Ġtast e
ĠÐķÐ² ÑĢÐ¾Ð¿
ĠÐ·Ð²Ð¾Ð½ Ð¾Ðº
ĠÐ¼ÑĭÑģÐ»Ñı Ð¼Ð¸
ĠÑģÑĥÐ¿ ÑĢÑĥÐ³
ĠÑĤÐ°Ð½ ÑĨÐµÐ²
ĠÐ´Ð¾Ð³Ð°Ð´ ÑĭÐ²
ĠÐ¼Ð°Ð»ÐµÐ¹ ÑĪÐµÐ³Ð¾
ĠÐ¿Ð¸ÑĪ ÐµÑĤ
ĠÑĤÑı Ð³Ð¾
Ġfrank ly
ĠÐĴÐ°ÑĢÐ²Ð°ÑĢ Ð°
ĠÐŁÐ°Ð² Ð»Ð¾Ð²
ĠÐŁÐµÑĢÐ² Ð¾Ðµ
Ġviv idly
ĠÐ¼ÑĥÐ½Ð´Ð¸ÑĢ Ðµ
ĠPav lovna
Ġdeterm ined
Ġprofess or
ĠÑĢÐ°Ð·Ð½Ð¾ Ð¾Ð±ÑĢÐ°Ð·
Ġconce al
ĠStep hen
Ġlun ch
Ġyell ow
vos hchik
ĠÐ±Ð°Ð»Ð»Ð¾ÑĤ Ð¸ÑĢÐ¾Ð²
ĠZemst vo
Ġchos en
Ġextraord inary
ĠÑħÐ¼ÑĥÑĢÑı ÑģÑĮ
ĠÐ¿ÑĢÐµÐ¸Ð¼ ÑĥÑīÐµ
Ġiz voshchik
Ġdaught ers
ĠÑĢÐ¾ÑģÐº Ð¾ÑĪ
ĠEmper or
S h
a ld
c om
c ase
h il
i ently
k ers
l er
m on
o k
o is
p es
p ond
w he
ĠÐ ¦
Ð¾ ÑĤÐ¾
Ð° ÑģÑĤÐ¸
Ð½ Ð¾Ð¶
Ð½ ÐµÐ¼Ñĥ
Ð» ÑĥÐ¶
Ð» ÑĭÐ¼
ÑĢ ÐµÐ½
ÑĢ Ð³
ÑĢ Ð¾Ð¹
ÑĢ ÐµÐ²
ÑĢ ÐµÑī
Ġt ree
Ñı Ð»Ð¸
Ġw ond
ĠÑģ Ð¸
ĠÑģ ÐµÐ»ÑĮ
ĠÑģ Ð½ÑıÐ»
Ġs wing
Ġs orts
ĠÐ¿ Ñĭ
ĠÐ¿ ÑĪ
ĠÐ¿ ÐµÑģ
ĠÐ¿ ÐµÑĪ
Ġthe atre
Ð´ ÑĢÑĥÐ³
Ð°Ð» Ð¾Ð¼
ĠÐº Ð¾Ð·
ĠÐº Ð²Ð°ÑĢ
Ð¾Ð² ÐµÑĢÑĪ
Ġc ough
Ġf ire
ĠÐ± Ð°Ðº
ĠÐ´ Ð°Ð¹
ĠÐ´ ÑĮÑı
Ñħ Ð¸ÑĤ
Ñħ Ð°ÑĤ
ĠÑĤ Ñİ
ÐµÑĢ Ð½Ð¾Ðµ
ĠÐµ Ð´Ñĥ
ĠÐ½Ðµ ÑĥÐ¼
ĠÐ½Ðµ ÑĥÐ¶ÐµÐ»Ð¸
ĠÐ½Ðµ Ð¾ÑħÐ¾ÑĤ
es p
ĠÐ¼ ÐµÑĤ
ĠÐ¼ Ð°Ñģ
Ġl ately
Ġl ux
or ney
Ġp ure
Ġp ushing
Ġp acing
Ġp arent
an sky
ĠÑĥ ÑĩÐ¸ÑĤ
ĠÑĥ Ð»Ð¾Ð¶
Ð¿ ÐµÑĢÐ²
ĠÑĢ ÐµÐº
ĠÑĢ Ð¾Ð»ÑĮ
ĠÑĢ Ð°Ð½ÑĮ
im on
Ġbe ha
Ð½Ð¸ ÑĤ
Ð¾Ð´ Ðµ
Ð¾ÑĢ Ð¾Ð´
ĠÐ½Ð° ÑĪÐ¸
Ġg ay
Ġg athe
ĠÐ¿Ð¾ ÑģÐ¼
ĠÐ¿Ð¾ ÑģÐºÐ¾ÑĢ
Ð³ Ð´Ðµ
ĠI X
Ġre view
ÐµÐ² ÐµÐ»
ĠÐ³ ÐµÐ½ÐµÑĢ
Ð¸Ð² Ð°Ð»Ð¸ÑģÑĮ
Ð¾Ð³ Ð°
Ġas p
ĠÐĴ Ñĩ
ĠÐĴ Ð¸Ð´
ĠÐĴ Ð¾Ñģ
Ġst ir
Ð¸Ð¼ Ð¾Ðµ
ĠA b
Ġr ow
ĠÐºÐ¾ ÑģÑĤ
ĠÐºÐ¾ Ð½ÐµÑĨ
Ð»Ñı Ñı
ĠÑı ÑĢ
ĠÑı ÑīÐ¸Ðº
ĠÐ¾Ð± Ñģ
ĠÐ¾Ð± Ð¾ÑĢ
ĠÐļ ÑĥÐ´Ð°
ĠS omet
ons cious
ĠÑģÑĤ Ð°ÑĢÐ¾
ct ion
ĠH ad
ĠÐĽ ÑĥÐº
ĠÐĽ Ð¸ÑĨ
ĠÐ¿ÑĢÐ¸ ÑĪ
ĠÐ¿ÑĢÐ¸ Ð¾Ð±ÑĢ
Ð°Ð¶ Ñĥ
Ġso ot
Ġsh ut
Ġsh ade
ĠÐĶ Ð°Ð²Ð½Ð¾
ĠÑĢÐ°Ð· Ð»Ð¸Ñĩ
ÑĥÐ¶ Ð´Ð°
Ð¾Ð· Ð½Ð°
ÐµÐ½ÑĮ Ñı
Ġwhe at
Ġsu it
Ġsu dden
ĠÐ° Ð´
Ð°Ð»Ð¸ ÑģÑĤ
Ġch ance
Ġch oose
Ġch allen
ÑĥÑĩ Ð½Ð¾
Ġj aw
Ġj acket
ĠÐ¿Ð¾Ð» ÑĩÐ°Ñģ
ĠÐľ Ð°Ð¼Ð°
ĠM ar
ĠM atre
Ð¾Ð¿ ÑĭÑĤ
Ġwor st
ĠÑĪ ÑĤÑĥ
Ġout look
ĠÐ²Ð¸Ð´ Ð¸ÑĤ
ĠÐĴÑĢÐ¾Ð½ÑģÐº Ð¾Ð¼
Ġle ather
ĠÐ´Ð² ÑĥÐ¼Ñı
Ġun ion
Ġun ne
ĠÐ»ÑİÐ± Ð¸ÑĤÐµ
ÐµÑħ Ð°Ð²
ĠÐ¸Ð¼ ÐµÐ½Ð¸
Ð´Ðµ ÑģÑıÑĤ
ĠÐ´ÐµÐ» Ð°Ð»Ð¾ÑģÑĮ
ĠÐ¾Ð¿ Ð¾Ð·Ð´
ĠÐ½Ð°Ð´ ÐµÐ¶Ð´
ĠÐ¾ÑĤÐ² ÑĢÐ°ÑĤ
Ġunder t
ĠÐ´ÑĢÑĥÐ³ Ð¸Ð¼Ð¸
ĠÐ´ÑĥÐ¼ Ð°Ð»Ð¸
Ġar ch
ĠN e
ĠN evedovsky
ĠÐ½Ð¸ Ð¶Ðµ
ÐµÑĪÑĮ ÑģÑı
ĠÑģÑĤÐ°ÑĢ Ð°Ð»Ð°ÑģÑĮ
Ġthink s
ĠÐ½Ð¸Ðº ÑĥÐ´Ð°
ĠÐ´Ð¾ ÑģÑĤÐ¸Ð³
ĠG ener
Ġcons cience
Ġte m
ĠÐ²ÐµÑĢ Ð½ÑĥÐ»Ð°ÑģÑĮ
ĠÐ²ÐµÑĢ Ð½ÑĥÐ²ÑĪÐ¸ÑģÑĮ
Ġstr ain
Ġcl os
Ġcl over
Ġcl erk
ĠÑħÐ¾ÑĢÐ¾ÑĪ ÐµÐµ
ĠÐ¿Ð» ÐµÐ´
ĠÐ±Ð¾Ð» Ð¾ÑĤÐ°
ĠÑģÐ¾Ð± Ñĭ
ĠÐ·Ð°Ð¼ ÐµÐ½
ÑĢÑı Ð¼
Ġthan ks
Ġchild hood
ĠÐ¿Ð¾Ð½Ð¸Ð¼ Ð°ÐµÑĤÐµ
Ġway s
ĠÑĨ ÐµÐ¿
ĠÑĨ ÐµÐ»Ð¾Ð²
ĠÐ¿ÑĢÐ°Ð² Ð´Ñĥ
ĠÐ½Ð°Ñĩ Ð¸Ð½Ð°Ð»
Ġpart ition
ĠX II
ĠX III
ĠÐ±ÐµÐ· Ð¾Ð±ÑĢÐ°Ð·
ĠÐ±Ð» Ð°Ð¶
ÑĢÐ¾Ð´ Ðµ
ĠÐ¿ÑĢÐ¾Ñģ Ð¸Ð»Ð°
Ġright s
Ġright ly
Ġatt ach
ĠÐ³Ð¾Ð»Ð¾Ð² Ð°
ĠÐ£ Ð·
ĠÑĢÐ°Ð·Ð³Ð¾Ð²Ð¾ÑĢ Ñĭ
Ġrec overed
Ġfl at
ĠÑģÑĩÐ° ÑģÑĤÐ¸Ñı
ĠÐ´ÐµÑĤ ÑģÐºÑĥÑİ
ĠÑĩÐ°Ñģ Ñĥ
ĠÐ´ÐµÐ»Ð° Ñħ
Ġkind s
ĠÐ·Ð°Ð² Ð¸
ĠTh ree
ĠÐºÐ°ÑĢ ÐµÑĤÑĭ
ĠÐºÐ¾ÑĢ Ð¾Ð²
Ð¸ÑĩÐµÑģÐº Ð¾Ð¹
Ð¸ÑĩÐµÑģÐº Ð¸Ñħ
ĠÑģÑĭ Ð½Ñĥ
Ġpain ting
Ġdist ract
ĠÐ·Ð² ÐµÐ·Ð´
Ð°ÑİÑī Ð¸Ñħ
ĠÐ¿Ð¾ÑģÐ»ÐµÐ´ Ð½ÐµÐ¹
Ġcare er
ĠÐ¾Ð±ÐµÐ´ Ð¾Ð¼
ĠÐ·Ð°Ð´ ÑĥÑĪ
ĠÐ¸Ð½ÑĤÐµÑĢÐµÑģ Ð½Ð¾
ĠÐ¿ÑĢÐ¸ÑıÑĤ ÐµÐ»Ñı
Ġsub m
ĠÑĤÐµ Ð°ÑĤ
ĠÐ¿ÐµÑĢÐµÐ´ Ð½ÐµÐ¹
ĠÐ¼ÑĥÑĩ Ð°Ð»Ð¾
Ġinter f
Ġinter p
ĠÐĴÐ°ÑĢÐµÐ½ÑĮ ÐºÐ¸
ĠÐºÐ°Ð¶Ð´ Ð¾Ðµ
Ġreal ity
ĠÑģÐ»ÑĥÑĩ Ð°Ñı
ĠÐ¿Ð¾Ð¿ ÑĢÐ¾Ð±
Ġmer cy
ĠÐ¾ÑĤÐ´ ÑĭÑħ
ĠÑĢÐ°Ð·Ð´ ÑĥÐ¼
ĠÐ½Ð°ÑħÐ¾Ð´ Ð¸Ð»ÑģÑı
Ġdesp ised
ĠÑģÐ²ÐµÑĤ Ð¾Ð¼
Ġve h
Ġve il
ĠÐ´Ð²Ð¾ÑĢ ÑıÐ½ÑģÐº
ĠÐ¾Ð±ÑĢÐ°Ð· Ð¾Ð¼
ĠÐ¾ÑĤÐ²ÐµÑĤ Ð¸ÑĤÑĮ
ĠÐ¡ÐµÑĢÐµÐ¶ Ðµ
ĠSer vice
Ġsent ence
ĠÐ½Ð°ÑĢÐ¾Ð´ Ð¾Ð¼
ĠÐ¿Ð¾Ð³ ÑĥÐ±
ĠÐļÐ¾Ð½ÑģÑĤÐ°Ð½ÑĤ Ð¸Ð½Ð°
ĠÑģÐ¾Ð¾Ð± ÑĢÐ°Ð·
ĠÐ²Ð¸Ð½Ð¾Ð² Ð°
ĠÐ²Ð°ÑĪ ÐµÐ¹
ĠRussian s
ĠÐ²Ð·Ð´ ÑĢÐ¾Ð³
ĠÐ¸Ð´ Ð¸
ĠÑģÐ°Ð´ Ñĥ
ĠÐ½ÐµÐ¶ Ð½Ð¾ÑģÑĤÐ¸
ÑģÑĤÐ²ÐµÐ½Ð½Ð¾ Ñİ
ĠÑģÐ¿ÑĢÐ°ÑĪ Ð¸Ð²
ĠÑģÐ¿ÑĢÐ°ÑĪ Ð¸Ð²Ð°ÑĤÑĮ
Ġcr own
ĠÐºÐ¾Ñģ Ð¸ÑĤÑĮ
ĠÐ½ÐµÐ½ Ð°ÑĤÑĥÑĢ
ĠÐ½Ð¾Ñĩ Ð¸
Ġcur ly
ĠÑģÐ¾Ð³Ð»Ð°Ñģ Ð¸ÑĤÑĮÑģÑı
ĠÐ¿ÐµÑĢÐµÑģÑĤ Ð°Ð»
ĠÑĪÐ»ÑıÐ¿ Ñĭ
ĠÐ±Ð»ÐµÑģÑĤ Ñı
Ġhost ility
Ġoccup ation
ĠÐ´ÐµÐ²ÑĥÑĪ ÐºÑĥ
Ġdro pped
Ġwhis kers
Ġcomple x
res hing
Ġprop ri
Ġprop os
Ġprop osed
ĠÐ¿ÑĢÐ¾Ñĩ ÐµÑģÑĤÑĮ
ĠÐ¸ÑģÐ¿ÑĥÐ³ Ð°Ð½Ð½Ð¾
ĠÑģÑĥÐ´ Ð°ÑĢÑĮ
Ġcap acity
ĠÐ²ÑĭÐ¹ Ð´ÐµÑĤ
ĠÑĢÐµÐ² Ð½Ð¾ÑģÑĤÐ¸
Ġemb roid
ÑĢÐ°Ð²Ð»Ñı Ñı
Ġplay ed
Ġsett le
ĠÐ´Ð¾ÑģÐ°Ð´ Ñĭ
ĠÐ³Ð¾ÑģÐ¿Ð¾Ð´ Ð¸Ð½Ð°
ĠÐ¾Ð±Ð¼Ð°Ð½ ÑĭÐ²Ð°ÑĤÑĮ
ĠÑĥÑģÐ»Ð¾Ð² Ð¸Ð¹
Ġtorment ing
Ġpoin ted
ĠÐ²Ð° ÑĪÐ¸
Ġstrong er
ĠXV I
ĠXV II
ĠÐ¿ÑĢÐ¸Ð·Ð½ Ð°Ð²
ĠÐ½ÐµÐ½Ð°Ð² Ð¸
Ġcoll ar
Ġem otion
Ġut ter
ĠÐ°ÑĢ ÑĤÐµÐ»ÑĮ
ĠÐ½Ð°Ñħ Ð¾Ð¶Ñĥ
ĠÐ¿ÑĢÐ¸ÑģÑĥÑĤ ÑģÑĤÐ²Ð¸Ð¸
ĠÐ¿Ð¾Ð¼Ð¾Ñī Ð¸
ĠÐ¾ÑĤÑĬ ÐµÐ·Ð´Ð°
Ġment ally
Ġsuper ior
Ġlif ting
ĠÐ³Ð¾ÑĢÐ¾Ð´ Ðµ
ĠXI V
ĠXI X
Ġmut ual
ĠÐºÐ¾ÑĦ Ðµ
ĠÐĽÐ¸Ð· Ð°
ĠÑģÐµÑĢ ÐµÐ±
ĠÐ¿ÐµÑĢÐµÐ½ Ð¾Ñģ
Ġdisg race
ĠXXX I
ĠÑģÐµÐº ÑĥÐ½Ð´
ĠÐ¾ÑĤÐºÑĢÑĭÐ² Ð°Ñı
ĠÐ²ÑĭÐ±Ð¾ÑĢ Ñĭ
Ġmiss ed
ĠÐ½ÐµÐ¿ÑĢÐ°Ð² Ð´Ð°
ĠÐ²Ð¾ÑģÑĤÐ¾ÑĢ Ð³
Ġreflect ed
ĠÑĢÐ°Ð·Ð³Ð¾Ð²Ð°ÑĢ Ð¸Ð²Ð°Ñı
Ġma jor
Ġdepend s
ĠÐ¿Ð¾ÑģÐ»ÑĭÑĪ Ð°Ð»Ð¸ÑģÑĮ
Ġunexpected ly
net kov
Ġeye b
ĠÐ¾ÑģÑĤÐ°Ð½Ð°Ð²Ð»Ð¸Ð² Ð°ÑıÑģÑĮ
ĠÐºÑĢÑĥ Ð¿
Ġamb assad
ĠÐ¼ÐµÑĩ ÑĤ
ĠÐ·Ð°ÑģÐ¼ÐµÑı Ð»Ð°ÑģÑĮ
ĠÑģÐ¾ÑĢ Ð¾Ðº
ĠÐ³Ð°Ð» ÑģÑĤ
ĠÐĿÐµÐ² ÐµÐ´Ð¾Ð²
ĠÐ¸Ð·Ð²Ðµ ÑģÑĤÐ¸Ðµ
ĠCounc il
Ġdisgust ing
Ġbon net
ĠÑĢÑĥÐ¶ ÑĮÐµ
Ġcarp et
Ġsincere ly
ĠÐ¿ÑĢÐ¸Ð¿ Ð¸Ñģ
ĠÑĦÐ¸Ð³ÑĥÑĢ Ñĭ
ĠÑĤÐµÐ»ÐµÐ³ÑĢÐ°Ð¼ Ð¼Ñĥ
ĠÑĩÐ°ÑĪ ÐºÑĥ
Ð»ÐµÐ³ Ð°Ð½ÑĤ
ĠÐ½ÑĥÐ¼ ÐµÑĢ
Ġsports men
ĠÐºÐ¾Ð¼Ð°Ð½Ð´ Ð¸ÑĢ
Ġradi ant
Ġrare ly
ĠÐľÑıÐ³ ÐºÐ°Ñı
Ġcomr ade
ĠÐ±ÐµÐº Ð°Ñģ
ĠÑıÐ· Ñĭ
Ġexch anged
Ġperm ission
Ġribb ons
ĠÐ¾Ð´Ð¸Ð½Ð°ÐºÐ¾Ð² Ð¾
ĠÐ±Ð°ÑĤ Ñİ
Ġsty le
ĠÐĶÐ¾Ðº ÑĤÐ¾ÑĢ
Ġoper a
Ġcigaret te
Ġcircumst ances
ĠÐ±ÐµÑģÑģÐ¼ ÑĭÑģÐ»
Ġopportun ity
ĠÑģÐ¸Ð³ Ð°ÑĢ
ĠKorsun sky
ÐµÐ½Ð± Ð°ÑĢÐ´
Ġinsign ificant
ĠÐ¿ÑĪ ÐµÐ½Ð¸
ĠÐ±Ð°Ðº ÐµÐ½Ð±Ð°ÑĢÐ´
Ġparent s
Ð¿ÐµÑĢÐ² ÑĭÑħ
ĠÑĢÐ°Ð½ÑĮ ÑĪÐµ
Ġgathe red
ĠÐĽÐ¸ÑĨ Ð¾
ĠMatre na
Ġunne cessary
Ġambassad or
A re
B ecause
T ell
W h
a using
c our
e en
f ol
f ast
f aced
k erchief
l ve
l ight
m inded
o inted
r ation
u ce
u ous
u ish
y st
Ġ er
Ġ Qu
Ð¾ Ð½Ðµ
Ð¸ ÑĦ
Ð¸ ÑĨÑĭ
Ð½ ÐµÐ½Ð½Ð¾
Ð» Ð¾Ð¹
Ð» Ð°Ð¶
Ð» ÑĥÑİ
Ð» ÐµÑĩÑĮ
Ġt ied
Ñı Ð»Ð¸ÑģÑĮ
Ñĭ ÑĤÑĮ
Ġw ound
Ġs way
Ñĩ ÑĤÐ¾Ð¶
ĠÐ¿ Ð¸ÑĢ
ĠÐ² ÑģÑĮ
ĠÐ² ÑĢÐµÐ´
Ġh int
ĠÐ¾ Ñħ
ĠÐ¾ ÑĤÐ¾ÑĢ
ĠÐ¾ ÑģÑĤÐ°Ð²Ð»Ñı
ĠÐ¾ ÑħÐ²Ð°ÑĤ
Ð´ Ð¾Ð²
it eness
ed ing
Ġb en
Ġb an
Ġb orn
Ġb athing
Ð¼ ÐµÑĢ
er ning
ÑģÑĤ Ð¾Ðº
ÑģÑĤ Ð°Ð½Ð¾Ð²
ÐµÐ½ Ð¾Ðº
Ġc ook
Ġm ot
Ġm ow
Ġm ount
ĠÑĩ Ð¸ÑģÑĤÐ¾
as ons
Ñİ Ð´Ð°
ĠÑĤ ÑĥÐ¼
ĠÑĤ ÑĥÑĩ
Ġn arrow
ĠÐ¼ Ð°Ð·
ĠÐ¼ Ð¾ÑģÑĤ
ĠÐ¼ Ð¸ÑĢÐ¾Ð²
Ġl ose
or o
or ous
Ġp ink
ĠÐ¿ÑĢ ÐµÑĢÐ²
Ġin cess
Ġin ex
Ð± ÐµÐ¶
ĠÐ· ÑĢ
ĠÐ· Ð»Ð¾
Ð¿ Ð°ÑĤ
ĠÑĢ Ð¾Ð´Ð°
le v
Ġbe e
Ġbe ings
Ġbe nding
Ð½Ð¸ ÑģÑĤ
ĠÐ½Ð° ÑĪÐµÐ³Ð¾
Ð°Ð² ÑĪÐµÑİ
Ġe rect
Ġg le
Ġg aily
Ġwas h
ĠÐ¿Ð¾ ÐµÑħÐ°Ð»Ð°
Ð¸Ð½ ÑģÑĤÐ²Ð¾
Ð³ Ð»Ð¸
ic les
Ð°Ð½ Ð½Ð¾Ð¹
ĠÑį Ð»ÐµÐ³Ð°Ð½ÑĤ
Ġre asons
ĠÐ¶ Ð¸Ð»Ð¸
ĠÐ» Ð¸Ð»
Ð¸ÑĤ Ð¾Ð³Ð¾
ÑĨ Ð¸Ñı
Ð³Ð¾ ÑĢÑıÑĩ
ĠÐ¾ÑĤ ÑĨÑĥ
al ian
ĠÐĴ ÐµÑģÑĮ
ÑģÑĤÐ² Ð¸Ð¹
Ġst ar
Ġst ro
Ġst ory
ĠÐĿ Ð°ÐºÐ¾
ad ays
Ġr as
Ġr ings
Ġr iver
Ð°ÑĤ Ð°ÑĢ
ur b
ĠÑħ Ð¾Ð»
ĠÑħ Ð¸ÑĤ
ĠÐ¾Ð± ÑıÐ·
ĠS netkov
ĠL ook
ĠÐ¿ÑĢÐ¸ ÐµÐ´Ñĥ
ĠÐ¡ Ð½ÐµÑĤ
ĠÐ²ÑģÐµ Ñİ
ĠK AREN
ĠÐ¿Ð¾Ð´ ÑĢÐ°Ð·
Ġsh ar
am es
ĠÐ·Ð° ÑĪ
ĠÐ·Ð° ÑħÐ¾ÑĤ
Ð¾Ñģ Ð¿Ð¾Ð´
ant ed
ÐµÑģ ÐµÐ»
ĠÐĶ Ð¾
ĠÐĶ ÐµÐ²
ĠÐĶ ÐµÐ¹ÑģÑĤÐ²
ĠÑĢÐ°Ð· Ð½ÑĭÑħ
qu e
ĠÐŁ Ð¾ÑĤ
ĠÐŁ Ð¾Ðº
Ġex er
Ġne igh
ul ting
ac on
ĠÑģÐ¿ Ð¸Ð½Ñĥ
ÐºÑĥ Ð¿
ĠÐ¢ Ð°Ð½Ñı
ÑĥÑĤ ÑģÑı
ĠÐ¿Ð¾Ð» Ð½ÑĭÐ¹
ĠÐ¿Ð¾Ð» Ð½Ð¾Ðµ
Ġint ently
ĠM ore
Ð¾Ñĩ ÐºÐ°
Ġwor n
Ġv en
ÐµÐ³ Ñĩ
ous es
ĠAn other
Ġam id
Ġun im
Ġun ited
Ġsm oot
ĠÐ¿ÑĢÐ¾ ÑĨÐµÑģ
Ġag itated
ĠÐ¿ÑĢÐµÐ´ Ð¾
ĠÐ¸Ð¼ ÐµÐ²
Ġse es
Ġhand kerchief
Ð»Ñĭ ÑĪ
ĠÐ½Ð°Ð´ ÐµÑİÑģÑĮ
ÑĢÐ¸ Ð¿
ĠÐ´ÑĥÐ¼ Ð°ÐµÑĤÐµ
ĠÐ¾Ñģ Ð¼Ð¾ÑĤÑĢ
ĠÐ·Ð½ Ð°Ðº
ĠÐ¿Ð¾Ðº Ð¾Ð¹
ÑĢÐµÐ¼ Ñı
Ġyour s
Ġdis li
Ġdis appe
ĠÐ¿Ð¾ÑģÐ» Ð°ÑĤÑĮ
ĠÐ¿Ð¾ÑģÐ» ÑĥÑĪ
Ġtr oubles
Ġdown stairs
ĠÐ²ÐµÑĢ ÑĤ
Ġpro ved
Ð»Ð¸Ð² ÑĭÐ¼
ĠÑĦ ÑĢÐ°Ðº
Ġstr ict
ĠÑĤÐµÐ¼ Ð½Ð¾
ĠÐĳ ÑĢÐ°ÑĤ
ĠÐ¾ÑģÑĤ Ð°ÐµÑĤÑģÑı
ĠÐ·Ð°Ð¼ Ð¾Ð»
ÑĤÐµ ÑģÑĮ
ĠÐ¿Ð¾Ð»Ð¾Ð¶ Ð¸Ð»Ð°
ĠÐ¿Ð¾Ð² ÐµÐ»
Ð¸Ð²ÑĪ Ð¸Ð¼
ÑĭÑĪ Ð»ÐµÐ½Ð½Ð¾
ĠÐ½Ð¾Ð² Ð¾Ñİ
Ġpart ly
Ġrem ind
ĠÐ²ÐµÑģ ÐµÐ»ÑĮ
ĠÐ´Ð¾Ð¼ Ð°ÑĪ
Ð½Ð¸Ðº Ð°Ð¼Ð¸
Ġpr ot
Ġho ping
Ġop ening
ĠÐ¼Ð¸Ð½ÑĥÑĤ Ð°
Ġthr ow
Ġrel ief
ĠÐ¿Ð¾Ð· Ð´Ð¾ÑĢÐ¾Ð²
ather ine
ĠÐ¿ÑĢÐ¸Ð² Ð¾Ð´
Ð¾ÑĤÐ¸Ð² ÑĪÐ¸ÑģÑĮ
ĠÐºÑĢÐ°Ñģ Ð°Ð²
ĠÐºÐ½ÑıÐ³ Ð¸Ð½Ñİ
ĠÐ±Ð¾Ð»ÑĮÑĪ Ð¸Ð¼
Ġfe m
ĠÐ´Ð¾Ðº Ð°Ð·
Ġser ve
ĠÐ¿ÑĢÐ¾Ð´Ð¾Ð»Ð¶ Ð°ÑĤÑĮ
ĠÐ¿ÑĢÐ¾Ð´Ð¾Ð»Ð¶ Ð°Ð»Ð¾ÑģÑĮ
Ġsto ck
ĠÑĥÐ· Ð½Ð°
ĠÑģÐ¸Ð» Ñĥ
Ġind ign
ĠÐ½ÐµÐ¼ ÐµÑĨ
ign ed
Ġacc ident
ĠÐ³ÑĢÐ°ÑĦ Ð¸Ð½Ñİ
Ġpain t
Ġdist ing
ĠÐ´ÑĥÑĪ Ð¾Ð¹
Ð°ÑİÑī Ð¸Ðµ
Ġwat ering
Ġreg ular
ĠÐ¸ÑģÐº Ð°ÑĤÑĮ
ĠÐ¸ÑģÐº Ð»ÑİÑĩ
ĠÑĤÐµ Ð¾ÑĢ
ĠÐ¿ÑĢÐ¾ÑĪ Ð»Ð¸
Ġinter view
ĠÑģÐ¸Ð´ ÐµÐ²
ĠÐ¼ÑĥÐ¶Ð¸Ðº Ð°Ð¼
ens ive
ĠÑģÐµÐ¼ ÑĮÐµ
ĠÑĤÑıÐ¶ ÐµÑģÑĤÑĮ
ĠÐ·Ð½Ð°ÐºÐ¾Ð¼ ÑĭÐ¹
ĠÑĥÐ´Ð¸Ð² Ð¸ÑĤÐµÐ»ÑĮÐ½Ð¾
ĠÐľÐ¸Ñħ Ð°
ĠÐ¾ÑĤÐ´ Ð°Ð»
ĠÐ¾ÑĤÐ´ ÐµÐ»ÑĮ
ĠÐ´ÑĥÑĢ Ð½Ð¾Ð³Ð¾
ĠÐŁÑĢ ÐµÐº
ĠÐ¿Ð¾Ð´Ð½Ñı Ð»Ð°ÑģÑĮ
Ġve lve
Ġins ide
Ġins isted
ĠÑĩÑĥÐ²ÑģÑĤÐ²Ñĥ ÐµÑĤ
ĠÐ¿ÑĢÐ¸Ð½ ÑĨ
ĠÐ¿ÑĢÐ¾Ð¸Ð· Ð²ÐµÐ´
Ð°ÐµÑĪÑĮ ÑģÑı
ĠÐ²ÐµÑĩ ÐµÑĢÐ°
ĠÐ¿ÑĢÐµÐºÑĢÐ°Ñģ Ð½Ð°Ñı
Ġcor n
Ġcor rid
Ġrece iving
ili ation
ĠÐ½Ð°Ðº Ð°Ð·
ĠÐ¼Ð¸Ð» Ð»Ð¸
ÑİÑī Ð¸Ð¼
ĠÐ¼Ð°Ð»ÐµÐ½ÑĮ ÐºÐ¸Ð¹
Ġdri ven
Ġsound s
ĠÐ±Ð°ÑĢ ÑħÐ°ÑĤ
ĠÑģÑĤÑĢÐ° ÑģÑĤÑĮ
ĠÑģÑĤÑĢÐ°Ð´ Ð°Ð½Ð¸Ð¹
ĠÐ·Ð´Ð¾ÑĢÐ¾Ð² Ð°
ĠÐ¿Ð¾Ð²ÐµÑĢ Ð¸ÑĪÑĮ
Ġhat red
ĠÐ¾ÑģÐºÐ¾ÑĢÐ± Ð»Ñı
ĠÑĩÐ° ÑģÑĤÐ¸
ĠÐ²ÐµÑģÑĮ Ð¼Ð°
ĠÐ¼ÐµÑĢ Ñĭ
ĠÐ¼ÐµÑĢ ÑĤÐ²
ĠÐ¿Ð¾ÑģÑĤ ÐµÐ»Ð¸
ĠÐ¿Ð¾ÑģÑĤ ÑĭÐ´
ĠÐ¸Ð´ Ð¸ÑĤÐµ
Ġhorr ified
ĠÐ½ÐµÐ· Ð½Ð°ÐºÐ¾Ð¼
ĠÐ±Ð¾ ÑıÐ»Ð°ÑģÑĮ
ĠÑģÐ¿ÑĢÐ°ÑĪ Ð¸Ð²Ð°Ñı
Ġest abl
ĠÑĥÐ½Ð¸ ÑĩÑĤÐ¾Ð¶
Ñį ÑĤÐ¾
Ġprep ar
ĠÑģÐ¾Ð¼Ð½ ÐµÐ½Ð¸Ðµ
ĠÑĤÐµÐ» ÐµÐ¶
ĠÐĲÐ½Ð½Ñĥ ÑĪÐºÐ°
ĠÐŁÐµÑĤÐµÑĢÐ±ÑĥÑĢÐ³ Ð°
ĠÐ¿ÑĢÐ¸Ñĩ Ð¸Ð½Ñĭ
ĠÐ¿ÑĢÐ¸Ñĩ Ð¸Ð½Ð¾Ð¹
ĠÐ»Ð°Ðº ÐµÑİ
Ġunpleasant ness
ĠÐ½Ð°Ð¿ÑĢÐ°Ð² Ð»ÐµÐ½Ð¸Ðµ
ĠÐ²Ð¸Ð½Ð¾Ð²Ð°ÑĤ ÑĭÐ¼
ĠÐ²ÑħÐ¾Ð´ Ð¸Ð»
Ġoccup ations
Ġabs or
Ġabs urd
Ġexist ed
Ġname ly
ĠÐ¿ÑĢÐ¾Ñĩ Ð»Ð°
ĠÑģÑĢÐµÐ´ Ð¸
Ġsign ific
ĠÑĥÐ´ÐµÑĢÐ¶ Ð¸Ð²Ð°Ñı
Ġconc erning
Ġemb r
ĠÐ²Ð¾Ð·Ð² ÑĭÑĪ
Ġdrink ing
Ġperf orm
ĠÐºÑĢÐ°ÑģÐ¸Ð² Ð¾Ðµ
ĠÐĺÐ· Ð²Ð¸
ĠÐ¼Ð¾Ð»Ñĩ Ð°Ð½Ð¸Ðµ
Ġdoubt s
ĠÐ¾ÑĤÑĩÐ°Ñı Ð½Ð¸Ñı
ĠXV III
ÐĲ Ñħ
Ð¾Ð¹ÑĤÐ¸ ÑģÑĮ
ĠÐ¿ÑĢÐ¸Ð½Ñı Ð»ÑģÑı
Not hing
ĠÑĥÑģÐ»ÑĭÑħ Ð°Ð»Ð°
EN T
ĠÐ´ÑĢÑĥÐ¶ ÐµÐ»ÑİÐ±
ĠÐ¿Ð¾ÑĨÐµÐ»Ð¾Ð² Ð°Ð»Ð°
ĠÐ·Ð°Ð» Ñĭ
ĠÐ½ÐµÐ± Ð¾
ĠÐ±Ð»Ð°Ð³Ð¾ ÑģÐ»Ð¾Ð²
ĠÐ¾Ð±Ð» ÐµÐ³Ñĩ
Ġfalse hood
ĠÐ·Ð°Ð±Ñĭ Ð»Ð°
ĠÐ¼Ð¸ÑĢ Ðµ
Ġsmo ke
Ġresol utely
ĠÐ¿Ð¾ÐºÐ°Ð· Ð°Ð»Ð°ÑģÑĮ
Ġcheer fully
Ġintell ect
Ġdemand ed
Ġconcl usion
ÑĤÐ¾Ð» Ðº
ĠÐ¿Ð¾Ð½ÑĢÐ°Ð² Ð¸Ð»Ð°ÑģÑĮ
ustom ed
Ġval u
ĠÐ¶ÐµÐ»ÐµÐ· Ð½Ð¾Ð¹
ĠÐ½Ð°ÑħÐ¼ÑĥÑĢ Ð¸Ð»ÑģÑı
Ġcig ar
ĠÐ¾ÑĤÐ»Ð¸Ñĩ Ð½Ð¾
ĠÐ¿Ð¾Ð»ÑİÐ± Ð¸Ð»Ð°
ĠÐ½ÐµÐ¾Ð±ÑħÐ¾Ð´Ð¸Ð¼ Ð¾ÑģÑĤÑĮ
ĠÐ²Ð¾ÑĪ Ð»Ð¸
ĠÐ²Ð»Ð¸Ñı Ð½Ð¸Ðµ
Ġcent re
ĠÑģÐ²Ð¸Ð´Ð° Ð½Ð¸Ñı
Ġproper ty
ĠÐ¿Ð¾Ð¼Ð¾Ð»Ñĩ Ð°Ð²
ĠÑĢÐ°ÑģÑģÐºÐ°Ð· Ð°Ð»Ð°
Ġnoble men
ĠÑħÐ¾ÑĢÐ¾ÑĪÐµÐ½ÑĮ ÐºÐ¾
Ġincre ased
ĠÑĪÐºÐ¾Ð» Ñĭ
Ġener gy
Ġreconc iliation
ĠÑģÑĬ ÐµÐ·Ð´
Ġmemb er
Ġmemb ers
Ġenv y
Ġrepuls ion
Ġrepuls ive
ĠÐ³ÑĢÑĥÑģÑĤ Ð½Ð¾
ĠÐ¿Ð¾ÑĩÑĤ Ð¸ÑĤÐµÐ»ÑĮÐ½Ð¾
ĠÐ¿Ð»Ð¾Ñħ Ð¾
Ġgloom ily
ĠÑĦÐ¾ÑĢÐ¼ Ñĭ
ĠÐ¿ÑĢÐ¾ÑģÐ¸Ñı Ð»Ð¾
ĠÐ¿Ð¾Ð´ÑĤÐ²ÐµÑĢÐ´ Ð¸Ð»
Ġdign ity
Ġcelebr ated
Ġelb ow
Ġsimpl ic
Ġmushroom s
ĠÐ¸Ð½Ð¾ ÑĢÐ¾Ð´
Ġeleg ant
Ġdebt s
Ġsuspic ions
ĠÐ¶Ð¸Ð²Ð¾Ð¿ Ð¸Ñģ
ĠÐļÑĥÐ·ÑĮ Ð¼Ð°
Ġnum ber
ĠÐ§ÑĤÐ¾Ð± Ñĭ
Ġdistinct ly
Ġloft y
Ex cuse
Ġempt y
Ġgrate ful
Ġpercept ible
ĠÐ¿Ð¾ÑģÐ»Ð°Ð½ Ð½Ð¸ÐºÐ°
Ġinnoc ent
Ġwond ered
ĠÐĴÑĩ ÐµÑĢÐ°
ĠÐĽÑĥÐº Ð¸Ñĩ
ĠÐ¿Ð¾Ð»ÑĩÐ°Ñģ Ð°
ĠGener al
Ġeyeb rows
cour se
ĠÐĿÐ°ÐºÐ¾ Ð½ÐµÑĨ
ĠÐ¡Ð½ÐµÑĤ ÐºÐ¾Ð²
ĠKAREN IN
ĠÐĶÐµÐ¹ÑģÑĤÐ² Ð¸ÑĤÐµÐ»ÑĮÐ½Ð¾
Ġdisli ked
Ġcorrid or
! ...'
A L
A l
S t
a el
b ag
c er
c hen
d om
g an
h as
h and
h ouse
i et
i ev
o f
o ak
t ime
w oman
Ġ ic
Ð° Ð¸Ð¼
ÑĤ Ð°ÑĤ
Ð½ ÐµÑĤÑģÑı
ÑĢ ÐµÐ¿
ÑĢ Ð¾Ð·
Ġt y
Ġt ail
he tic
in ated
ÑĮ ÐµÑĢ
ĠÑģ Ð°Ð¶
ĠÑģ Ð¾ÑĪ
ĠÑģ Ð¾ÑĪÐµÐ»
ĠÑģ Ð½Ð¾ÑĪ
ĠÐ½ ÐµÐ·Ð´
ĠÐ² Ñĥ
ĠÐ² ÐµÑģÑĤÐ¸
ĠÐ² Ð¾Ð¹ÑĤÐ¸
re sh
Ġo yst
Ð´ Ð°ÑĤ
Ġb owing
Ġb ald
ĠÐº Ð°Ð½
ĠÐº Ð°Ð´
ĠÐº Ð°ÑĪ
Ð¾Ð² ÑĭÐ¹
ÐµÐ½ Ðµ
ÐµÐ½ Ñĥ
ÐµÐ½ ÐµÐ±
on ess
Ġc ere
Ġc ous
Ġc rying
Ġc ards
Ġf ight
Ġf lying
ĠÐ´ Ð¸
Ġd ance
Ġd ancing
ĠÑĤ ÐµÐ»Ð°
ĠÑĤ Ð°ÑĤÐ°ÑĢ
Ġn one
Ġn erv
Ġl ot
Ġl il
Ġp owers
ĠÐ¿ÑĢ ÐµÐ½ÐµÐ±
an ch
Ġin j
Ð¸Ð» Ð¸Ð¼
Ð¾Ð» ÐµÐ·
ĠÐ· Ð¾Ð½
ĠÐ· ÑĢÐµÐ½Ð¸Ñı
ÐµÑĤ Ð¸
ĠÑĢ Ð°Ð½
Ð¾ÑĢ Ð¸Ð·
ĠÐ½Ð° ÑģÑĤÐ°
Ð¸Ð½ ÑĥÐ²
ic ation
Ġre ach
Ġy ard
ĠÐ¶ ÑĥÑĢ
.. ...
ĠÐ» Ð¶Ð¸
Ð¸ÑĤ ÑĭÐ¹
ĠÑģÐº Ð°Ðº
ĠÑģÐº Ð²Ð¾Ð·ÑĮ
ĠÑĤÐ¾ Ð½Ñĥ
ĠÐ¾ÑĤ ÑģÑĤÑĢÐ°Ð½
ĠÐ¾ÑĤ ÐºÑĥÐ´Ð°
Ð¾Ð¶ Ð¸Ð²
ÑģÑĤÐ² Ð¾Ð²
ÐµÐº ÑĤ
Ġfor t
Ġr ise
ĠÐ²Ñĭ Ð²Ð¾Ð´
ĠÐ²Ñĭ Ð³Ð¾Ð²Ð°ÑĢ
Ð»Ð¸ Ðº
Ð»Ñı Ð½
ĠÐļ Ð°Ð¿
ĠS p
ĠS ec
ĠL uk
ĠH IS
ro p
ill or
ich ael
ĠÐ¿Ð¾Ð´ Ð°ÑĢ
ĠÐ¿Ð¾Ð´ Ð²Ð¸Ð½Ñĥ
Ġsh ot
Ġsh udd
Ð¸Ðº Ðµ
Ð¸Ðº Ð°
am ber
ĠÐ·Ð° ÑĪÐµÐ»
ant ing
ĠÑĢÐ°Ð· Ð³Ð¾ÑĢÑıÑĩ
ĠThe ir
il ing
ĠV arya
ĠÐŁ Ð¸Ð»
ÐµÑĪ Ð¸ÑĤÐµÐ»ÑĮÐ½Ð¾
Ġne cess
ĠÐ³Ð¾ ÑģÑĤÑĮ
ĠÐ° Ð»
ĠÐ³Ð¾Ð²Ð¾ÑĢ Ð¸Ð»Ð¾ÑģÑĮ
ĠB oth
ĠÐ¿ÐµÑĢ ÐµÐ³Ð¾ÑĢÐ¾Ð´
Ġj olly
ĠÐ»Ð¸ Ð±ÐµÑĢ
ĠÐ¢ ÐµÐ±
ĠÐ¢ Ð¾Ð³Ð´Ð°
ĠÐ¢ Ð¾ÑĩÐ½Ð¾
ĠÐ¾Ð´ ÐµÑı
ĠÐ¾Ð´ Ð¾Ð±ÑĢ
ÐµÐ½Ð¸Ñı Ð¼Ð¸
ĠÐľ Ð¸ÑĤ
ite ct
ĠÑĪ Ð»Ð¸
ĠÑĪ Ð°Ð¼Ð¿
art y
el ess
ĠÑģÐ°Ð¼ ÑĭÐ¼Ð¸
Ġle aves
ĠÐ²Ð· ÑıÑĤ
ĠÐ²Ð· Ð°Ð¸Ð¼
ĠÑģÑĤÐ¾ Ð¸Ð»Ð¾
Ġno ise
Ġno bles
Ġun like
Ġun just
Ġun known
Ġun iversity
ĠD e
ort ed
ĠÐ»ÑİÐ± Ð¸Ð»Ð¸
ĠÐ»ÑİÐ± Ð¾Ð¿ÑĭÑĤ
ĠÐ¸Ð¼ ÐµÐ»Ð¾
ĠÐ³Ð» Ð°Ð´
ĠÑģÐ¼ Ð¸ÑĢ
Ġse ed
Ġse izing
Ġany body
Ġtheir s
ĠÐ¾Ñģ Ð¼
pl ess
ĠÑĢÐ°Ñģ ÑĩÐµÑĤ
dd ing
Ġpl acing
ĠKarenin s
ĠÐ¿Ð¾ÑģÐ» Ð°Ð»Ð°
Ġgl ove
ĠÑģÑĤÐ°ÑĢ Ð¾Ð³Ð¾
ĠÐ½Ð¸Ñĩ ÑĤÐ¾
ĠÐ´Ð¾ ÑģÐº
ĠÐ§ ÐµÑĢÐµÐ·
Ġsome how
Ġcons ent
ĠIt alian
Ġover t
ĠÑĥÐ´ Ð°Ð»
ĠÐ²ÐµÑĢ Ð½ÑĥÑĤÑĮÑģÑı
Ġus ually
ĠÐ²Ð¾ ÑģÐº
Ġcl im
Ġcl ock
Ġspe ed
ĠÐ±Ð¾Ð» Ð¾ÑĤÐ¾
ĠÑģÐ¾Ð± Ð°ÐºÐ¸
ĠÐ¾ÑģÑĤ Ð°Ð»Ð°ÑģÑĮ
ÐµÑĤÐµ ÑģÑĮ
ĠÐ²Ð·Ð³Ð»Ñı Ð½ÑĥÑĤÑĮ
ĠÐ¿Ð¾Ð»Ð¾Ð¶ Ð¸Ð¼
Ġgood ness
mb er
Ð¸Ð²ÑĪ Ð¸ÐµÑģÑı
ĠÐ½ÐµÐ² Ð¸Ð´
ud in
Ð»ÐµÐ½ Ð½Ð°Ñı
ĠÐ±ÐµÐ· Ð½
ne z
Ġnever theless
Ġpr ice
ĠÐºÐ¾Ð¼ Ð¸ÑĤ
Ġho pes
az z
Ġthr ust
ÑĤÐ¾Ñı ÑīÐµÐµ
ĠÐ²ÑĭÑĢÐ°Ð¶ ÐµÐ½Ð¸Ñİ
ĠÐ²Ð¾Ð¿ÑĢÐ¾Ñģ Ð¾Ð²
oz d
Ġsc r
ĠÐ¿ÐµÑĢÐ² Ð¾Ð³Ð¾
ĠÐ¿ÐµÑĢÐ² Ð°Ñı
ĠÐ´ÐµÑĤ ÑıÐ¼
ĠÑĢÐ°Ð·Ð² Ð¸ÑĤÐ¸
ÑĢÑĭ Ð³
ĠÐ´ÐµÐ»Ð° Ñİ
ĠÐºÐ½ÑıÐ³ Ð¸Ð½ÐµÐ¹
ĠÐ·Ð°Ð² ÐµÐ´
ĠÐ·Ð°Ð² ÑĤÑĢÐ°Ðº
ĠÐ±Ð¾Ð»ÑĮÑĪ Ð¾Ð³Ð¾
Ġser f
ĠÐ¼Ð¾ Ð¸Ñħ
ĠÐºÐ°ÑĢ Ð¼Ð°Ð½
Ġyoung er
ĠÐ³Ð»Ñı Ð´ÐµÐ»
Ġour selves
ĠÑģÐµÑĢÐ´ Ð¸Ð»ÑģÑı
ĠÐ½ÐµÐ¼ Ð½Ð¾Ð¶
ĠÐ½Ð°Ñģ ÑĤÐ¾
ĠÑĥÐ± Ð¾ÑĢ
ĠÐ²ÑĭÑģ ÑĪÐµÐ¹
ik ov
Ġact ions
ĠÐ¶Ð¸Ð² Ñĥ
ĠÐ¿Ð¾ÑģÐ»ÐµÐ´ Ð½ÑİÑİ
Ġsl i
ĠÐ²Ð·Ð³Ð»ÑıÐ´ ÑĭÐ²Ð°Ñı
ĠXX II
ĠXX III
ĠÐ¸Ð½ÑĤÐµÑĢÐµÑģ Ð¾Ð²Ð°Ð»Ð¾
ret ched
Ġcontinu ing
ĠÐ¿ÑĢÐ¸ÑıÑĤ Ð½Ð¾Ðµ
ĠÐ¿ÑĢÐ¾ÑĪ Ð»Ð°
ĠÐºÐ¾Ð½ ÑĤÐ¾ÑĢ
ĠÐºÐ¾Ð½ ÑĦ
ĠÐºÐ¾Ð½ ÑĨÐ°
ĠÐ´ÐµÑĢÐµÐ² Ð½Ð¸
Ġsou p
Ġsoon er
ject ed
ÐµÑģÑĤÐ¾ Ð»ÑİÐ±
ĠÐ·Ð°ÑĤ Ð²Ð¾ÑĢ
Ġinf orm
ÑıÐ³ Ð¸Ð²
ĠÑĥÑĩ ÑĤÐ¸Ð²
Ġrepe at
ĠÐ´Ð²Ð¸Ð¶ ÐµÐ½Ð¸Ð¹
ĠÐ¿ÑĢÐ¾Ð¸Ð· Ð¾ÑĪÐ»Ð¾
ĠÐ¡ÐµÑĢÐµÐ¶ Ð¸
Ġdef ect
ĠÐ¿ÑĢÐµÐºÑĢÐ°Ñģ Ð½ÑĭÐµ
Ġhum m
ĠÐ¼Ð½ ÐµÐ½Ð¸Ñİ
ĠÐ¤ Ð¸Ð»Ð¸Ð¼
ĠÐ½Ð°ÑĪ Ð°
ĠÐ¿Ð°ÑĢ ÑĤÐ¸Ñı
Ġstra w
ĠÐ¿Ð¾Ð± ÐµÐ¶Ð°Ð»
ĠÐ²Ð°ÑĪ Ð°
ĠÐ±Ð°ÑĢ ÑĭÑĪ
Ġrid ing
ĠÑģÑĤÑĢÐ°ÑĪ Ð½Ð¾Ðµ
ĠÐ¸Ð³ ÑĢÐ°
ĠÑĤÐ¾Ð½ ÐºÐ¾
ĠÐ¾Ð±Ñī ÐµÐ¼
Ġadv ised
ĠÑģÐµÑģÑĤ ÑĢÑĥ
ĠÑģÐµÑģÑĤ ÑĢÐµ
ĠÐ¾ÑģÐºÐ¾ÑĢÐ± Ð¸ÑĤÑĮ
ĠÑĩÐ° ÑģÑĤ
Ġrespect ed
ĠÐ½ÐµÐ¶ Ð½Ð¾
ĠÐ½ÐµÐ¶ Ð½Ð¾ÑģÑĤÑĮ
ĠÐ¿Ð¸Ñģ Ð°Ð»Ð°
ÑģÑĤÐ²Ñĥ Ð¹
ĠÐ¿ÑĢÐ¸Ñĩ Ð¸Ð½Ñĥ
Ġpat hetic
ĠÐ²ÑħÐ¾Ð´ Ñı
ĠÑĤÑĭÑģÑıÑĩ Ñĥ
Ġabs ent
Ġabs ol
ĠÐ´ÐµÑģÑı ÑĤÐ¸
Ġstay ing
Ð¾Ð¶Ð´ ÐµÐ½Ð¸Ñı
Ġpret ence
ÑĥÑİÑī Ð¸Ð¹
Ġunc onscious
ĠÑĤÑĢÐµÐ± Ð¾Ð²Ð°Ð½Ð¸Ñı
Ġsign s
Ġsign ificant
ĠÑģÐ´ÐµÐ»Ð° Ð½Ð¾
ĠÐ²Ð¾Ð·Ð² ÑĢÐ°ÑĤ
Ġanim al
ĠÑģÐ± Ð»Ð¸Ð¶
Ġirrit able
ĠÐ³ÑĥÐ±ÐµÑĢ Ð½Ð¸Ð¸
ĠÐ¿Ð¾ÑģÑĤÑĥÐ¿ Ð¸Ð»
Ġru ined
Ġremain ing
ĠÐ¾Ð¶Ð¸Ð² Ð»ÐµÐ½Ð½Ð¾
ĠÐ»Ð¾Ð¶ ÑĮ
ĠÐ¾ÑģÑĤÐ°Ð½ ÐµÑĤÑģÑı
AR T
Ġcross ing
ĠÐ½Ð°Ð¿Ð¸Ñģ Ð°ÑĤÑĮ
ĠÐ½Ð°Ð¿Ð¸Ñģ Ð°Ð»Ð°
ĠÐ¾ÑĤÐºÐ°Ð· Ð°Ð»Ð°
ĠÐ¡Ðº Ð¾ÑĢÐ¾
ĠÐĲÑĢÐºÐ°Ð´ÑĮÐµÐ² Ð½Ðµ
ĠÐ¼Ð¾ÑĢ Ñī
ĠÑĥÐ²Ð°Ð¶ ÐµÐ½Ð¸Ðµ
ĠÑĤÑĢÐ°Ð² Ñĭ
Ġglass es
ĠÐ¾Ð· Ð»Ð¾Ð±
Ġdev il
ĠÐºÑĢÑĭÐ»ÑĮ ÑĨÐ¾
Ġrecoll ected
ĠÑĥÐµÑħ Ð°Ð»Ð¸
Ġcompl icated
ĠÐŁÐµÑĤÑĢÐ¾Ð² Ð½Ð°
Ġdiscuss ing
Ġdiscuss ion
Ġgri eved
ĠÐ»ÐµÑģÑĤ Ð½Ð¸ÑĨÑĥ
Ġstre am
ĠÑģÑĤÑĢÐ¾Ð³Ð¾ Ðµ
Ġhast ened
ĠÑĪÐ²ÐµÐ¹ÑĨÐ°ÑĢ Ð°
ĠÐºÑĢÐµÑģ Ð»Ð°
Ġthre at
ĠÐ¿ÑĢÐµÐ´Ñģ ÐµÐ´
ÑĤÐµÐ»ÑĮ Ð½Ð¾
ĠÐĿÐ¸ ÑģÐºÐ¾Ð»ÑĮÐºÐ¾
ĠÐŁÑĢÐ°Ð² Ð¾
Ġsens ation
ĠÐ¿Ð¾Ð´ÑĤÐ² ÐµÑĢÐ¶Ð´
Ġspoil t
ĠBar oness
Ġpurpose ly
ĠÐ½ÐµÐº Ð¾Ð³Ð´Ð°
Ġbir ch
ĠÐ·Ð¸Ð¼ Ñĥ
ĠÐ»ÑĥÐ³ Ð°
ĠÐ¸ÑģÐºÑĢ ÐµÐ½
Ġwee ks
ĠÐ´Ð¾Ð±ÑĢÐ¾Ð´ÑĥÑĪ Ð½Ð¾
Ð°ÑĢÐ¾ Ð½ÐµÑģ
ĠÐ¾Ð¿ÑĢÐ°Ð² Ð´ÑĭÐ²
Ġcho ice
ĠÐ¿Ð¾ÑĢÑıÐ´ Ð¾Ñĩ
Ġincre asing
Ġtight ly
Ġaccept ed
Ġchee k
Ġgreet ed
Ġobt ained
ĠÐ´ÑĥÑĪÐµÐ² Ð½Ð¾Ðµ
Ġiron ical
ĠÐ´Ð¾Ð¶Ð¸Ð´ Ð°ÑıÑģÑĮ
ĠÐ·ÐµÑĢÐº Ð°Ð»Ð¾
ĠAN NA
ĠÐ¢Ð²ÐµÑĢ ÑģÐºÐ¾Ð¹
Ġbuild ing
ĠÐ¿Ñĩ ÐµÐ»
Ġmeas ures
ĠÐŁÐ¾Ð»Ð¾Ð¶ Ð¸Ð¼
ĠÐ½Ð°Ð´ÐµÑı Ð»ÑģÑı
ĠÐĽÑĮÐ² Ð¾Ð²
Ġsev en
ĠÐ¾Ñī ÑĥÑī
ĠÑĤÑĢÑı Ñģ
ĠÐ¿ÐµÑĢÐµÑĪ ÐµÐ»
ĠÑģÑĤÐ¾Ð»Ð¾Ð² ÑĥÑİ
ĠÑģÐ¾ÐµÐ´ Ð¸Ð½Ð¸
Ġdepri ved
ĠÐĵÑĢÐ¸ÑĪ Ð°
Ġsunsh ine
ĠÐĽÐ¸Ð·Ð°Ð² ÐµÑĤÐ°
Ġaccomp an
ĠÐ¡ÑĤÑĢÐµÐ¼ Ð¾Ð²
ĠÐ²Ð¾Ð² ÑģÐµ
ĠMr s
Ġproble m
ĠÐ£Ð¶Ð°Ñģ Ð½Ð¾
ĠÑĤÑĢÐ¸Ð´ÑĨ Ð°ÑĤÑĮ
ĠÑĥÑĤÐ² ÐµÑĢÐ´
ĠÑĩÐµÐ»Ð¾Ð²ÐµÑĩ ÐµÑģÐº
Ġindic ating
ĠÐ¿Ð»Ð°ÑĤÑĦ Ð¾ÑĢÐ¼
ĠÐ²ÑĭÑĢ Ð²
Ġris en
Ġbrid ge
Ġaccompl ished
ĠÑģÐ¾ÑģÑĤÐ¾ Ð¸ÑĤ
occ up
port ant
Ġhosp ital
ĠÐºÐ¾Ð½Ñİ ÑĪ
Ġdeg ree
Ġphr ase
ĠProvin cial
ĠÐ½ÐµÐ¾ÑħÐ¾ÑĤ Ð½Ð¾
Ġbeha ved
Ġarch itect
Ġclos er
ĠÐ¾ÑĤÐ¾ÑĢ Ð²
Ġneigh bour
Ġunim portant
Ġlil ac
ĠÐ¿ÑĢÐµÐ½ÐµÐ± ÑĢ
ĠLuk ich
ĠÑĪÐ°Ð¼Ð¿ Ð°Ð½
ĠÐ¤Ð¸Ð»Ð¸Ð¼ Ð¾Ð½Ð¾Ð²
. ,
A V
A fter
E E
G H
M E
a ith
a ff
b red
d o
f er
g room
i od
l iness
m ar
n o
r im
r ak
r ated
u yev
w h
y e
Ġ -
Ðµ ÑıÑĤÑĮÑģÑı
Ð¸ Ð½Ð¾
Ð¸ Ð¾Ð½
Ð¸ ÑĨÑĥ
Ð½ ÐµÐ½Ð¸Ð¸
Ð» ÐµÐ¼
Ð» Ð¾Ð³
Ġt ie
Ġt ips
Ġa st
in iteness
Ñĭ Ð¶
Ġw ise
Ġs ar
ĠÐ¿ Ð¸Ð»
ĠÐ¿ Ð°Ð»Ð°
ĠÐ¿ ÑĥÐ±
ĠÐ² ÑĤ
ĠÐ² ÑĢÐ¾Ð´Ðµ
Ġh ated
Ġthe ory
re l
re nt
Ð´ Ð°Ð»
Ð´ ÑĪ
it ure
it ive
it ched
it ably
Ġb od
at ul
Ġhe at
ĠÐº Ð°Ð²Ð°Ð»
Ġto y
ÑĪ Ð¾Ð¹
ÑĪ ÐºÐ¸
Ġc ow
Ġc ool
Ġf it
ĠÐ± Ð¾Ð¹
ĠÐ± ÐµÐ»ÑĮ
ĠÐ± ÑĢÐ¾ÑĪ
Ġm az
ĠÑĩ Ð°Ñı
ĠÑĩ Ð°ÐµÐ¼
ĠÑĩ ÑĥÐ»
en ced
Ġth or
Ġth reshing
Ġd om
ĠÑĤ ÐµÐ½ÑĮ
ĠÑĤ Ð¾Ð¿
ÐµÑĢ ÐµÐ±
ĠÐ½Ðµ Ð¾Ð´
ĠÐ¼ Ð¾Ð»ÑĮ
Ġl ines
or ms
ĠÐ¿ÑĢ ÐµÑģ
Ð¸Ð» ÑĮÑı
Ð°Ðº ÑĤ
ĠÑĥ ÑģÑĤÐ°Ð²
ĠÑĥ Ð³Ð¾Ð²Ð¾ÑĢ
ĠÑĥ ÑĪÐ»Ð°
ĠÐ· ÑıÑĤ
ĠÐ· Ð°Ð³Ð¾
ĠÐ· ÐµÐ»ÐµÐ½
ÐµÑĤ ÐºÐ¸
ĠÑĢ Ð¾Ñģ
id el
Ð½Ð¸ Ð½
Ð¾Ð´ Ð¾Ð²
Ð¾Ð´ Ð¾Ð¹
Ð¾ÑĢ ÐºÑĥ
ĠÐ½Ð° ÑĥÑĩ
ĠÐ½Ð° ÑģÐºÐ¾Ð»ÑĮÐºÐ¾
Ð¸Ð½ Ð¾Ð¼
Ð¸Ð½ Ð¾Ðº
Ð¸Ð½ Ð°Ð¼Ð¸
ÑģÐº Ð¾Ñİ
ĠÐ¶ Ð°Ð»ÑĮ
Ġsa uce
ÐµÐ² Ð¾
ÐµÐ² Ð°Ð»
ĠÐ» ÑĮ
Ð¸Ð² Ð°Ð»Ð°ÑģÑĮ
Ð¸ÑĤ Ð°
Ð¸ÑĤ ÑĭÐ¼
ÑĨ ÑĥÐ¶
ÑĨ Ð²ÐµÑĤ
ÑĨ Ð¸Ñİ
ĠÐ¾ÑĤ Ð´Ð°
ĠÐ¾ÑĤ ÑĨÐ¾Ð¼
Ð°Ñģ Ñģ
al ova
ĠÐĴ Ñģ
ĠÐĴ Ð¸Ð½Ð¾Ð²
ÐµÐº ÑĤÐ¾ÑĢ
ĠÐŀ Ð½Ð¾
Ġst ick
Ġst uck
ĠÐºÐ°Ðº Ð¾Ð¼
ĠÐĿ Ð°ÑĢ
Ġr oused
Ġr ye
ĠÑģÐ² ÐµÐ´
ĠÐ²Ñĭ ÑģÑĤÑĢÐµÐ»
ĠÑħ Ð²Ð°ÑĤ
ĠÐ¾Ð± Ð»Ð°
ĠS T
ĠS ince
ĠÑģÑĤ Ð°Ðº
ĠÑģÑĤ ÑĢÐ¾
ch n
ri er
ri ght
ĠÐ¡ Ð°ÑĦ
ĠÐ¡ ÐµÐ¹ÑĩÐ°Ñģ
Ġme l
ÐµÐ· ÑĤÐ¸
ĠÐ¿Ð¾Ð´ Ð°ÑĤÑĮ
ĠÐ¿Ð¾Ð´ Ð¾ÑĪ
ĠÐ¿Ð¾Ð´ ÑģÑĤÐ°Ð²
ĠÑĤÐ°Ðº ÑĥÑİ
ĠÑĤÐ°Ðº Ð¸Ð¼Ð¸
ĠÐ·Ð° ÑħÐ²Ð°ÑĤ
ĠÐ·Ð° Ð¸Ð½ÑĤÐµÑĢÐµÑģ
ĠÐĶ Ð¾Ð¼
are st
ore d
ÐµÐ½ÑĮ ÑĪ
il imon
ÑĢÐ° Ð½Ð¸Ñĩ
ÐµÑĪ Ð¸Ð²
ĠÐ¸Ð· Ð»Ð¸ÑĪ
ĠÐ¸Ð· Ð»Ð°Ð³
ul es
ÑĭÐ² Ð°Ð»Ð¾
ĠÐ° ÑĤ
ĠÐ° ÑĢÐ¸
Ġcon qu
Ġde ception
Ġde acon
ĠP ART
Ġj er
Ġj am
ĠÐ¿Ð¾Ð» Ñĥ
ÑģÐ» ÐµÐ´
ĠÐľ Ð°ÑĤÑĮ
ĠM ity
ĠM erk
ĠM ichael
ist ocr
Ġdid n
ĠÑĢÑĥ ÐºÐ°
Ð½Ð¸Ð¼ Ð¸
ĠÑĪ Ð°Ð¿
ÑĥÑİ ÑīÐµÐµ
Ð¸Ð· Ð¼
ĠÐ²Ð¸Ð´ Ð¸Ð¼
ĠÐ·Ð½Ð° Ð½Ð¸Ðµ
Ġthere by
Ġle ct
ĠÐ²Ð· Ð°Ð´
Ġno body
ĠÐºÑĢ Ð¾ÑĤ
ven ue
Ð¸ÑĤÐµÐ»ÑĮ Ð½Ð°Ñı
Ġsp are
ĠÐ¶ÐµÐ½ Ð¸Ð»ÑģÑı
ĠÐ¾Ð¿ ÑĭÑĤ
ÑĤÐ¸ Ñİ
ĠÐ´ÑĢÑĥÐ³ Ñĥ
Ġevery where
Ġar oused
Ġar istocr
ĠN E
ÑĢÐ°ÑĤ Ð½Ð¾
ĠÐ»Ð¸ÑĨ Ð°Ñħ
Ġco ver
Ġco arse
ĠÐ½Ð¸ Ð¶
Ġdis like
ĠÐ¿Ð¾ÑģÐ» Ð°Ð»
ÑģÑĤÑĢ Ð°Ð´
Ġother wise
Ġoff end
ap er
Ġcons ult
ĠÐŃ ÑĤÐ¾Ð³Ð¾
um n
um bling
Ġpro v
Ġpro vin
ĠÑĦ ÑĢÐ°Ð½
ĠÑĤÐµÐ¼ Ð¸
ĠÐ²Ð¾Ð· Ð½Ð¸Ðº
ĠÐĳ Ð°ÑĢ
Ġcl oak
ĠÑħÐ¾ÑĢÐ¾ÑĪ Ð¸Ð¼
ĠÑħÐ¾ÑĢÐ¾ÑĪ ÐµÐ³Ð¾
ĠÑħÐ¾ÑĢÐ¾ÑĪ Ð¸Ðµ
Ġturn s
ĠÐ±Ð¾Ð» Ð¸
ĠÑģÐ¾Ð± ÑĭÑĤ
ĠÑĥÐ¼ ÐµÐ½ÑĮÑĪ
ĠÐ¾ÑģÑĤ Ð°Ð»Ð¾ÑģÑĮ
ĠÐ¿Ð¾Ð¼ ÐµÑĪ
ĠÐ¿Ð¾Ð¼ Ð¸ÑĢ
ĠÐļÐ°Ðº Ð¸Ðµ
ĠÐ·Ð°Ð¼ Ð¾Ð»Ñĩ
ĠF ilimon
Ġchild ish
ĠÑģÐ»Ð¾Ð² Ðµ
ĠÐ¿Ð¾Ð»Ð¾Ð¶ Ð¸Ð»
ÑģÐ¼ Ð°ÑĤÑĢ
ĠÐ¿ÑĢÐ°Ð² Ð¸Ð»
ĠÐ¿ÑĢÐ°Ð² Ð¸ÑĤÐµÐ»ÑĮ
Ð¸Ð²ÑĪ Ð¸ÑħÑģÑı
Ġen em
Ġdes per
Ġdes cri
iv al
Ġatt ribut
ÑĢÐ°Ñģ Ð¸Ð²
ĠÐ·Ð°Ð± ÑĥÐ´
ĠÐ³ÑĢÐ° Ð½Ð¸ÑĨÑĭ
ĠÐ¿ÑĢÐµÐ¶ Ð½Ð¸Ðµ
Ġrel uct
Ġev ent
ĠÐ¿ÐµÑĢÐ² ÑĭÐ¼
ĠÐ¾Ð´Ð¸Ð½ Ð¾Ðº
ĠÐ´ÐµÐ»Ð° ÐµÑĤÐµ
ĠÑĥÐ²Ð¸Ð´ Ð°ÑĤÑĮ
ĠÐ´Ð¾Ðº Ð»Ð°Ð´
ĠÐ´Ð¾Ðº Ð°Ð·Ð°ÑĤÑĮ
ĠÐºÐ°ÑĢ ÐµÑĤÐµ
Ġconvers ations
ĠÑģÐµÑĢÐ´ ÑĨÐµÐ¼
ĠÐ½Ð°Ñģ ÑĩÐµÑĤ
ĠÐ±ÐµÑģ Ñĩ
ĠÐ³ÑĢÐ°ÑĦ Ð¸Ð½Ðµ
ĠÐ´ÐµÐ² ÑıÑĤ
Ġdin ed
ĠÐ´Ð¾Ð» Ð¾Ð¶Ð¸ÑĤÑĮ
ĠÑĥÐ¿ ÑĢÐ°Ð²Ð»Ñı
Ġjoy ous
ĠÐ²ÑģÑı ÐºÐ¾Ðµ
ĠÑģÐ¿Ð¾ÐºÐ¾Ð¹ Ð½Ð°
ĠÑģÐ¿Ð¾ÐºÐ¾Ð¹ Ð½ÑĭÐ¼
ĠÑģÐ¿Ð¾ÐºÐ¾Ð¹ Ð½Ð¾Ñİ
ĠÐºÐ¾Ð¼Ð½Ð° ÑĤ
ĠÐ¸Ð½ÑĤÐµÑĢÐµÑģ Ð¾Ð²
ĠÑħÐ¾Ð·ÑıÐ¹ ÐºÐ°
ret ary
Ġgu ests
Ġsub mit
Ġaff ected
Ġcour t
uc ky
Ġinter val
ĠÐºÐ¾Ð½ ÑĨ
Ġtre ated
Ġfin ishing
Ġter ror
ĠÐ½Ð°Ð² ÐµÑĢÐ½Ð¾Ðµ
ĠÑıÑģ Ð½ÐµÐµ
ĠÑģÐ¸Ð´ ÐµÑĤÑĮ
ĠÐ²ÐµÐ» ÐµÐ»Ð°
ĠSt ate
ĠÑģÐµÐ¼ ÑĮÐ¸
ĠÑĢÐ°Ð±Ð¾ÑĤ Ñĥ
ĠÐ·Ð°Ñģ Ð½ÑĥÑĤÑĮ
Ġcond em
ĠÐ³Ð¾ÑĢ Ð½Ð¸Ñĩ
ĠÑĥÐº Ð°Ð·
Ð³Ð¸ Ð±
ĠÐ²ÑģÑĤ Ð°Ð»Ð¸
Ġcomp artment
ĠÐ´ÐµÐ¹ÑģÑĤÐ² Ð¾Ð²Ð°ÑĤÑĮ
ĠÐ¿Ð¾Ð²ÑĤÐ¾ÑĢ ÑıÐ»
ĠÐ¿ÑĢÐ¾Ð² ÐµÑģÑĤÐ¸
ĠÐŁÑĢ Ð¸Ðº
Ġins p
ĠÐ´Ð²Ð¾ÑĢ Ðµ
ĠÑĩÑĥÐ²ÑģÑĤÐ²Ñĥ ÐµÑĪÑĮ
Ġland l
ĠÑĥÑģÑĤ ÑĢÐ°
ĠÐ´ÐµÑĢÐ¶ Ð°
ĠÑģÐ¾ÑģÑĤÐ¾Ñı Ð»Ð°
ĠÐĴÐ°Ñģ Ð¸Ð»ÑĮ
ĠÐ²ÑģÑĤÑĢÐµÑĩ Ðµ
ĠÐ½Ð°ÑĪ Ð»Ð¸
ĠÐ·Ð°Ð½Ð¸Ð¼ Ð°Ð»Ð¸
ĠÐ¼Ð°Ð»ÐµÐ½ÑĮ ÐºÐ¾Ð¹
ĠÐ²ÑģÑĤÑĢÐµÑĤ Ð¸ÑĤÑĮ
ĠÑĢÐ°ÑģÑģ ÑĩÐ¸ÑĤ
ĠÐ¿ÑĢÑı Ð¼
ĠÑĢÐ¾Ð´ Ð¾Ð²
ĠÐ¿Ð¾ÑģÐ¼Ð¾ÑĤÑĢ ÐµÑĤÑĮ
ĠÐ²Ð°ÑĪ Ñĥ
Ġfore ign
Ġrid ers
ĠÐĴÐµÑģÐ»Ð¾Ð² ÑģÐºÐ¸Ð¼
Ġstud ied
ĠÐ±Ð»Ð°Ð³ Ð¾Ð¿Ð¾Ð»
Ġra ise
ĠÐ¿Ð¾Ð²ÐµÑĢ Ð½ÑĥÐ»ÑģÑı
ĠÑĩÐ° ÑģÑĤÑĮÑİ
ĠÐ¿Ð¾ÑģÑĤ Ð°ÑĢ
Ġrespect ful
Ġrespect fully
Ġeduc ated
sk aya
ĠÑĩÐ¸ÑĤ Ð°Ð»Ð°
Ġcur t
Ġshout ing
ĠÐ»Ð°Ðº Ðµ
Ġass istant
Ġcontr ast
ĠÑģÐ¾Ð³Ð»Ð°Ñģ Ð¸Ð»ÑģÑı
ĠÐ½Ð°Ð¿ÑĢÐ°Ð² Ð»ÐµÐ½Ð¸Ñı
ĠÐºÑĢÑĥÐ³ Ð¾Ð¼
Ġuse less
ĠÑĢÑĥÑģ ÑģÐºÐ¾Ð³Ð¾
ĠÑĢÑĥÑģ ÑģÐºÐ¸Ñħ
ĠÑĪÐµ ÑģÑĤ
ĠÐºÐ» Ð°Ð½Ñı
ĠÐ±Ð°Ð» Ðµ
Ġstay ed
ĠÐ¿ÑĢÐµÐ´ÑģÑĤÐ°Ð²Ð»Ñı Ð»Ð¾ÑģÑĮ
Ġdirect ed
Ġless on
Ġdread fully
Ġcap able
ĠÐ½ÑĢÐ°Ð² Ð¸Ð»Ð¾ÑģÑĮ
ĠÑģÐ¼ÐµÑĪ Ð½Ð¾
Ð¸Ð»ÑĮ Ð½Ð¾
ĠÐ±ÐµÑĢ ÐµÐ¼
ĠÐ¿Ð¾ÑĨ ÐµÐ»
ĠÐºÐ°Ð· Ð°Ð»ÑģÑı
ĠÐ¾ÑĤÐ¿ ÑĢÐ°Ð²
Ġrecogn izing
Ġtra ve
ĠÐ¾ÑĤÑĩÐ°Ñı Ð½Ð¸ÐµÐ¼
ĠÐ±ÑĢÐ¾Ñģ Ð¸ÑĤÑĮ
Ġru in
Ġimpress ions
ĠÐ´ÐµÐ¹ÑģÑĤÐ²Ð¸ÑĤÐµÐ»ÑĮÐ½Ð¾ ÑģÑĤÐ¸
Ġcart s
ĠComm ander
ĠÐ¿ÑĢÐ¸ÑħÐ¾Ð´ Ð¸Ð»Ð¸
ĠÐ¸Ð·Ð²ÐµÑģÑĤ Ð½ÑĭÐ¹
oc ked
Ġpay ing
ĠÐ¿ÑĢÐ¸Ð½Ñı Ð»
ĠÐ¾ÑĤÐºÐ°Ð· Ð°Ð»ÑģÑı
ĠÐ´ÐµÐ²Ð¾Ñĩ ÐºÑĥ
ĠÑģÐ»Ð°Ð² Ð½ÑĭÐ¹
ĠÐ¿Ð»Ð°ÑĤ ÐºÐ¾Ð¼
ĠÐ²ÑģÐ¿Ð¾Ð¼Ð¸Ð½Ð° ÑĤÑĮ
ĠÐ´ÑĢÑĥÐ¶ ÐµÑģÐº
Ġhab its
ĠÐºÐ¾Ð»Ñı ÑģÐºÐ¸
Ġdream s
ÐĴ Ð¾ÑĤ
ĠÐ½Ð°Ð³ ÑĢÐ°Ð´
ĠÐ¼Ð¾ÑĢ Ð¾Ð·
Ð¸ÑĤÐµÐ» ÐµÐ½
Ġremark able
Ġbit ter
Ð½Ð¾ÑģÑĤ ÐµÐ¹
Ġsol ution
app ho
ĠÑģÐ»Ð°Ð± Ð¾ÑģÑĤÐ¸
ĠÐ¸Ð·Ð¼ÐµÐ½ Ð¸Ð»Ð¾ÑģÑĮ
ĠÐ¿Ð¾Ð¼Ð¾Ñī ÑĮÑİ
Ġresult s
Ġdev oted
Ġrecoll ection
ĠÐ½ÑĭÐ½ÐµÑĪ Ð½ÐµÐ³Ð¾
ĠÑĥÐµÑħ Ð°Ð»Ð°
ĠÐ¿Ð¾Ð»Ð¾Ð² Ð¸Ð½Ðµ
Ð°Ð²ÑĪÐ°Ñı ÑģÑı
Th ank
Ðŀ Ð½
Ð¸Ð¿ Ð»Ð¾Ð¼
Ġresol ved
ĠXXV II
ĠÐ¿ÑĥÑĤ Ð¸
ĠÐ½ÐµÐ¸Ð· Ð±ÐµÐ¶
to gether
ĠÐºÑĢÐ¾Ð² Ð°ÑĤÐ¸
ĠÑĦÐ¸Ð· Ð¸ÑĩÐµÑģÐºÐ¸
Ġsuccess ful
ĠÑģÐ¿Ð¾ÑģÐ¾Ð± Ð½Ð¾ÑģÑĤÑĮ
Ġsecret ary
ĠÐ²ÑĭÐ±Ð¾ÑĢ Ð°Ñħ
Ġsens es
Ġhid den
Ġpie ces
Ġexam ining
Ġintro duce
ĠÐ²Ð¾Ð·Ð²ÑĢÐ°Ñī Ð°ÑıÑģÑĮ
Ġsal ary
ĠÐ¿ÑĢÐµÐ´Ð¼ ÐµÑĤ
Ġconfess ion
ĠÐ½Ð°ÑħÐ¼ÑĥÑĢ Ð¸Ð²ÑĪÐ¸ÑģÑĮ
ĠÐµÑģÑĤÐµ ÑģÑĤÐ²ÐµÐ½
ĠÑĥÐ¼ÐµÑĢ Ð»Ð°
00 0
Ġring ing
ĠÐ³ÑĥÐ±ÐµÑĢÐ½ÑģÐº Ð¾Ð³Ð¾
ĠÐ¿Ð¾Ð¹Ð¼ ÐµÑĤ
ĠÐºÑĢÐ¸Ñĩ Ð°Ð»
ĠÑģÐ¼ÐµÑħ Ð¾Ð¼
Ġsurr ound
ĠÐ¶ÐµÐ½Ð¸ ÑĤÑĮÑģÑı
Ġpit ied
ĠÐ¿ÑĢÐ¸Ð³ Ð»Ð°ÑĪ
Ġbride groom
Ġenc oura
Ġembarrass ment
ĠÐ½ÐµÑħ Ð¾ÑĢÐ¾ÑĪ
ĠÐ½ÐµÑĥÐ´ ÐµÑĢÐ¶
Ġdism al
Ġpolit ical
ĠÑĦÑĢÐ°Ð· Ñĥ
ĠÐ·Ð°Ð²Ð¸Ñģ Ð¸ÑĤ
Ġobt ain
ĠÐ¿ÑĢÐ¾Ð²Ð¾Ð´ Ð¸Ð»
ĠÑģÐ¾Ð» Ð´Ð°ÑĤ
Ġmill ions
ĠCounc illor
Ġstri king
ĠÐ¶Ð°Ð»Ð¾Ð² Ð°Ð½ÑĮÑı
Ġbold ly
ĠÐ¿Ð¾Ð³Ð»Ñı Ð´ÑĭÐ²
ĠÐ»Ð°ÑģÐºÐ¾Ð² Ð¾
oint ment
Ġwra pped
Ġsevere ly
Ġmir ror
ĠÑĩÐµÑĤÑĭ ÑĢÐµÑħ
ork uyev
Ġappreci ated
ĠÐ¿ÐµÑĢÐµÐ³Ð¾Ð²Ð¾ÑĢ Ð¸ÑĤÑĮ
ĠÐ¾ÑĤÐ¾ ÑĪÐµÐ»
Ġgrace ful
ĠÐ¿Ð¾Ð´Ñĩ Ð¸Ð½
Ġtranqu ill
Ġrestr ain
ĠÑĥÐ¿Ð¾ÑĢ Ð½Ð¾
Ġsucceed ed
Ġequ ally
ĠÐ³Ð¸Ð¼ Ð½Ð°Ð·
ĠÐ¾Ð±Ð¼ Ð°Ð½Ð°
ĠÐ±ÑĢÐ¾Ð² Ð¸
ĠÑģÐ²Ð¸Ð´ Ð°Ð½ÑĮÑı
ĠÐļÐ¾Ð·Ð½ÑĭÑĪ ÐµÐ²
Ġdishon est
Ġacknow led
ĠÑĤÑī ÐµÑĤ
ĠÐ°Ð½Ð³Ð»Ð¸ÑĩÐ°Ð½Ð¸ Ð½
ĠTurovts yn
Ġdepth s
ÐŃ ÑĤÐ¾
ÑĢÐ¸Ð¼ ÐµÑĢ
Ġimm ense
Ġtrous ers
Ġwaist coat
Re ally
Ġsugg ested
Ġign or
ĠÑĦÐ°Ð»ÑĮ ÑĪ
ĠÐ¿Ð°Ð¼ÑıÑĤ Ð¸
Ġstrang ers
ĠÐºÐ²Ð°ÑĢ ÑĤÐ¸
ĠÐ½Ð°Ð´ÐµÐ¶Ð´ Ñĭ
ĠÐ·Ð°Ð´ÑĥÑĪ ÐµÐ²
Ġmajor ity
Ġdisappe ared
Ġabsor bed
ĠÐ¸Ð½Ð¾ÑĢÐ¾Ð´ ÑĨÐµÐ²
ĠÐ½ÐµÐ·Ð´ Ð¾ÑĢÐ¾Ð²
Ġoyst ers
ĠÐ·Ð¾Ð½ ÑĤÐ¸Ðº
ĠÐ½ÐµÐ¼Ð½Ð¾Ð¶ ÐºÐ¾
Ġsar c
Ġthor ough
ÑĨÑĥÐ¶ ÐµÐ½
ĠÐ¡Ð°ÑĦ Ð¾
ĠMerk alova
ĠFilimon ovna
A t
C an
E very
O V
T ake
W ith
W ill
e ur
g or
h us
l and
m y
o ir
o very
o ke
t hen
u ished
w ell
y at
Ð ¬
Ð ĵ
Ð Ĺ
Ġ z
Ð° ÑĪÐ¸
ÑĤ Ð¾Ð¹
ÑĤ ÑĢÐ¸
Ð¸ ÐµÐ¹
Ð¸ Ð°Ð»ÑĮ
Ñģ Ð¾ÑĤ
Ð½ Ð¾Ð´
Ð½ ÐµÐ¿
Ð½ Ð°Ð¼Ð¸
ÑĢ Ð°Ñı
ÑĢ Ð°Ð¼Ð¸
ÑĢ ÑıÑĤ
Ġa ut
Ñĭ Ð³
Ġw ard
Ġw el
Ġw ings
Ġw aving
ĠÑģ Ð½Ð¸
ĠÑģ ÑĢÐ°Ð·
ĠÑģ ÐµÐ½Ð°
ĠÐ² ÐµÐº
Ðº ÑĤ
Ġh ire
Ġh anging
Ġh ouses
ĠÐ¾ ÑĨÐµÐ½
Ġo ats
ĠÐ¸ Ñİ
ĠÐ¸ ÑĤÐ°Ð»ÑĮ
Ð°Ð» ÐµÐºÐ¾
Ġb and
Ġb ased
at er
at hed
ĠÐº Ð¾Ð¶
Ð¾Ð² Ð¾
Ð¾Ð² Ñĥ
Ġc rit
Ġf ill
Ġf ait
ĠÐ± Ð°Ð»Ð°
ĠÐ± ÑĥÑĢ
ĠÐ± ÐµÑģÐº
Ġm ale
ĠÐ´ ÐµÑĪ
ĠÐ´ Ð¸Ð¿Ð»Ð¾Ð¼
ĠÑĩ ÐµÐ¿
ĠÑĩ Ð¸ÑģÐ»
Ġd ue
Ġn et
ÐµÑĢ ÐµÑĪ
ĠÐ¼ Ð¸Ð»Ð°
ĠÐ¼ ÑĥÑģÐº
Ð½Ð¾ ÑģÑı
Ġp ot
Ġp le
Ġp ow
Ġp ac
Ġp ick
Ġp ince
Ġp icked
ĠÐ¿ÑĢ ÑĥÐ¶
ĠÐ¿ÑĢ Ð¾ÐµÑħ
an e
Ġ' -
Ð± Ð¾
Ð¾Ð» Ð¾Ð³
ĠÑĥ Ð»Ð¸Ñĩ
ĠÐ· ÐµÐ»
ĠÐ· Ð»Ð°
ĠÐ· Ð°Ð¹
om en
om es
ĠÑĢ Ð¶
ĠÑĢ Ð¸Ñģ
ĠÑĢ ÑĤÑĥ
ĠÑĢ ÑİÐ¼
Ġbe ating
ut ation
ly udin
ĠÐ½Ð° ÑģÐº
Ð°Ð² Ð°ÑĤÑĮ
Ġe mp
Ġg ather
Ð¸Ð½ ÐºÑĥ
ic ing
ic able
Ġnot es
Ġre med
Ġre leas
Ġsa le
Ġsa ved
Ġsa mov
ĠÐ» ÐµÐ¶Ð°Ð»
Ð¸Ð² ÑĭÑĩ
Ð¸ÑĤ Ð¸Ðµ
Ġu r
ÑĨ Ð°Ð¼
al ities
ĠÐĴ Ð¼
ĠÐĴ Ð´ÑĢÑĥÐ³
Ġfor ced
ĠÐŀ Ðº
Ġst orm
ĠÐĿ Ð°ÑĤ
ĠA h
ir ts
ĠÑģÐ² ÐµÑĩ
ĠÑģÐ² ÐµÑĢÑħ
ĠT art
ĠT HA
ĠÐ²Ñĭ Ð²
ĠÐ²Ñĭ ÑĢÐ¾Ñģ
ĠÐ²Ñĭ ÑģÑĤÐ°Ð²Ð»Ñı
ĠÐ²Ñĭ ÑĤÑı
ĠÐ²Ñĭ ÑĪÐµÐ´
Ð»Ð¸ Ð³
Ð°ÑĤ ÐµÑĢ
ur s
ur ka
Ð´Ð° Ð½Ð¸Ñı
ĠÑħ Ð²Ð°Ð»
if ice
Ð¾Ðº Ñĥ
Ð¾Ðº ÐµÑĤ
ĠÐļ Ð¾Ð»
ĠÐļ ÑĥÑĩ
ĠÐļ Ð°Ð¶ÐµÑĤÑģÑı
ĠS ee
ĠS appho
ĠS lyudin
ĠÐĽ Ð¾ÑĪ
ĠÐĽ ÑĥÑĩ
ĠÐ¿ÑĢÐ¸ ÐµÐ·Ð´Ðµ
ĠÐ¡ Ð¾ÑĢ
ĠÐ¡ Ð»Ð°Ð²
Ð½Ðµ Ñİ
ĠK orney
ĠÐ¿Ð¾Ð´ Ð´
ĠÐ¿Ð¾Ð´ ÐµÐ¹ÑģÑĤÐ²
ĠÐ¿Ð¾Ð´ Ð²ÐµÑĢ
ĠÐ¿Ð¾Ð´ Ð¾Ð¶Ð´
ĠÑĤÐ°Ðº Ð¶Ðµ
Ġso ciety
Ġsh own
Ġsh ake
Ġsh ru
Ð¸Ðº Ñĥ
Ð¸Ðº Ð¾Ð¼
ĠÐ·Ð° Ñħ
ĠÐ·Ð° ÑħÐ¾Ð´
ant as
ĠÑĢÐ°Ð· Ð½ÑĭÐµ
ĠÐĺ Ð´Ð¸
il ate
us es
ak ened
ÐµÑĪ Ðµ
Ġex h
ĠÐ¸Ð· Ð¾
ĠÐ¸Ð· Ð»Ð¾Ð¶
ĠÐĽÐµÐ²Ð¸Ð½ Ðµ
Ġfr u
ÑĭÐ² Ð°ÑıÑģÑĮ
ÑĭÐ² Ð°Ð»Ð¸ÑģÑĮ
ÑĭÐ² Ð°ÐµÐ¼
Ġkn ees
Ġkn ocked
ÐµÐ¶ Ðµ
ĠÐ° Ð¿
Ġcon gr
Ð°Ð»Ð¸ Ð·
itt ered
ÐµÐ»Ð° ÑģÑĮ
Ġal oud
ac her
ĠÑģÐ¿ ÑĥÑĤ
ĠO B
ĠO ur
Ġsee k
ĠÐ»Ð¸ ÑģÑĤ
Ð¸Ðµ Ñħ
Ġqu e
ÑĥÑĤ Ð°ÑĨ
ĠÐľ ÐµÑĢÐº
ĠC an
ĠC atherine
ÑıÑĤ Ð°
est ing
est ion
ist ening
Ð¾Ñĩ ÐºÐµ
ĠÑĪ ÑĥÑĢ
Ġv a
ÑĥÑİ ÑģÑĮ
ra ge
ĠÐ²Ð¸Ð´ Ñı
ĠÐ²Ð¸Ð´ Ð¸ÑĤÐµ
Ð¸Ð»Ð¸ Ð¿Ð¿
ĠD ep
Ġim pl
ke y
ĠÐ¿ÑĢÐ¾ ÑģÑı
ĠÐ»ÑİÐ± Ñı
ĠÑĩÑĥÐ²ÑģÑĤÐ² Ð¾Ð²Ð°Ð»Ð¸
Ġbr ows
ÑĢÐ°Ð² Ð¾
Ð¸ÑĤÐµÐ»ÑĮ Ð½ÑĭÑħ
ĠÑģÐ¼ ÑĭÑģ
ĠÐ´ÐµÐ» Ð¾Ð¼
ĠOblonsky s
ĠÑĥÐ»ÑĭÐ± Ð°Ð»Ð°ÑģÑĮ
ĠÐ¿Ð¾Ðº ÑĢÑĭÐ²
Ġwe ight
Ġpre gn
ĠÑģÑĤÐ°ÑĢ ÑĭÑħ
ĠÑģÑĤÐ°ÑĢ ÑĥÑħ
ĠÑģÑĤÐ°ÑĢ Ð¸ÑĩÐ¾Ðº
Ð°Ð²ÑĪ ÐµÐ¼
ĠÐ§ ÐµÐ¼
ĠÐķ Ðµ
Ġte nd
Ġpro vo
ĠÑĦ ÑĢ
Ð´Ñĥ Ðº
ĠE N
ĠE v
Ġcont rol
Ġbl ind
ĠÐ¿Ð» Ð°Ð½Ñĭ
ĠÑģÐ¾Ð± Ð¸ÑĢÐ°
ĠÑĥÐ¼ ÑĢÑĥ
ĠÑĥÐ¼ Ð½ÑĭÐ¹
ĠÑĥÐ¼ ÑĭÑĪÐ»ÐµÐ½Ð½Ð¾
ĠÐ½Ð°Ð¿ ÑĢÐ¸Ð¼ÐµÑĢ
ĠÐ²Ð·Ð³Ð»Ñı Ð´Ñĥ
ÑĢÑı Ð¶
Ġold er
ĠÑģÐ»Ð¾Ð² Ð¾Ð¼
ĠÐ¿Ð¾Ð½Ð¸Ð¼ Ð°ÑİÑĤ
Ġtw ice
ĠÐ¿Ð¾Ð² Ð°ÑĢ
ĠÑĨ ÐµÐ»Ð¸
Ġunderstand s
ĠÐĵ Ð»Ð°Ð·
Ġen chant
ĠÐ½Ð°Ñĩ Ð¸Ð½
Ġent hus
ÐµÑİ Ñī
ĠÑģÑĤÑĢ ÐµÐ»
ĠÐ¿ÑĢÐ¾Ñģ Ð¸Ð»Ð¸
Ġansw ering
Ġatt ached
ĠÑĢÐµÑĪ ÐµÐ½Ð¸Ñı
ĠÑĢÐµÑĪ ÐµÐ½Ð¾
ĠÐ½ÑĥÐ¶ ÐµÐ½
ĠÐ·Ð°Ð± Ð¾Ð»
Ġrep res
Ġcar riages
Ġpass age
ĠÐ¿ÑĢÐµÐ¶ Ð½ÐµÐµ
ĠÐ¿ÑĢÐµÐ¶ Ð½Ð¸Ñħ
ĠÐ¾ÑĤÐº ÑĢÐ¾Ð²
Ġapp et
Ġapp ointed
ĠÐĹ Ð°Ð²ÑĤÑĢÐ°
Ġres ist
ĠÐ²Ð¾Ð¿ÑĢÐ¾Ñģ Ðµ
ĠÑģÐ¾Ð²ÐµÑĢÑĪ ÐµÐ½
ĠÐ¿ÑĢÐ¸Ð² ÐµÐ´
ĠÐ¿ÑĢÐ¸Ð² ÑıÐ·
ĠÐºÑĢÐ°Ñģ Ð¾ÑĤÐ¾Ð¹
ĠÐ·Ð°Ðº ÑĥÑĢ
ĠÐ´ÐµÐ»Ð° ÐµÑĪÑĮ
Ġkind ness
ĠÐ±Ð¾Ð»ÑĮÑĪ Ð¸Ð¼Ð¸
ĠTh ose
ĠÐ¿ÑĢÐ¾Ð´Ð¾Ð»Ð¶ Ð°Ñı
Ð°ÑĤÐµÐ»ÑĮ Ð½ÑĭÐ¹
Ð°ÑĤÐµÐ»ÑĮ ÑģÑĤÐ²Ð¾
ĠÑĥÐ¶Ð°Ñģ Ð½Ð¾Ðµ
ĠÑģÐ¸Ð» Ð¾Ð¹
Ð¸ÑĩÐµÑģÐº Ð¸Ð¹
Ð¸ÑĩÐµÑģÐº ÑĥÑİ
ĠÐ¼Ð¾Ð»Ð¾Ð´ Ð¾ÑģÑĤÐ¸
Ġact ing
ĠÑģÑĭ Ð½Ðµ
ĠÐ´ÐµÐ² ÑıÑĤÑĮ
Ġdress es
ĠÐŀÐ± ÐµÐ´
ĠÐ¾Ðº Ð°Ð·
ĠÐ¾Ðº Ð°Ð·Ð°Ð»Ð¾ÑģÑĮ
Ġinv ented
ĠÐ·Ð² Ð°Ð»Ð¸
ĠÐ¿Ð¾Ð¶ ÐµÑĢÑĤÐ²
ĠÐ¿Ð¾Ð´ÑĥÐ¼ Ð°ÑĤÑĮ
ĠÐ²Ð·Ð³Ð»ÑıÐ´ Ñĭ
ĠÐ²ÑģÑı ÐºÐ¾Ð¹
ĠÐ²ÑģÑı ÐºÐ¾Ð¼
ĠÑħÐ¾Ð·ÑıÐ¹ ÑģÑĤÐ²Ð¾Ð¼
Ġend ure
Ġsub tle
ĠÐ¾ÑģÑĤÐ°Ð² Ð¸Ð²
ĠÐ·Ð°Ð³ Ð»Ñı
ĠÐµÑħ Ð°Ð»Ð°
Ġinst inct
Ġinst ruct
ĠÐ»ÐµÐ³ ÐºÐ¸Ð¼
Ġfin ally
Ġdel ay
ĠÐ¿Ð¾Ð»ÑĥÑĩ Ð¸Ð»Ð°
Ġter ms
Ġbre ast
ĠÐ¿ÑĢÐ¸Ð· Ð²
ĠÑĢÐ°ÑģÑģÐº Ð°Ð·Ð°ÑĤÑĮ
ĠÑģÐµÐ¼ ÑĮÑİ
ĠÑĢÐ°Ð±Ð¾ÑĤ Ð¾Ð¹
Ġir re
ĠÑĥÑģ Ð°Ð¼Ð¸
ĠÐ²ÑģÑĤ Ð°ÑĤÑĮ
Ġcomp an
ĠÐ¡Ð²Ð¸ÑıÐ¶ ÑģÐºÐ¸Ð¼
ĠÐ¡Ð²Ð¸ÑıÐ¶ ÑģÐºÐ¾Ð¼Ñĥ
ĠÐ¿ÑĢÐ¾Ð² ÐµÐ»Ð°
ĠÑĥÑĩ Ð¸ÑĤÐµÐ»ÑĮ
ĠÐ·ÐµÐ¼ Ð»Ñı
ĠÐŁÑĢ Ð¸ÐµÑħ
ĠÐ±ÐµÐ» ÑĭÑħ
ĠÐ±ÐµÐ» ÑĭÐ¼Ð¸
ĠÐļÐ°ÑĢ ÑĤ
Ġdiv ided
ĠÑģÐ¾ÑģÑĤÐ¾Ñı Ð½Ð¸Ñı
ĠÐ½Ð°Ðº Ð»Ð¾Ð½
ĠÐ¤ Ð¸Ð»Ð¸Ð¿Ð¿
Ġgener osity
Ġvi ol
ĠÐ²Ð¾Ð´ Ñĥ
ĠÐ²ÑģÑĤÑĢÐµÑĤ Ð¸Ð»Ð°
Ġdou ble
Ġdou bted
ĠÐµÐ´ ÐµÐ¼
ÐµÐ´Ñĥ ÐµÑĤ
ĠÑĢÐ°ÑģÑģ ÑĥÐ´
ĠÑĢÐ°ÑģÑģ ÐµÑı
ĠÐ¼ÑĭÑģÐ»ÑĮ Ñİ
Ð¿Ð¾Ð¼Ð¸Ð½Ð° Ð½Ð¸Ðµ
Ġopp on
Ġopp osed
ĠÐļÐ°ÑĤ ÐµÑĢ
ĠÐĴÐµÑģÐ»Ð¾Ð² ÑģÐºÐ¾Ð³Ð¾
ĠÑĤÐ¾Ð» Ðº
Ġjo king
ĠÑĤÐ¾Ð½ ÐºÐ¸Ð¼
ĠÐ±Ð»Ð°Ð³ Ð°
ĠÑģÐ¸Ð»ÑĮ Ð½Ð¾Ðµ
oun ced
ĠÐ¾Ð±Ñī Ð¸Ð¹
ĠÐ½Ð°Ð¹ Ð´ÐµÑĤ
Ġlat est
ĠÑģÑĩÐ°ÑģÑĤÑĮ ÐµÐ¼
ĠÐ³Ð¾ÑĤÐ¾Ð² Ð¾
ĠÐ·Ð°Ð¼ÐµÑĩ Ð°Ð»Ð°
ĠÐ·Ð°Ð¼ÐµÑĩ Ð°Ð½Ð¸Ðµ
Ġparticul ars
ĠÐ±Ð¾ Ð¸ÑĤÑģÑı
ĠÑģÐ¿ÑĢÐ°ÑĪ Ð¸Ð²Ð°Ð»Ð°
ĠÐ¿ÑĢÐ¸Ñģ Ð¾
ĠÐ´Ð¾Ð² Ð¾Ð´Ñĭ
ĠÐ¾ÑħÐ¾ÑĤ Ð°
ĠÐ¾ÑħÐ¾ÑĤ Ñĥ
ĠÐ¿ÑĢÐ¸Ñĩ Ð¸Ð½
ĠÐ¼ÐµÐ´ Ð²ÐµÐ´
ĠÐ½Ð°Ð¿ÑĢÐ°Ð² Ð¾
ĠÐ²ÑĭÑģÐº Ð°Ð·Ð°Ð»
ĠÑĢÐ°Ð´Ð¾ÑģÑĤ Ð½Ð¾Ðµ
Ġext ent
ĠÑĢÑĥÑģ ÑģÐºÐ¸Ðµ
Ġhope less
Ġbu ilt
ĠÐºÐ°Ð±Ð¸Ð½ ÐµÑĤÐ°
Ġpicture d
Ġpicture s
ĠÑĤÑĢÐµÐ± Ð¾Ð²
ĠÐºÐ½Ð¸Ð³ Ðµ
Ġconc ert
ĠÑĤÐ²Ð¾ Ð¸
ĠÑĤÐ²Ð¾ ÐµÐ¹
ĠÐ±Ð»Ð¸Ð· Ð¾ÑģÑĤÐ¸
Ġsplend idly
Ġagree able
ĠÐ¿ÑĢÐ¸ÑĤÐ²Ð¾ÑĢ Ñı
Ġstrong ly
ĠÐ¿ÑĢÐ¸ÑħÐ¾Ð´ Ð¸Ð»
ĠÑĢÐ°Ð±Ð¾Ñĩ Ð¸Ñħ
ĠÑĢÐ°Ð·Ð²Ð¾Ð´ Ðµ
Ġcrowd ed
ĠÐ³ÑĢÑĥÐ´ Ð¸
ĠÐ³ÑĢÑĥÐ´ ÑĮÑİ
ĠÐ½ÐµÐ½Ð°Ð² Ð¸Ð¶Ñĥ
Ġconn ect
Ġprof it
ĠÑĥÑģÐ»ÑĭÑħ Ð°Ð²
ĠÑĢÐ°Ð²Ð½Ð¾Ð´ÑĥÑĪ Ð½Ð¾
Ð½Ð¸Ð· Ñĥ
ĠÑģÐ»Ð°Ð² Ð°
Ġexcept ion
ĠÐĲÑĢÐºÐ°Ð´ÑĮÐµÐ² Ð½Ñĭ
ĠÐºÐ°ÑĢÑĤ Ð¸Ð½Ñĥ
Ġwonder ing
ĠÐ°ÑĢ ÑħÐ¸ÑĤ
ÑĪÑĥÑİ ÑģÑı
Ġcre ated
Ġremark s
ĠÐ·Ð°Ð» Ðµ
Ġjump ing
ĠÐłÐ¾Ñģ ÑģÐ¸
Ð»Ð°Ð³ Ð¾Ð´Ð°ÑĢ
ĠÐ»ÐµÐ¶ Ð°Ð»Ð°
Ġdisp utes
ĠÐ´Ð¾ÑģÑĤ Ð¾Ð¹
ĠÐ¿ÑĢÐ¸Ð·Ð½Ð° ÑĤÑĮÑģÑı
ĠÐºÑĢÑĭÐ»ÑĮ ÑĨÐ°
Ġpray er
ĠÐ²Ð·Ð´Ð¾Ñħ Ð½ÑĥÐ²
ĠÐ½Ð¸Ð· ÐºÐ¾
Ġtruth ful
Ġlead ing
Ġscre aming
Ð¢ Ð°Ðº
Ġbar n
ĠXXV I
ĠXXV III
ĠÐ¾Ð±ÑĬÑıÑģÐ½ ÐµÐ½Ð¸Ðµ
ĠÑĤÐ¾Ð»Ð¿ Ðµ
ĠÑĤÐ¾Ð»Ð¿ Ð°
Ġhast ily
ĠÐºÑĢÐµÑģ Ð»Ðµ
ĠÐ±Ð¾Ð»ÐµÐ· Ð½ÑĮ
ĠÑģÑĤÐ°Ð½Ð¾Ð² Ð¸Ð»Ð¾ÑģÑĮ
Ġunf aith
ĠÐ½ÐµÑģÑĩÐ°ÑģÑĤ Ð½Ð°
ĠÐºÑĢÑĥÐ¶ ÐµÐ²
ĠÑĢÑĭ Ð¶
ĠÑģÑĤÑĥÐ¿ ÐµÐ½ÑĮ
ache l
ĠÐ¿Ð¾Ð½ÑĢÐ°Ð² Ð¸Ð»ÑģÑı
Ġexam ined
ĠÐ¿Ð¾Ð»ÑĮÐ· Ñĥ
ĠÐ²ÑĭÑĢÐ°Ð· Ð¸ÑĤÑĮ
ĠÐ¾Ð±ÑıÐ·Ð°Ð½ Ð½Ð¾ÑģÑĤÑĮ
Ġsal vation
ĠÐ¿ÑĢÐµÐ´Ð¼ ÐµÑĤÐ°
Ġbreak fast
ĠÐ³Ð¾ÑĢÑıÑĩ Ð¾
Ġquarre lled
ĠÑģÐ¾Ð´ ÐµÐ¹ÑģÑĤÐ²
Ð°Ð½ÑĮ ÐµÐ¼
ĠÐ¿ÑĢÐ¾Ð¸ÑģÑħÐ¾Ð´ Ð¸Ð»Ð¾
ĠÐ·Ð¸Ð¼ Ñĭ
ĠXXI V
ĠXXI X
Ð°Ð²ÑĪÑĥÑİ ÑģÑı
ĠÑĢÑĥÑĩ ÐºÑĥ
ĠÐ½ÐµÐ²Ñĭ Ð½Ð¾Ñģ
Ġdistur b
Ġcommun icated
Ġfro st
ĠÐ¼Ð°Ð½ ÐµÑĢÐ°
ĠÐ²ÑĭÐ³Ð¾Ð²Ð¾ÑĢ Ð¸ÑĤÑĮ
ĠGovern or
Ġmod ern
Ġcarp ent
Ġphilosop hy
ĠÐ½Ð°Ð´ÐµÑı ÑģÑĮ
Ġpersu ade
Ġprinci ple
Ġpossess ed
Ð²Ð¸Ð³ Ð°Ñı
ĠÐ±ÐµÑģÑģ Ð¾Ð·Ð½Ð°
ĠÑħÐ»ÐµÐ± Ð°
Ðķ ÑģÐ»Ð¸
ĠÐ¾Ñī ÑĥÐ¿
ĠÐºÑĢÐ° ÑģÐºÐ°
ĠÑģÐ¾ÐµÐ´ Ð¸Ð½Ñı
ĠÐ¿Ð¾Ð²Ð¾Ð´ ÑĮÑı
ĠÐĵÐ¾Ð²Ð¾ÑĢ ÑıÑĤ
ÐĿÐµ ÑĥÐ¶ÐµÐ»Ð¸
ĠÐĵÑĢÐ¸ÑĪ Ñĥ
On ly
Ġtranqu il
ĠÐ¥ÑĢÐ¸ ÑģÑĤÐ°
Ġgallop ing
Ġoccasion ally
ĠÐ¸Ð·Ð²Ð¾Ð·ÑĩÐ¸Ðº Ð°
Ġdu el
Ġbeat en
Ġdisapp ro
ĠÐ¸Ð·Ð±Ð°Ð² Ð¸ÑĤÑĮÑģÑı
Ġami able
Ġpersp iring
ĠÐ¿ÑĢÐ¸Ð»Ð¸Ñĩ Ð¸Ñı
ĠÐ¿Ð¾ÐºÑĢÐ¾Ð² Ð¸ÑĤÐµÐ»ÑĮ
ĠÐ½Ð°Ð¿Ð¾Ð¼ Ð¸Ð½Ð°
ĠÐ¤ÐµÐ´ Ð¾ÑĢ
ĠÐ¿ÑĥÐ³ Ð¾Ð²
ĠÐ¶ÐµÐ½Ð¸ÑĤÑĮ Ð±Ñĭ
ĠÑĨÐµÑĢÐºÐ¾Ð² ÑĮ
ĠÐ·Ð°ÑģÐµÐ´ Ð°Ð½Ð¸Ðµ
ĠÐłÑıÐ±Ð¸Ð½Ð¸ Ð½
ĠÐ½ÐµÐ¿Ð¾Ð´Ð²Ð¸Ð¶ Ð½Ð¾
ĠÑĢÐµÐ»Ð¸Ð³Ð¸ Ð¾Ð·
ĠÐ·Ð°Ð¿Ð»Ð°Ðº Ð°Ð»Ð°
ĠÐ¿ÑĢÐ¾Ð¹ Ð´ÐµÑĤ
ĠÐ¡Ð»ÑĥÑĪ Ð°Ñİ
Ġshri ll
Ġglit tering
ĠÑħÐ² Ð¾ÑģÑĤ
ĠÑĥÐ¶Ð¸Ð½Ð° ÑĤÑĮ
ĠÐºÐ½ÑıÐ· ÐµÐ¼
ĠÑĤÑıÐ³Ð¾ ÑĤ
Sh all
Ġlux ury
ĠÐ¿Ð¾ÑģÐºÐ¾ÑĢ ÐµÐµ
ĠSomet imes
Ġpropri ety
ĠÑģÐµÑĢÐµÐ± ÑĢÑı
ĠÐ±Ð°ÑĤÑİ ÑĪÐºÐ°
ĠÐ¼Ð°Ð· ÑĥÑĢ
Ð¾ÑģÐ¿Ð¾Ð´ Ð¸
ĠÐŁÐ¾ÑĤ Ð¾Ð¼Ñĥ
Ġexer c
Ġven om
ĠÐ·Ð°Ð¼Ð¾Ð» Ðº
ĠÐľÐ¸ÑħÐ° Ð¸Ð»
Ġvelve t
Ġprepar ations
Ġsimplic ity
ĠSec retary
ĠÐ¢ÐµÐ± Ðµ
Ġaccompan ied
occup ied
Ġmaz urka
idel ity
ĠÑĦÑĢÐ°Ð½ ÑĨÑĥÐ¶ÐµÐ½
ĠÑģÐ¾Ð±ÑĭÑĤ Ð¸Ðµ
Ġlandl ord
Ġaut umn
ĠÑģÑĢÐ°Ð· Ñĥ
Ġemp has
Ġsamov ar
ĠTart ar
Ġcongr atul
ĠÐľÐµÑĢÐº Ð°Ð»
ĠÑģÐ¼ÑĭÑģ Ð»Ð°
ĠÐĵÐ»Ð°Ð· Ð°
Ġenthus i
A C
L ONSKY
N ever
V ER
g ive
g then
h ip
i que
l in
l os
m ony
m ois
n s
o ked
s he
u ced
w ife
z en
Ġ ÑĪÐµÐµ
Ð¾ ÑĤÐ¾Ñĩ
ÑĤ Ð°Ð»
Ð¸ ÑĢÑĥ
Ð½ ÐµÐ½Ð¸Ðµ
Ð» ÑĭÐµ
Ð» ÑĥÐ±
Ġt act
Ġa u
Ġa venue
Ñı Ð½ÑĥÑĤ
Ġw it
ĠÑģ Ðµ
ĠÑģ ÐµÐ½Ð¸
ĠÑģ Ð½Ð¸Ð·Ñĥ
Ġs ought
Ġs cience
Ġs cient
ĠÐ¿ ÐµÐ´
ĠÐ¿ Ð°Ð½ÑĤ
ĠÐ² Ð¸Ð»
ĠÐ² Ð¸Ð½Ð°
Ġh ol
ĠÐ¾ ÑĢÑĥÐ´
re es
ÑĤÐ¾ ÑĦ
ĠÐ¸ Ð´Ñĥ
Ð´ Ð¸ÑĤÐµ
ou ghed
Ġb le
Ġb achel
is es
is ions
er ve
ÑģÑĤ ÐµÐ¹
Ð¾Ð² ÑĥÑİ
Ð¾Ð² ÑĭÑħ
Ð¾Ð² ÑĭÐ¼Ð¸
on ing
on ic
Ġc ord
Ġf ish
Ġf illing
ĠÐ± Ð¾Ð´
ĠÐ± ÐµÐ¶Ð°ÑĤÑĮ
ĠÐ± Ð°ÑĢÐ¾Ð½ÐµÑģ
ĠÐ± Ð¸Ð½Ð¾Ðº
Ġm ass
ĠÑĩ ÐµÑģÑĤÐ¾Ð»ÑİÐ±
Ġd ed
Ġd anced
ĠÑĤ Ð°Ð»
ĠÑĤ ÑĥÑĢ
es e
Ġl est
Ġl osing
Ġl ime
or ps
Ġp ite
Ġp our
Ġp av
Ġp ausing
an while
ar ies
ĠÑĥ ÐµÐ·Ð´
ĠÑĥ ÐµÐ´ÐµÑĤ
ĠÐ· Ð°Ð¼Ð¸
Ġbe ef
Ð¾Ð´ Ñı
Ð¾Ð´ Ð¸ÑĤÑĮ
Ð¾ÑĢ Ð¾Ð¶
Ð¹ ÑĤÐ¸
Ð°Ð² ÑĪÐµÐµÑģÑı
Ġe h
Ġe ld
Ġg ra
Ġg ently
ĠÐ¿Ð¾ ÑģÐµ
Ð³ Ð°Ð»
ĠI l
ic ine
Ġre ward
Ġre vo
Ġre aching
Ġy awn
ĠÐ¶ Ð´Ñĥ
ĠÐ» Ð¾Ð¼
ĠÐ» ÐµÐ´
ĠÐĲ Ð»
Ð¸Ð² Ð¾Ðµ
Ð¸Ð² Ð°ÑİÑĤ
Ñī ÑĥÑĢ
ver se
Ġas sembled
ĠÐ¾ÑĤ ÑĢÐµÐº
al f
al t
ĠÐĴ ÐµÐ½
ĠÐĴ Ð¾ÑĢÐºÑĥ
ÑģÑĤÐ² Ð°Ñħ
ÑģÑĤÐ² ÑĥÑİÑī
ĠÐŀ ÐºÐ¾Ð½Ñĩ
Ġst ables
Ð¸Ð¼ Ð¿Ð°ÑĤ
ĠA F
Ġr ide
ĠÐ²Ñĭ Ð¶
Ð»Ñı ÑıÑģÑĮ
ĠÑı Ð´Ð¾Ð²
oo s
ÑĢÑĥ Ð³Ð¾
ĠÑħ Ð¾ÑħÐ¾ÑĤ
ĠÐ¾Ð± Ð½Ð¸Ð¼
ĠÐ¾Ð± ÑħÐ¾Ð´
ĠS chool
ĠS oro
ĠÑģÑĤ Ð¸Ñħ
ĠL ike
ĠH im
ĠÐ¿ÑĢÐ¸ Ð³Ð¾Ð²Ð°ÑĢ
ĠÐ¿ÑĢÐ¸ Ð¹ÑĤÐ¸
Ġk ill
ĠÐ¡ Ð½Ð°ÑĩÐ°Ð»Ð°
ĠÐ¿Ð¾Ð´ Ð¾Ð¹Ð´Ñı
Ġso b
Ġsh op
Ġsh ows
Ð¸Ðº Ð¾Ð²
ÐµÐ»ÑĮ Ð½Ð¸Ðº
ĠÐĶ Ð²
ĠÐĶ Ð¾Ð»Ð¶
ĠÐĶ Ð°Ð¹ÑĤÐµ
ĠÐĶ ÐµÑĤÐ¸
and ing
ĠÑĢÐ°Ð· Ð¾Ð±ÑĢ
ĠÑĢÐ°Ð· ÑĬÑıÑģ
ĠÐĺ Ð¼
Ð¼Ñĥ ÑĤ
ĠV orkuyev
ak er
Ġfr ame
pp osing
ĠHe aven
ĠB ol
Ġal ter
ac i
Ġch imed
ĠÐ¿ÐµÑĢ ÐµÑĩ
ĠW H
ĠW ERE
ĠÑģÐ¿ ÑĢÐ°Ð²
ĠÑģÐ¿ Ð°ÑģÑĤÐ¸
ĠP R
ĠP ok
ĠP ilate
Ġj e
Ġli kes
ĠÐ¾Ð´ ÐµÑĤ
ĠÐ¿Ð¾Ð» Ñı
ĠÐ¿Ð¾Ð» Ð½Ð¾
ĠÐ¿Ð¾Ð» ÐºÐ°
Ġint ol
Ġgo los
ĠÐľ Ð°ÑĪÐ°
ĠM aman
ĠM inist
Ð¾Ñĩ ÐµÐº
Ð¾Ñĩ Ð¸Ð»Ð°
ĠÑĪ Ð»Ñİ
Ġv ig
ra ph
ate ver
ĠÐ´Ð² Ð¸Ð½Ñĥ
ĠÑģÑĤÐ¾ Ð»Ð¸
ĠD id
ĠÐ¿ÑĢÐ¾ Ð¸Ð³
ort ion
ĠÐĲÐ»ÐµÐºÑģÐ°Ð½Ð´ÑĢÐ¾Ð² Ð½Ñĥ
ven ient
Ġbr anch
ĠÑģÐ¼ ÐµÐ»
ĠÑģÐ¼ Ð¾ÑĢÑī
Ð´Ðµ ÑĤÑĮ
ĠÐ´ÐµÐ» Ð°Ð»Ð¸
ĠÐ´ÐµÐ» Ð°Ð¼Ð¸
ci es
ĠÐ´ÑĢÑĥÐ³ Ð¾Ð¼Ñĥ
ĠN OT
ĠN ata
pl oy
Ð°ÐµÑĤ ÐµÑģÑĮ
ĠÐ¼ÑĥÐ¶ ÑĮÑı
ĠÑģÐ¾ ÑĥÑģ
ĠÐ½Ð¸ Ð³Ð´Ðµ
ie ux
ĠÐ§ ÐµÐ³Ð¾
ap it
Ġjust ify
Ġtr if
Ġtr am
Ġte chn
Ġte acher
um bled
Ġpro g
Ġpro cess
Ġpro ceed
Ð»Ð¸Ð² ÑĭÐµ
ÑĥÐ± ÐµÑĢ
ĠÑĦ Ð°Ð¼
ĠÑĦ ÑĥÑĢ
ĠÐ²Ð¾ ÑģÑĮ
ĠE r
ĠE gor
ĠÑħÐ¾ÑĢÐ¾ÑĪ Ð¸
Ġbl ank
ĠÑģÐ´ÐµÐ» Ð°Ð»Ð¾ÑģÑĮ
Ġspe nding
ĠÑģÐ¾Ð± Ð»ÑİÐ´
ĠÐ¼Ð¾Ð» Ð¸ÑĤ
ĠÐ¾ÑģÑĤ Ð°ÑĤÑĮÑģÑı
ÑĬ ÑİÑĤ
Ġthan ked
ĠÐ¿Ð¾Ð»Ð¾Ð¶ ÐµÐ½Ð¸Ñİ
ÐµÑĢÐ´ Ð¸Ð½
ĠÐĺÐ²Ð°Ð½Ð¾Ð² Ð½Ñĥ
ĠÐ¿Ð¾Ð½Ð¸Ð¼ Ð°Ð»Ð¸
ĠÐ¾ÑģÐ¾Ð± ÐµÐ½Ð½ÑĥÑİ
Ġgr ant
ĠÑĨ Ð°ÑĢ
Ġdes yat
ĠÐ½Ð°Ñĩ Ð°Ð»Ð¾ÑģÑĮ
Ġhusband s
Ġrem inded
ĠÐ²ÐµÑģ ÐµÐ»Ð°
Ð»ÐµÐ½ Ð¾
Ð»ÐµÐ½ Ð½ÑĭÑħ
Ð»ÐµÐ½ Ð½ÑĥÑİ
ĠÐ±ÐµÐ· Ð²Ñĭ
iz ation
Ġpr on
Ġansw ers
ĠÑĢÐµÑĪ Ð¸Ð»Ð°
Ġhead s
Ġho ly
ĠÑĢÐ°Ð·Ð³Ð¾Ð²Ð¾ÑĢ Ð¾Ð²
Ġwr ink
ĠÐ³ÑĢÐ° ÑĨÐ¸
Ġrec over
Ġpass ions
Ġrel ated
Ġapp l
ĠÑģÐ¼Ð¾ÑĤÑĢ Ð¸ÑĤ
ĠÐ²ÑģÐ¿Ð¾Ð¼ Ð¸Ð½Ð°Ð»Ð°
Ġev ents
Ġev oked
Ġsc ented
lov ed
Ġper iod
ĠÐ¿ÐµÑĢÐ² ÑĭÐµ
ĠÑĢÐ°Ð·Ð² Ð¸ÑĤÐ¸Ðµ
ha ired
Ġbel ow
ÑĢÑĭ Ð·
ĠÐ·Ð°Ðº ÑĥÑģ
ĠÐ·Ð°Ðº ÑĢÑĭÑĤ
ĠÑĥÐ²Ð¸Ð´ Ð¸ÑĪÑĮ
ĠÐ·Ð°Ð² ÑıÐ·
ĠÐ±Ð¾Ð»ÑĮÑĪ Ð¸Ñħ
ĠÐ±Ð¾Ð»ÑĮÑĪ Ð¸Ð½ÑģÑĤÐ²Ð¾
Ġdoor s
ĠÐ²Ð¼ ÐµÑĪ
ĠÐ¼Ð¾ ÐµÐ¼
ĠÐºÐ°ÑĢ ÑĮ
ĠÐºÐ°ÑĢ ÐµÑĤÐ°
ĠÐĶÐ°ÑĢ ÑĮÑİ
ĠÐ´Ð¾Ð± ÑĢÐ¾
rov al
rov sk
ĠÑģÐ¸Ð» Ðµ
ĠÑģÐ¸Ð» Ð°Ð¼Ð¸
ÑĥÐ³ Ð¸
ĠÑģÐµÑĢÐ´ ÑĨÑĥ
ĠÐ½Ð°Ñģ ÑĥÐ¿
ĠÐ½Ð°Ñģ ÑĤÐ¾ÑıÑīÐµÐµ
ĠÐ¿Ð¾Ñģ Ð¾Ð²ÐµÑĤ
ĠÐ¾ÑģÑĤÐ°Ð½Ð¾Ð² Ð¸Ð²ÑĪÐ¸ÑģÑĮ
Ð¸ÑĩÐµÑģÐº Ð¾Ð³Ð¾
Ð¸ÑĩÐµÑģÐº Ð¸Ð¼
ĠÐ¼Ð¾Ð»Ð¾Ð´ Ð¾Ð³Ð¾
ĠÑĩÐµÑĢ ÑĤ
ĠÐ³ÑĢÐ°ÑĦ Ð°
Ġexpect ation
Ġdec or
ĠÐ»ÑĥÑĩÑĪÐµ Ðµ
Ġfam ous
ÑĤÑĥ Ð´Ð°
Ġinv ent
Ð°ÑİÑī ÐµÐ¹
Ð°ÑİÑī ÑĥÑİ
Ġcare ful
Ġsl ip
ÑıÑī ÐµÐ³Ð¾
ĠÐ·Ð°Ð´ ÑĢÐ¾Ð¶
ĠÐ¸Ð½ÑĤÐµÑĢÐµÑģ Ñĭ
ĠÐ¸Ð½ÑĤÐµÑĢÐµÑģ Ð¾Ð²Ð°Ð»ÑģÑı
ĠÑĥÑĤ ÑĢÐµÐ½
ĠÑħÐ¾Ð·ÑıÐ¹ ÐºÐ¾Ð¹
Ġche m
Ġche ese
ĠÐ¾ÑģÑĤÐ°Ð² Ð°Ð»Ð¾ÑģÑĮ
Ġaff ord
ĠÐ¿ÐµÑĢÐµÐ´ Ð°ÑĤÑĮ
ĠÐ¼Ð°ÑĤ ÐµÑĢ
ĠÐ»ÐµÐ³ ÐºÐ¾Ð¼
ĠÐ¿ÑĢÐ¾ÑĤÐ¸Ð² Ð½Ð¾
ĠÐ·Ð°Ð¼ÐµÑĤ Ð½Ð¾
ÐµÐ·Ð¶ Ð°Ñı
ÐµÐ·Ð¶ Ð°Ð¹
ĠÐ¿ÑĢÐ¸Ð· Ð½Ð°ÑĤÑĮ
Ġaw ake
ĠÑģÐ»ÑĥÑĩ Ð°Ñİ
ĠÑģÐºÐ°Ð¶ ÐµÑĪÑĮ
ĠÐ¿ÑĢÐ¸Ð´ ÐµÑĤÑģÑı
ĠÑĥÑģ Ð¾Ð²ÐµÑĢÑĪ
ĠÐ·Ð½Ð°Ñĩ Ð¸ÑĤÐµÐ»ÑĮÐ½ÑĭÐ¼
Ġbelie f
ĠÑĥÐº Ð¾ÑĢÐ¸Ð·
ĠÑħÐ¾Ð´ Ð¸Ð»Ð°
Ġinf ormed
Ġinf idelity
ĠÐ½Ð°ÑħÐ¾Ð´ Ð¸ÑĤÑģÑı
ĠÐ·ÐµÐ¼ Ð»ÐµÐ´
ĠÐ¿Ð¾Ð´Ð½Ñı Ð»Ð¸ÑģÑĮ
unt ing
ĠÐ±ÐµÐ» Ð¾Ð¹
ĠÐ²ÑĭÐ¿ Ð¸Ñģ
ĠÐ²ÑĭÐ¿ ÑĢÑıÐ¼
ĠÐ³Ð»Ð°Ð² Ð½ÑĭÐ¹
gg ing
ĠÑģÑĩÐ°ÑģÑĤÐ»Ð¸Ð² Ñĭ
ĠÐ´ÐµÑĢÐ¶ Ð°ÑĤÑĮ
ĠÐ´ÐµÑĢÐ¶ Ð°Ð»Ð°
ĠÐ´ÐµÑĢÐ¶ Ð°ÑģÑĮ
ĠÐ¾Ð±ÑĬÑıÑģ Ð½ÑıÑĤÑĮ
ĠÐľÐ¸ÑħÐ°Ð¹Ð»Ð¾Ð² Ð°
ĠÐ½Ð°ÑĢÐ¾Ð´ Ðµ
ĠÐ¼Ð¸Ð» Ð¾Ðµ
ĠÑħÐ¾Ð»Ð¾Ð´ Ð½ÑĭÐ¼
ĠÑħÐ¾Ð»Ð¾Ð´ Ð½ÑĭÐ¹
ĠÐ²Ð¾Ð´ Ðµ
lect ed
ĠÐĽÐ¸Ð´ Ð¸Ñİ
ĠÐ¼Ð°Ð»ÐµÐ½ÑĮ ÐºÐ¸Ðµ
ĠÐļÐ¾Ð½ÑģÑĤÐ°Ð½ÑĤ Ð¸Ð½Ñĥ
ĠÐµÐ´ ÑĥÑĤ
ĠÐµÐ´ ÐµÑĤÐµ
ĠÑĢÐ¾Ð´ Ð½ÑĭÑħ
ĠFrench man
cul ar
Ġwind ows
Ġopp ressed
Ġinc on
ĠÐ¸Ð·Ð± ÑĢÐ°Ð½
ĠÐĴÐµÑģÐ»Ð¾Ð² ÑģÐºÐ¾Ð¼Ñĥ
Ġjo in
Ġprom pt
ĠÐ´Ð°Ð² Ð°ÑĤÑĮ
ĠÐ´Ð°Ð² Ð°Ñı
ĠÐ¾Ð±Ñī ÐµÐ¼Ñĥ
Ġadv ise
Ġsw all
Ġsw ift
Ġadm ired
ĠÐ³Ð¾ÑĤÐ¾Ð² Ñĭ
ĠÐ·Ð°Ð¼ÐµÑĩ Ð°Ð½Ð¸Ñı
ĠÐ½ÐµÐ¶ Ð½Ð¾ÑģÑĤÑĮÑİ
ĠÐ¨ Ð²ÐµÐ¹ÑĨÐ°ÑĢ
sk in
ĠÐºÐ¾Ñģ Ñĥ
ĠÐºÐ¾Ñģ Ñĭ
ific ation
ĠÐ½ÐµÐ½ ÑĥÐ¶
ĠÐ¿ÐµÑĢÐµÐ¼ ÐµÐ½Ð°
ĠÐ³Ð¾ÑģÐ¿ Ð¾Ð´Ð°
ĠÐ¿ÑĢÐ¸Ñĩ ÐµÑģ
ĠÐ·Ð°Ð½ÑıÑĤ Ð°
ĠÑī ÐµÐºÐ¸
Ġuse ful
ĠÑĢÑĥÑģ ÑģÐºÐ¸Ð¹
ĠÐ²Ð¾ÑģÐ¿Ð¾Ð¼Ð¸Ð½Ð° Ð½Ð¸Ð¹
ĠÐ²Ð¾ÑģÐ¿Ð¾Ð¼Ð¸Ð½Ð° Ð½Ð¸Ð¸
ĠÐ¿ÑĢÐµÐ´ÑģÑĤÐ°Ð²Ð»Ñı Ð»Ð¸ÑģÑĮ
Ġfigure s
ĠÐ±Ð¾ÑĢ Ð¾Ð»
Ġpret ending
ĠÑģÑĥÐ´ Ð¸ÑĤÑĮ
ĠÑģÑĢÐµÐ´ ÑģÑĤÐ²Ð°
Ġpleasant ly
ĠÐµÐ·Ð´ Ð¸Ð»Ð¸
Ġunc le
ĠÐ¾Ð¿ÑĢÐµÐ´ÐµÐ» ÐµÐ½Ð½Ð¾
ĠÑĤÑĢÐµÐ± Ð¾Ð²Ð°Ð»
ĠÐºÐ½Ð¸Ð³ Ð°
ĠÐ»ÐµÑģ Ñĥ
Ġeducation al
ĠÐ²ÑĭÐ¹ Ð´Ñı
ĠÐ¿Ð¾Ð´ÑħÐ¾Ð´ Ð¸Ð»
ĠÐ¼ÐµÑģÑĤ Ñĥ
ĠÑģÐ²Ð¾Ð±Ð¾Ð´ Ñĥ
ĠÐ¿ÑĢÐµÐ´Ð»Ð¾Ð¶ Ð¸Ð»
ĠÐ¼Ð¾Ð»Ñĩ Ð°Ð½Ð¸Ñı
Ġsleep ing
Ġbur nt
Ġtra ce
Ġsense less
ĠÐ³ÑĥÐ±ÐµÑĢ Ð½Ð°
ĠÐ²ÐµÑī ÐµÐ¹
ĠÐ´Ð»Ð¸Ð½ Ð½ÑĭÐ¼Ð¸
ĠÐ¿ÑĢÐ¾Ñī ÐµÐ½Ð¸Ñı
ĠÑĥÐ²ÐµÑĢ ÐµÐ½Ð°
Ġguil t
ÐĲ Ð½
Ġdark ness
ĠÐ¿ÑĢÐ¸ÑħÐ¾Ð´ Ð¸Ð»Ð¾
Ġtrou bled
ĠÐ³Ð¾ÑĢÐ´ Ð¾ÑģÑĤÑĮ
ĠÐ±Ð»Ð°Ð³Ð¾Ð´Ð°ÑĢ Ñİ
ĠÐ¿ÐµÑĢÐµÐ³ Ð»Ñı
Ġem ploy
ĠÐ´ÐµÐ²Ð¾Ñĩ ÐºÐµ
ĠÐ¼ÑĥÐ¶Ñĩ Ð¸Ð½Ð°
ĠÐºÐ°ÑĢÑĤ Ð¸Ð½Ðµ
Ġwonder fully
Ġsing ing
Ġhundred s
ĠÐºÐ¾ÑĢÐ¾ÑĤ ÐºÐ¾
ÐĴ ÑģÐµ
Ð¸ÑĤÐ¾ Ð½Ñĭ
ĠÐ¶ÐµÑģÑĤ Ð¾Ð¼
ĠÐļÐ°ÑĢÐµÐ½ Ð¸Ð½Ñĥ
ĠÑĤÑĢÐ°Ð² Ñĥ
ĠÑģÐ»Ð°Ð± Ð¾ÑģÑĤÑĮ
ĠÐ¿ÑĢÐ¸ÑģÑĥÑĤ ÑģÑĤÐ²Ð¸Ñı
Ġcou rage
ĠÐ´Ð¾ÑģÑĤ Ð°ÑĤÑĮ
ĠÐ¿Ð¾Ð¼Ð¾Ñī ÑĮ
Ġexplain ing
Ġmus cles
Ġla wn
ĠGr and
ĠÑģÐ¸Ñı Ñı
Ġstren gthen
ĠÐ¿Ð¾Ð»Ð¾Ð² Ð¸Ð½Ñĭ
Ġdiscuss ed
Ðŀ Ð½Ð°
Ġlit er
Ġele ment
Ġbar rier
ĠÑĩÑĥÐ¶ Ð¾Ð¹
Ġstrugg ling
ĠÑģÐ¾Ð·Ð½Ð° Ð½Ð¸ÐµÐ¼
ĠÐ¿ÑĥÑĤ ÐµÑĪÐµ
Ġhast e
ĠÐ¿Ð¾ÐºÐ°Ð· Ð°Ð»ÑģÑı
ĠÑģÐ¾Ñĩ Ð¸Ð½
Ġphys ically
ĠÐ¿Ð¾ÑģÑĤÐ°Ð² Ð¸Ð»
ĠÐļÐ¾ÑĢ Ð½ÐµÐ¹
Ġjud ged
ĠÐ¾Ð¿ÑĥÑģÑĤ Ð¸Ð²
ĠÐ¾ÑģÐ² ÐµÐ¶
Ġattract ed
ĠÑģÑĤÑĢÐ°Ñħ Ð°
ĠÑĩÐ»ÐµÐ½ Ñĭ
ĠÑģÐµÐº ÑĥÐ½Ð´Ñĥ
Ġpet ition
ĠÐ¾Ð±Ð´ÑĥÐ¼ Ð°ÑĤÑĮ
Ġrepro ached
Ġcand les
Ġunif orms
Ġcat ching
Ġhid ing
ĠÐ½Ð°ÑĩÐ¸Ð½Ð° ÐµÑĤ
ĠÐ¾Ð¶Ð¸Ð´Ð° Ð½Ð¸Ñı
ĠÐ²ÑĭÐ³ Ð¾Ð´Ñĭ
ĠMe anwhile
ĠÐµÑģÑĤÐµ ÑģÑĤÐ²ÐµÐ½Ð½Ð¾
ĠÑģÑĤÐ°ÑĤÑĮ Ð¸
ĠÑģÑĤÐ°ÑĤÑĮ Ñİ
Ġscar let
Ġinde ed
ĠÐ±ÑĥÐ´ÑĥÑī ÐµÐ¹
ĠÐ²Ð½Ð¸Ð· Ñĥ
ĠÐ±Ð¾Ðº Ð¾Ð¼
Ġstret ching
Ġagricult ural
Ð¸Ð²ÑĪÐ°Ñı ÑģÑı
ĠÐ¸Ð·Ð±ÐµÐ³ Ð°Ñı
ĠÐ¸ÑģÑĤÐ¾ÑĢ Ð¸Ñİ
ĠÑģÑĥÐ¼ Ð°Ñģ
ĠÑĩÐµÑģÑĤ Ð½ÑĭÐ¹
ĠÐ½Ð°ÑģÑĤÐ¾ÑıÑī Ð°Ñı
ĠÑģÑģÐ¾ÑĢ Ð°
ĠÑģÑģÐ¾ÑĢ Ñĭ
ĠÐ²Ð»Ð¸Ñı Ð½Ð¸ÐµÐ¼
ĠÐºÐ°Ð¿ Ð¸ÑĤ
ĠÑĤÐµÐ¿ ÐµÑĢÐµÑĪ
Ġstern ly
ĠÑģÐ¿ÑĢÐ°Ð²ÐµÐ´Ð»Ð¸Ð² Ð¾
ĠÐ¿ÑĢÐ¾ÑĪÐµÐ´ ÑĪÐµÐµ
ĠÐ³ÑĢÑıÐ· Ð¸
ĠÑģÐ²Ð¸Ð´Ð° Ð½Ð¸Ðµ
ĠÐ¿Ð¾Ð¼Ð¾Ð»Ñĩ Ð°Ð»
ĠÑĦÐ¸Ð³Ñĥ ÑĢÐ°
ÑĢÐ¾Ð¿ ÐµÐ¹
Ġfro ck
Ġnoble man
cri pt
kin a
ĠÐ½ÐµÑĩ Ð¸ÑģÑĤÐ¾
ĠÐ¿ÑĢÐ¸Ð¼Ð¸ ÑĢÐµÐ½Ð¸Ñı
Ġannoun ce
ÑĥÐ»Ñı ÑĢ
ĠÐ°Ðº ÐºÑĥ
ĠÐ¿Ð¾ÐºÐ°Ñĩ Ð¸Ð²Ð°Ñı
Ġconfir m
Ġobst in
ĠÐ²Ð¸Ð· Ð³
Ġmod est
Ġrejo ined
ĠÐ¾ÑĤÐ½Ð¾Ñģ Ð¸ÑĤÐµÐ»ÑĮÐ½Ð¾
ĠÐ½ÐµÐ¿ÑĢÐ¸Ð»Ð¸Ñĩ Ð½Ð¾
Ġphilosop h
Ġgloom y
ÑĥÐ¹ ÑĤÐµ
ĠÑĩÑĥÐ´ ÐµÑģ
ĠÐŁÐ¾Ð»Ð¾Ð¶ ÐµÐ½Ð¸Ðµ
ĠÐ½Ð°ÑĩÐ°Ð»ÑĮ Ð½Ð¸Ðº
Ġmir ac
Ġmotion less
Ġappreci ate
Ġswath s
ĠÐ±ÑĢÐ°ÑĤÑĮ ÐµÐ²
ĠÐĿÐ°Ð¿ ÑĢÐ¾ÑĤÐ¸Ð²
ĠÐ²ÑĭÐº Ð°Ð·ÑĭÐ²
ĠÐ½Ð°ÑģÑĤÑĢÐ¾ ÐµÐ½Ð¸Ðµ
ĠÐ¾ÑĤÑģ ÑĥÑĤ
Ġrefer ring
ĠÑģÐ¾ÑĤ Ð½Ð¸
Ġmag n
Ġpra ise
ĠÐŁÐ¾Ð¹Ð´ÐµÐ¼ ÑĤÐµ
Ġmyst er
Ġbetr ayed
ĠÐ¿ÑĢÐ¸Ð½Ð°Ð´Ð» ÐµÐ¶
Ġhes itation
ĠÑĢÐ¾Ð¼ Ð°Ð½
ĠÐ¿Ð»Ð°Ðº Ð°ÑĤÑĮ
ĠÐ´Ð¾Ð²ÐµÑĢ Ð¸Ðµ
ĠÐ¿Ð¾Ð²Ð¾ÑĢÐ°Ñĩ Ð¸Ð²Ð°Ñı
Ġburn ing
ĠÑħÐ»Ð¾Ð¿ Ð¾ÑĤ
Ġhist ory
ĠÐ¿ÑĢÐµÐºÑĢÐ°ÑĤ Ð¸ÑĤÑĮ
Ġawait ing
ĠÐĵÐ»Ð°Ð´Ð¸Ð° ÑĤÐ¾ÑĢ
ĠÐ´Ð²ÐµÐ½ Ð°Ð´ÑĨÐ°ÑĤÑĮ
Ġgras ped
Ġperplex ity
Ġadvant age
ĠÐ·Ð½Ð°Ð¼ÐµÐ½Ð¸ÑĤ ÑĭÐ¹
Ġentreat y
ĠÐ¿ÑĢÐµÐ¿ÑıÑĤ ÑģÑĤÐ²Ð¸Ñı
ĠÐľÐ°ÑħÐ¾ÑĤ Ð¸Ð½Ð°
ĠÑģÐ¾Ð¿ ÐµÑĢ
ĠÐ¿ÑĢÐ¾Ð» ÐµÑĤ
ĠÐ½Ð°ÑĢÑı Ð´
ĠÐĵÐ»Ð°Ð² Ð½Ð¾Ðµ
ĠÐļÐ¾ÑĢÑģÑĥ Ð½ÑģÐºÐ¸Ð¹
Ġtal ent
ĠÐºÐ°Ð» Ð¾ÑĪ
ĠÐĴÐ· Ð³Ð»Ñı
ĠÐĿÐµÐ¿ ÑĢÐµÐ¼ÐµÐ½Ð½Ð¾
Ġintent ions
Ġunre ason
ĠÐ¾Ð¿Ð¾Ð¼ Ð½Ð¸ÑĤÑĮÑģÑı
ĠÐ½ÐµÑģÑĩÐ°ÑģÑĤÑĮ Ðµ
ĠÐ¾ÑģÐ» Ð°Ð±
reg ard
Ġgest ure
Ð¸Ð´ÐµÑģÑı ÑĤÐ¸
ĠÐ¿Ð¾Ð¼Ð¸Ð» ÑĥÐ¹
Ġenerget ic
ĠÐķÐ²ÑĢÐ¾Ð¿ Ðµ
ĠÐ¿ÐµÑĪ ÐºÐ¾Ð¼
Ġcough ing
ĠÑģÐ¾Ð±Ñĭ ÑĤÐ¸Ñı
ĠÑģÐ»ÑĥÑĩÐ°Ñı Ñħ
Wh om
Ġsway ing
ĠÐ¿ÑĢÐ¸Ð½ÑĨ Ð¸Ð¿
Ġty pe
Ġcere mony
Ġcous in
Ġnerv ous
ĠÐļÐ°Ð¿ Ð¸ÑĤÐ¾Ð½Ñĭ
Ġshudd ered
Ġnecess ity
Ġdefect s
Ġhumm ocks
ĠÐ¿ÑĢÐµÐ½ÐµÐ±ÑĢ ÐµÐ³
Ð´ÑĪ Ð½ÐµÐ¿
Ð¸Ð»ÑĮÑı ÑĢ
ĠÐ·ÑıÑĤ Ñı
ĠÐĴÐ¸Ð½Ð¾Ð² Ð°ÑĤ
ĠÐ¸Ð·Ð»Ð°Ð³ Ð°ÑĤÑĮ
ĠMity a
Ġprovin cial
ĠÑģÐ½Ð¸ Ñģ
Ġcrit ic
Ġremed y
ĠTHA T
ĠÐĽÑĥÑĩ ÑĪÐµ
ĠÐ¡Ð¾ÑĢ Ð¾Ðº
ĠOB LONSKY
ĠDep artment
Ġvenom ous
mois elle
ĠÐ¿Ð°Ð½ÑĤ Ð°Ð»Ð¾
Ġpav il
Ġeld est
Ġrevo ir
ĠÐŀÐºÐ¾Ð½Ñĩ Ð¸Ð²
ĠSoro kina
ĠPok rovsk
Ġgolos hes
ĠÑĪÐ»Ñİ Ð¿
ĠNata ly
ÑĬÑİÑĤ Ð°Ð½ÑĤ
ĠÑĥÑģÐ¾Ð²ÐµÑĢÑĪ ÐµÐ½
: --
B e
R I
T H
T UR
c le
c ut
c ont
g own
i pt
i osity
p al
p ast
p ber
w ho
w ork
y mn
z ed
Ð £
Ġ Ãł
Ðµ ÐµÑĪÑĮ
Ðµ ÑģÑĤÐ²Ð¾
ÑĤ ÑĭÐ¹
ÑĤ Ð°ÑĪ
Ð¸ ÑģÐºÐ¾Ð¹
Ñģ Ð¾Ðº
Ñģ Ð¸Ñı
Ð» Ð¾Ð³Ð¾
Ð» ÐµÐ¿
Ð» Ð°Ð½Ð´
Ð» ÑĥÐ¿
Ð» ÐµÐ½Ð½Ð¾Ðµ
ÑĢ Ð¸Ð²
ÑĢ ÑĭÐ¼
Ġt ant
Ġt iny
Ġt utor
Ñĥ ÑĢÐ°
in ister
Ñı ÐµÑĤ
ÑĮ ÐµÑĤ
Ñĭ ÑģÐ»Ð¸
Ġw id
Ġw alt
ĠÑģ Ñĥ
ĠÑģ Ð°Ð»
Ġs ke
Ġs ang
Ġs ank
ĠÐ¿ ÐµÐ»
ĠÐ² ÑĤÐ¾
ĠÐ² Ð¸Ñģ
ĠÐ² Ð¾Ð½
ĠÐ² Ð²ÐµÑĢÑħ
ĠÐ² Ð»Ð°Ð¶
Ġh ither
re w
Ð² ÐµÐ¶
ĠÐ¸ Ð´Ðµ
Ð´ ÑĢÐ°Ð²
it im
it ating
Ġb ust
Ġb ond
at ively
is er
ĠÐº Ð°Ð»Ð°
ĠÐº ÑĥÑĪ
ĠÐº Ð»Ð°Ð´
Ġto oth
ÑĪ ÐµÑĢ
ÐµÐ½ Ð½Ñĭ
Ġc ra
Ġc av
Ġf ired
Ġf aut
Ġf ool
ĠÐ± Ð°Ñģ
ĠÐ± Ð¾Ñģ
Ġm owers
ĠÐ´ ÐµÑĢ
ĠÐ´ Ð¾Ð¶
ĠÐ´ Ð°Ð¹ÑĤÐµ
Ġth us
Ġd are
ĠÑĤ ÐµÑģ
Ð½Ð° ÑģÑĤ
ĠÐ½Ðµ ÑĥÐ´Ð°
Ġl ang
or ies
Ġp ace
Ġp ained
Ġp oured
Ð°Ðº Ð°
Ð°Ðº ÐµÐ¹
Ð± Ð¾Ð¼
Ð¾Ð» ÑİÐ±
ĠÑĥ ÑĪÐ¸
ĠÑĥ ÑģÑĤÑĥÐ¿
ĠÐ· ÐµÐ²
ÐµÑĤ ÐµÐ»ÑĮ
ĠÑĢ Ðµ
ĠÑĢ Ð°
ĠÑĢ Ñı
ĠÑĢ ÐµÐ¿
ĠÑĢ ÐµÐºÐ¸
Ġbe es
ut s
ut in
Ð½Ð¸ ÑĪ
Ð¾Ð´ Ð¾Ð»
Ð· ÑĥÐ±
Ð¾ÑĢ Ñĭ
Ð¾ÑĢ ÐµÑĩ
ÐµÐ¼ ÑıÐ½
ĠÐ½Ð° Ñĥ
ĠÐ½Ð° ÑĢÑĥÐ¶
ĠÐ½Ð° ÑĤÑıÐ½ÑĥÑĤ
Ġg ymn
Ġwas hing
Ġwas hed
ĠÐ¿Ð¾ ÑģÐº
ĠÐ¿Ð¾ ÑĤÐ¾Ð»
ĠÐ¿Ð¾ ÑĪÐ»Ð¾
ĠÐ¿Ð¾ ÐµÑħÐ°Ð»Ð¸
Ð³ Ð°ÑĢ
ÑģÐº Ð¸Ð¼Ð¸
Ð°Ð½ ÐµÑĤ
Ð°Ð½ Ð½Ð¾Ñİ
se au
ld om
Ġre sem
ĠÐ¶ Ð´ÐµÑĤ
st s
Ġsa f
ÐµÐ² Ð½Ð°
ÐµÐ² ÑĪÐ¸ÑģÑĮ
Ð°Ð¼ Ñĭ
ĠÐ» Ð¸Ð²
ĠÐ» ÐµÐ½ÑĤ
ĠÐ³ Ð½
ĠÐĲ ÑĢ
Ð¸Ð² Ð°Ð»Ð¾ÑģÑĮ
ĠÑģÐº Ð¾ÑĪ
Ġshe ll
Ġshe ep
Ð°Ñı Ð²
ÑĨ ÐµÐ»
ĠÐ¾ÑĤ Ð¼
ĠÐ¾ÑĤ Ð¾Ð³
ĠÐ¾ÑĤ ÑĤÐ¾Ð»Ðº
ĠÐ¾ÑĤ ÑĤÑĥÐ´Ð°
Ð¾Ð± ÐµÐ´
ÑĢÐ¾ Ñĩ
ĠÐĴ ÑģÐ¿
Ġfor b
Ġfor k
ĠÐŀ Ñģ
Ġst one
Ġst ars
ad ri
ad ually
Ġr ough
Ġr ival
ĠÐ²Ñĭ ÑģÐ»
ĠÐºÐ¾ Ðµ
Ð»Ð¸ Ð¿
Ð»Ñı Ð¼Ð¸
Ð»Ñı ÑĤÑĮÑģÑı
if ted
Ð¾Ðº ÑĥÑĢ
ĠÐ¾Ð± ÐµÑĢ
ĠÐ¾Ð± ÑĢÐ°Ð´
ĠÐ¾Ð± ÑĢÑĥÑĩ
ĠÐļ ÑĢÐ¸ÑĨ
ĠS c
ĠH I
ĠH igh
ĠÐ¿ÑĢÐ¸ ÑĪÐ»Ð¸
ĠÐ¿ÑĢÐ¸ ÑĪÐµÐ´
Ġk ope
Ġme adows
ill s
ĠK ol
ĠK ritsky
ĠK rak
ÐµÐ· Ñĥ
ĠÐ¿Ð¾Ð´ Ðº
ĠÐ¿Ð¾Ð´ Ð²
ĠÐ¿Ð¾Ð´ Ð°Ð»Ð°
ĠÐ¿Ð¾Ð´ Ð¼Ð¸
Ð¸Ðº Ð°Ð¼Ð¸
ÐµÑģ Ð¿
ĠÐĶ Ð²Ð°
ĠLevin s
Ð½Ñı Ð¼Ð¸
ĠV en
ĠÐŁ ÐµÑĢÐµÐ´
Ġex pend
ÑĭÐ² Ð°ÑĤÑĮÑģÑı
ÑĭÐ² Ð°Ð»Ð°ÑģÑĮ
ĠB ry
ĠW as
ĠP hil
ĠO ff
ĠÐ¢ Ð¾Ð¶Ðµ
Ġqu adri
Ġli ber
ĠÐ¾Ð´ Ð½Ð¸Ñħ
ĠÐ¾Ð´ ÐµÐ»ÑģÑı
ĠÐ¿Ð¾Ð» Ð¾ÑĤ
ĠC ord
ĠC orps
Ġwor ry
Ġv ous
ge l
ra p
Ġor gan
ress ion
ĠÑģÐ°Ð¼ Ð¾Ñİ
ĠÐ·Ð½Ð° ÑĤ
Ġle af
ĠÐ²Ð· ÑıÐ»Ð°ÑģÑĮ
ÑĥÑĪ ÐºÐ¸
Ġun h
Ġnow adays
ĠÐ¿ÑĢÐ¾ ÑıÐ²
Ð»Ð¾ Ñī
Ġbr ain
Ġbr anc
Ð¸ÑĤÐµÐ»ÑĮ Ð½ÐµÐµ
Ġse a
ive red
ile t
ĠÐ¡ÑĤ Ð°Ð»Ð¾
ĠÐ¾Ð¿ Ð¾Ð·
ĠÐ¾Ð¿ Ð¾Ð¼Ð½
ÑĢÐ¸ Ð³
Ð°Ð»ÑĮ Ð½ÑĭÐ¼
ĠÐ¾Ñģ Ð²ÐµÑĤ
ĠÑĥÐ»ÑĭÐ± ÐºÐ¸
ĠÑĥÐ»ÑĭÐ± ÐºÐµ
ĠÑĥÐ»ÑĭÐ± Ð½ÑĥÑĤÑĮÑģÑı
ĠÐ¿Ð¾Ðº Ð°Ð·ÑĭÐ²Ð°Ñı
ĠÐ¿Ð¾Ðº Ð°Ð·Ð°Ð»
ĠÐ»Ð¸ÑĨ Ð°Ð¼Ð¸
un ning
dd y
ĠÑģÐ¾ Ð¾ÑĤÐ²ÐµÑĤ
red e
Ġpl ate
Ġpl enty
Ġdis regard
Ġoff ensive
Ð°Ð²ÑĪ Ð¸Ð¼Ð¸ÑģÑı
ag ger
Ġlike ly
Ġsome what
Ġcons ol
Ġcons isted
Ġtr ot
Ġtr ust
Ġbefore hand
um b
um ps
ĠÑĦ Ð¾ÑĢ
Ġstr ing
ĠÑĢÐ°Ð´ Ñĭ
ĠÐĳ ÑĢÑı
ĠÐĳ ÑĭÐ»
Ġcont ent
Ġcl as
Ġcl osing
Ð¸ÑĢ Ð°Ð»Ð°
Ð¸ÑĢ Ð°Ð»Ð¸
ÐµÑı Ð»
ĠÑģÐ´ÐµÐ» Ð°Ð½
Ġspe ct
ĠÐ¿Ð» ÐµÐ¼ÑıÐ½
ĠÐ±Ð¾Ð» Ð¾ÑĤ
ĠÐ¼Ð¾Ð» Ð¾ÑĤ
ĠÐ¼Ð¾Ð» Ð¾ÐºÐ°
ĠÑĥÐ¼ Ð¾Ð¼
ĠÑĥÐ¼ ÐµÐ»Ð°
ĠÑĥÐ¼ Ð½Ð¾Ð³Ð¾
ĠÐ½Ð°Ð¿ Ð¾Ð¼Ð½
ĠÐ¿Ð¾Ð¼ Ð½Ð¸ÑĤÐµ
ÑĢÑı Ñħ
ĠÐ¸ÑģÐ¿ Ð¾Ð²
ĠÑģÐ»Ð¾Ð² Ð°Ð¼
Ġgr adually
ĠÑĨ ÑĭÐ¿
ĠÐł Ð°Ñģ
ĠÐł Ð°Ð´Ð¸
Ð¸Ð²ÑĪ Ð¸Ð¼Ð¸ÑģÑı
ĠÐ½Ð¾Ð² Ð¾Ð¼
Ġpart s
Ġrem oved
Ġrem orse
ire ctor
Ð°Ñĩ Ð¸Ð²Ð°ÑıÑģÑĮ
ĠÑĢÐ°Ð·Ð³Ð¾Ð²Ð¾ÑĢ Ð¾Ð¼
Ġexpress ions
ĠÐ³Ð¾Ð» Ð¾Ð´
Ġfl ut
Ġfl ow
Ġfl our
Ġfl ies
Ġfl ushing
Ġapp ointment
ĠÐ·Ð°Ð¿ Ð¸ÑģÐºÐ¾Ð¹
ĠÐĺÐ²Ð°Ð½Ð¾Ð²Ð¸Ñĩ ÐµÐ¼
ĠÐĹ Ð°Ð¼ÐµÑĤ
Ġadd ing
Ġadd ress
Ġres pond
ĠÐ¸Ð½ ÑģÑĤ
Ġper ce
ĠÐ´ÐµÑĤ ÑģÑĤÐ²Ð°
ĠÐ»ÑĥÑĩ ÑĪÐµÐ³Ð¾
ĠÐ½ÐµÐ´ ÐµÐ»Ð¸
ÑĥÑģÑĤ Ð¸Ð²
ĠÐ´ÐµÐ½ÑĮ Ð³
ĠÐºÑĢÐ°Ñģ Ð½ÑĭÐ¹
ĠÐ¶ÐµÐ½Ñī Ð¸Ð½Ðµ
ĠÐ·Ð°Ðº Ð¾Ð½Ð°
Ġrepl aced
ĠÐ±Ð¾Ð»ÑĮÑĪ Ð¾Ð¼
ĠÐ±Ð¾Ð»ÑĮÑĪ Ð°Ñı
Ġhelp ing
ĠÐºÐ¾ÑĢ Ð¿
ĠÐ´Ð¾Ð± ÑĢÐ°
ÑģÑĤÐ²ÐµÐ½ Ð½ÑĥÑİ
ÑĩÐ¸Ðº Ð°
Ġquestion ed
ĠÐ¾ÑģÑĤÐ°Ð½Ð¾Ð² Ð¸ÑĤÑĮÑģÑı
Ġacc ustomed
ĠÑĩÐµÑĢ Ð½ÑĭÑħ
ĠÑĩÐµÑĢ ÑĤÑĭ
Ġappe aring
ĠÐºÐ¾Ð» ÐµÐ½
ĠÐºÐ¾Ð» ÐµÐ½Ð¸
ĠÑĥÐ¿ Ð°Ð»
Ġob ey
ĠÐ·Ð² Ð°Ð»Ð°
Ġjoy s
ĠÐ¿Ð¾Ð¶ Ð°Ð»Ð°
ĠÐ´ÑĥÑĪ Ð°
ĠÐ´ÑĥÑĪ ÐµÐ½ÑĮÐºÐ°
ĠSo on
Ð°ÑİÑī Ð¸ÐµÑģÑı
ÑĢÑĭÐ² Ð°Ñı
ĠÑģÐ¿Ð¾ÐºÐ¾Ð¹ Ð½ÑĭÐ¹
ĠÐ¸Ð½ÑĤÐµÑĢÐµÑģ Ð°
ĠÐ»ÑİÐ±Ð¾Ð² Ð°Ð»ÑģÑı
ĠÑĤÑĥ Ð³Ð¾
ĠÑħÐ¾Ð·ÑıÐ¹ ÑģÑĤÐ²Ñĥ
ĠÐ½Ð°Ð¼ ÐµÑĢÐµÐ²
ĠÐ¾ÑģÑĤÐ°Ð² ÑĪÐ¸ÑģÑĮ
ĠÑĤÐµ Ð°ÑĤÑĢ
ĠÐ¾ÑĩÐµÐ² Ð¸Ð´
ĠÐ¿ÐµÑĢÐµÐ´ ÑĥÐ¼
ĠÐ¿ÑĢÐ¾ÑĤÐ¸Ð² Ð¾ÑĢÐµÑĩ
ĠÐ·Ð°Ð¼ÐµÑĤ Ð¸ÑĤÑĮ
ĠÐ¿ÑĢÐµÐº ÑĢÐ°Ñī
ĠÐ±ÑĭÐ² Ð°Ð»
ĠÐ±ÑĭÐ² Ð°ÑİÑĤ
ĠÑĥÑģÐ» ÑĭÑĪ
ĠÐŀÑĤ ÑĤÐ¾Ð³Ð¾
ĠÐĴÐ°ÑĢÐµÐ½ÑĮ ÐºÐ¾Ð¹
ĠÐºÐ°Ð¶Ð´ ÑĥÑİ
ĠÐ¿Ð¾Ð¹ Ð´ÐµÑĤ
Ġdoctor s
ĠÑĢÐ°Ð±Ð¾ÑĤ Ð°
ĠÐ·Ð½Ð°ÐºÐ¾Ð¼ ÑĭÐ¼Ð¸
Ġvis ited
ĠÐ·Ð½Ð°Ñĩ ÐµÐ½Ð¸Ð¸
Ġappro ve
Ġappro ved
ĠÑĥÐº Ð°Ð·Ð°Ð»
ĠÑħÐ¾Ð´ Ñĥ
Ġhur rying
Ġinf ant
ĠÐ½Ð°ÑħÐ¾Ð´ Ð¸Ð»Ð°
Ġpleasure s
ĠÐ¿ÑĢÐ¾ÑģÑĤ Ð¸Ð»
ĠÐ¿ÑĢÐ¾ÑģÑĤ Ð¸Ð»Ð°
ĠÐŁÑĢ Ð¾Ð¹Ð´Ñı
ĠÐ¿Ð¾Ð´Ð½Ñı ÑĤÑĮ
ĠÐ¥ Ð¾ÑĤÑĮ
ĠÐ±ÐµÐ» Ð¾Ð¼
ĠÑģÑĩÐ¸ÑĤ Ð°Ð»Ð°
ĠÐ¿ÑĢÐ¾Ð¸Ð· Ð½ÐµÑģ
ĠÐ²ÐµÑģÐµÐ» Ð¾Ð¼
ĠÐ¶ÐµÐ»Ð° Ð½Ð¸ÐµÐ¼
ĠCh ir
Ġcold ness
ĠSer b
IN C
Ġart ific
ĠÐ²ÑĭÑħÐ¾Ð´ Ð¸Ð»Ð¸
Ġfoot men
Ġstrange ly
ĠÐ½Ð°ÑĪ Ð»Ð¾
ĠÐ²Ð¾Ð´ Ð°Ñħ
ĠÐ±Ð»Ð¸ Ð¶
ĠÑģÐ»ÑĥÐ¶ Ð±Ñĭ
ĠÑģÐ»ÑĥÐ¶ Ð°Ñī
ĠÐ²ÑģÑĤÑĢÐµÑĤ Ð¸ÑĤÑĮÑģÑı
Ġdou bled
Ð°Ð¹ÑĤÐµ ÑģÑĮ
ĠÐ¿ÑĢÐ¾ÑģÑĤÐ¾ Ðµ
ĠÑĢÐ¾Ð´ Ð½ÑĭÐµ
ĠFrench woman
ĠÐ±Ð°ÑĢ Ñĭ
ĠÐ±Ð°ÑĢ Ð¸Ð½Ð°
ĠÑĤÐ¾Ð½ ÐºÐ¾Ñİ
Ð°Ð´ÑĨ Ð°ÑĤ
ĠÐ¼Ð°ÑĤÐµÑĢÐ¸ Ð°Ð»ÑĮ
ĠÐ¾Ð±Ñī Ð¸Ñħ
ĠÑģÐµÑģÑĤ ÑĢÐ¾Ð¹
ĠÐ´Ð¾Ñĩ ÐµÑĢ
ÑĢÐ¸Ñĩ Ð°Ð»Ð°
Ġadm ir
ĠÐ½Ð°ÑĩÐ°Ð» Ðµ
ĠÐ·Ð°Ð¼ÐµÑĩ Ð°Ñı
Ġclear ness
ĠÐ±Ð¾ ÑıÑģÑĮ
ĠÑģÐ»ÐµÐ´ Ð¾Ð²
Ġdivor ced
Ġce ase
ĠÐ¿Ð°Ð»ÑĮ ÑĨÑĭ
ĠÐ¿Ð°Ð»ÑĮ ÑĨÐµÐ¼
ĠÐ¾ÑħÐ¾ÑĤ Ñĭ
ĠÐ¾ÑħÐ¾ÑĤ Ð½Ð¸ÐºÐ¾Ð²
Ġcur iosity
Ġass ured
ĠÐ¿ÐµÑĢÐµÐ± Ð¸ÑĢÐ°Ñı
ĠÐ´Ð¾Ð±ÑĢ Ð¾Ð³Ð¾
Ġpat ron
ĠÐ¿ÐµÑĢÐµÑģÑĤ Ð°Ð»Ð°
ĠÐ·Ð°Ð½ÑıÑĤ Ñĭ
Ġhon ourable
ĠÑī ÐµÐ³Ð¾
ĠÐ½Ð°Ð¿ÑĢÐ°Ð² Ð¸Ð»ÑģÑı
ĠÑĢÑıÐ´ Ñĭ
ĠÐ¿Ð¾Ñħ Ð¾Ð¶Ðµ
ĠÐ¿Ð¾Ñħ Ð²Ð°Ð»
ĠÐ±ÑĢ Ñİ
Ġexist ing
ĠÑģÑĤÑĢÐ°Ð½ Ð½ÑĭÐ¼
ĠÑģÑĤÑĢÐ°Ð½ Ð½ÑĭÐµ
ĠÐ±Ð¾ÑĢ Ð¾Ð´Ð¾Ð¹
Ġlo ad
ĠÐµÐ·Ð´ Ð¸ÑĤÑĮ
ĠÐµÐ·Ð´ Ð¸Ð»Ð°
ĠÐŁÐ¾ ÐµÐ´ÐµÐ¼
Ġinqu ire
ĠÐ¿Ð¾Ð´ÑħÐ¾Ð´ Ð¸Ð»Ð¸
ĠNot icing
ĠEvery body
Ġreply ing
ĠÑĢÐµÐ² Ð½Ð¸Ð²
ĠÑĤÐ²Ð¾ ÐµÐ³Ð¾
ĠÐ¿ÑĢÐ¸Ð²ÑĭÑĩ Ð½ÑĭÐ¼
Ġperf ection
ĠÑģÑĥÑīÐµ ÑģÑĤÐ²Ñĥ
ĠÐ¼Ð¾Ð»Ñĩ Ð°Ð»Ð°
Ġirrit ation
ĠÐŁÐ¾Ð´ ÑĬ
ĠÐ½Ð°Ð± Ð¾Ðº
ĠÐ¯ÑĪ Ð²
ĠÐĴÐ°ÑģÐµÐ½ÑĮ ÐºÑĥ
ĠÐ½Ð°Ð·ÑĭÐ² Ð°Ð»Ð°
ĠÐ´Ð»Ð¸Ð½ Ð½ÑĥÑİ
ĠÐ¿Ð¾ÑģÑĤÑĥÐ¿ Ð¾Ðº
ĠÑĢÐ°Ð·Ð± ÑĥÐ´
ĠÐ¿ÑĢÐ¸ÑĤÐ²Ð¾ÑĢ ÑıÑĤÑĮÑģÑı
Ġsk in
ĠÐ¿ÑĢÐ¸Ð³Ð¾ÑĤÐ¾Ð² Ð»ÐµÐ½Ð¸Ñı
ĠComm un
Ð¸ÑĢÐ¾Ð² Ð°ÑĤÑĮ
ĠÑĢÐ°Ð±Ð¾Ñĩ Ð¸Ðµ
ĠÐ³Ð¾ÑĢÐ´ Ð¾ÑģÑĤÐ¸
Ġpeculi arly
ĠÐ¿ÑĢÐ¸Ð·Ð½ Ð°Ð²Ð°Ð»
ĠÑĤÐ¸Ñħ Ð¸Ð¼
ÑīÐ¸Ðº Ð°
ĠÐ¿ÐµÑĢÐµ Ð¾Ð´
ĠÐ¿ÐµÑĢÐµ ÑħÐ¾Ð´
ĠÐ¾Ð³ÑĢÐ¾Ð¼ Ð½ÑĭÐµ
ĠÑĢÐ°Ð²Ð½Ð¾Ð´ÑĥÑĪ Ð¸Ðµ
ĠÑģÐ»Ð°Ð² ÑıÐ½
ĠÑģÐ¿Ð¾ÑĢ Ð¸ÑĤÑĮ
Ġloud er
ĠÐ°ÑĢ ÑĤ
ĠÐ¼Ð¾ÑĢ Ðµ
ĠÐ³Ð°Ð´ ÐºÐ¾
Ġsol itude
Ġquar ter
ĠÐļÐ°ÑĢÐµÐ½ Ð¸Ð½Ð¾Ð¹
ĠÐĸ Ð¸Ð²
ĠÐ¾ÑĤÐ²Ð¾ÑĢ Ð¸Ð»
ĠÐ¿ÑıÑĤ Ð¸
ĠÐ½Ñı Ð½Ð¸
ĠÐ¾ÑĤÑĬ ÐµÐ·Ð´Ð¾Ð¼
ĠÑģÐµÐ¼ÐµÐ¹ Ð½Ð¾Ð¹
Ġlandown ers
ĠÐ½ÐµÑĢ ÐµÑĪÐ¸ÑĤÐµÐ»ÑĮÐ½Ð¾
Ġelect ion
Ġimpro ved
ĠÐ²Ð¾Ð·Ð± ÑĥÐ´
ĠÐ²Ð·Ð´Ð¾Ñħ Ð½ÑĥÐ»Ð°
ĠÑĤÐ¾Ð²Ð°ÑĢÐ¸Ñī ÐµÐ¹
ĠÐºÑĢÐµÐ¿ Ð¾ÑģÑĤ
ĠÐ½ÐµÐ¿ÑĢ Ð¸Ð²ÑĭÑĩ
Ð¢ Ð¬
ĠÐ²Ð½Ñĥ ÑĪ
ĠÐ»ÐµÑģÑĤ Ð½Ð¸ÑĨÑĭ
Ġstrugg led
ĠÑĤÐ¾Ð»Ð¿ Ñĭ
ĠÑĤÐµÐ»ÐµÐ³ Ð¸
ĠÐ¿Ð¾ÐºÐ°Ð· Ð°Ð»Ð¸ÑģÑĮ
ĠÐ¼Ð³Ð½Ð¾Ð² ÐµÐ½ÑĮÐµ
ĠÐ¿Ð¾ÐµÐ·Ð´ ÐºÐ¸
ĠÑģÑĤÐ°Ð½Ð¾Ð² Ð¸ÑĤÑģÑı
ĠÑĪÐ¸ÑĢ Ð¾ÐºÐ¾
ĠÐ¾Ð¿ÑĥÑģÑĤ Ð¸Ð»
ĠÐ¾Ð¿ÑĥÑģÑĤ Ð¸Ð»Ð°
ĠÐºÐ½ÑıÐ¶ Ð½Ðµ
ĠÐ¿Ð¾Ð¼ÐµÑīÐ¸Ðº Ð°
Ġsle eve
ĠÑĩÐ»ÐµÐ½ Ð¾Ð²
ĠXXX II
ĠÐ¿Ð¾Ð¼Ð¾Ð³ Ð¸
ĠÐ¿Ð¾Ð·Ð² Ð¾Ð»ÑĮ
Ġhabit ual
ĠÐ¿ÑĢÐ¸Ð¼ ÐµÑĢ
ĠÐ¿ÑĢÐ¸Ð¼ ÐµÑĤ
sequ ently
ĠÑģÐºÑĢÑĭ Ð»ÑģÑı
Ġdissat isfaction
ĠÐ¾ÑģÐ½Ð¾Ð² Ð°Ð½Ð¸Ñı
ĠÐ¿Ð¾ÐºÐ¾ÑĢ Ð½Ð¾
ĠÐ¿ÑĢÐ¸ÐºÐ°Ð·ÑĩÐ¸Ðº Ð°
ĠÐ¿ÑĢÐ¸ÐºÐ°Ð·ÑĩÐ¸Ðº Ñĥ
ĠÐ¿Ð¾Ð½ÑĢÐ°Ð² Ð¸Ð»Ð¾ÑģÑĮ
ĠÐ¶Ð°ÑĢ ÐºÐ¾
ĠÐ¾Ð±ÑĬÑıÐ² Ð¸Ð»
ĠÐ¿ÑĢÐ¸Ð´ÑĥÐ¼ Ð°ÑĤÑĮ
ĠÐ¸Ð³ÑĢ Ð°ÑĤÑĮ
ĠÐĴÐµÑĢ Ð½Ð¾
ĠÐ½ÐµÐº ÑģÑĤÐ°ÑĤÐ¸
ĠÐºÐ°Ð¼ ÐµÑĢÐ³
ĠÐ¿ÑĢÐ¾Ð¼ Ð°Ñħ
ĠÑĢÐµÐ· ÑĥÐ»ÑĮ
ĠÐ¿ÑĢÐ¸Ð½ÐµÑģ Ð»Ð¸
ĠÐ´ÐµÑģÑıÑĤ Ð¸Ð½
ĠÐ¿ÑĢÐ¾Ð¸ÑģÑħÐ¾Ð´ Ð¸ÑĤ
Ġmed icine
ĠÐ¼ÑĥÐ½Ð´ Ð¸ÑĢÐ°
Ġdepend ed
ĠÑģÐµÑĢÐµÐ´ Ð¸Ð½Ñĥ
Ġrail ways
ĠÐŁÐ¾Ð¶ Ð°Ð»ÑĥÐ¹ÑĤÐµ
ĠÐ´Ð¾Ð¿ ÑĥÑģÑĤ
ĠÑħÐ°ÑĢÐ°ÐºÑĤÐµÑĢ Ð°
ĠÑģÐ¿Ð°Ð»ÑĮ Ð½Ðµ
ĠÐ¼Ð°Ñħ Ð°Ñı
Ġpun ish
ĠÑĢÐ°ÑģÐ¿Ð¾ÑĢ ÑıÐ´
ĠÐ°Ð´Ð²Ð¾ÐºÐ°ÑĤ Ð°
Ġproper ly
ĠÐ¿Ð¾ÑĢÐ°Ð¶ ÐµÐ½
rou ble
ĠÐ¾Ð² Ð»Ð°Ð´
ĠÐ¾ÐºÐ¾Ð½Ñĩ Ð°ÑĤÐµÐ»ÑĮÐ½Ð¾
ĠTit ular
ĠÐ±Ð»ÐµÑģÐº Ð¾Ð¼
ÑĨÐ¸ Ð¾Ð½
ĠÐŀÑģÑĤÐ°Ð² ÑĪÐ¸ÑģÑĮ
ĠÐ¿Ð¾Ð´Ð¾Ð· Ð²Ð°Ð»
Ġreconc iled
ĠÐļÐ°ÑĢÐµÐ½Ð¸Ð½ ÑĭÑħ
Ġpolit eness
Qu ite
ĠÐ²ÐµÑĤ ÐµÑĢ
Ġgreet ing
ĠÐĹÐ½Ð° ÐµÑĤÐµ
Ð°ÑİÑīÐ¸Ð¹ ÑģÑı
ĠÑİ Ð½Ð¾ÑĪ
ĠAN D
Ġsold ier
Ġdecl ared
ĠÐ½Ð°Ð²ÐµÑĢÑħ Ñĥ
ĠÑĢÑĥÐ±Ð°ÑĪ ÐºÑĥ
ĠÐºÐ»ÑĥÐ± Ðµ
Ġintention ally
ĠÐ¾ÑĤÐ²ÑĢÐ°Ñī ÐµÐ½Ð¸Ðµ
ĠÐ¾ÑĤÐ²ÑĢÐ°Ñī ÐµÐ½Ð¸ÐµÐ¼
Ġplough s
ĠÐ½ÐµÑģÑĩÐ°ÑģÑĤÐ»Ð¸Ð² Ð°
ĠÐ±Ð¾ÑĢÑĮ Ð±Ñĭ
Ġwra pping
ĠÑĤÐ¾Ñĩ ÐºÐ¸
ĠÐ¿ÐµÑĢÐµÐº ÑĢÐµÑģÑĤ
Ġprinci pal
ĠÐ½ÐµÑģÐ¿ÑĢÐ°Ð²ÐµÐ´Ð»Ð¸Ð² Ð¾
ĠÑĩÐµÑĤÑĭ ÑĢÐµ
Ġrub bing
ĠÐ¿Ð¾Ð¿ÑĢÐ¾Ñģ Ð¸Ð»
Ġneg ative
Ġdepri ve
ĠÐ¿ÑĥÑģÐº Ð°Ð¹
ĠÐ²Ð°Ð»ÑĮ Ð´ÑĪÐ½ÐµÐ¿
Ġcloud s
Ġelb ows
ĠÐ½Ð°Ð·Ð² Ð°ÑĤÑĮ
ĠÐ·Ð»Ð¾Ð± Ñĭ
Ġrecollect ing
Ġrecollect ions
ĠÐ°Ð½Ð³Ð»Ð¸ÑĩÐ°Ð½ ÐºÐ°
ĠÑĢÐ°ÑģÐ¿Ð¾ÑĢÑıÐ¶ ÐµÐ½Ð¸Ñı
ĠÐ¾Ð³Ð¾ Ð½ÑĮ
Ġbank s
Ġdesce nded
Ġaccomp any
ĠÑĥÑģÐ¿ÐµÑħ Ð°
ĠÑĤÑĥÐ°Ð» ÐµÑĤ
ĠÐ¿Ð¾Ð´ÑĢÐ¾Ð±Ð½Ð¾ÑģÑĤ ÐµÐ¹
ĠÐ¿ÑĮÑı Ð½
ĠÐ³Ð¸Ð¼ Ð½Ð°ÑģÑĤ
ĠÐ´Ð¾ÐºÐ°Ð·ÑĭÐ² Ð°ÐµÑĤ
Ġpersp iration
Ġpill ow
Ġdegr ad
Ġspark ling
Ð¸Ð²ÑĪÑĥÑİ ÑģÑı
Ġdestroy ed
Ġhist or
ĠÐŁÐ¾ÑģÑĤÐ¾Ð¹ ÑĤÐµ
ĠÐ¢ÑĥÑĢÐ¾Ð²ÑĨÑĭ Ð½
ĠÐ¢ÑĥÑĢÐ¾Ð²ÑĨÑĭ Ð½Ð°
ĠÐĵÐ»Ð°Ð´Ð¸Ð° ÑĤÐ¾ÑĢÐ°
Ġ1 8
ÑģÑĤÐ°ÑĢ Ð¾Ð¼Ñĥ
ĠÑĥÐ³Ð¾ Ð»
Ġstoo ping
Ġbliss ful
Ġdeliber ately
Ðł Ð°Ð·
ĠÑģÑĢÐ°Ð² Ð½ÐµÐ½Ð¸Ð¸
ĠÐ³ÑĥÐ»Ñı ÑĤÑĮ
Ġprec ise
Ġobv iously
ĠÑĥÑģÑĤÐ°Ð»Ð¾ ÑģÑĤÐ¸
ĠÐ´ÑĥÑį Ð»Ð¸
ĠÐ´ÑĢÑĥÐ· ÐµÐ¹
Ġanticip ated
ĠÐ¾Ð±Ð² Ð¸Ð½Ñı
Ġsole mn
ĠÐ·Ð°Ð±Ð» ÑĥÐ¶Ð´
ĠÐ¿Ð°Ð¿Ð¸ ÑĢÐ¾Ñģ
ĠÐ·Ð°Ð´ÑĥÐ¼ÑĩÐ¸Ð² Ð¾
Ġobstac le
Ġwip ing
ĠÐ¿ÑĭÑĤ Ð°Ð»ÑģÑı
ĠÐ´ÐµÐ¿ ÐµÑĪ
Ġsadd le
Ġshy ness
Ġvict ory
ĠÐ¾Ð±Ð»Ð¾Ðº Ð¾ÑĤÐ¸Ð²ÑĪÐ¸ÑģÑĮ
ĠÐ±Ð°Ð»Ð»Ð¾ÑĤÐ¸ÑĢÐ¾Ð² Ð°ÑĤÑĮÑģÑı
ĠÐ¿ÑĢÐµÐ¸Ð¼ÑĥÑīÐµ ÑģÑĤÐ²ÐµÐ½Ð½Ð¾
ĠÑģÐ¸ ÑıÑĤÐµÐ»ÑĮ
ĠÐ¿Ñĭ Ð»ÑĮ
esp ite
ĠÐ³ÐµÐ½ÐµÑĢ Ð°Ð»
ĠÐ¿ÑĢÐ¸Ð¾Ð±ÑĢ ÐµÑĤ
ĠÐ¾Ð¿Ð¾Ð·Ð´ Ð°Ð»
ĠÐ²Ð¸Ð½Ð¾Ð²Ð° ÑĤÐ¾Ñİ
Ð¾Ð½Ðµ Ñĩ
ÑģÑĤÐ¾Ðº ÑĢÐ°ÑĤ
Ġras pber
ĠMore over
Ġembr aced
ĠÐ¶Ð¸Ð²Ð¾Ð¿Ð¸Ñģ Ð¸
ĠÐ²Ñĥ Ð°Ð»
ĠÐºÐ°Ð´ ÑĢ
ĠÐ¶ÑĥÑĢ Ð½Ð°Ð»
Ġfort une
amber l
ĠÐŁÐ¸Ð» Ð°ÑĤÐ°
ĠÐ»Ð¸Ð±ÐµÑĢ Ð°Ð»ÑĮ
Ġscr utin
Ġserf dom
ĠÐ½Ð°ÑģÑĤÐ¾ Ð»ÑĮÐºÐ¾
ĠÐ¿Ð»Ð°ÑĤÑĦÐ¾ÑĢÐ¼ Ðµ
wh ich
Ġtips y
ĠÐ½ÐµÐ¾Ð´ Ð¾Ð±ÑĢ
ĠÐĿÐ°ÑĢ Ð¾Ð´
ĠÐ°ÑĢÐ¸ ÑģÑĤÐ¾ÐºÑĢÐ°ÑĤ
Ġpot at
Ġpac ify
Ġ'- "
Ð´ÑĥÐº ÑĤÐ¾ÑĢ
Ġoppon ent
Ġcarpent er
ĠÐ¿Ð¾ÑģÐµ Ñī
ĠÐĴÐ¾ÑĢÐºÑĥ ÐµÐ²
ĠAF TER
ĠÐĶÐ¾Ð»Ð¶ Ð½Ð¾
ĠMinist ry
ĠÑĦÑĥÑĢ Ð°Ð¶
Ġblank et
Ġmyster ious
ĠÐļÐ°Ð¿Ð¸ÑĤÐ¾Ð½Ñĭ Ñĩ
ĠÑģÐ½Ð¸Ñģ ÑħÐ¾Ð´
ĠÐ¿Ð¾Ð´Ð¼Ð¸ Ð³
ĠPhil ip
Ġquadri lle
Ġbranc hes
" ?
' ,
F rom
G ive
H as
N ING
T S
T Y
W ould
b u
b re
c on
c ol
c overed
c ony
e ment
i est
i ge
i ers
i ally
i ary
l uck
n al
p ost
p oint
r ange
s c
t urn
u ly
v iz
y ear
Ã ª
Ð Ľ
Ġ il
Ġ ÑİÐ±
Ð¾ Ð½Ñĥ
Ð¸ ÑīÐµ
Ð¸ ÑģÐ¿
Ñģ Ð»ÑĮ
Ñģ Ð²Ð¾
Ð½ Ð°Ð¼
Ð½ Ð°Ð»Ð°
Ð½ ÐµÐ»Ð°
Ð½ ÐµÐ½Ð¸Ñı
Ð» Ð°Ð¼
ÑĢ Ð°ÑĤÑĮÑģÑı
Ġt ar
Ġt ick
Ġt ire
Ġt akes
Ġt ables
Ġa ching
Ñĥ ÑĤÐ¾Ñĩ
in c
in en
in ent
Ġw ild
Ġw aking
ĠÑģ Ð¾Ðº
ĠÑģ ÑĦ
ĠÑģ ÐµÐ»Ð¸
ĠÑģ ÑĥÑī
Ġs ed
Ġs an
Ġs ow
ĠÐ½ Ð°Ð¶
Ñĩ Ð¸
ĠÐ¿ ÐµÐ²
ĠÐ¿ Ð¸ÑĤ
ĠÐ¿ ÑĥÐ½
ĠÐ² Ð°Ð½
ĠÐ² Ð¾Ð¶
ĠÐ² ÐµÐ·
ĠÐ² ÑĮÑİ
ĠÐ² Ð¾Ð´Ð°
ĠÐ² ÐµÐ´ÐµÑĤ
Ġh oney
re he
ÑĤÐ¾ Ð½Ð°
Ġo rig
ĠÐ¸ ÑĢÐ¾
Ð´ Ð¸Ð½
Ð´ ÐµÐ»Ð°
Ð´ ÑĥÑĤ
it ate
Ġb os
Ġb oud
ing ing
is ible
Ð¼ Ðµ
Ð¼ Ð¾Ð¼
Ð¼ Ð¾Ðº
Ġhe els
ĠÐº Ð¸
ĠÐº Ñĥ
ĠÐº Ð²
ĠÐº Ð°ÑģÐº
ĠÐº ÑĥÑģ
ĠÐº ÑĢÐ¾ÑĪ
Ġto pic
Ð¾Ð² Ð¸Ð´
ÐµÐ½ ÑĤÑĭ
on ich
Ġc unning
Ġf ly
Ġf art
Ġf urn
Ġm ee
Ġm ild
Ġm ocking
ĠÐ´ Ð°Ð»Ð°
ĠÐ´ Ð¾Ð³Ð¾
ĠÐ´ Ð¸ÑĢ
ĠÐ´ ÑıÐ´
Ñħ Ð¸
Ġth ro
ÐµÐ» ÐµÐ¼
ÐµÐ» Ð¸Ñı
Ġd eny
as m
as y
Ñİ Ñĩ
ĠÑĤ Ð¸ÑĤ
ĠÑĤ Ð°Ð»Ð¸
ĠÑĤ ÐµÐ¼Ñĥ
ĠÑĤ Ð¸ÑĪ
ĠÐµ Ð»
ĠÐ½Ðµ ÐµÑģÑĤÐµ
ĠÐ½Ðµ ÑĤÐ¾ÑĢÐ¾Ð¿
ĠÐ¼ Ð¾Ð´
ĠÐ¼ Ð°ÑĢ
ĠÐ¼ ÑĥÑħ
ĠÐ¼ Ð°ÑģÑĤ
Ġl es
Ġl ucky
Ġl inen
ĠÐ¿ÑĢ Ð¾Ð¶
ĠÐ¿ÑĢ Ð¸Ð½Ðµ
ĠÐ¿ÑĢ Ð¾Ð¹ÑĤÐ¸
an ter
Ġha l
Ġin just
Ð¾Ð» ÐµÐ±
ar med
ĠÑĥ ÑĢÐ¾Ð´
ĠÑĥ ÐµÐ´Ñĥ
ĠÑĥ Ð¿Ð¾Ð¼Ð¸Ð½Ð°
ĠÑĥ Ð»ÑĥÑĩ
ÐµÑĤ ÐºÑĥ
ÐµÑĤ ÐºÐµ
ĠÑĢ Ð²
ĠÑĢ ÐµÑĩ
ĠÑĢ Ð°ÐºÐ¾Ð²
Ġbe loved
Ð½Ð¸ Ð½Ð°
Ð½Ð¸ ÑĤÐµÐ»ÑĮ
Ð½Ð¸ ÑĪÑĮ
Ð¾ÑĢ Ð¾Ð¼
ÐµÐ¼ ÐµÐ½
Ġher d
ĠÐ¿Ð¾ ÑıÑģ
ĠÐ¿Ð¾ ÑģÑĤÑĢÐ¾Ð¹
Ð¸Ð½ ÐºÐ¸
Ð¸Ð½ ÐºÐµ
ic ial
ÑģÐº Ñĥ
Ð°Ð½ Ð¾Ð¼
Ð°Ð½ Ð½Ð¾Ð¼Ñĥ
se e
Ġwith d
ĠÐ¶ ÐµÑĢÑĤÐ²
ĠÐ¶ ÐµÑĢÐµÐ±
st ep
st retched
ÐµÐ² ÑĪÐµÐ¹
ÐµÐ² ÑĪÐ¸Ð¼
ĠÐ» Ð¾Ð´
ĠÐ» Ð°Ð´
ĠÐ» ÐµÐº
ĠÐ» Ð¾Ðº
ent ial
ĠÐ³ Ð¾Ð²
ĠÐ³ ÑĢÐ¾
Ð¸Ð² ÑĪÐµÑİ
Ð¸Ð² ÑĪÐµÐµÑģÑı
ÐµÐ´ ÐµÑĤÐµ
Ñī Ð¸Ðµ
Ð¸ÑĤ Ð¾Ð¼
Ð¾Ð³ Ð¸
Ð¾Ð³ Ñĥ
ĠÑģÐº Ð°ÑĢ
ĠÑģÐº Ð»Ð¾Ð½
ĠÑģÐº ÑĢÐ¸Ð¿
Ġshe d
Ġshe et
Ð¾ÑĤ Ð²Ð¾ÑĢ
Ġas ce
Ġas pect
ÑĨ Ð¾Ð²Ð°
ĠÐ¾ÑĤ ÑĢ
Ð¾Ð± Ð½Ð¾
al ing
ĠÐĴ ÐµÑĤ
ĠÐĴ Ð°Ð¼
ĠÐĴ ÑĭÐ¹
ĠÐĴ Ð¾Ð¿ÑĢÐ¾Ñģ
Ġat e
Ġfor ms
Ġst air
Ġst uff
ĠÐĿ ÐµÐ´
ĠA L
ir st
Ð°ÑĢ Ð°
ĠÑģÐ² Ð¾Ð´
ĠÑģÐ² ÐµÑĩÑĥ
ĠÐ²Ñĭ ÑĢÐµÐ·
ĠÐ²Ñĭ ÑĪÐ»Ð¾
Ġan gel
Ð°ÑĤ ÐµÐ»Ñı
ur se
ur ance
Ð»Ñı ÐµÑĤÑģÑı
Ð»Ñı Ð»ÑģÑı
Ġis n
ĠÑı Ð³
ĠÑħ ÑĢ
ĠÑħ Ð°Ð»Ð°
Ġbut ter
Ð¸Ð´ ÐµÐ»
Ð¾Ðº Ð¾Ð¼
ĠÐļ Ð¸ÑĢ
ĠÐļ ÑĢÐ°Ñģ
ĠÐļ ÑĢÐ°Ðº
ĠS ever
ĠS und
Ð½Ñĥ ÐµÑĤ
ĠÑģÑĤ Ð°
ĠÑģÑĤ Ð²Ð¾Ð»
ĠH E
ĠH ER
ĠÐĽ ÑİÐ±
ĠÐĽ Ð°ÐºÐµÐ¹
ch t
ch an
ch ase
ri b
ev sky
ĠÐ¡ ÑĤÐ¾
ĠÐ¡ Ð»Ð¾Ð²
Ġme al
Ġme chan
ro se
Ð°Ð¶ ÐµÑĤ
ĠK apit
ĠÐ¿Ð¾Ð´ ÑĤ
ĠÐ¿Ð¾Ð´ ÑģÐº
ĠÐ¿Ð¾Ð´ ÑĢÐ°Ð¶
Ġsh ared
Ġsh oes
Ð»Ð° Ñħ
ÐµÐ»ÑĮ Ñģ
pe l
Ð¾Ñģ ÑĤÐ¾
ant ic
ÐµÑģ ÐµÐ´
ĠÐĶ ÑĢÑĥÐ³Ð¾
and ed
ĠÑĢÐ°Ð· Ð¾ÑĪ
ĠÑĢÐ°Ð· Ð³Ð¾ÑĢ
ĠÑĢÐ°Ð· Ð»Ñĥ
ÑĥÐ¶ Ð½Ð¾
Ð»ÐµÐº ÑĤÑĢ
ĠÐĺ Ð½
ĠÐĺ Ð³
Ð½Ñı ÐµÑĤ
ÐµÐ½ÑĮ Ñİ
ÐµÐ½ÑĮ ÐºÐ¸Ð¹
ÑĢÐ° Ñħ
ĠV ozd
ĠÐŁ ÐµÑĢ
ĠÐŁ Ð¸ÑģÑĮ
Ġex agger
ĠÐ¸Ð· Ð´Ð°Ð»
ul se
ul ated
ÑĭÐ² Ð°Ñİ
Ġkn ife
Ð¾Ð¼Ñĥ Ñİ
ÑģÑĤÐ¸ Ð¸
ĠÐ° Ñħ
ĠÐ° ÐºÑĥ
Ġcon ception
ĠB o
Ġch in
Ġch alk
Ġch airs
ĠÐ¿ÐµÑĢ Ð¸
ÐºÐ° ÑĪ
ĠÑģÐ¿ Ð°Ð»Ð°
ĠÑģÐ¿ ÑĥÑģÑĤ
ĠÑģÐ¿ ÐµÑĨ
ĠP e
ĠP l
ĠP ol
ĠP aris
ĠÐ¢ ÐµÐ¼
Ġqu ality
Ġqu alities
ÐµÑģÑĤ Ð½ÑĭÐ¼
ĠÐ¿Ð¾Ð» ÑĥÑģ
ÑģÐ» ÑĭÑĪ
ĠÐľ ÐµÐ¶Ð´Ñĥ
ĠÐľ Ð°Ð»ÑĮÑĩÐ¸Ðº
ĠM inister
ist ent
Ġwor ried
ĠÑĪ ÑĤ
ĠÑĪ Ð»ÐµÐ¿
Ð°Ð± Ñĭ
Ġv irt
ĠAn y
el a
au d
ĠÑģÐ°Ð¼ Ð¾Ð²Ð°ÑĢ
Ġwhen ever
ĠÐ·Ð½Ð° ÐµÐ¼
ĠÐĲÐ½ Ð´
Ġam ount
Ġam az
Ġam used
ĠÐ´Ð² ÐµÑģÑĤÐ¸
ĠÐ´Ð² Ð°Ð´ÑĨÐ°ÑĤÐ¸
ĠÐ²Ð· Ð²
ĠÑģÑĤÐ¾ ÑıÑĤÑĮ
Ġun ite
Ġun bel
Ġpo se
Ġwill ing
ĠÐ±ÑĥÐ´ ÑĮ
ĠÐĲÐ»ÐµÐºÑģÐ°Ð½Ð´ ÑĢ
ĠD AY
ĠD espite
Ġman ure
Ġim pend
ĠÐ»ÑİÐ± ÑĥÑıÑģÑĮ
ĠÐ¿ÑĢÐµÐ´ Ð²Ð¸Ð´
ĠÐºÑĢ ÐµÑģÑĤÑĮ
ĠÐ¸Ð¼ ÐµÑı
Ġbr is
Ġbr ook
Ġbr ushed
Ð¸ÑĤÐµÐ»ÑĮ Ð½ÑĥÑİ
Ġsp ort
Ġsp las
Ġse ldom
Ġany how
Ġhand ing
ĠÐ¿Ð¾ÑĤ ÑĥÑħ
ci p
ew ed
ĠÐ±Ð¾Ð»ÑĮ Ð½ÑĭÐ¼
ÑĢÐ¸ ÑĨÑĭ
ĠÐ¿Ð¾Ðº Ð°ÑĤ
Ġwe ighed
ĠÐ¼Ð¾Ð¶ ÐµÐ¼
Ġbec omes
pl om
dd ed
Ð°Ñħ Ð¸Ð²Ð°Ñı
ĠÑģÐ¾ ÑģÐº
ĠÑģÐ¾ ÑģÑĤÑĢÐ°Ð´
Ġpl oughed
Ġdis eng
ie ve
ie ce
Ð¸Ñģ Ð¾Ð²
eel ing
Ġgl ittered
Ġgl istening
ĠÑģÑĤÐ°ÑĢ Ð¸Ð½
Ð°Ð²ÑĪ Ð¸Ð¼ÑģÑı
ĠG ard
ĠG os
ap able
Ġsome body
ÑĮÑı Ð¼Ð¸
ck ing
ĠÐķ Ð³Ð¾ÑĢ
ĠÐķ ÑĢÐ³
Ġover fl
Ġte mper
ĠÐ²ÐµÑĢ Ð°
ĠÐ²ÐµÑĢ Ð¸Ð»Ð°
ĠÐ²ÐµÑĢ Ð½ÑĥÐ»Ð¸ÑģÑĮ
um our
Ð¾Ð½ Ñĩ
Ġpro ject
Ð»Ð¸Ð² ÑĭÐ¹
ĠÐĳ Ð¾ÑĢ
Ġcl ung
Ġexp osed
ĠÑħÐ¾ÑĢÐ¾ÑĪ ÐµÐ¼
Ġbl amed
ĠÐ¿Ð» ÑĥÑĤ
ĠÐ¿Ð» ÐµÑĪÐ¸Ð²
ĠÑģÐ¾Ð± ÑĢÐ°
ĠÑģÐ¾Ð± ÑĢÐ°Ð²
ĠÑģÐ¾Ð± ÐµÑģÐµÐ´
ĠÐ½Ð°Ð¿ Ð°Ð´
ĠÐ½Ð°Ð¿ Ð¸ÑĪ
ĠÐ½Ð°Ð¿ Ð¾Ð»Ð½
ĠÐ½Ð°Ð¿ ÑĢÐ°ÑģÐ½Ð¾
ĠÐĺÐ²Ð°Ð½Ð¾Ð² Ð½Ðµ
ĠÐ¿Ð¾Ñĩ ÐµÑĢ
ang led
Ð½Ð¾Ð² ÐµÐ½Ð¸Ðµ
ĠÐ¿Ð¾Ð½Ñı Ð»Ð¸
ĠÐĵ ÑĢÐ¸Ð½
ÐµÑģÐº Ð¸
ĠÐł ÐµÐ±
ĠÐ½Ð°Ñĩ Ð°Ð»Ð¾
Ð°ÑĪ Ðº
Ġpart ing
ud ent
ĠR ep
Ġtalk s
ĠÐ¿ÑĢÐ¾Ñģ Ð¸ÑĤ
ĠÐ¿ÑĢÐ¾Ñģ Ð½ÑĥÐ»ÑģÑı
ĠÐ¿ÑĢÐ¾Ñģ Ð½ÑĥÐ»Ð°ÑģÑĮ
ĠÐ¿ÑĢÐ¾Ñģ Ð²ÐµÑĤ
iv il
ĠÑĢÐµÑĪ Ð¸ÑĤÑĮÑģÑı
Ð¸Ð½Ñĥ Ð»
ĠÐ£ ÑĤ
ĠÐ£ Ð±
ĠÐ·Ð°Ð± Ð°Ð²
Ð¸Ð¶ ÐµÐ½
ĠÑĤÑĢ ÐµÑī
Ġrep ress
Ð½ÑĮ Ðµ
Ġfl ush
Ġfl ower
Ġfl ashed
Ġwork s
ĠÐ·Ð°Ð¿ ÐµÑĢ
Ġsmil es
ĠÐĹ Ð´Ð¾ÑĢÐ¾Ð²
ĠÐĹ Ð´ÑĢÐ°Ð²
ĠÐ±Ð¾Ð»ÑĮÑĪÐµ Ñİ
Ġsc ene
Ġper t
ĠÐ²Ð¾Ñģ Ð¿
ĠÐ¿ÐµÑĢÐ² Ð¾Ð¼
ĠÐ´ÐµÑĤ ÑıÑħ
Ġap iary
ĠÐ¿ÑĢÐ¸Ð² ÐµÑģÑĤÐ¸
ĠÐ½ÐµÐ´ ÐµÐ»Ñİ
ĠÐ½ÐµÐ´ Ð°Ð»ÐµÐºÐ¾
Ġbel iev
ĠÐ²ÑģÑĤÑĢ ÑıÑħ
ĠÑĥÐ²Ð¸Ð´ ÐµÐ»Ð°
Ġfe eding
ĠÐ¼Ð¾ ÐµÐ¼Ñĥ
ĠÐ³Ð¾Ð»Ð¾Ñģ Ðµ
ĠÑģÐµÑĢÐ´ Ð¸ÑĤÑĮÑģÑı
Ġind icated
ĠÐ¿Ð¾Ñģ Ð²
ĠÐ¿Ð¾Ñģ Ð°Ð´
ĠÐ¾ÑģÑĤÐ°Ð½Ð¾Ð² Ð¸Ð»
ĠÐ¾ÑģÑĤÐ°Ð½Ð¾Ð² Ð¸Ð»Ð¸ÑģÑĮ
ĠÐ¼Ð¾Ð»Ð¾Ð´ Ð°Ñı
Ġlast ed
ĠÐ´Ð° Ð½Ð¾
Ġcal f
Ð²Ðµ ÑģÑĤÐ¸
Ġinv est
Ġinv ite
Ġinv isible
Ġref resh
ĠÐ´ÑĥÑĪ Ð¸ÑģÑĤ
ĠÐ¶Ð°Ð» ÐµÐ»
ĠÐ¶Ð°Ð» ÐµÑİ
Ð°ÑİÑī Ð¸ÑħÑģÑı
ĠÐ¿Ð¾ÑģÐ»ÐµÐ´ Ð½Ð¸Ñħ
Ġcare less
ÑıÑī Ð¸Ð¹
ÑıÑī Ð¸Ðµ
ĠÐ¾Ð±ÐµÐ´ Ñĥ
Ġsil k
Ġgreat est
ĠThere fore
ĠÐ¡Ð² ÑıÑīÐµÐ½
ĠÐ¾ÑģÑĤÐ°Ð² Ð°Ð»ÑģÑı
ĠÐ·Ð°Ð³ Ð»ÑĥÑĪ
ĠÐ¿ÐµÑĢÐµÐ´ ÐµÐ»
ĠÐ¿ÐµÑĢÐµÐ´ Ð½ÑİÑİ
Ġcount ed
Ġcount ing
ĠÐºÐ¾Ð½ Ñģ
ĠÐºÐ¾Ð½ ÑĤÐ¾ÑĢÑĥ
ĠÐ¿Ð¾Ð»ÑĥÑĩ Ñĥ
Ġter r
ĠÐ½Ð°Ð² Ð¾Ð·
Ġbre aking
ĠÑģÐ¸Ð´ Ñı
ĠÐŀÑĤ Ð»Ð¸Ñĩ
ÐµÐ·Ð¶ Ð°Ð¹ÑĤÐµ
ĠÐºÐ°Ð¶Ð´ Ð¾Ð¹
ĠÐºÐ°Ð¶Ð´ Ð¾Ð³Ð¾
ĠÐºÐ°Ð¶Ð´ Ð°Ñı
Ġfound ed
Ð°ÐµÐ¼ ÑģÑı
Ð°ÐµÐ¼ ÑĭÐµ
ĠÐ¾Ð³Ð»Ñı Ð½ÑĥÐ²ÑĪÐ¸ÑģÑĮ
ĠÑĢÐ°Ð±Ð¾ÑĤ Ðµ
ĠÑĢÐ°Ð±Ð¾ÑĤ Ð½Ð¸Ðº
Ġaw fully
ĠÐ·Ð½Ð°ÐºÐ¾Ð¼ Ñĭ
Ġmer chant
Ġdr oo
ĠÐ¿ÑĢÐ¸Ð´ Ñĥ
ĠÐ¿ÑĢÐ¸Ð´ Ð²Ð¾ÑĢ
ĠÑĥÑģ Ñĭ
Ġhard er
Ġbo at
ĠÑĥÐº ÑĢÐ°ÑĪ
ĠÑħÐ¾Ð´ Ð¸Ð»Ð¸
ĠÐ´ÑĥÑĢ Ð½Ð¾Ð¹
ĠÐ³Ð¾ÑģÑĤ Ñı
ĠÐ½ÐµÐ¿ÑĢÐ¸ÑıÑĤ Ð½ÑĭÐ¼
ĠÐ´ÐµÐ¹ÑģÑĤÐ² Ð¸Ðµ
ĠÐ´ÐµÐ¹ÑģÑĤÐ² Ð¸Ñı
ĠÐ¿ÑĢÐ¾Ð² ÐµÐ´
ĠÐŀÐ±Ð»Ð¾Ð½ÑģÐº Ð¾Ð¼Ñĥ
Ġbegin s
ĠÐ±ÐµÐ» ÑĭÐ¼
ĠÐ±ÐµÐ» Ð¾ÐºÑĥÑĢ
ĠÑģÑĩÐ¸ÑĤ Ð°Ñı
ĠÐ¿ÑĢÐ¾Ð¸Ð· Ð¾ÑĪÐ»Ð°
ĠÐ¾Ð±ÑĢÐ°Ð· ÑĥÐµÑĤÑģÑı
ĠÐ²ÐµÑģÐµÐ» ÑĭÐµ
og ical
ĠÐ¸Ð·Ð² Ð¸Ð½
Ġcomm ission
ĠÑģÑĩÐ°ÑģÑĤÐ»Ð¸Ð² ÑĭÐ¹
Ġdef ined
ĠÑĢÐµÐ±ÐµÐ½ ÐºÑĥ
ĠÐ´ÐµÑĢÐ¶ Ð°Ð»ÑģÑı
onst r
ĠÑĥÐ³ ÑĢÐ¾Ð·
ĠÐ½Ð°Ðº Ð°Ð·Ð°ÑĤÑĮ
ĠÐ¤ ÑĢÐ°Ð½ÑĨÑĥÐ·
Ġdet ected
ĠÐ²ÑģÑĤÑĢÐµÑĩ Ð°Ð»Ð°
ĠÐ²ÑģÑĤÑĢÐµÑĩ Ð°Ñı
ÑİÑī Ð¸Ñħ
ĠÐ½Ð°ÑĪ Ñĥ
ĠÐ²Ð¾Ð´ Ð¾Ð¹
ĠÐ²Ð¾Ð´ ÐºÑĥ
ĠÑģÐ»ÑĥÐ¶ Ð¸Ð»
Ġqui vering
ĠÐ¼Ð°Ð»ÐµÐ½ÑĮ ÐºÐ¸Ñħ
ĠÐľÑĭ ÑģÐ»ÑĮ
Ġdisc over
ĠÐ¿Ð¾Ð± ÐµÐ³
ĠÑĢÐ¾Ð´ Ðµ
ĠSh all
ĠÐ¿ÑĢÐµÐ» ÐµÑģÑĤÐ¸
ĠÑģÑĤÑĢÐ° ÑģÑĤÐ¸
ĠÐ´Ð°Ð² Ð½Ð¸ÑĪ
oun ce
ĠÐ¿Ð¾Ð²ÐµÑĢ Ñħ
ĠÐ¿Ð¾Ð²ÐµÑĢ Ð¸Ð»
ĠÐ²Ð¾Ð·Ð¼Ð¾Ð¶ Ð½Ð¾ÑģÑĤÑĮ
Ġadm ire
Ġadm itted
Ġadm iration
ĠÐ³Ð¾ÑĤÐ¾Ð² Ð°
ĠÐŁÐ¾Ñģ Ð¼Ð¾ÑĤÑĢ
Ġbright ly
Ġreason ing
Ġreason able
ĠÑģÐ»ÐµÐ´ Ð¸ÑĤÑĮ
Ġprep are
ĠÐ¿ÐµÑĢÐµÐ¼ ÐµÐ½Ñĭ
ĠÐ²ÐµÑĩÐµÑĢ Ñĥ
Ġperson ally
ÑĪÐµÐ¹ ÑģÑı
ĠÐ±Ð»ÐµÑģÑĤ ÐµÐ»Ð¸
ĠÐ²Ð»ÑİÐ± Ð¸ÑĤÑĮÑģÑı
ĠÐ½ÐµÐ²Ð¾Ð·Ð¼Ð¾Ð¶ Ð½ÑĭÐ¼
ĠÐºÑĢÑĥÐ³ Ñĥ
Ġdep ra
ĠÐ´Ð²ÐµÑĢÑĮ Ñİ
ĠÑĤÐ²ÐµÑĢÐ´ ÑĭÐ¼
ĠÑĪÐµ ÐµÐ¹
ĠÐ±Ð°Ð» ÐºÐ¾
Ġdro ps
Ġcomple ted
ĠÐ²Ð¾ÑģÐ¿Ð¾Ð¼Ð¸Ð½Ð° Ð½Ð¸ÐµÐ¼
Ġmaster s
ĠÐ¿ÑĢÐµÐ´ÑģÑĤÐ°Ð²Ð»Ñı Ð»
ĠÐ¿ÑĢÐµÐ´ÑģÑĤÐ°Ð²Ð»Ñı Ð»Ð°
Ġdesire s
Ġless ons
ÑĥÑİÑī ÐµÐ³Ð¾
ĠÑģÑĥÐ´ ÑĮÑı
Ġlo cked
Ġcir cles
Ġunc ertain
ĠÑĢÐ°Ð·Ð´ÑĢÐ°Ð¶ Ð¸Ð»Ð¾
ĠÐºÐ½Ð¸Ð³ Ð¾Ð¹
ĠÐ©ÐµÑĢÐ±Ð°ÑĨ ÐºÐ¸Ð¼
ĠÐ¿Ð¾Ð´ÑħÐ¾Ð´ Ð¸Ð²ÑĪÐµÐ³Ð¾
li er
ĠÑĢÐµÐ² Ð½Ð¾ÑģÑĤÑĮ
ĠÑģÐºÐ°Ñĩ ÐºÐ°Ñħ
ĠÐ¼ÐµÑĪ Ð°Ð»Ð¸
ĠÐ±Ð»Ð¸Ð· ÐºÐ¾
ĠÐ¿ÑĢÐµÐ´Ð¿ ÑĢÐ¸Ð½
Ġinterrupt ing
Ġph ot
ĠÑĢÐ°ÑģÑģÐºÐ°Ð·ÑĭÐ² Ð°Ð»Ð°
ĠÐºÑĥÑĩ ÐµÑĢÑĥ
ĠÐ±ÑĭÑģÑĤÑĢ ÑĭÐ¼Ð¸
ĠÐ±ÑĭÑģÑĤÑĢ Ð¾ÑĤÐ¾Ð¹
ĠÐ¾Ð±ÐµÑī Ð°Ð»Ð°
ĠÐ²Ð¾Ð»Ð½ ÐµÐ½Ð¸ÐµÐ¼
Ġregard ing
ĠÐ±ÑĢÐ¾Ñģ Ð¸Ð»
Ġru g
Ġsk ating
Ġsk ates
ĠÐ²Ð° ÑĪÐµÑİ
ĠÐ¿ÑĢÐ¸Ð³Ð¾ÑĤÐ¾Ð² Ð¸ÑĤÑĮ
ĠÐ·Ð°ÑģÑĤ ÐµÐ³
ĠComm ission
ĠÐ¡ÑĤÐ¸Ð² Ñĥ
ĠÐ»Ð¾Ð¶ Ñĥ
Ġlear ning
Ġlear ned
Ġcross ed
Ġcross ly
ĠÐŁÑĢÐ¾ Ñī
ĠÐ¿ÑĢÐ¸Ð·Ð½ Ð°Ðº
ĠÐ¿ÑĢÐ¸Ð·Ð½ Ð°ÐºÐ¸
ĠÐ¸Ð·Ð²ÐµÑģÑĤ Ð½ÑĭÐµ
ĠÐ¿ÑĢÐ¸Ð½Ñı Ð»Ð¾
ĠÐ¿ÑĢÐ¸Ð½Ð¸Ð¼ Ð°Ñı
ÑģÑĤÐ¾ Ñģ
Ġcoll ected
Ġhay c
Ġem aci
ĠÐºÐ°ÑĢÑĤ Ð¸Ð½Ð°
Ġut most
ĠÐľÐ°ÑĢ ÑĮÐ¸
Ġclose ly
Ġdream y
ĠÐ¿Ð¾ÑĨÐµÐ»Ð¾Ð² Ð°Ð²
ĠÑĪÑĥÑĤ Ñı
Ð´Ð² Ð¸Ð¶ÐµÐ½
Ġmid wife
ĠÐ²Ð°Ð³Ð¾ Ð½Ðµ
ĠÐ¾ÑĤÐ²Ð¾ÑĢ Ð¸Ð»Ð°ÑģÑĮ
ĠÐ½ÐµÐ± Ð¾Ð»ÑĮ
Ġdisp ut
Ġfixed ly
ĠÐ²Ð¾ÑģÐ¿Ð¸ÑĤ Ð°Ð½Ð¸Ðµ
ĠÐ½ÐµÐ´Ð¾ÑģÑĤ ÑĥÐ¿
ĠÐ¶ÐµÐ½ÑīÐ¸Ð½ Ð°Ð¼
ĠÐ¿ÑĢÐ¸Ð·Ð½Ð° ÑİÑģÑĮ
Ġpray ed
Ġpray ers
ĠÐ±Ð»ÐµÑģÑĤÑıÑī Ð¸Ðµ
ĠÐ¾Ð±Ðµ Ð¸Ñħ
ĠÐ¿Ð¾Ð»Ð¾Ð² Ð¸Ð½Ñĥ
ĠÑĤÐ¾Ð²Ð°ÑĢÐ¸Ñī Ð°
Ġele ven
Ġnotice able
Ġintim acy
Ġeng ross
Ġsmo ked
ĠÐ½ÐµÐ¸Ð· Ð¼
ĠÐ¿Ð¾Ð»ÐºÐ¾Ð² Ð¾Ð¹
ĠÐ³Ð»ÑĥÐ± Ð¸Ð½Ñĭ
ĠÐ±Ð¾Ð»ÐµÐ· Ð½
ĠÐºÑĢÐ¾Ð² ÑĮ
ĠÐºÐ¾ÑĦ ÐµÑİ
ĠÐ¿Ð¾ÑĤÐµÑĢ ÑıÐ½
ĠÐ¾ÑģÐ² Ð¾Ð±
ĠÐºÐ½ÑıÐ¶ Ð½Ð¾Ð¹
Ġobser ve
Ġdemand s
ĠÐ¿ÐµÑĢÐµÐ½ ÐµÑģÑĤÐ¸
Ġsick ly
ĠÐºÐ°ÑĤ Ð°ÑĤÑĮÑģÑı
Ġpet ty
Ġarrange ment
ĠÐ½Ð¾Ð¶ ÐºÐ¸
Ġrequ ire
ĠÐ½Ð°Ð¼ÐµÑĢ ÐµÐ½
ĠÐ½Ð°Ð¼ÐµÑĢ ÐµÐ½Ð¸Ðµ
ĠÐĺÐ²Ð°Ð½ÑĭÑĩ ÐµÐ¼
Ġmis under
ĠÑģÐºÑĢÑĭÐ² Ð°ÑĤÑĮ
Ġunt r
Ġexam ple
ĠÐ½ÐµÐ´Ð¾Ð²Ð¾Ð»ÑĮ Ð½Ð°
ĠÐ½ÐµÐ´Ð¾Ð²Ð¾Ð»ÑĮ Ð½Ð¾
ĠÐ¾Ð±ÑĬÑıÐ² Ð¸ÑĤÑĮ
ĠÐ²Ð¾Ð·Ð²ÑĢÐ°Ñī ÐµÐ½Ð¸Ñı
ĠÐ¿Ð¾Ð»ÑĮÐ· Ð¾Ð²Ð°ÑĤÑĮÑģÑı
ĠÐºÐ°Ð¼ ÐµÑĢÐ´Ð¸Ð½
ĠÐ²ÑĭÐ³ Ð¾Ð´
ĠÐ¾Ð´Ð½Ð¸Ð¼ Ð¸
Ġreflect ion
Ġcharacter istic
ĠÑĢÐ°Ð·Ð³Ð¾Ð²Ð°ÑĢ Ð¸Ð²Ð°Ð»
ĠÐ¿Ð¾Ð»ÑİÐ± Ð¸Ð»
ĠÑģÐ¼ÑĭÑģÐ» Ðµ
ĠÑĥÐ¼ÐµÑĢ ÐµÑĤÑĮ
ĠÐ¿Ð¾Ð·Ð½Ð°ÐºÐ¾Ð¼ Ð¸ÑĤÑĮÑģÑı
ĠÐ¸ÑģÐºÑĥÑģ ÑģÑĤÐ²Ð¾
kn ife
ĠÐ²ÑģÑĤÑĥÐ¿ Ð¸ÑĤÑĮ
ĠÐ¼ÐµÐ» Ð¾Ñĩ
ĠÐ¶Ð°Ð»Ð¾ ÑģÑĤÑĮ
Ġvan ity
ĠÐ²Ð¾Ð·ÑĮ Ð¼Ñĥ
ĠÐ²Ð¾Ð·ÑĮ Ð¼Ð¸
ĠÑĥÐ±ÐµÐ¶Ð´ ÐµÐ½
ĠÐ¿Ð¾Ð¿ÑĢÐ°Ð² Ð¸ÑĤÑĮ
ĠÐ³ÑĥÐ±ÐµÑĢÐ½ÑģÐº Ð¸Ð¹
ĠÑģÐµÐ´ Ð»Ð¾
ĠÑģÐµÐ´ ÑĭÐ¼Ð¸
ĠÑĥÐ¼Ð¾Ð» ÑıÑİ
Ð¸Ð²ÑĪÐµÐ¹ ÑģÑı
ĠÐ¿Ð¾Ð¹Ð¼ Ð°Ð»
ĠÐ¸Ð·Ð±ÐµÐ³ Ð°Ð»
ĠÐ¸ÑģÑĤÐ¾ÑĢ Ð¸Ð¸
Ġsqu are
ĠÑĥÐµÐ·Ð¶ Ð°ÑĤÑĮ
ĠÐ¿Ð¾Ð´Ð± Ð¾ÑĢÐ¾Ð´
ĠÐ½ÐµÐ²Ñĭ Ð³
ĠÑĢÐ°ÑģÐ¿Ð¾Ð»Ð¾Ð¶ ÐµÐ½Ð¸Ðµ
Ġavoid ing
ĠÑģÑĥÐ´ÑĮ Ð±Ð°
Ġpun ishment
ĠÑĥÐ´Ð¸Ð²Ð»Ñı ÑİÑģÑĮ
OR E
ĠÐ¿ÑĢÐ¸ÐµÐ·Ð¶ Ð°Ð»
Ġpock ets
ĠÑģÐ¼ÑĥÑĤ Ð½Ð¾
Ġpit iful
ĠÐ²ÑĭÑģÑĤÑĥÐ¿ Ð¸Ð»Ð¸
ĠÐŁÐ¾Ð¼ ÐµÑīÐ¸Ðº
Ġcost ume
ĠÐ½ÐµÐ½Ð°Ð²Ð¸Ð´ Ð¸ÑĤ
ron ted
ĠÐ½ÐµÑĥÐ´ Ð¾Ð²Ð¾Ð»ÑĮ
ĠÐ¿ÑĢÐ¸Ð¶ Ð¸Ð¼
ĠÐ¿Ð¾Ð´Ð¾Ð· ÑĢÐµÐ²
ĠÐ·Ð½Ð°Ð¼ ÐµÐ½Ð¸
ĠÐ¿Ð¾ÑĢÐ°Ð· Ð¸Ð»Ð¾
Ġaffection ate
ĠÐ·Ð°ÑģÐ¼ÐµÑı Ð»ÑģÑı
ĠÐ½ÐµÐ·Ð°Ð²Ð¸Ñģ Ð¸Ð¼Ð¾
Ġmanage ment
ĠÑĦÑĢÐ°Ð· Ñĭ
ĠÑĨÐµÐ½ Ñĥ
ĠÐĹÐ½Ð° Ñİ
ĠÑĦÐ¸Ð»Ð¾ÑģÐ¾ÑĦ Ð¸Ð¸
ĠÐ³Ð°Ð» Ð¾Ð¿
Ð»Ð¸Ð· Ð¸Ð»ÑģÑı
ĠÑĢÐ°Ð·ÑĢÐµÑĪ ÐµÐ½Ð¸Ðµ
ĠÑĢÐ°Ð·ÑĢÐµÑĪ ÐµÐ½Ð¸Ñı
ĠÐ¢Ð²ÐµÑĢ ÑģÐºÐ°Ñı
ĠÐ¿ÑĢÐ¾Ð¸Ð·Ð² ÐµÐ»
ĠÑĢÑĥÐ±Ð°ÑĪ ÐºÐ¸
Ġbuild ings
ĠÑħÑĢÐ¸ÑģÑĤÐ¸ Ð°Ð½Ð¸
ĠÐ¼ÐµÐ»ÑĮ Ðº
Ġmeas ure
ĠÐ²ÐµÑĢÑħ Ð¾Ð¼
ĠÑģÐ¾Ð±Ð°Ðº Ñĥ
Ġbold ness
ĠÐ¿Ð¾Ð³Ð»Ñı Ð´ÐµÐ»
ĠÐ¿ÑĢÐµÑģÑĤÑĥÐ¿ Ð»ÐµÐ½Ð¸Ðµ
ĠÑĩÑĥÐ´ Ð¾
Ġincl ined
Ġincl uding
ĠÐ»Ð¾Ð² ÐºÐ¾
ĠÐ½ÐµÐ¿Ð¾Ð½ÑıÑĤ Ð½Ð¾
ĠÐ¼Ð°ÑĪ Ð¸Ð½Ð°
Ġlim its
ĠÐ³Ð°Ð· ÐµÑĤ
ĠÐĽÑĮÐ² Ð¾Ð²Ð°
ĠÑģÐ»ÑĭÑħ Ð°Ð»
ĠÑģÐ»ÑĭÑħ Ð°Ð»Ð°
Ġspr ings
ĠÐ·Ð°ÐºÐ»ÑİÑĩ Ð¸Ð»
ĠÐ±ÑĥÐ¼Ð°Ð¶ ÐºÑĥ
Ġsev ent
ĠÐ¿Ð¾Ð¿ÑĢÐ¾Ñģ Ð¸Ð»Ð°
ĠÐºÐ¾Ð² ÐµÑĢ
Ġdign ified
ĠÑĥÑģÑĤÑĢÐ¾Ð¹ ÑģÑĤÐ²Ð¾
ĠÑĪÑĥÐ± Ñĥ
ĠÑģÑĤÐ¾Ð»Ð¾Ð² Ð¾Ð¹
ĠÑĢÐ°ÑģÑģÑĤ ÑĢÐ°
ĠRE TUR
Ġcelebr ity
Ðĳ Ð¾Ð¶Ðµ
Ġid le
ĠÑģÑĥÐ¶Ð´ ÐµÐ½Ð¸Ñı
ĠÐ¥ÑĢÐ¸ ÑģÑĤÐ¾Ñģ
Ġsunsh ade
ĠÐ±ÐµÑĢÐµÐ· Ñĭ
ĠÐ½Ð°ÑģÐ»Ð°Ð¶Ð´ ÐµÐ½Ð¸Ðµ
Ġpra ised
Ġcalcul ations
ĠÑĥÐ³Ð°Ð´ Ð°Ð»Ð°
ĠÐ¿Ð¾Ð´ÑĢÐ¾Ð±Ð½Ð¾ÑģÑĤ ÑıÑħ
ĠÐ½Ð°ÑģÐ¼ÐµÑĪÐ»Ð¸Ð² Ð¾Ñİ
ĠÑģÑİÑĢÑĤÑĥ Ðº
Ġsear ch
ĠÐ¾ÑģÑĥÐ¶Ð´ Ð°ÑĤÑĮ
ĠÐ¿Ð°Ð» ÐµÑĨ
Ġbal cony
Ġdi plom
ĠÐµÐ² ÑĢÐ¾Ð¿ÐµÐ¹
ĠÐ¼Ð¾Ðº ÑĢ
Ġpen et
ĠÐļÐ¾Ð·Ð½ÑĭÑĪ ÐµÐ²Ð°
ĠÐ´Ð¾ÑģÑĤÐ¾Ð¸Ð½ ÑģÑĤÐ²Ð°
Ġinquir y
Ġinquir ingly
ĠÐ¿ÑĢÐµÐ´Ð¿Ð¾Ð»Ð¾Ð¶ ÐµÐ½Ð¸Ñı
Ġacknow ledge
ĠÐ¿Ð»Ð° Ñĩ
ĠÐ¸ÑģÑĤ Ð¸Ð½
Ġbill i
Ġwhist ling
ĠSlav onic
olog y
Ġrapt ure
ĠÐ¿ÑĢÐµÐ²Ð¾ÑģÑħÐ¾Ð´ Ð¸ÑĤÐµÐ»ÑĮÑģÑĤÐ²Ð¾
Ġaston ished
Ġstoo ped
Ġproof s
Ġadvant ages
ĠÑĤÐµÑĢÑĢÐ°Ñģ Ñĥ
ĠÐ²ÑģÐ¿ÑĭÑħ Ð½ÑĥÐ²
ĠÐ¼ÑĥÐ·Ñĭ ÐºÐ¸
Ġfashion able
anim ity
Ġinev itable
Ġvain ly
Ġobv ious
Ġfrequ ent
ĠÐ´ÑĥÑį Ð»ÑĮ
Ġimprove ments
ĠÐ´Ð°ÑĢ Ð¾Ð¼
ĠÑĩÐ¸Ð½Ð¾Ð² Ð½Ð¸Ðº
eng ers
ĠÐ½ÐµÑģÐº Ð¾Ð»ÑĮ
Ġsacr ific
ĠÐĴÐ¾Ð· Ð´Ð²Ð¸Ð¶ÐµÐ½
ĠÑģÑĤÑĥ Ð»Ð°
ĠÑģÑĤÑĥ Ð»Ðµ
ĠÐ¿Ð¾Ð´ÑĥÑĪ ÐºÑĥ
Ġpoet ic
Ġindef inite
Ġinstit ution
Ġinstit utions
Ġtreat ment
Ġeconom y
ĠÐºÐ°ÑĦÑĤ Ð°Ð½
ĠÑĢÐ°Ð·Ð¾ÑĩÐ°ÑĢ Ð¾Ð²
Ð²ÑĤÐ¾ÑĢ ÑĭÑħ
ĠÐ¿Ð¾ÑħÐ¾Ð´ ÐºÐ¾Ð¹
Ġaband on
ĠWh atever
Ġannoy ed
ĠÐ´ÑĢÐ¾Ð¶Ð°Ñī Ð¸Ð¼
Ġecst atic
ĠÐŁÐ°Ð²Ð»Ð¾Ð² Ð½Ð°
whe at
Ġswing ing
ĠÑĥÑĩÐ¸ÑĤ ÐµÐ»Ñı
Ġundert aking
ĠNe xt
Ġtem ples
ĠÑĨÐµÐ»Ð¾Ð² Ð°ÑĤÑĮ
ĠÐ·Ð²ÐµÐ·Ð´ Ñĭ
Ġsubm iss
ĠÑĤÐµÐ°ÑĤ ÑĢÐµ
Ġveh icles
ĠÑģÐ¸Ð³Ð°ÑĢ Ñĥ
ĠÐ¿ÑĪÐµÐ½Ð¸ ÑĨÑĥ
Ġer ror
Ġincess antly
ĠÑħÐ¾Ð» Ð¾ÑģÑĤ
ĠÐŁÐ¾Ðº ÑĢÐ¾Ð²
ĠÐ¿ÑĢÐµÐ´Ð¾ ÑģÑĤÐ°Ð²Ð»Ñı
ĠÐ·Ð½Ð°Ðº Ð¾Ð¼ÑĥÑİ
Ġstrict ly
ĠÐŁÑĢÐµÐº ÑĢÐ°ÑģÐ½Ð¾
ĠÐĺÐ·Ð²Ð¸ Ð½Ð¸ÑĤÐµ
Ġintellect ual
cer ity
Ġic on
ĠÐ²Ð¾ÑģÐº ÑĢÐµÑģ
Ġabsol utely
ĠÑģÑĤÐ°Ðº Ð°Ð½
Ġlect ern
Ġdesper ate
Ġattribut ed
Ġreluct antly
Ġinsp ired
ĠÐ±Ð»Ð°Ð³Ð¾Ð¿Ð¾Ð» ÑĥÑĩÐ½Ð¾
ĠÐ»Ð°ÐºÐµ ÐµÐ²
Ġsurround ings
Ġtranquill ity
ĠÑĤÑīÐµÑĤ Ð½Ð¾
ĠÐ¸ÑĤÐ°Ð»ÑĮ ÑıÐ½ÑģÐº
ĠÐ´ÐµÑĪ ÐµÐ²
ĠÐ´Ð¸Ð¿Ð»Ð¾Ð¼ Ð°ÑĤ
ĠÑĩÐ¸ÑģÐ» Ðµ
ĠÐĿÐ°ÑĤ Ð°Ð»Ð¸
ĠÐļÑĥÑĩ ÐµÑĢ
ĠÑĢÐ°ÑģÑģÐµÑı Ð½Ð½Ð¾
ĠÐ¿ÑĢÐ¸ÑģÐ¾ ÐµÐ´Ð¸Ð½
ĠÐłÐ¾ÑģÑģÐ¸ Ñİ
ĠÐ±ÐµÑģÑģÐ¾Ð·Ð½Ð° ÑĤÐµÐ»ÑĮÐ½Ð¾
Ġscient ific
ĠÐ¿ÐµÐ´ Ð°Ð³
Ġbachel or
ĠPR INC
ĠÐ³ÑĢÐ°ÑĨÐ¸ Ð¾Ð·
ĠÐ»ÐµÐ³ÐºÐ¾Ð¼ ÑĭÑģÐ»
ĠÐ³ÑĥÐ±ÐµÑĢÐ½Ð° ÑĤÐ¾ÑĢ
ĠÐ¿Ð°Ð½ÑĤÐ°Ð»Ð¾ Ð½Ð°Ñħ
Ġpavil ion
Ġwalt z
Ġske let
Ġcra w
ĠÐ´Ð¾Ð¶ Ð´Ñı
Ġlang u
Ġgymn ast
ĠÐ¾ÑĤÐ¾Ð³ Ð½Ð°ÑĤÑĮ
ĠÐĴÑģÐ¿ Ð¾Ð¼
ĠBry ansky
ĠChir ikov
Ġartific ial
ĠÐ¯ÑĪÐ² Ð¸Ð½Ð°
ĠÑĢÐµÐ·ÑĥÐ»ÑĮ ÑĤÐ°ÑĤ
Ġdegrad ation
Ġscrutin izing
Ġpotat oes
viz hen
ÑģÐ²Ð¾ ÐµÐ¼Ñĥ
ĠÐ²ÑĮÑİ Ñī
Ġorig in
Ġbos om
Ġboud oir
Ġmee k
Ġthro at
Ġinjust ice
ĠÑģÐºÐ°ÑĢ Ð»Ð°ÑĤ
ĠÐļÐ¸ÑĢ Ð¸Ð»
ĠSever al
ĠSund ay
ĠKapit onich
ĠÐĶÑĢÑĥÐ³Ð¾ Ðµ
ĠÐ¸Ð·Ð´Ð°Ð» ÐµÐºÐ°
Ġimpend ing
ĠÐķÑĢÐ³ ÑĥÑĪ
ĠÐĵÑĢÐ¸Ð½ ÐµÐ²Ð¸Ñĩ
ĠÐĹÐ´ÑĢÐ°Ð² ÑģÑĤÐ²ÑĥÐ¹
I C
I D
I L
L ord
M ind
O C
O O
P P
P rin
P ardon
R E
S erezha
U T
U n
a pping
b ish
b orn
f act
f ashion
h unting
i ate
i our
m aking
m aid
n es
n ut
p ons
p ress
r ay
r ough
w ith
Ð° ÑģÑĤÑĮ
ÑĤ ÑģÑı
ÑĤ Ð½Ñı
Ð¸ ÑĢÐ°Ð²
Ð¸ Ð½Ð¾Ñİ
Ñģ Ð¾Ð½
Ð½ ÐµÐ»
Ð½ ÐµÑĢ
Ð½ Ð·
Ð» Ð°Ð¶Ð´
ÑĢ ÑĮ
Ġa id
Ġa ch
Ġa head
Ġa rose
in cl
Ñı Ð»Ð¾ÑģÑĮ
Ġw ake
Ġw ives
ĠÑģ ÐµÐ´ÑĮ
ĠÑģ Ð¾ÑĢÑĤ
ĠÑģ ÑĨÐµÐ½
ĠÑģ Ð¸Ð¼Ð¿Ð°ÑĤ
Ġs ch
Ġs owing
Ñĩ Ð¸Ð½Ñĭ
ĠÐ¿ Ð¸
ĠÐ¿ ÑĥÐ´
ĠÐ¿ Ð°ÑģÑģ
ĠÐ² Ð½
ĠÐ² Ð¾Ð¿
ĠÐ² Ð½Ð¸Ðº
ĠÐ² ÑıÐ·
ĠÐ² Ð»Ð¾Ð¶
ĠÐ² Ð¸ÑģÐº
ĠÐ² ÑıÐ·Ð°Ð½
ĠÐ² Ð²ÐµÐ´
ĠÐ² Ð»ÐµÐ·
ĠÐ² Ð¸Ð½Ð¾
Ġh inted
re at
ÑĤÐ¾ ÑĩÐ½Ð¾
Ġo h
Ð°Ð» Ñĭ
Ð°Ð» Ðº
ou bted
it ch
it ively
Ġb or
Ġb ra
Ġb ark
Ġb uck
at ter
at isfied
at tering
Ð¼ Ð¾Ð¹
Ð¼ Ð°ÑĤ
Ð¼ Ð¾ÑĤÑĢÐ¸
ĠÐº ÑĥÐº
ĠÐº ÑĥÐ·
ĠÐº Ð²ÐµÑĢÑħ
Ġto ng
Ġto ilet
ÐµÐ½ ÑĩÐ¸Ð²
on es
Ġc her
Ġc aut
Ġf ee
Ġf are
Ġf ol
Ġf aint
ĠÐ± ÑĥÑĤ
ĠÐ± ÐµÐ¶Ð°Ð»
ĠÐ± ÑĥÐ»ÑĮ
ĠÐ± Ð¸Ð»ÑĮÑıÑĢ
Ġm al
Ġm ur
Ġm ars
Ġm ock
Ġm urd
ĠÐ´ Ð¸Ñĩ
ĠÐ´ Ð¾ÑĤÑĢ
ĠÐ´ Ð°ÑİÑĤ
ĠÐ´ Ð¾Ð³Ð¾Ð²Ð¾ÑĢ
ĠÐ´ ÑĢÐ°Ð¼
ĠÑĩ ÐµÐ»Ñİ
en ly
en ces
en ger
ÐµÐ» ÑĭÐ¹
as ure
as hes
ll ing
ĠÑĤ ÐµÐº
Ġn ast
Ġn ames
ÐµÑĢ Ð¾Ð¹
ÐµÑĢ ÐµÑĩÑĮ
ĠÐ¼ Ñı
ĠÐ¼ Ð°Ðº
Ġl one
Ġl ake
Ġl az
or is
Ġp uck
Ġp aces
ĠÐ¿ÑĢ Ð¸ÑĩÐµÑģÐº
an ed
an ka
Ġha w
Ġin h
ĠÑĥ ÑĤÐ¾
ĠÑĥ Ð¿Ð¾Ð¼
ĠÐ· Ð¾Ð²
ĠÑĢ Ð°Ðº
le ts
Ġbe lle
ow ard
Ġher o
ly up
ĠÐ½Ð° ÑĢÑĥÑĪ
Ð°Ð² ÑĭÐ¹
Ð°Ð² ÑĤÑĢÐ°Ðº
Ġe ating
Ġg e
Ġg as
Ġg ar
Ġg ig
Ġg ait
ÑģÑı ÑģÑĮ
ĠÐ¿Ð¾ ÐµÐ·Ð´Ð°
ĠÐ¿Ð¾ ÐµÑħÐ°ÑĤÑĮ
Ð³ Ð°
Ð³ Ñĥ
ic o
ld ing
ĠÑį Ðº
ĠÑį Ð»ÐµÐºÑĤÑĢ
Ġre v
Ġre ck
Ġre jected
Ġy ards
st ru
st em
st ead
Ġsa v
Ġsa nd
ÐµÐ² ÑĪÑĥÑİ
ĠÐ» Ð³Ð°ÑĤÑĮ
ĠÐ³ Ð¸Ð¿
ĠÐ³ Ð°ÑĢÐ´
Ð¸Ð² Ð°ÐµÑĤÑģÑı
Ð¸Ð² Ð°ÐµÑĪÑĮ
Ñī ÑĥÑİ
Ð°Ð´ ÐµÐ¶
Ð°Ð´ ÐºÐµ
ĠÑģÐº ÑĢÐ¾Ð¼
ÑĨ ÑĨÐ¾
Ð³Ð¾ ÑĦ
ĠÑĤÐ¾ Ð½Ðµ
ĠÐ¾ÑĤ Ð¾Ð´
ĠÐ¾ÑĤ ÐºÐ°ÑĪ
ÑĢÐ¾ ÑģÑĤÑĢÐ°Ð½
ĠÐĴ Ð¾Ð¹Ð´Ñı
ĠÐĴ Ð°ÑģÑĮ
Ð¸Ñĩ ÐºÐ°
Ġst ee
Ġst out
Ġst ub
ĠÐĿ ÑĥÐ¶Ð½Ð¾
Ð¸Ð¼ Ð¾Ð³Ð¾
Ð¸Ð¼ ÑĭÐ¹
ĠA d
Ġr ank
ĠÑģÐ² ÐµÑĩÐ¸
ĠT ake
ĠT hy
ĠÐ²Ñĭ Ð¼
ĠÐ²Ñĭ ÑĥÑĩ
ĠÐ²Ñĭ Ð³Ð»Ñı
ĠÐ²Ñĭ Ð»ÐµÑĤ
ĠÐ²Ñĭ ÑĢÐ°ÑģÑĤ
Ġan t
Ġan te
ould ered
ur ies
Ð»Ñı ÑĤÑĮ
ĠÑħ Ð¾ÑĢ
if ying
Ð¾Ðº Ð¸
Ð¾Ðº Ð¾Ð²
ĠÐ¾Ð± ÑĢÑı
ĠÐ¾Ð± Ð¸Ð¶
ĠÐ¾Ð± Ð½ÑıÐ»
ĠÐļ Ð¾Ð¼
ĠÐļ Ð°Ð¼
ĠÐļ Ð°Ð¶Ð´
ÐºÐ¾ Ñģ
ĠS e
ĠÐ¿ÑĢÐ¸ ÑģÑĤÐ°Ð²
ĠÐ¿ÑĢÐ¸ ÑģÑĤÑĥÐ¿
ĠÐ¡ Ð»ÐµÐ´
ĠÐ¡ ÐµÐ¼ÐµÐ½
Ð°Ð¶ Ð¸Ð²Ð°ÑıÑģÑĮ
ill usion
ĠK ash
ĠÐ¿Ð¾Ð´ Ð¸
ĠÐ¿Ð¾Ð´ Ð¶
Ġso il
Ġsh aw
Ð¸Ðº Ð°ÑĤ
am s
ĠÐ·Ð° ÐµÑħÐ°Ð»
Ð¾Ñģ ÑĤÐ¾Ñı
ĠÐĶ Ð°Ð²
ĠÐĶ Ð²Ðµ
ĠÐĶ Ð°Ð¼Ñĭ
and y
and al
qu estion
ĠThe atre
ĠÐĺ ÑģÐ¿
ĠÑģÐ» ÑĥÑħ
ĠÑģÐ» ÑĥÐ³
ĠÑģÐ» ÐµÐ´ÑĥÐµÑĤ
ÑĥÐ¼ ÐµÐ²
ĠÐĲÐ»ÐµÐºÑģ Ðµ
ĠV anka
ĠÐŁ Ð¾Ð²
ĠÐŁ Ð¾Ð³
ĠÐŁ Ð¾Ð·
ĠÐŁ ÑĢÐ¾Ð²
ĠÐŁ Ð¾ÐºÐ°
ĠÐĽÐµÐ²Ð¸Ð½ ÑĭÑħ
Ġsu ited
ÑĭÐ² Ð°Ð»ÑģÑı
Ġkn ock
Ġkn itting
ÐµÑĩ ÐºÐ¸
Ġab y
Ġab ashed
ÑģÑĤÐ¸ Ñİ
ĠÐ° Ð¼
ĠÐ° Ð¿Ð¿
ĠB oris
Ġal b
Ġal arm
ac hes
Ġch anced
ÑĢÐ¾Ð² Ð°ÑĤÑĮ
ÐºÐ° ÑĦ
Ð½ÑģÐº Ð¾Ð¼Ñĥ
ĠÑģÐ¿ Ð¸ÑĤ
ĠP E
ĠP erhaps
ĠO ld
Ġj ol
ĠÐ¢ Ðµ
ĠÐ¢ Ð¾Ð»
Ġli king
ĠÐ¿Ð¾Ð» Ð¾Ñģ
ĠÐ¿Ð¾Ð» Ð½Ð¾Ð¹
ĠÐľ Ð¸Ð»
ĠÐľ ÐµÑģÑĤÐ¾
ĠÐľ Ð¾Ñı
ĠM ay
ĠM iss
ĠM ais
ĠÑĪ ÐµÑĢ
ĠÑĪ Ð°ÑĦ
ĠÑĪ ÐµÐ²ÐµÐ»
ĠÑĪ ÑĥÑĤÐ¾Ñĩ
Ġv ot
Ġv ac
ÐµÐ³ Ð°Ñı
el ve
Ġout stretched
Ġwhen ce
ĠÐ²Ð¸Ð´ Ð½Ñĭ
ĠÐ²Ð¸Ð´ Ð°Ð»Ð¸
ĠÐ²Ð¸Ð´ ÑıÑĤ
ĠÐĲÐ½ Ð³
nder ing
ĠÐ²Ð· Ð±
Ġun b
Ġun question
Ð°Ð¹ Ð¼Ñĭ
Ġpo p
ĠD uc
ĠD OL
Ġim mor
ĠÐ¿ÑĢÐ¾ ÑģÑĤÑĢÐ°Ð½
ĠÐ¿ÑĢÐ¾ Ð½Ð·
ĠÐ»ÑİÐ± ÑıÑĤ
ĠÐºÑĢ ÑĭÑĪ
ĠÑĩÑĥÐ²ÑģÑĤÐ² Ð¾Ð²
Ð»Ð¾ Ñħ
Ġsp ace
Ġsp here
ÑĢÐ¾Ñģ Ð¸Ð»
ĠÐ´ÐµÐ» Ð¸ÐºÐ°ÑĤ
ĠÐ¿Ð¾ÑĤ Ñı
ci ation
ĠÐ½Ð°Ð´ Ð¾Ð»Ð³Ð¾
ĠÐ±Ð¾Ð»ÑĮ Ñİ
ÑĢÐ¸ Ð¶
Ġcom b
Ð°Ð»ÑĮ Ð½ÑĭÐ¹
Ð°Ð»ÑĮ Ð½ÑĭÑħ
ast ered
ĠÑĥÐ»ÑĭÐ± Ð°ÑĤÑĮÑģÑı
ĠÐ¿Ð¾Ðº Ð¾Ðµ
ĠÐ¿Ð¾Ðº ÑĢÑĭ
ĠÐ¼Ñĭ ÑĪ
ĠÑĢÐ°Ñģ ÑģÑĤÐ°Ð²
ĠÑĢÐ°Ñģ ÑģÑĤÑĢÐ¾Ð¹
Ġco iff
ÐµÐ½Ñı Ñħ
ÑĢÐ°Ð¶ ÐµÐ½Ð¸Ðµ
rin evich
Ġpre fer
Ġdis bel
ie ver
ÐµÑĤÑĮ ÑģÑı
ÑģÑĤÑĢ ÐµÐ±
Ġimp er
ĠÑģÐ¾Ð² ÐµÑĤÐ°
Ġshould n
ine ment
Ġoff ence
Ġoff ering
ĠG rinevich
ĠÐ§ Ð¸ÑĢ
ĠÐ§ ÐĲ
ag in
Ġjust ice
Ġover come
ĠÑĥÐ² Ð¸Ð¶Ñĥ
ĠÐ²ÐµÑĢ Ð¾Ð²Ð°Ð½Ð¸Ñı
ÐµÐ»Ð¾ Ñİ
Ġus ing
Ð»Ð¸Ð² Ð°Ñı
Ð»Ð¸Ð² Ð¾ÑģÑĤÐ¸
ĠÑĦ Ð°Ð½ÑĤ
ĠÑĦ Ð¾Ð½Ð°
ĠÑĢÐ°Ð´ ÑĥÑıÑģÑĮ
ĠÐ²Ð¾Ð· ÑĢÐ°Ð·
ĠÐĳ Ð¾Ð³
ĠÐĳ Ð»Ð°Ð³Ð¾Ð´Ð°ÑĢ
Ġcont ained
th is
ĠÑħÐ¾ÑĢÐ¾ÑĪ Ð¸Ñħ
Ġbl o
Ġbl ow
ĠÐ¿Ð» Ð°Ð²
ĠÐ¿Ð» Ð°Ð½Ð¾Ð²
ĠÐ¿Ð» ÑĥÐ³
ĠÑģÐ¾Ð± Ð¾Ð»ÐµÐ·
ĠÐ¿Ð¾Ð¼ Ð¾Ð»
ĠÐ¿Ð¾Ð¼ Ð½Ð¸ÑĤÑĮ
Ġmu ff
ĠF OR
Ð¸Ð½Ñı ÑıÑģÑĮ
Ġhapp ening
ĠÐ½ÐµÐ¿ ÑĢÐ¾
ĠÐ¿Ð¾Ð»Ð¾Ð¶ Ð¸ÑĤÑĮ
ang es
ang le
Ġgr ain
Ð¼Ð¸ ÑģÑĤÑĢ
ĠÐ¿ÑĢÐ°Ð² Ð¾Ð¹
Ġen vel
ĠÐ½Ð¾Ð² Ð¾ÑģÑĤÐ¸
ĠÐ½Ð°Ñĩ Ð°Ð»ÑģÑı
ĠÐ½Ð°Ñĩ Ð°ÑĤÑĭÐ¹
Ġpart ners
ĠÐ²ÐµÑģ Ð½Ð°
ĠÐ²ÐµÑģ Ð½Ñĭ
ĠÐ±ÐµÐ· Ð¾
ĠÐ±ÐµÐ· Ð·
av iour
ĠÐ±ÑĢÐ°ÑĤ Ðµ
ĠÑĢÐµÑĪ Ð¸Ð²
ĠÐ½ÑĥÐ¶ Ð½ÑĭÐ¼
ÑĢÐµÐ´ ÐµÐ»Ñı
ĠÐ£ Ð»ÑĭÐ±
ĠÑĢÐ°Ð·Ð³Ð¾Ð²Ð¾ÑĢ Ñĥ
Ġwr ites
cl ass
Ġthr ong
Ġrec ently
Ġfl o
Ġfl ick
ĠÐ¿ÑĢÐ¾Ð´ Ð°ÑĤÑĮ
ĠÐ¿ÑĢÐµÐ¶ Ð½ÐµÐ³Ð¾
Ġapp ly
Ġapp ortion
ĠÐ·Ð°Ð¿ Ð°Ñģ
ĠÐ·Ð°Ð¿ ÐµÑĩÐ°ÑĤ
ĠÐ²ÑĭÑĢÐ°Ð¶ ÐµÐ½Ð¸Ð¸
Ġcle ared
Ġper ception
ĠÑĢÐ°Ð·Ð² Ð»ÐµÑĩ
ĠÐ»ÑĥÑĩ ÑĪÐ¸Ð¹
ĠÐ»ÑĥÑĩ ÑĪÐ¸Ðµ
ĠÐ¿ÑĢÐ¸Ð² ÐµÑĤ
ĠÐ¿ÑĢÐ¸Ð² ÑıÐ·Ð°Ð½
ĠÐºÑĢÐ°Ñģ Ð¾ÑĤÑĥ
ĠÐ·Ð°Ðº Ð»Ð°Ð´
ĠÐ·Ð°Ðº Ð¾Ð½Ñĭ
ĠÑĥÐ²Ð¸Ð´ Ð¸ÑĤ
ĠÑĥÐ²Ð¸Ð´ Ð¸Ð¼ÑģÑı
memb er
Ġmean while
Ġret ained
ĠÐ´Ð¾Ðº ÑĤÐ¾ÑĢÑĥ
ĠÐ´Ð¾Ðº Ð¾Ð½Ñĩ
ĠÐ¼Ð¾ Ð¸Ð¼
Ð°ÑĤÐµÐ»ÑĮ Ð½Ð°Ñı
ĠÐºÐ°ÑĢ ÑĤÐ¾ÑĦ
Ġyoung est
ĠÑĤÐ² Ð¾ÑĢ
Ġmind s
ÑĩÐ¸Ðº Ðµ
not hing
ÑģÑĤÑĥÐ¿ Ð¸Ð»Ð¾
ĠÑĥÐ± Ð¸Ð¹
ĠÑĥÐ± ÑĭÑĤ
ĠÐ¿Ð¾Ñģ ÐµÑĤ
ĠÐ¿Ð¾Ñģ ÑĢÐµÐ´
ĠÐ¾ÑģÑĤÐ°Ð½Ð¾Ð² Ð¸ÑĤÑĮ
Ð¸ÑĩÐµÑģÐº Ð¸Ðµ
ĠÐ²ÑĭÑģ Ñĥ
ĠÐ²ÑĭÑģ Ð¾Ð²
ĠÐ²ÑĭÑģ Ð¾ÑĤÑĥ
Ð¼Ð¾ ÐµÐ¼Ñĥ
ĠÑĩÐµÑĢ ÑĤÑĥ
ĠÑĩÐµÑĢ ÑĤÐ°
ĠÐ³ÑĢÐ°ÑĦ Ð¸Ð½ÐµÐ¹
ĠÐĴÐ°ÑĢ Ñı
Ġact ive
Ġact ually
ĠÐ¶Ð¸Ð² ÑĥÑĤ
ĠÐ´ÐµÐ² Ð¸Ñĩ
ĠÐ¾Ðº Ð½Ñĥ
Ġconf ronted
ĠÐ´Ð¾Ð» Ð³Ð¸
ĠÑĥÐ¿ Ð°Ð»Ð°
ĠÑĥÐ¿ ÑĢÐ°Ð²
Ġcal ves
Ġheart s
Ġdist ressing
Ġinv itation
ĠÐ·Ð² Ð°Ð»
Ġref erence
ĠÐ¿Ð¾Ð´ÑĥÐ¼ Ð°Ð¹
Ð°ÑİÑī Ð¸Ð¼Ð¸
Ð°ÑİÑī Ð¸Ð¼ÑģÑı
ĠÐ¿Ð¾ÑģÐ»ÐµÐ´ Ð½ÐµÐ³Ð¾
ĠÐ¾Ð±ÐµÐ´ Ð°Ð»
ĠÑģÐ¿Ð¾ÐºÐ¾Ð¹ Ð½ÐµÐµ
ĠÑģÐ»ÑĭÑĪ Ð½Ð¾
ĠÑģÐ»ÑĭÑĪ Ð°Ð»Ð¸
ĠÑģÐ»ÑĭÑĪ Ð°Ð»Ð¸ÑģÑĮ
ĠÐ·Ð°Ð´ ÑĭÑħ
ĠÐ´Ð¾ÑĢ Ð¾Ð³Ð¾
ĠÐ¸Ð½ÑĤÐµÑĢÐµÑģ ÑĥÐµÑĤ
Ġimpo ssi
Ġend s
Ġgu ided
Ġreg ul
ĠÐ¿ÑĢÐ¸ÑıÑĤ Ð½ÐµÐµ
ert he
Ġmor ose
Ġaff ect
Ġset ting
Ġside ways
ĠÐ¼ÑĥÑĩ Ð°ÑĤÑĮÑģÑı
eep ing
mer ly
ĠÐ¿ÑĢÐ¾ÑĪ Ð»Ð¾Ð¼
Ġinter l
ĠÐ»ÐµÐ³ Ð»Ð°
ĠÐºÐ¾Ð½ ÑĨÑĥ
ĠÐ¿ÑĢÐ¾ÑĤÐ¸Ð² Ð½Ñĭ
ĠÐ´ÐµÑĢÐµÐ² Ð½Ñı
ĠÐ¿Ð¾Ð»ÑĥÑĩ Ð°Ð»
Ġbre athe
ĠÐ±ÑĭÐ² ÑĪÐ¸Ð¹
ĠÐŀÑĤ Ð²
ĠÐ¾Ð±ÑĢÐ°ÑĤ Ð¸Ð»
ĠÐ¼ÑĥÐ¶Ð¸Ðº Ñĥ
ĠÐ¼ÑĥÐ¶Ð¸Ðº Ð¾Ð¼
ĠSt ill
ĠÐºÐ°Ð¶Ð´ Ð¾Ð¼Ñĥ
ĠÐºÐ°Ð¶Ð´ ÑĭÐ¼
ĠÑģÐµÐ¼ ÑĮ
ĠÑģÐµÐ¼ ÑĮÑı
Ġfell ows
Ġsuff ic
Ġsuff used
Ġreal izing
Ð°ÐµÐ¼ Ð¾Ðµ
ÑĥÑģÐº Ð°Ð¹
Ġaw aken
ĠÑģÐ»ÑĥÑĩ Ð°Ð»Ð¾ÑģÑĮ
ĠÑĥÐ´Ð¸Ð² Ð»ÐµÐ½
ĠÐ¿Ð¾Ð¿ Ð°Ð»
ĠÐ¿Ð¾Ð¿ Ð°Ð´
Ġbus h
Ġdr own
Ġir ony
ĠÑģÐ²Ð¾Ð¹ ÑģÑĤÐ²ÐµÐ½Ð½Ð¾Ñİ
Ġbelie ver
ĠÐ³Ð¾ÑĢ Ð´Ð°
Ġbo g
ĠÑĢÐµÐ± ÑıÑĤÐ°
ĠÐ¾ÑĤÐ´ Ð°Ð»ÑģÑı
ĠÑĢÐ°Ð·Ð´ Ð°Ð»ÑģÑı
op en
ĠÐ´ÑĥÑĢ Ð½ÑĭÐ¼
ĠÐ´ÑĥÑĢ Ð½Ð¾Ðµ
ĠÐ´ÑĥÑĢ Ð½Ð°Ñı
Ġcomp rehe
ĠÑĢÐ°ÑģÐ¿ ÑĢÐ¾ÑģÑĤÑĢÐ°Ð½
ĠÐ½ÐµÐ¿ÑĢÐ¸ÑıÑĤ Ð½Ð¾Ð³Ð¾
ĠÐ½ÐµÐ¿ÑĢÐ¸ÑıÑĤ Ð½Ð¾ÑģÑĤÐ¸
Ġsoul s
Ġinf at
Ġinf er
ĠÐ½Ð°ÑħÐ¾Ð´ Ð¸Ð»Ð¸ÑģÑĮ
ĠÑģÐ²ÐµÑĤ ÑģÐºÐ¸Ñħ
ĠÐ¿ÑĢÐ¾ÑģÑĤ Ñĭ
Ġbeh ave
ĠÑĥÑĩ Ð¸ÑĤÑĮÑģÑı
ĠÑĪÐ°Ð³ Ñĥ
ĠÑĪÐ°Ð³ Ð°Ñħ
ĠÑĥÐ·Ð½ Ð°Ð²Ð°Ð»
ÑģÐºÐ¾ÑĢ Ðµ
ĠÐ¿Ð¾Ð´Ð½Ñı ÑĤ
ĠÐŀÐ±Ð»Ð¾Ð½ÑģÐº Ð¸Ð¼
ĠÐ±ÐµÐ» ÑĭÐ¹
Ġins ist
ĠÑģÑĩÐ¸ÑĤ Ð°ÐµÑĤ
ĠÐ¿ÑĢÐ¸Ð½ ÑıÑĤ
ĠÐ²ÑĭÐ¿ Ð¸Ð»
ĠÐ²ÑĭÐ¿ Ð¸ÑĤÑĮ
ĠÐ³Ð»Ð°Ð² Ð½ÑĭÐ¼
ĠÐ´Ñĥ ÑĢÐ°
ĠÐ²ÐµÑģÐµÐ» Ð¾Ð³Ð¾
ĠÐ²ÐµÑģÐµÐ» ÐµÐµ
ĠÐ¸Ð·Ð² Ð¾Ð»
Ġconsider ations
Ġsec ure
Ġdef ending
ĠÑĥÐ³ Ð¾Ð²Ð°ÑĢ
ĠÐŀÐ´ Ð½Ð¸
ĠÐ²ÑĭÑħÐ¾Ð´ Ð¸ÑĤ
ĠÐ²ÑĭÑħÐ¾Ð´ Ð¸Ð»Ð¾
ĠTHE Y
ĠÐ²ÑĭÐ± Ð¾ÑĢÐ¾Ð²
ĠÐ²ÑģÑĤÑĢÐµÑĩ Ð°ÑĤÑĮÑģÑı
Ð½Ð¸Ð² Ð°Ñı
Ġbed s
Ġbed side
ĠÐ½Ð°ÑĪ Ð¸Ñħ
Ġrest less
ĠÑģÐ»ÑĥÐ¶ Ð¸ÑĤÑĮ
Ġsupp ressed
ĠÐ¿Ð¾Ð³ Ð»Ð¾Ñī
ĠÐ¿Ð°ÑĢ ÑĤÐ¸Ñİ
ĠÐ·Ð°Ð½Ð¸Ð¼ Ð°Ð»
ĠÐ·Ð°Ð½Ð¸Ð¼ Ð°ÑĤÑĮÑģÑı
Ġimag inary
ĠÐ¼Ð°Ð»ÐµÐ½ÑĮ ÐºÐ¾Ð³Ð¾
ĠÐ¼Ð°Ð»ÐµÐ½ÑĮ ÐºÐ¾Ðµ
Ġkiss es
ĠÐ²ÑģÑĤÑĢÐµÑĤ Ð¸Ð»Ð¸
ĠÐ²ÑģÑĤÑĢÐµÑĤ Ð¸Ð»Ð¸ÑģÑĮ
ĠÐľÑĭ ÑģÐ»Ð¸
Ġdisc ont
ĠÐ¿Ð¾Ð± Ð»ÐµÐ´
ĠVas ka
ĠÑĥÐ´Ð¾Ð²Ð¾Ð»ÑĮ ÑģÑĤÐ²Ð¸Ð¹
Ġvisit ing
ĠÐ²Ð°ÑĪ ÐµÐ¼
ĠÐ²Ð°ÑĪ Ð¸Ñħ
ĠSh ould
Ġopp ress
Ġinc ome
Ġinc apable
ĠÐļÐ°ÑĤ Ñı
ĠÑģÑĤÑĢÐ°ÑĪ Ð½ÑĭÐ¹
Ġjo c
ĠÐ´Ð°Ð¼ Ñĥ
ĠÐ´Ð°Ð¼ Ð°Ð¼
ĠÐ´Ð°Ð¼ Ð°Ð¼Ð¸
ĠÑĤÐ¾Ð½ ÐºÐ¸Ð¹
Ġprom inent
ĠÐ´Ð°Ð² Ð°Ð»Ð¾
ĠÐ°Ð½ Ð°Ð»Ð¾
ĠJ ew
oun ter
Ġarri ve
ĠÐ¿Ð¾Ð²ÐµÑĢ Ð¸ÑĤÑĮ
ĠÑģÐµÑģÑĤ ÐµÑĢ
Ġadm iring
ĠÐºÐ°Ð± Ð»Ñĥ
ĠÐ¼ÐµÑĢ Ð·
ĠÐ¿Ð¾ÑģÑĤ ÐµÐ»ÑĮ
ho f
Ġsn at
Ġpoint s
Ġbright er
ĠÑģÐ°Ð´ Ð°
Ð½ÐµÑĪ ÑĮ
Ġball ot
Ġcr ack
Ġcr um
Ġcr ime
Ġcr acked
ĠÐ¾ÑħÐ¾ÑĤ Ðµ
ĠÐ¾ÑħÐ¾ÑĤ Ð½Ð¾
ĠÐ¾ÑħÐ¾ÑĤ Ð½Ð¸Ñĩ
ĠÐ½Ð¾Ñĩ ÑĮÑİ
ĠÑĤÐµÐ» Ð¾Ð¼
ĠÐ¿ÑĢÐµÐ· Ð¸ÑĢÐ°Ð»
ÑĤÐ¾Ñĩ ÐºÐ¸
Ġcontr ad
ĠÐ·Ð°Ð³Ð¾Ð²Ð¾ÑĢ Ð¸ÑĤÑĮ
ĠÐ·Ð°Ð³Ð¾Ð²Ð¾ÑĢ Ð¸Ð»Ð¸
ĠÑģÐ¾Ð³Ð»Ð°Ñģ Ð¸Ðµ
ĠÐ¿ÐµÑĢÐµÑģÑĤ Ð°Ð²Ð°Ð»
Ġarr anging
ĠÐºÑĥÐ¿ ÑĨÐ°
ĠÐºÑĥÐ¿ ÐµÑĨ
ĠÐ»ÐµÑĤ Ð¾Ð¼
ĠÑĢÑĥÐ± Ð°Ñħ
ĠÐ²ÑĭÐ· Ð´Ð¾ÑĢÐ¾Ð²
ĠÑģÑĤÐ°ÑĢÐ¸Ðº Ñĥ
ĠÑģÑĤÐ°ÑĢÐ¸Ðº Ð¾Ð¼
ON E
Ġdro pping
Ġexist s
ĠÑģÑĤÑĢÐ°Ð½ Ð½Ð°Ñı
ĠÐĿÐ°Ð´ ÐµÑİÑģÑĮ
ĠÐ¿ÑĢÐµÐ´ÑģÑĤÐ°Ð²Ð»Ñı Ð»Ð°ÑģÑĮ
Ġpret end
ĠÐ³Ð»ÑĥÐ¿ Ð¾ÑģÑĤÐ¸
ĠÐ¸ÑģÐ¿ÑĥÐ³ Ð°Ð»ÑģÑı
Ġfresh ness
ĠShcherbat skaya
ĠÑģÑĢÐµÐ´ Ðµ
Ġlad s
ĠÑĢÐ°Ð² Ð½Ð¾Ð¼
Ġtender ly
Ġpu dding
ĠÐ¾Ð¿ÑĢÐµÐ´ÐµÐ» Ð¸ÑĤÑĮ
ĠÐ¾Ð¿ÑĢÐµÐ´ÐµÐ» ÐµÐ½Ð½Ð¾Ðµ
Ġinqu iring
ĠÑĥÐ´ÐµÑĢÐ¶ Ð°ÑĤÑĮÑģÑı
ĠÐ°Ð½Ð³ ÐµÐ»
ĠÐ½ÑĢÐ°Ð² Ð¸ÑĤÑģÑı
ĠÑĢÐµÐ² Ð½Ð¾Ð²
eren ces
ĠÐ¿ÑĢÐ¸Ð²ÑĭÑĩ ÐºÑĥ
Ð¸Ð± Ð°ÑıÑģÑĮ
ĠÑģÑĥÑīÐµ ÑģÑĤÐ²Ð°
ÑĪÐ¸Ð¼ ÑģÑı
ĠÐ´Ð°Ð» ÐµÐµ
ĠÐ¼ÐµÑĪ Ð¾ÑĩÐµÐº
ĠÑģÐ²Ð¾Ð±Ð¾Ð´ Ðµ
ĠÑģÐ²Ð¾Ð±Ð¾Ð´ Ð½Ð¾
ĠÐļÐ½Ñı Ð¶
ĠÐ±Ð»Ð¸Ð· ÐºÐ¸Ñħ
ĠÐºÐ°Ð· Ð°Ð»Ð°ÑģÑĮ
ĠÐ¿ÑĢÐ¸ÑģÐ» Ð°ÑĤÑĮ
Ġtra it
ĠÐ½Ð°Ð·ÑĭÐ² Ð°ÑĤÑĮ
ĠÐ¾ÑĪÐ¸Ð± ÑģÑı
ĠÐ¾ÑĪÐ¸Ð± ÐºÐ°
Ġsoft ened
ĠÐĵÐ¾Ð»ÐµÐ½Ð¸ÑīÐµÐ² Ñĥ
ĠÐ²ÐµÑī ÑĮ
ĠÐ´Ð»Ð¸Ð½ Ð½ÑĭÐ¹
Ġru le
ĠÑĪÐµÐ» ÐºÐ¾Ð²
ĠÐ¿ÑĢÐ¾Ñī Ð°Ð¹
ĠÐºÑĢÑĭ ÑĪÐ¸
ĠÐ¾Ð±ÑĭÐºÐ½Ð¾Ð² ÐµÐ½Ð¸Ñİ
ĠÐ¾Ð±ÑĭÐºÐ½Ð¾Ð² ÐµÐ½Ð½Ð¾Ð³Ð¾
ĠÐ·Ð°ÑģÑĤ ÐµÐ½ÑĩÐ¸Ð²
Ġexperien cing
Ġport ico
ĠÐ±Ð»Ð°Ð³Ð¾Ð´Ð°ÑĢ ÐµÐ½
ĠÐ·Ð» Ð¾Ð¹
Ġnear ness
ĠÐ¾ÑĤÐºÐ°Ð· Ð°ÑĤÑĮÑģÑı
Ġcoll e
ĠÐ¡Ðº Ð°Ð¶Ð¸ÑĤÐµ
Ġprof its
Ġprof itable
ĠÐ¾Ð³ÑĢÐ¾Ð¼ Ð½Ð¾Ðµ
ĠÑģÐµÑĢÑĮÐµÐ· Ð½Ð¾Ðµ
ĠÑģÐ»Ð°Ð² ÑıÐ½ÑģÐº
ĠÑģÐ¿Ð¾ÑĢ Ð°
ĠÐ¿Ð»Ð°ÑĤ Ð¾Ðº
ĠÐ¿Ð¾ÑĨÐµÐ»Ð¾Ð² Ð°ÑĤÑĮ
gu ard
Ġswe ets
ĠÐ¿ÑıÑĤÑĮ Ð´ÐµÑģÑıÑĤ
Ġaccount s
ĠÐ¿Ð¾Ð³Ð¾Ð²Ð¾ÑĢ Ð¸Ð¼
Ġsum m
ĠÐ¾ÑĦÐ¸ÑĨ Ð¸Ð°Ð»ÑĮ
ĠÑģÑĤÐ°Ð½ ÐµÑĤ
ĠÑģÑĤÐ°Ð½ ÑĨÐ¸Ñİ
ĠÐ¾ÑĤÑĬ ÐµÐ·Ð´Ñĥ
ĠÐľÐ¾Ð¶ Ð½Ð¾
ĠÑģÐµÐ¼ÐµÐ¹ Ð½ÑĭÐµ
ĠÑģÐµÐ¼ÐµÐ¹ ÑģÑĤÐ²Ð¾
ĠÐºÑĢÑĭÐ»ÑĮ ÑıÐ¼Ð¸
ĠÐ½Ð°Ð» ÐµÐ²Ð¾
Ġelect ric
Ġlean ed
ĠÐ²Ð¾Ð·Ð± ÑĥÐ¶Ð´Ð°
ĠÐ½Ð°ÑģÐ¼ÐµÑĪ ÐºÐ¸
ĠÐ½Ð°ÑģÐ¼ÐµÑĪ Ð»Ð¸Ð²Ð¾
ĠÐ¿Ð¾Ð»Ð¾Ð² Ð¸Ð½Ð°
Ġpol ite
Ġpassion ately
ĠÐŁÐµÑĤÑĢÐ¾Ð² Ð¸Ñĩ
ĠÐ¿ÑĢÐµÐ·ÑĢ ÐµÐ½Ð¸Ñı
Ġmil es
Ġnews p
Ġeng ine
Ġscre wing
Ġscre wed
ĠÑģÐ¾Ð¾Ð±Ñī Ð¸Ð»
ĠÐ¿ÑĢÐ¾Ð± Ð¾Ð²Ð°Ð»
ĠÐ¾Ð±ÑĬÑıÑģÐ½ Ð¸Ð»
head ed
ĠÐ¿ÑĥÑĤ ÐµÐ¼
ĠBe zz
ĠÐ¿ÑĥÑģÑĤ Ñı
ĠÐ¿Ð¾ÐµÐ·Ð´ ÐºÑĥ
ĠÐºÐ¾ÑĦ ÐµÐ¹
ĠÑģÑĤÐ°Ð½Ð¾Ð² Ð¸Ð»Ð°ÑģÑĮ
ĠÐ¿Ð¾ÑĤÐµÑĢ Ñı
ĠÐ¼ÑĭÑģÐ» ÐµÐ½Ð½Ð¾
ĠArkady evich
ĠU nder
ĠÑĩÐ»ÐµÐ½ Ð°
ĠÑģÐ¾Ð²ÐµÑĤ ÑĥÑİ
ĠÐ´Ð¾Ð»Ð³ Ð¾Ð²
ĠÐ´Ð¾Ð»Ð³ Ð¾Ð¼
ĠÑģÐ¾Ð¾Ð±ÑĢÐ°Ð¶ ÐµÐ½Ð¸Ð¹
ĠÐ½ÐµÐ¾Ð±ÑĭÐºÐ½Ð¾Ð² ÐµÐ½Ð½Ð¾Ðµ
Ġarrange ments
Ġver sts
ĠÑģÐ¶ Ð¸Ð¼
ĠÑģÐ¶ Ð¸Ð¼Ð°Ñı
Ġfour th
Ð¡ Ð¢Ð¬
ÑĤÐ¾Ð» ÐºÐ¾Ð²
Ġrequ est
ĠÐ½ÐµÐ²ÐµÑĢ Ð½Ð¾ÑģÑĤÐ¸
ÐµÐ½Ð¸ÑĤ ÑģÑı
ĠÑģÐºÑĢÑĭÐ² Ð°Ñı
ĠÑĨÐ²ÐµÑĤ Ð°Ð¼Ð¸
ĠÐ½ÐµÐ´Ð¾Ð²Ð¾Ð»ÑĮ ÑģÑĤÐ²Ð¾
ĠÐ¾Ð±ÑĬÑıÐ² Ð¸Ð»Ð°
ĠÐ¸Ð³ÑĢ Ð°Ñı
ĠÐ½Ð°Ð¿ÑĢÑıÐ¶ ÐµÐ½Ð¸Ðµ
ĠÐ½Ð°Ð¿ÑĢÑıÐ¶ ÐµÐ½Ð¸Ñı
ĠÐ±Ð°Ð± Ñĭ
ĠÑĢÐµÐ´ ÐºÐ¸Ðµ
ĠÐĴÐµÑĢ Ð¾ÑıÑĤÐ½Ð¾
ĠÐ½Ð°ÑĩÐ¸Ð½Ð° ÑĤÑĮ
ĠÐ½Ð°ÑĩÐ¸Ð½Ð° ÐµÑĤÑģÑı
ĠÑĥÐ±ÐµÐ´ Ð¸Ð»ÑģÑı
ĠÐ¿Ð¾ÑģÑĤÐ¾Ñı Ð½
Ġhumili ated
ĠÐ½ÐµÐº ÑĢÐ°ÑģÐ¸Ð²
Ġbir ches
ĠMe et
ĠMe mber
Ġreflect ions
rehens ion
ĠÐ¾Ð±ÑĭÑĩ Ð½ÑĭÐ¼
ĠÐ¸ÑģÐºÑĥÑģ ÑģÑĤÐ²Ð°
isfact ory
velop ed
ĠÑĥÐ½Ð¸Ð¶ ÐµÐ½Ð¸Ðµ
ĠÑĥÐ½Ð¸Ð¶ ÐµÐ½Ð¸Ñı
ĠÐ¡ÐµÑĢÐ¿ÑĥÑħÐ¾Ð² ÑģÐºÐ¾Ð³Ð¾
ĠÐ¶Ð°Ð»Ð¾ ÑģÑĤ
ĠÐ³Ð¾ÑģÑĤÐ¸ Ð½Ð¸ÑĨÑĭ
ĠÐ¿Ð¾ÐºÐ°Ð·ÑĭÐ² Ð°ÑĤÑĮ
Ġregret ted
ĠÐ»ÑĥÐ³ Ñĥ
ĠÐ¡ÑĤÐ°ÑĢ Ð¸Ðº
ĠÐ¡ÑĤÐ°ÑĢ ÑĭÐ¹
ĠÑĥÐ¼Ð¾Ð» Ðº
ĠÐ±Ð¾Ð³Ð°ÑĤ ÑģÑĤÐ²Ð¾
ĠÐµÐ´Ð¸Ð½ ÑģÑĤÐ²ÐµÐ½Ð½Ð¾Ðµ
ĠÐ¸ÑģÑĤÐ¾ÑĢ Ð¸Ñı
Ġcru elt
ĠÐ´Ð¾Ð¿ ÑĥÑģÐº
Ġgall ery
Ġenjoy ed
Ġenjoy ment
ĠÐ²ÑĭÐ·Ð² Ð°ÑĤÑĮ
Ġpun ished
Ġyouth ful
ĠAl though
Ġrace course
ĠÑĥÐ´Ð¸Ð²Ð»Ñı ÑıÑģÑĮ
ĠÐ¼Ð½Ð¾Ð³ Ð¸Ñħ
ĠÐ¿ÐµÑĤÐµÑĢÐ±ÑĥÑĢÐ³ ÑģÐºÐ¾Ð³Ð¾
ĠÐ¶ÐµÐ½Ð¸ ÑħÐ°
ĠÐ¿ÑĢÐ¸ÐµÐ·Ð¶ Ð°Ð¹
ĠÐ¸ÑģÐ¿Ð¾Ð» Ð½Ð¸ÑĤÑĮ
Ġchest nut
Ġdelic acy
Ġhind er
ĠÐ²ÑĭÐ³Ð¾Ð²Ð¾ÑĢ Ð¸Ð»
ĠÐ¿ÑĢÐ¸Ð²ÐµÐ· Ð»Ð°
Ġactiv ities
ĠÐ¿Ð¸ÑģÑĮÐ¼ Ðµ
ĠChristian ity
ĠÐ¿ÑĢÐ¸ÐµÐ¼ Ñĭ
ĠÐļÐ°ÑĢÐµÐ½Ð¸Ð½ ÑĭÐ¼
ĠÐ½ÐµÐ´Ð¾ÑģÑĤÐ°ÑĤ Ð¾Ðº
ĠÐ½ÐµÐ´Ð¾ÑģÑĤÐ°ÑĤ ÐºÐ¸
Ġpolit ics
Ġfulf illed
Ġtast es
Ġfif teen
Ġear lier
ĠÐ»ÐµÐ² ÑĥÑİ
Ġentr usted
ĠÐ¼ÑĭÑģÐ»Ñı Ð¼
ĠÐ²Ð½ÑĥÑĤÑĢÐµÐ½ Ð½ÐµÐ¹
Ġfail ed
ĠÑĥÑħÐ¾Ð´ Ð¸ÑĤÑĮ
ĠÐ¸Ð·Ð²Ðµ ÑģÑĤÐ¸Ñı
Ġtimid ity
ĠÐ¿ÑĢÐ¾Ð¸Ð·Ð² ÐµÐ»Ð¸
Ġrejo iced
Ġleg itim
ĠÐ¾ÑĤÐ²ÑĢÐ°Ñī ÐµÐ½Ð¸Ñı
ĠÐ½ÐµÐ²ÐµÑģÑĤ Ñĥ
ĠÐ¿ÑĢÐ¸ÑģÑĤ Ð°Ð»ÑĮÐ½Ð¾
ĠOr der
Ġrapid ity
ĠÑĦÐ¸Ð³ÑĥÑĢ Ðµ
ĠÐ²ÐµÐ»Ð¸ÐºÐ¾Ð´ÑĥÑĪ Ð¸Ðµ
ĠÑģÑĥÑħ Ð¾
ĠÐºÐ°Ñĩ ÐµÑģÑĤÐ²Ð°
ĠÐ¼Ð°ÑĪ Ð¸Ð½Ñĭ
Ġrub bish
Ġviv id
ĠÐ¿Ð¾ÑĢÑĤ ÑĦ
ĠÐ´Ð²Ð¸Ð¶ÐµÐ½Ð¸Ñı Ð¼Ð¸
ĠÐ´Ð¾Ð¶Ð´ ÑĮ
ĠÐ¾ÑĤÑĤ Ð°Ð»Ðº
ĠPav a
Ġunus ually
ĠÑģÐ¾ÑģÑĤÐ°Ð²Ð»Ñı Ð»Ð¾
ĠEurope an
ĠÐŁÐµÑģÑĨÐ¾Ð² ÑĭÐ¼
ĠÑįÐºÐ¸Ð¿Ð°Ð¶ ÐµÐ¹
Ġid i
Ġdim in
Ġradi ance
ĠÐŁÑĢÐµÐ´ ÑģÑĤÐ°Ð²
ĠÑģÐ¾Ð±ÑĢ Ð°Ð»Ð°ÑģÑĮ
Ġrefer red
Ġauthor ity
Ġcro quet
ĠÐ¸Ð·Ð²Ð¸ Ð½Ð¸
ĠÐ¸Ð·Ð²Ð¸ Ð½Ð¸ÑĤÐµ
ĠÐ½Ð°Ð´ÐµÐ² Ð°Ñı
Ġcomr ades
ĠÑĥÐ´Ð¾Ð²Ð»ÐµÑĤÐ²Ð¾ÑĢ ÐµÐ½Ð¸Ñı
ĠÑģÐ¾Ð±Ð¸ÑĢ Ð°Ð»ÑģÑı
ĠÐ¿ÑĢÐ¸Ð±Ð»Ð¸Ð¶ ÐµÐ½Ð¸Ðµ
Ġconduct ed
ĠÑĥÑĩÑĢÐµÐ¶Ð´ ÐµÐ½Ð¸Ðµ
ĠÑĥÑĩÑĢÐµÐ¶Ð´ ÐµÐ½Ð¸Ñı
Ġeleg ance
ĠUn iversity
ĠÑģÑİÑĢÑĤÑĥ ÐºÐµ
ĠÑģÐ°Ð¿Ð¾Ð³ Ð¸
bo x
ĠÐºÐ¾Ð»ÑĮ ÑĨÐ°Ð¼Ð¸
Ð¸Ð²ÑĪÐµÐ¼Ñĥ ÑģÑı
ĠÑĢÐ°ÑģÐºÐ°Ñı Ð½Ð¸Ðµ
Ġsin cerity
Ġroll ed
ĠÐŁÐ°ÑĢ Ð¸Ð¶
ĠÐ¾ÑĤÐ²ÐµÑĢ Ð½ÑĥÐ»ÑģÑı
Ġproble ms
Ġgrow th
Ġharness ed
ĠÑĥÑģÑĤÐ°Ð½Ð¾Ð² Ð¸Ð»Ð¾ÑģÑĮ
ĠÐºÐ¾ÑĢÐ¼Ð¸Ð»Ð¸ ÑĨÑĭ
ĠÐ½ÐµÐ³ Ð¾Ð´
Ġren ewed
ĠÑģÐ²Ð°Ð´ÑĮ Ð±Ñĭ
ÑĢÑĥÐ± Ð»ÐµÐ²
ĠSlav s
ĠÐ²Ð¾Ð·ÑĢÐ°Ð¶ Ð°Ð»
ĠÐĳÐµÐ· Ð·ÑĥÐ±
ĠÐºÐ°ÑĢÑĤÐ¾Ñĩ ÐºÐ¸
ĠÐ´Ð²Ð¾ÑĢÑı Ð½Ðµ
Ġrapt ur
ĠTurovts in
glass es
Ġsong s
Ġmess enger
Ġmaint ained
ĠÑĥÐ½Ñĭ Ð»Ð¾
ĠÐ·Ð°Ð¶ ÐµÐ³
Ġbutt on
ĠÑĪÐµÐ´ ÑĪÐµÐ³Ð¾
Ð»Ð¾Ð½Ð¸Ð² ÑĪÐ¸ÑģÑĮ
ĠÑĤÑĢÐµÐ² Ð¾Ð¶
ĠÐ·Ð°ÑĤÑĢÑĥÐ´Ð½ ÐµÐ½Ð¸Ñı
ĠÐ³ÑĥÐ²ÐµÑĢÐ½Ð°Ð½ÑĤ ÐºÐ¾Ð¹
ĠÐľÐ°ÑħÐ¾ÑĤ Ð¸Ð½
ĠÐ¿ÑĤÐ¸ ÑĨÐ°
ĠÐ²ÑĭÑĤ ÐµÐº
Ġamuse ments
Ġfever ish
Ġcaress es
Ġfrequ ently
ĠÑĤÐµÑĢÐ¿ ÐµÑĤÑĮ
ĠÐļÐ¾ÑĢÑģÑĥ Ð½ÑģÐº
ĠÐ¿Ð¾Ð·Ð²Ð¾Ð½ Ð¸Ð»
ĠÑĩÑĤ ÐµÐ½Ð¸Ðµ
ĠÐ¿ÑĢÐ¸Ð¿Ð¾Ð´ Ð½ÑıÐ»
ĠÐ¿Ð°Ð¿Ð¸ ÑĢÐ¾
Ġbirth day
Ġobstac les
ĠÑĢÐ°ÑģÑģÐ¿ÑĢÐ°ÑĪ Ð¸Ð²Ð°Ð»
ĠÐ¾Ð±ÑģÑĤÐ¾ÑıÑĤÐµÐ»ÑĮ ÑģÑĤÐ²Ð¾
ĠÑĤÐ°ÑĢ ÐµÐ»
ĠÐ²ÑĭÐ´Ð° ÑİÑī
ĠÐŁÐ¾Ð·Ð² Ð¾Ð»ÑĮ
ĠÐŁÐ¾Ð·Ð² Ð¾Ð»ÑĮÑĤÐµ
Ġaband oned
ĠÐ¾Ð´Ð¾Ð±ÑĢÑı Ð»
ĠÐľÐ¾Ð»Ð¾Ð´ Ð¾Ð¹
ĠÐľÐ°ÑĤÑĢ ÐµÐ½Ð°
Ġwear iness
Ġadopt ed
Ġcollect ing
ĠÐ¿ÑĢÐ¸Ð³Ð»Ð°Ñģ Ð¸Ð»
ĠÑģÑĥÐ¿ÑĢÑĥÐ³ Ð¾Ð²
ĠÑĢÐ¾ÑģÐºÐ¾ÑĪ Ð¸
ĠÐ½ÐµÑĥÐ¼ Ð¾Ð»
ĠÑĢÐµÐº Ðµ
ĠÐĴÐ¾Ñģ Ð¿Ð¾Ð¼Ð¸Ð½Ð°Ð½Ð¸Ðµ
ĠAb ove
ĠÑıÑĢ ÐºÐ¾
ĠÐ¾Ð±Ñģ ÑĥÐ¶Ð´
Ġsoot hing
Ġchallen ged
ĠÐ£Ð· Ð½Ð°Ð²
ĠÑĢÐ°Ð·Ð´ÑĥÐ¼ Ð°Ð»
Ġpropos al
ĠÐĿÐµÐ²ÐµÐ´Ð¾Ð² ÑģÐºÐ¸Ð¹
ĠÐ±Ð°ÐºÐµÐ½Ð±Ð°ÑĢÐ´ Ð°Ð¼Ð¸
fol k
ĠÐ¾ÑħÐ²Ð°ÑĤ Ð¸Ð»Ð¾
Ġshar p
ĠÐ·Ð°ÑħÐ¾ÑĤ ÐµÐ»Ð¾ÑģÑĮ
Ġsmoot hing
ĠÐ¿ÑĢÐ¾ÑĨÐµÑģ Ñģ
ĠÐ´Ð¾ÐºÐ°Ð· Ð°ÑĤÐµÐ»ÑĮ
Ġstock ings
Ġaccident ally
Ġdisting uished
Ġestabl ished
Ġsignific ance
ĠÑģÐ½Ð¾ÑĪ ÐµÐ½Ð¸Ñı
ĠÐ´Ð¸ ÐºÐ¾
ĠÑĤÐ°ÑĤÐ°ÑĢ Ð¸Ð½
ĠÐ°Ð» Ð»
ĠÑĢÐ°Ð·Ð²Ð¸ÑĤÐ¸ Ñı
Ġinform ation
Ġunconscious ly
ĠÐ¿Ð°Ð»Ð° ÑĨÑĨÐ¾
ĠÐ¿ÑĢÐµÑģ Ð»ÐµÐ´
ĠÐĴÑģ Ñİ
ĠÐ·Ð°Ð¼Ð¾Ð»Ñĩ Ð°Ð»
ĠÐ½ÐµÑĥÐ´ÐµÑĢÐ¶ Ð¸Ð¼Ð¾
Ġsarc astic
ĠÐ±ÐµÑģÐº Ð¾Ð½ÐµÑĩ
ĠÐ¼ÑĥÑģÐº Ñĥ
ĠÐ½Ð°ÑģÐº Ð²Ð¾Ð·ÑĮ
ĠÐ¿Ð¾Ð´Ð¾Ð¶Ð´ Ð°ÑĤÑĮ
Ġfru it
Ġappet ite
Ġinstruct ions
Ġcompan ion
ĠÐļÐ°ÑĢÑĤ Ð°ÑģÐ¾Ð²
Ġconnect ions
Ġunfaith ful
ĠÐ½ÐµÐ²ÑĭÐ½Ð¾Ñģ Ð¸Ð¼Ð¾
Ġexerc ise
ĠÐľÐµÑĢÐºÐ°Ð» Ð¾Ð²Ð°
ĠÐ±Ð°ÑĢÐ¾Ð½ÐµÑģ ÑģÐ°
ĠÐ±Ð¸Ð½Ð¾Ðº Ð»ÑĮ
ĠÑĤÐ°Ð» Ð°Ð½ÑĤ
Ġpite ous
ĠÐĲÐ» ÐµÑĪ
Ġvig orous
ĠEr g
ĠÐ±ÐµÐ·Ð²Ñĭ ÑħÐ¾Ð´
Ġbelief s
ĠÑģÑĥÐ¼Ð°Ñģ ÑĪÐµÐ´
Ġconfirm ation
ĠÐ²ÑĤÐ¾ ÑĢÑĥÑİ
Ġhither to
Ġsaf e
ĠÐ²ÑĭÑģÐ» ÑĥÑĪ
Ġflour ishing
ĠÐĹÐ°Ð¼ÐµÑĤ Ð¸Ð²
ĠÑģÐ¸ÑıÑĤÐµÐ»ÑĮ ÑģÑĤÐ²Ð¾
amberl ain
col oured
ĠÑģÑĥÑī Ð½Ð¾ÑģÑĤÐ¸
ĠÐºÑĢÐ¾ÑĪ ÐµÑĩ
Ġfurn iture
ĠÑĤÐ¸ÑĤ ÑĥÐ»ÑıÑĢ
ĠÐ½ÐµÑĤÐ¾ÑĢÐ¾Ð¿ Ð»Ð¸Ð²Ð¾
ĠÑĥÐ»ÑĥÑĩ ÑĪ
ĠÐ»ÐµÐº Ð°ÑĢ
ĠÐĴÑĭÐ¹ Ð´Ñı
Ġstair case
ĠÑıÐ³ Ð´
ĠVozd vizhen
ĠÐ°ÐºÑĥ ÑĪÐµÑĢ
Ġunbel iever
Ġbris k
Ġbeliev ing
Ġinvest ig
ĠÐ¡Ð²ÑıÑīÐµÐ½ Ð½Ð¸Ðº
ĠÐ¿ÑĢÐµÐ´Ð¿ÑĢÐ¸Ð½ ÑıÑĤÑĮ
Ġengross ed
Ġbilli ard
ĠÐ²Ð¾ÑģÐºÑĢÐµÑģ ÐµÐ½ÑĮÐµ
ĠÐ¿ÐµÐ´Ð°Ð³ Ð¾Ð³
Ġgymnast ics
fashion ed
ĠÐºÐ²ÐµÑĢÑħ Ñĥ
ĠÐ±ÑĥÑĤ ÑĭÐ»
Ġlone ly
lyup ik
Ġgig antic
stru ck
Ġstee ple
ĠKash in
ĠÐ°Ð¿Ð¿ ÐµÑĤ
ĠDOL LY
ĠÐ§ÐĲ Ð¡Ð¢Ð¬
ĠBezz ub
! ]
) ;
; '
D arya
E L
E LL
F ORE
I ON
I CH
L evin
L ook
L ove
P et
S teve
U L
V ronsky
V arenka
W on
a ky
b out
c ur
d uc
e g
e z
e pless
f ed
f ather
g ment
g ue
h n
h or
h orse
i able
l a
m pt
m osp
m aker
o ly
o ff
o hn
p o
p itched
s ha
t es
t here
t wo
v as
v ent
z er
Ð° ÑĪÐµ
Ð¸ ÑĥÐ¼
Ð¸ ÑĨÐµ
Ñģ Ð¾Ð²
Ñģ Ð±
Ð½ ÐµÐ½
Ð½ Ð°Ð´ÑĨÐ°ÑĤÐ¸
Ð» ÐµÑĢ
Ð» Ð°Ñı
Ð» Ð¾ÑĪ
Ð» Ð°Ð¼Ð¸
ÑĢ Ð°Ð»Ð¸
ÑĢ Ð¸Ð·
ÑĢ Ð°Ð±Ð¾ÑĤ
Ġt urb
Ġt ipt
he m
Ñĥ Ð³Ð¾
Ñĥ ÑģÑĤÑĮ
in ations
in ates
Ñı ÑĤÐ¾
Ñĭ Ð½
Ñĭ Ð»Ð°
Ġw ounded
ĠÑģ Ð°ÑĢ
ĠÑģ Ð½Ð¾Ð¼
ĠÑģ ÐµÑĢÐ±
ĠÑģ Ð½ÑıÐ»Ð°
ĠÑģ Ð½ÑıÐ²
Ġs inking
ĠÐ½ Ð¾Ð·Ð´
Ñĩ Ð¸Ð½
ĠÐ¿ ÐµÑĩ
ĠÐ¿ ÐµÑģÑĤ
ĠÐ¿ Ð¸ÑģÐº
ĠÐ² Ð¾Ð»ÑĮ
ĠÐ² ÑĬ
ĠÐ² Ð¸Ð´Ð°
Ġh it
Ġh om
Ġh ut
Ġh ook
Ġh oll
re st
Ð² Ð¾Ð¹
Ð² Ð¾ÑĤ
Ġo wing
Ð°Ð» ÐºÐ¾
it er
ed ed
Ġb ou
Ġb ite
Ġb ub
Ġb attle
Ġb ask
at o
is ure
Ð¼ ÐµÐ½
Ð¼ ÐµÑĤ
Ġhe el
Ġhe ap
Ġhe aps
er ved
er ves
ÑģÑĤ Ð°Ð»
Ġto ss
Ġto nes
Ð¾Ð² Ðµ
Ð¾Ð² Ð¾Ð³Ð¾
Ð¾Ð² Ð¾Ñİ
Ð¾Ð² Ð°ÑĤÐµÐ»ÑĮ
ÑĪ Ð¸Ð¼Ð¸ÑģÑı
ÐµÐ½ Ð½Ð°
ÐµÐ½ Ð·
ÐµÐ½ Ð½ÐµÐµ
on sequently
Ġc a
Ġc ard
Ġc uff
Ġf as
Ġf ac
ĠÐ± Ð¾ÑĤ
ĠÐ± ÐµÐ´Ñĥ
ĠÐ± ÐµÐ¶Ð°Ð»Ð¸
ĠÐ± ÑĥÑĦ
Ġm es
Ġm ixed
Ġm onstr
Ġm astered
ĠÐ´ Ð¾ÑĪÐµÐ»
Ñħ ÑĥÐ´
ĠÑĩ Ðµ
ĠÑĩ ÐµÑģÑĤÐ¸
Ġth under
ÐµÐ» Ðµ
Ġd amp
Ġd aily
Ġd ata
Ġd azz
as ily
as ingly
Ñİ ÑīÐµÐµ
ll er
Ġn aked
Ð½Ð° Ñİ
ÐµÑĢ Ð»Ð°
ÐµÑĢ ÑĭÐ²
ÐµÑĢ Ð½ÑĥÐ²
ÐµÑĢ Ð³Ð¾ÑĦ
ĠÐ½Ðµ Ð¾ÑĤ
ĠÐ½Ðµ Ð¾Ñģ
ĠÐ¼ Ð°Ð»ÑĮ
Ġl od
Ġl ag
Ġp ed
Ġp hen
ĠÐ¿ÑĢ Ð¾ÑĢÐ²
ĠÐ¿ÑĢ Ð¾Ð¶Ð¸Ð»
Ġin se
Ġin ward
Ġin app
Ð°Ðº Ð¾Ð½
Ð°Ðº Ð¸Ð²Ð°Ñı
Ð± Ð¾Ð¹
Ð¾Ð» Ñİ
ar ls
ar ters
ĠÑĥ ÑĪ
ĠÑĥ ÐµÐ·Ð´Ðµ
ĠÐ· Ð°ÑıÐ²
om s
ĠÑĢ Ð¾Ð¶
ĠÑĢ ÐµÑģ
ĠÑĢ ÑĥÐ¼
ĠÑĢ Ð°ÑĨ
ĠÑĢ ÑĭÐ´
ĠÑĢ Ð¾Ð¶Ð´
im med
id ently
Ġbe f
Ð¾Ð´ ÐµÑı
Ð¾ÑĢ Ñĩ
Ð¾ÑĢ Ð°Ð·
ÐµÐ¼ ÑĭÐ¹
ĠÐ½Ð° ÐµÐ´
ĠÐ½Ð° ÑĤÑĥ
Ġe ternal
Ġg ro
Ġg ift
Ġwas te
ĠÐ¿Ð¾ Ð¾Ñī
ĠÐ¿Ð¾ ÐµÐ´ÐµÑĪÑĮ
Ð¸Ð½ ÑĮ
Ð¸Ð½ ÑĥÑĤ
ĠI T
ĠI gn
ic y
ic ious
ve y
Ġnot ion
Ð°Ð½ Ð½Ð¾Ð¼
Ð°Ð½ Ð°Ð²Ð»Ð¸Ð²
ĠÑį Ð»ÐµÐ¼
Ġre vi
Ġre sembled
Ġre ndered
Ġre verse
ĠÐ¶ Ð°Ð´
ĠÐ¶ Ð¸ÑĢ
ÐµÐ² Ð°ÑĤÑĮ
ÐµÐ² ÑģÐºÐ¾Ð³Ð¾
ĠÐ» Ð¸ÑĤ
ĠÐ» ÐµÐ¿
ĠÐ» Ð¸Ñħ
ĠÐ» Ð°Ð¿
ĠÐ» Ð±Ñĥ
ent h
ent ered
Ð¸Ð² Ð°Ñİ
Ñī Ð¸Ð¹
Ñī Ð¸Ð¼Ð¸
Ð¾Ð³ Ð»Ð°Ñģ
ĠÑģÐº Ð¾Ñģ
ĠÑģÐº Ð»Ð¾Ð½Ð¸Ð²
ver ty
Ġshe l
Ġshe aves
Ð°Ñı Ð½Ð½Ð¾
Ġas so
ÑĨ ÐµÐ¹
ÑĨ Ð°Ñħ
ÑĨ ÐµÐ»Ñı
ĠÑĤÐ¾ Ð½Ð°
ĠÐ¾ÑĤ ÑħÐ¾Ð´
Ð¾Ð± Ð½Ð¾Ð²
al ry
ÑĢÐ¾ ÑĥÐ¼
ÑĢÐ¾ ÑģÑĤÐ°Ð²
ĠÐĴ ÑģÑĤÑĢ
ĠÐĴ ÑĢÐµÐ´
ĠÐĴ Ð¾Ð·Ð²
ĠÐĴ ÑģÐ»ÐµÐ´
Ġat mosp
Ġfor cing
ĠÐŀ ÑģÑĤ
Ġst at
Ġst im
Ġst ag
Ġst age
Ġst ung
Ġst eal
Ġst acks
ĠÐºÐ°Ðº Ð¾Ð¼Ñĥ
ĠÐºÐ°Ðº Ð¸Ð¼Ð¸
ĠÐĿ ÐµÑģÐº
Ð¸Ð¼ Ð°
ĠA S
ĠA ss
ĠA LL
ad dle
Ð°ÑĢ Ñı
Ġr om
Ġr ation
Ġr ails
Ġr ules
ĠÑģÐ² ÐµÑĢ
ĠT s
ĠT aking
ĠT oward
ĠÐ²Ñĭ ÑĪ
ĠÐ²Ñĭ Ð³Ð¾
ĠÐ²Ñĭ ÐµÐ·Ð¶
ĠÐ²Ñĭ Ð½ÑĥÐ»Ð°
ĠÐ²Ñĭ Ð¸Ð³
ĠÐ²Ñĭ Ð²ÐµÑģÑĤÐ¸
Ð°ÑĤ ÑģÑı
Ð°ÑĤ ÐºÐ¸
Ð»Ñı ÐµÑĤ
Ð¾Ðº Ð¾Ð»
ĠÐ¾Ð± ÑĤÐ¸
ĠÐ¾Ð± Ð¸Ð´Ð½Ð¾
ĠÐ¾Ð± ÑĭÑĩÐ°Ð¹
ĠÐ¾Ð± ÑģÑĤÐ°Ð½Ð¾Ð²
ĠÐļ Ð¾Ð¼Ñĥ
ĠÐļ Ð°ÑĪ
ons kaya
ĠÑģÑĤ ÐµÐ½
ĠÑģÑĤ ÐµÑĢ
ĠÑģÑĤ Ð°ÑĤ
ĠÑģÑĤ ÑĢÑĥ
ĠÑģÑĤ ÐµÐ½Ñĭ
ĠÑģÑĤ Ð°Ð´Ð¾
ĠL ily
ĠH all
ĠH app
ĠÐ¿ÑĢÐ¸ Ð´Ð°
ĠÐ¿ÑĢÐ¸ ÐµÐ·Ð´
ĠÑįÑĤ Ð°Ðº
ter y
ter re
ev en
ĠÐ¡ Ð¾Ð²
ĠÐ¡ Ð»ÑİÐ´
ill ery
ĠK al
ĠK art
ÐµÐ· Ð»Ð¸
ĠÐ¿Ð¾Ð´ ÐµÐ»
ĠÐ¿Ð¾Ð´ Ð²Ð¸Ð³
Ġsh adows
Ġsh lyupik
am b
pe ls
ĠÐ·Ð° ÐµÐ´Ñĥ
ĠÐ·Ð° ÑĨÐµÐ¿
Ð¾Ñģ ÑĥÐ´
ant h
ĠÐĶ Ð¾Ð±
ĠÑĢÐ°Ð· Ð¾Ð±
ĠÑĢÐ°Ð· ÑĢÐµÐ·
ĠÑĢÐ°Ð· Ð»ÑĥÑĩ
qu arters
Ð¼Ñĥ Ñī
ore s
il s
us ions
us hev
ĠV rede
ĠÐŁ ÑĢÐ¾Ñģ
ĠÐŁ ÑĥÑģÐºÐ°Ð¹
ell ed
ul tery
ÐµÑĩ ÐºÐ¾
ÐµÑĩ ÐºÐ°
ÐµÑĩ ÐºÐµ
ĠÐ° Ð²
ĠÐ° Ð±
ĠÐ° Ð¹
ĠÐ° Ð»ÑĮ
ĠÐ° Ð²ÑĤÐ¾ÑĢ
ĠB et
ĠB art
ĠB ecause
ĠB erthe
Ġal ien
Ġal together
Ġal armed
Ġch ap
Ġch ick
Ġch anges
ĠÐ¿ÐµÑĢ ÐµÐ¹
ÑĥÑĩ Ð¸
ĠW ould
ĠW ENT
ĠÑģÐ¿ Ð¾ÑĤ
ĠÑģÐ¿ Ð¸ÑĢ
ĠÑģÐ¿ Ð¸Ð½Ðµ
ĠÑģÐ¿ Ð¸Ð½Ð¾Ð¹
ĠÑģÐ¿ Ð»Ð¾ÑĪ
ĠP arty
Ġj u
ov lev
âĢ ¦
ĠÐ»Ð¸ ÑģÑĤÑĮ
ĠÐ¢ Ð°
ĠâĢĵ '
Ġli ver
ÐµÐ½Ð¸Ñı Ð¼
ĠÐ¿Ð¾Ð» ÑĥÑĪ
ĠÐľ Ð°Ð»
ĠÐľ Ð¾Ð»
ĠÐľ Ð°Ð»Ð¾
ĠÐľ Ð½Ð¾Ð³Ð¾
ĠÐľ Ð°Ð»ÑĮ
ĠÐľ ÐµÐ½Ñı
Ð¾Ð¿ Ñĭ
Ð¾Ñĩ ÐºÐ°Ð¼Ð¸
ĠÑĪ Ð¿
ĠÑĪ Ð»ÐµÐ¹
Ð°Ð± Ð»Ð¸
Ġv ent
Ġthem e
Ġout l
ĠÐ·Ð½Ð° Ð½Ð¸Ñı
Ġle isure
Ð¸Ð»Ð¸ ÑģÑĤ
ĠÑģÑĤÐ¾ Ð»Ñĭ
Ġno dded
Ġun ce
Ġun not
Ġun att
Ġpo ndered
Ġpo verty
Ġwill ow
ĠÐĲÐ»ÐµÐºÑģÐ°Ð½Ð´ ÑĢÐ°
ĠD irector
Ġman ly
Ġman ners
ÑģÑĤÐ°Ð² Ð°Ð»Ð¾
ĠÐ¿ÑĢÐ¾ Ñħ
ĠÐ¿ÑĢÐ¾ ÑģÑĮ
ort ing
ĠÐºÑĢ Ð¸Ð²
ĠÐºÑĢ Ð¾ÐºÐµÑĤ
ÑĦ Ð¾ÑĢ
Ġbr on
Ġbr andy
ĠÐ³Ð» Ð°Ñģ
ĠÐ³Ð» ÑĥÑħ
ĠÑģÐ¼ ÐµÐ»Ð°
ĠÑģÐ¼ ÐµÐµÑĤ
ĠÑģÐ¼ ÐµÑıÑĤÑĮÑģÑı
ÑĢÐ¾Ñģ Ð¾Ð²
ving ly
ĠÐ¶ÐµÐ½ ÑģÐºÐ¾Ðµ
ĠÐ¾Ð¿ ÑĢÐµÐ´ÐµÐ»Ñı
Ð»Ñĭ Ñħ
ĠÐ½Ð°Ð´ ÐµÐ»Ð°
ĠÐ½Ð°Ð´ Ð²Ð¸Ð½Ñĥ
ĠÐ±Ð¾Ð»ÑĮ Ð½Ð¾Ð¼Ñĥ
ÑĢÐ¸ Ð¸
ol s
ol ution
Ð°Ð»ÑĮ ÑĩÐµÑģÐº
ig ning
ĠÐ´ÑĥÐ¼ Ð°Ð¹
Ġbeg ged
ÐµÐ»Ð¾Ð² ÐµÐº
Ġbec k
pl ed
ĠÑĢÐ°Ñģ ÑģÐ¼Ð°ÑĤÑĢ
Ð°Ñħ Ð°
ass ion
Ġpl aid
Ġpre occupied
Ġdis ent
Ġdis illusion
ĠÐ¿Ð¾ÑģÐ» Ð°Ð»Ð¸
ĠÑģÐ¾Ð² ÐµÑģÑĤÐ¸
Ð¸Ñģ Ñģ
Ġgl ow
Ġgl oves
ĠÑģÑĤÐ°ÑĢ Ð¾Ð¼
ĠÑģÑĤÐ°ÑĢ ÑĭÐ¼
ĠÑģÑĤÐ°ÑĢ ÑĥÑİ
Ð°Ð²ÑĪ Ð¸Ð¼Ð¸
ĠÐ´Ð¾ ÑģÑĤÐ°
ĠG reat
ĠÐ§ ÑĥÐ´
ap ers
Ġcons ented
Ġjust ified
Ġtr uck
ck s
Ġover c
Ġte mp
ĠÐ²ÐµÑĢ Ð¸ÑĤ
Ð¾Ð½ ÑĮ
Ġpro s
Ġpro duce
Ð»Ð¸Ð² Ð¾ÑģÑĤÑĮ
ĠÑĦ Ð°ÑĢ
ĠÑĦ Ð°ÐºÑĤ
ĠÑĦ Ð»Ð¸Ð³
ĠÑĢÐ°Ð´ Ð¾Ð²Ð°Ð»Ð°ÑģÑĮ
ĠÐ²Ð¾Ð· Ð·
ĠÐ²Ð¾Ð· Ð¾Ð±Ð½Ð¾Ð²
ĠE xt
ĠÐĳ Ð°Ð»
ĠÐĳ Ð°Ð±Ñĭ
Ġcont ro
Ġcl inging
ĠÑĩÐµÐ»Ð¾Ð²ÐµÐº Ðµ
Ð¸ÑĢ Ð°Ð»ÑģÑı
Ð¸ÑĤÐµÐ»ÑĮÐ½Ð¾ Ñİ
Ġbl anc
ĠÑģÐ´ÐµÐ» Ð°Ð»ÑģÑı
ĠÑģÐ´ÐµÐ» Ð°Ð¹ÑĤÐµ
ĠÐ±Ð¾Ð» Ð¾ÑĤÑĥ
ĠÐ¼Ð¾Ð» Ð¸ÑĤÑĮÑģÑı
ĠÐ¼Ð¾Ð» Ð¾ÐºÐ¾
ĠÑĥÐ¼ Ð½Ð¾
ĠÑĥÐ¼ ÑĢÐµÑĤ
ĠÐ¾ÑģÑĤ Ð°Ð»Ð¸ÑģÑĮ
ĠÐ¾ÑģÑĤ ÑĢÐ¾ÑĥÐ¼
Ġro gu
Ġro ots
ĠÐ¿Ð¾Ð¼ Ð¾Ð¶
ĠÐ¿Ð¾Ð¼ ÐµÑī
ĠÐ·Ð°Ð¼ ÐµÑĪ
ĠF R
ĠF ler
ÑĢÑı Ñģ
Ġchild like
ĠÐ¸ÑģÐ¿ Ð¾ÑĢÑĩ
ĠÐ½ÐµÐ¿ Ð¾Ñģ
ĠÐ½ÐµÐ¿ ÑĢÐ¾ÑģÑĤ
ĠÐ¿Ð¾Ð½Ð¸Ð¼ Ð°Ð½Ð¸Ñı
ĠÐ¾ÑģÐ¾Ð± ÐµÐ½Ð½ÑĭÐ¹
Ġgr at
Ġtw elve
ĠÐ¿Ð¾Ð² ÐµÑĢÑĮ
ĠÐ¿Ð¾Ð² ÐµÑģÐµÐ»
ĠÐ¿Ð¾Ð½Ñı ÑĤÐ¸Ð¸
ĠÐ¿ÑĢÐ°Ð² Ð´Ðµ
Ġen f
ĠÐ½Ð¾Ð² ÑĭÐ¼Ð¸
ĠÐ½ÐµÐ² Ð°Ð¶
ĠÐ½Ð°Ñĩ Ð¸Ð½Ð°Ð»Ð°
ĠÐ¿Ð¾ÑĢ Ð°Ð²
ĠÐ¿Ð¾ÑĢ ÑĭÐ²
Ġpart ies
ĠÐ²ÐµÑģ Ð½Ð¾Ð¹
ÑĢÐ¾Ð´ Ñĭ
ĠÑģÑĤÑĢ Ð¾Ð¹
iz es
ĠÐ¿ÑĢÐ¾Ñģ ÑĤÐ¾ÑĢ
iv id
Ġmade moiselle
ĠÑĢÐµÑĪ Ð¸Ð»Ð¸
ĠÑĢÐµÑĪ Ð¸Ð»Ð°ÑģÑĮ
ĠÑĢÐµÑĪ ÐµÐ½Ð¸Ð¸
Ġback ward
ÑĢÐµÐ´ Ð¾ÑĤÐ¾Ñĩ
Ð¸Ð½Ñĥ Ð»Ð°
man cip
ĠÐ£ ÑģÐ»
Ð¾ÑģÑĤ ÐµÐ¹
Ð°Ñĩ Ð¸Ð²Ð°Ñı
ĠÐºÐ¾Ð¼ Ð¼Ñĥ
ĠÐ¾ÑģÐ¾Ð±ÐµÐ½Ð½Ð¾ Ñİ
Ġho b
Ġho arse
ĠÑĢÐ°Ð·Ð³Ð¾Ð²Ð¾ÑĢ Ð¸Ð»ÑģÑı
ĠÐ·Ð°Ð± ÑĭÐ²Ð°Ð»
ny ansky
ĠÑĤÑĢ Ð¾Ð¹
Ġop ium
Ġrep et
Ġrep ented
Ġrep orts
ĠÐ¼Ð¸Ð½ÑĥÑĤ ÐºÑĥ
Ġrec overy
Ġforg ave
Ġfl ight
Ġpass engers
ĠÐ¿ÑĢÐµÐ¶ Ð½Ð¸Ð¼
ĠÐ¾ÑĤÐº Ð°Ð·ÑĭÐ²
ĠÐ¾ÑĤÐº Ð°Ð·Ð°ÑĤÑĮ
Ġad van
Ġad orn
Ġad ultery
Ġrel ating
Ġrel ieved
ĠÐ²ÑĭÑĢÐ°Ð¶ Ð°Ð»Ð°ÑģÑĮ
ĠÐĹ Ð°ÑĢ
ĠÐĹ Ð°Ð¿
ĠÑģÑĩÐ° ÑģÑĤÐ¸Ðµ
ĠÑģÐ¼Ð¾ÑĤÑĢ ÑıÑĤ
ĠÐ²Ð¾Ð¿ÑĢÐ¾Ñģ Ñĥ
ĠÐ²Ð¾Ð¿ÑĢÐ¾Ñģ Ð¾Ð¼
ĠÐ²Ð¾Ð¿ÑĢÐ¾Ñģ Ð°Ð¼Ð¸
ĠÐ¸Ð½ ÑĤ
ĠÐ¸Ð½ ÑĤÐ¾Ð½Ð°
Ġsc andal
ĠÐ²Ð¾Ñģ ÑģÑĤÐ°Ð½Ð¾Ð²
ĠÐ´ÐµÑĤ ÑģÑĤÐ²Ðµ
ĠÐ½ÐµÐ´ Ð¾Ð»Ð³Ð¾
ĠÐ¶ÐµÐ» ÑĤ
ĠÐºÑĢÐ°Ñģ Ð½Ð¾
ĠÐºÑĢÐ°Ñģ Ð½ÑĭÐ¼
ĠÐºÑĢÐ°Ñģ Ð½ÑĥÑİ
ĠÐ¶ÐµÐ½Ñī Ð¸Ð½Ð¾Ð¹
Ġhel pless
ĠÐ·Ð°Ðº Ð¾Ð½Ñĥ
ĠÐ²Ð¾Ð» Ñİ
Ġfe ature
ĠTh rough
ĠÐ¿ÑĢÐ¾Ð´Ð¾Ð»Ð¶ Ð°ÑĤÑĮÑģÑı
Ġhar rows
ĠÐ¿ÑĢÐ¸ÐµÑħ Ð°Ð²
ĠÐŁÐµÑĤ ÐµÑĢÐ³Ð¾ÑĦ
ĠÑĥÐ¶Ð°Ñģ Ð½ÐµÐµ
ĠÑĥÐ¶Ð°Ñģ Ð½ÑĥÐ»Ð°ÑģÑĮ
ÑĩÐ¸Ðº Ð¸
Ġind ivid
ÑĢÐ°Ñī Ð°ÑıÑģÑĮ
ĠÑĥÐ± Ð¸ÑĤ
ĠÐ¿Ð¾Ñģ ÐµÐ»
ĠÐ¿Ð¾Ñģ ÑģÐ¾ÑĢ
ĠÐ¾ÑģÑĤÐ°Ð½Ð¾Ð² Ð¸Ð»Ð°
Ġwait ers
Ð¸ÑĩÐµÑģÐº Ð¾Ð¼
ĠÐ²ÑĭÑģ Ð¾ÐºÐ¾Ð¹
sh aped
sh ouldered
ord er
ĠÐ¼Ð¾Ð»Ð¾Ð´ Ð°Ð¹
ĠÑĩÐµÑĢ Ð½Ð¾Ð¹
Ġdra gging
Ð°Ð½ÑĤ Ð°Ñģ
Ġact ress
ĠÑģÑĭ ÑĢ
ĠÐŀÐ± Ð°
ĠÐŀÐ± ÑīÐµ
ĠÐ¾Ðº Ð°Ð·ÑĭÐ²
ĠÐĿÐ¸Ðº Ð°Ðº
ĠÐ´Ð¾Ð» Ñİ
ĠÐ´Ð¾Ð» Ð¾Ð¶
Ġob ed
ĠÐ·Ð² ÑĥÑĩ
Ġref r
ĠÐ¿Ð¾Ð¶ Ð°Ð»ÑĥÐ¹ÑĤÐµ
ĠÐ¶Ð°Ð» ÐºÐ¾Ðµ
Ð°ÑİÑī Ð°Ñı
ĠÐ¿Ð¾ÑģÐ»ÐµÐ´ Ð½ÐµÐ¼
ÑıÑī Ð¸Ð¼
ĠÐ²ÑģÑı ÐºÑĥÑİ
ĠÐ¾Ð±ÐµÐ´ Ðµ
ĠÑģÐ¿Ð¾ÐºÐ¾Ð¹ Ð½Ð¾Ðµ
ĠÑģÐ»ÑĭÑĪ Ð½Ñĭ
ĠÑģÐ¾Ñģ ÑĢÐµÐ´Ð¾ÑĤÐ¾Ñĩ
ĠÐ¸Ð½ÑĤÐµÑĢÐµÑģ Ð½Ð¾Ð³Ð¾
ĠÐ¸Ð½ÑĤÐµÑĢÐµÑģ Ð½ÑĭÐ¹
Ð»Ð°Ð´ Ð¸ÑĤÑĮ
ĠÑĥÑģÐ¿ ÐµÑĤÑĮ
ĠÑĥÑģÐ¿ ÐµÐ»Ð¸
ĠÑĤÑĥ ÑĦ
ĠÑħÐ¾Ð·ÑıÐ¹ ÐºÐ¸
ret ation
Ġche ap
Ġgu est
Ġgu ide
ĠÐ¿ÑĢÐ¸ÑıÑĤ Ð½Ñĭ
ĠÐ¿ÑĢÐ¸ÑıÑĤ Ð½ÑĭÐ¹
Ġsub st
Ġsub ord
ĠÐ¾ÑģÑĤÐ°Ð² Ð¸Ð»Ð¸
ĠÐ¾ÑģÑĤÐ°Ð² Ð°Ð»Ð°ÑģÑĮ
ĠÐ¾ÑģÑĤÐ°Ð² ÑĮÑĤÐµ
ĠÐ¸ÑģÐº Ð°Ð»Ð°
ĠÐ¸ÑģÐº ÑĥÐ¿
ĠÐ·Ð°Ð³ Ð°Ð´
ĠÐ·Ð°Ð³ ÑĢÐ°Ð½Ð¸Ñĩ
ĠÐµÑħ Ð°Ð»Ð¸
ĠÐ¸ÑģÐ¿ÑĭÑĤ ÑĭÐ²Ð°Ñı
ĠÐ½Ð¾Ð³ Ð°Ñħ
ĠÐ¼ÑĥÑĩ Ð°ÑĤÑĮ
ĠÐ¼ÑĥÑĩ ÐµÐ½ÑĮÐµ
ĠÐ¼Ð°ÑĤ ÑĥÑĪÐºÐ°
ĠÐºÐ¾Ð½ Ð´ÑĥÐºÑĤÐ¾ÑĢ
Ġtre ating
ĠÐ½Ð°Ð· Ð²Ð°Ð»
Ġdel ir
Ġdel ivered
Ġter m
ĠÑıÑģ Ð½Ð¾ÑģÑĤÑĮ
Ġfoll ows
ĠÐŀÑĤ Ð²ÐµÑĤ
ĠÐºÐ¾Ð½Ñĩ Ð¸ÑĤÑĮ
ĠÐºÐ¾Ð½Ñĩ Ð¸Ð»Ð°
ĠÐºÐ¾Ð½Ñĩ Ð°ÐµÑĤÑģÑı
Ð²ÐµÑĢ ÑĤ
ĠÑģÐµÐ¼ ÑĮÐµÐ¹
ĠÑģÐµÐ¼ Ð½Ð°Ð´ÑĨÐ°ÑĤÑĮ
ĠÐ¿Ð¾Ð¹ ÑĤÐ¸
ĠÐ·Ð°ÑĤ ÑĭÐ»
Ð°ÐµÐ¼ ÑĭÐ¹
Ð°ÐµÐ¼ ÑĭÑħ
ĠÑĢÐ°Ð±Ð¾ÑĤ Ð°Ð»
Ġaw oke
ĠÐ·Ð°Ñģ Ð»
ĠÐ·Ð°Ñģ ÑĭÐ¿
ĠÐ·Ð°Ñģ Ð»ÑĥÐ¶
ĠÐ·Ð½Ð°ÐºÐ¾Ð¼ Ð¾Ð³Ð¾
ĠÐ·Ð½Ð°ÐºÐ¾Ð¼ Ð¾Ðµ
ĠÑĥÐ´Ð¸Ð² Ð»ÐµÐ½Ð¸Ñİ
ĠÐ¿Ð¾Ð¿ ÑĢÐ°Ð²Ð»ÑıÑı
Ġbus hes
Ġmer c
ĠÑĤÑĢÑĥÐ´ Ð½Ð¾ÑģÑĤÐ¸
Ġir res
Ġcond es
ĠÐ³Ð¾ÑĢ ÑĮ
ĠÐ¾ÑĤÑĩ ÐµÑĤÐ°
ĠÐ¾ÑĤÐ´ Ð°Ð²Ð°Ñı
ĠÑĢÐ°Ð·Ð´ Ð°Ð²
ĠÐ¾Ð±ÑīÐµ ÑģÑĤÐ²ÐµÐ½Ð½Ð¾Ðµ
ĠÐ¾Ð±ÑīÐµ ÑģÑĤÐ²ÐµÐ½Ð½ÑĭÑħ
ĠÐ²ÐµÑģÐµÐ»Ð¾ Ñİ
ĠÐ´ÑĥÑĢ Ð½Ð¾Ð¼
Ġcomp rom
ĠÐ½ÐµÐ¿ÑĢÐ¸ÑıÑĤ ÐµÐ½
ĠÐ½Ð°ÑħÐ¾Ð´ Ð¸Ð»Ð°ÑģÑĮ
ÑıÐ³ Ð¸Ð²Ð°Ð»Ð°
ĠÐ´ÐµÐ¹ÑģÑĤÐ² ÑĥÐµÑĤ
ĠÑģÐ²ÐµÑĤ Ñĥ
Ġlive ly
ĠÐ¿ÑĢÐ¾ÑģÑĤ Ð¸ÑĤ
ĠÐ¿ÑĢÐ¾ÑģÑĤ Ð¸ÑĤÐµ
ĠÐ¿ÑĢÐ¾ÑģÑĤ Ð¸ÑĤÑĮÑģÑı
ĠÐ¿Ð¾Ð²ÑĤÐ¾ÑĢ ÑıÑĤÑĮ
ĠÐ¿Ð¾Ð²ÑĤÐ¾ÑĢ ÑıÑİ
Ġbeh aviour
ĠÐ´Ð¾ÑĢÐ¾Ð³ Ð°
ĠÐ·ÐµÐ¼ Ð»ÐµÐ²
ĠÐŁÑĢ Ð¸Ð·
ĠY OU
ĠÐŀÐ±Ð»Ð¾Ð½ÑģÐº Ð¸Ñħ
ĠÐ¥ Ð¾Ñĩ
ĠÐ¥ Ð¾ÑĢÐ¾ÑĪ
ĠÐ¥ Ð¾Ð·Ñı
ĠÐ½ÐµÐ¾Ð± ÑĭÑĩÐ°Ð¹
Ġins ulting
ĠÐļÐ¾Ð½ Ñĩ
ĠÐ´Ð²Ð¾ÑĢ Ð°
ĠÐ²ÑĭÐ¿ ÑĥÑģÐºÐ°Ñı
ĠÐ²ÑĭÐ¿ ÑĢÐ¾ÑģÑĤ
ĠÐ²ÑĭÐ¿ ÑĢÐ¾ÑģÑĤÐ°Ð²
ĠÐ´Ð²Ð¸Ð¶ ÐµÐ½Ð¸Ð¸
ĠÐ´Ð²Ð¸Ð¶ ÐµÐ½Ð¸ÑıÑħ
ĠÐ³Ð»Ð°Ð² Ð½Ð¾Ð¼Ñĥ
ĠÐ½ÐµÑģÑĩÐ° ÑģÑĤÐ¸Ñı
ĠÑĥÑģÑĤ Ð°Ð»Ð°
ĠÑĥÑģÑĤ ÑĢÐ¸ÑĨÑĭ
ĠÐ²ÐµÑģÐµÐ» ÑĭÐ¼Ð¸
Ġill um
ĠÐ²ÐµÑĩ Ð½Ð¾
ĠÐ·Ð°Ð½ ÑıÑĤÑĮ
ĠÐ¶ÐµÐ»Ð° Ð½Ð¸Ð¹
ĠÑģÑĤÐ¾Ð» Ð±
Ġcold er
Ġdef end
ĠÐ»Ð¾ÑĪÐ°Ð´ ÑıÑħ
ĠÑĥÐ³ Ð»ÑĥÐ±
Ġart illery
ĠÐ¾Ð±ÑĬÑıÑģ Ð½Ñı
ĠÐ¾Ð±ÑĬÑıÑģ Ð½ÑıÐ»Ð°
Ġsent iment
ĠÐ²ÑĭÑħÐ¾Ð´ Ð°
ĠÐ²ÑĭÑħÐ¾Ð´ Ð¸ÑĤÑĮ
ĠÐ²ÑĭÑħÐ¾Ð´ Ð¸Ð»Ð°
vo c
ĠÐ²ÑĭÐ± ÑĢÐ°ÑĤÑĮ
ĠÑħÐ¾Ð»Ð¾Ð´ ÐµÐ½
ĠÐ²ÑģÑĤÑĢÐµÑĩ Ð°
ĠÐ²ÑģÑĤÑĢÐµÑĩ Ð°Ð»Ð¸ÑģÑĮ
ertain ly
Ð¸ÑĨ ÐµÐ¹
ÑİÑī Ð¸Ðµ
Ð½Ð¸Ð² ÑĪÐ¸ÑģÑĮ
Ġrest ing
ĠÑģÐ»ÑĥÐ¶ Ð±Ñĥ
Ġsupp osing
ĠÐ¿Ð¾Ð³ Ð»Ð°Ð´
ĠÐ¿Ð¾Ð³ Ð¾Ð´Ð°
ĠÐ·Ð°Ð½Ð¸Ð¼ Ð°ÑĤÑĮ
ĠÐ·Ð°Ð½Ð¸Ð¼ Ð°Ð»ÑģÑı
ĠÐ¼Ð°Ð»ÐµÐ½ÑĮ ÐºÐ°Ñı
ĠÐ¼Ð°Ð»ÐµÐ½ÑĮ ÐºÐ¸Ð¼Ð¸
ĠÐ²ÑģÑĤÑĢÐµÑĤ Ð¸Ð²
ĠÐºÐ½Ð¸ Ð¶
ĠÐ¾Ð±ÑĢÐ°Ñī Ð°Ð»ÑģÑı
ĠÑĢÐ°ÑģÑģ ÑĤÐ¾Ñı
Ġfact s
ĠÑĢÐ¾Ð´ Ð¸ÑĤÐµÐ»Ñı
ĠÐ¿Ð¾ÑģÐ¼Ð¾ÑĤÑĢ Ð¸ÑĤÐµ
ĠÐ²Ð°ÑĪ Ð¸Ð¼
Ġfore see
Ġhorse b
ĠÐ±Ð°ÑĢ ÑĭÐ½Ñı
ĠÐ±Ð°ÑĢ ÑĮÐµÑĢ
Ġstart ing
ĠÑģÑĤÑĢÐ°ÑĪ Ð½ÑĭÐµ
ĠÐ¸Ð³ ÑĢÑĥ
ĠÐ¸Ð³ ÑĢÑĭ
ĠÐ´ÑĥÑħ Ð¾Ð¼
ĠÐ¿ÑĢÐµÐ» ÑİÐ±
Ġstud ying
Ġstud io
ĠÑģÑĤÑĢÐ° ÑģÑĤÑĮÑİ
ĠÐ²Ð·Ð´ ÑĢÐ°Ð³
ĠÐ´Ð°Ð² Ð°Ð»Ð¸
ĠÐ´Ð°Ð² Ð°Ð¹
ĠÑģÑĤÑĢÐ°Ð´ Ð°ÑĤÑĮ
ĠÑģÑĤÑĢÐ°Ð´ Ð°Ð»ÑĮÑĩÐµÑģÐº
ĠJ U
ĠJ ohn
ĠÐ·Ð´Ð¾ÑĢÐ¾Ð² ÑĮÐµÐ¼
ĠÐ½Ð°Ð¹ Ð´Ñı
Ġhat s
Ġhat es
Ġmist akes
ĠÐ¿ÑĢÐµÐ´ÑģÑĤÐ°Ð² Ð»ÐµÐ½Ð¸Ñı
Ġsw arm
Ġadm inist
ĠÐ³Ð¾ÑĤÐ¾Ð² Ð¸Ð»Ð°ÑģÑĮ
Ġhorr ors
ĠÐ¸Ñģ ÑĤÐ¾Ñĩ
Ġfall s
ĠÐ±Ð¾ Ð¸ÑĪÑĮÑģÑı
Ġest im
ĠÑģÐ»ÐµÐ´ Ð¸Ð»
Ñį ÑĤ
ĠÑĩÐ¸ÑĤ Ð°Ñı
du ct
gr ound
ĠÐ´Ð¾Ð² Ð¾Ð´Ð¾Ð²
Ġcur ved
Ġcur ls
Ġcur rent
Ġass ure
Ġstraight ened
ĠÑĢÐ°ÑģÐº ÑĢÑĭ
Ġpat ches
ĠÐ³ÑĢÑĥ Ð¿Ð¿
ĠÐ¿ÐµÑĢÐµÑģÑĤ Ð°Ð²
ĠÐ·Ð°Ð½ÑıÑĤ Ð¸Ðµ
ĠÐ¼ÐµÐ´ Ð²ÐµÐ¶
ĠÑī ÑĥÑĢ
ĠÐ½Ð°Ð¿ÑĢÐ°Ð² Ð»ÐµÐ½Ð¸Ð¸
ĠÐ²ÑħÐ¾Ð´ Ð°
ĠÐºÑĥÐ¿ Ð°Ð»ÑĮ
Ġdep ression
ĠÑĢÑĥÑģ ÑģÐºÐ¾Ð¼
ĠÐ´ÐµÐ²ÑĥÑĪ ÐºÐ¾Ð¹
ĠÐ´ÐµÐ²ÑĥÑĪ ÐºÐµ
Ġdro p
Ġlar ger
ĠÐĿÐ°Ð´ ÐµÐ½ÑĮ
ĠFor merly
ĠÐ²Ð¾Ð»Ð¾Ñģ Ð°
Ð»ÐµÐ½Ð½Ð¾ Ñİ
ged y
Ġconc ent
ĠÑģÐ´ÐµÐ»Ð° ÐµÐ¼
ĠÐ½ÑĢÐ°Ð² Ð¸Ð»ÑģÑı
ĠÐ½ÑĢÐ°Ð² Ð¸ÑĤÑĮÑģÑı
ĠÐ½ÑĢÐ°Ð² ÑģÑĤÐ²ÐµÐ½Ð½Ð¾
ĠÑĢÐµÐ² Ð¾Ð»Ñİ
Ð½ÑĥÑĤ ÑĭÐ¼Ð¸
ÑĢÐ°Ð²Ð»Ñı ÑĤÑĮ
ĠÑģÐ¼ÐµÑĪ Ð½Ð¾Ðµ
Ġste ad
ĠÐ¿Ð¾Ð´ÑĬ ÐµÑħÐ°Ð»
ĠÐ¿Ð¾Ð´ÑĬ ÐµÑħÐ°Ð»Ð¸
ĠÐ±ÐµÑĢ ÐµÑĤ
ĠÐºÑĢÐ°ÑģÐ¸Ð² Ð°
ĠÐ´Ð°Ð»ÑĮ Ð½ÐµÐ¼
ĠÑĥÑģÐ¿Ð¾ÐºÐ¾ Ð¸ÑĤÑĮÑģÑı
ĠÐ³Ð¾ÑģÐ¿Ð¾Ð´ Ð¸
ĠÐ¿Ð¾ÑģÐ¿ÐµÑĪ Ð¸Ð»
ĠÐºÐ°Ð· Ð°ÑĤÑĮÑģÑı
ĠÐ¾ÑĤÐ¿ ÑĢÐ°Ð²Ð»Ñı
ĠÐŁÐ¾Ð´ Ð¸
ĠÐ¿ÑĢÐµÐ´Ð¿ ÑĢÐ¸ÑıÑĤ
ĠÐ¾Ð±ÑĢÐ°Ð·Ð¾Ð² Ð°Ð½
Ġbur ied
ĠÐ³ÑĢÐ¾Ð¼ ÐºÐ¸Ð¼
ĠÐ³ÑĢÐ¾Ð¼ ÑĩÐµ
ĠÐ¾Ð±Ð¼Ð°Ð½ ÑĥÑĤ
ĠÐ¾Ð±Ð¼Ð°Ð½ ÑĥÑĤÑĮ
Ġsure ly
ĠÐ¯ÑĪ Ð²Ð¸Ð½Ñĥ
ĠÐ²ÑĭÑģÐ¾Ðº Ð¸Ðµ
ĠÐĴÐ°ÑģÐµÐ½ÑĮ ÐºÐ¸
Ġtra gedy
ĠÐ¾Ð±ÐµÑī Ð°Ð½Ð¸Ðµ
Ġslight est
ĠÐ¾ÑĤÑĩÐ°Ñı Ð½Ð¸Ðµ
ĠÐ¾ÑĤÑĩÐ°Ñı Ð½Ð¸Ð¸
Ġsecond s
ĠÐ±ÑĢÐ¾Ñģ Ð¸Ð»Ð°
ĠÐ´Ð»Ð¸Ð½ Ð½ÑĭÐµ
ĠÐ¿ÑĢÐ¾Ñī Ð°Ð¹ÑĤÐµ
ĠÐ¾ÑĤÐºÑĢÑĭ ÑĤÑĮ
ĠÐ¿ÑĢÐ¸ÑĤÐ²Ð¾ÑĢ Ð½Ð¾
ĠÐ¿ÑĢÐ¸ÑĤÐ²Ð¾ÑĢ ÑģÑĤÐ²Ð¾
ĠÐ·Ð°ÑģÑĤ Ð°Ð»Ð°
Ġsend ing
ĠÐ¡ÑĤÐ¸Ð² Ñĭ
ĠÐ¿Ð¾Ð·Ð²Ð¾Ð» Ð¸Ð»
ĠÑĤÑıÐ¶ÐµÐ» ÐµÐµ
ÐĲ Ð¯
ĠÐ³Ð¾ÑĢÐ´ Ð¸Ð»Ð°ÑģÑĮ
Ġbox es
ÑĥÐ· Ð¾Ð²
ĠÐ·Ð» Ð¾Ð±Ð¾Ð¹
ĠÐŁÑĢÐ¾ ÑģÑĤ
ĠÐŁÑĢÐ¾ ÑħÐ¾Ð´Ñı
ĠÐ¿ÑĢÐ¸Ð·Ð½ Ð°ÐºÐ¾Ð²
ĠÐ¼Ð°Ð»ÑĮÑĩÐ¸Ðº Ð¾Ð¼
ĠÑģÑĤÑĭÐ´ Ð¸ÑĤÑĮÑģÑı
ĠÐ¿ÑĢÐ¸Ð½Ð¸Ð¼ Ð°Ð»
ĠÐ¿ÐµÑĢÐµÐ³ Ð¾Ð²Ð°ÑĢ
ĠÐ¿ÐµÑĢÐµ ÐµÑħÐ°Ð»Ð°
Ġcomfort ed
Ġdespair ing
ĠÐ¾Ð³ÑĢÐ¾Ð¼ Ð½ÑĭÐ¼Ð¸
ĠÑĢÐ°Ð²Ð½Ð¾Ð´ÑĥÑĪ ÐµÐ½
Ġsort ing
ĠÐ¼Ð¾Ðµ Ñİ
ĠÑģÐ¿Ð¾ÑĢ Ð¸Ð»Ð¸
ĠÐ¶Ð¸Ð» ÐµÑĤ
Ġdelight ed
ĠÐ½Ð°Ð³ Ð½ÑĥÐ²ÑĪÐ¸ÑģÑĮ
Ġcre am
Ġcre aking
ĠÐ¼Ð¾ÑĢ ÑĦ
ĠÑĪÑĥÑĤ ÐºÑĥ
Ġsy stem
Ð´Ð² Ð°
Ð½Ð¾ÑģÑĤ ÑıÐ¼Ð¸
Ġsol itary
ĠÑĥÐ²Ð°Ð¶ Ð°Ð»
ĠÑĥÐ²Ð°Ð¶ ÐµÐ½Ð¸Ñı
ĠÑĥÐ²Ð°Ð¶ Ð°Ñİ
ĠÐ¿Ð¾Ð³Ð¾Ð²Ð¾ÑĢ Ð¸Ð²
ĠÑĤÑĢÑĥ Ð±
ĠÑģÐ»Ð¾Ð¶ Ð¸Ð²
ĠÑģÐ»Ð°Ð± Ð¾
ĠÐ¸Ð·Ð¼ÐµÐ½ Ð¸Ð»ÑģÑı
ĠÐ¿ÑıÑĤ Ð¸Ð´ÐµÑģÑıÑĤÐ¸
ĠÐ¾ÑĦÐ¸ÑĨ ÐµÑĢÐ°
ĠÐ»Ð°ÑģÐº Ð¸
ÑĪÐµÐ¼Ñĥ ÑģÑı
Ġthin ner
ĠÐ¾ÑĤÑĬ ÐµÐ·Ð´Ðµ
ĠÐ¿ÐµÑĢÐµÐ² Ð¾Ð´Ñı
ĠÐ²Ð¾ÑģÐ¿Ð¸ÑĤ ÑĭÐ²Ð°ÑĤÑĮ
ĠÐ¶ÐµÐ½ÑīÐ¸Ð½ Ð°Ð¼Ð¸
ĠÐ¿ÑĢÐ¸Ð·Ð½Ð° Ñİ
ĠÐ¿ÑĢÐ¸Ð·Ð½Ð° Ð½Ð¸Ðµ
ĠÐ½ÐµÑĢ Ð¾Ð²
ĠÑģÐ²ÐµÐ¶ ÐµÑģÑĤÑĮ
ĠÐ½ÑĭÐ½ÐµÑĪ Ð½ÐµÐ¼
ĠÐ±Ð»ÐµÑģÑĤÑıÑī Ð¸Ñħ
ĠÐ´ÐµÐ½ ÐµÐ¶
ĠÐ´Ð¾Ð²Ð¾Ð»ÑĮ Ð½Ñĭ
ĠÐ³Ð¾ÑĢÐ¾Ð´ Ð°
Ġpol ice
Ġcompl ain
Ġcompl ained
ĠÑĤÐ¾Ð²Ð°ÑĢÐ¸Ñī Ñĥ
ĠÐ³ÑĢ Ð¾Ð·
ĠÐ¾Ð±Ð¾ Ð¸Ð¼
ĠÐĶÐ¼Ð¸ÑĤ ÑĢÐ¸
ĠÐ·Ð°Ð¿Ð¸ÑģÐº Ð¸
ĠÑģÐ¾Ð¾Ð±Ñī Ð¸ÑĤÑĮ
Ð¢ Ñĭ
Ġbar bar
ĠÐºÑĥÑĢ Ð¸ÑĤÑĮ
ĠÑĩÑĥÐ¶ Ð¾Ð³Ð¾
ĠÑĩÑĥÐ¶ Ð¸Ñħ
Ġresol ution
ĠÑģÐ¾Ð·Ð½Ð° Ð½Ð¸Ñı
Ġunhapp iness
ĠÐ¼Ð³Ð½Ð¾Ð² ÐµÐ½Ð½Ð¾
ĠÐļÐ¾ÑĢ Ð´
ĠÐ¿Ð¾ÑĤÐµÑĢ ÑıÐ»
ĠÐĳÑĭ Ð»Ð¸
ĠÐĳÑĭ Ð»Ð°
Ġobser ving
ĠJust ice
Ġsle epless
ĠÐ¿ÑĢÐµÐ´Ñģ ÑĤÐ¾Ñı
ĠÑģÐ¾Ð²ÐµÑĤ Ð½Ð¸Ðº
ĠÑģÐ¾Ð¾Ð±ÑĢÐ°Ð¶ ÐµÐ½Ð¸Ðµ
ĠÐ¾Ð±Ð´ÑĥÐ¼ ÑĭÐ²Ð°Ð»
ĠÐ½ÐµÐ¾Ð±ÑĭÐºÐ½Ð¾Ð² ÐµÐ½Ð½Ð¾Ð³Ð¾
iven ess
pic uous
ĠÐ¿ÑĢÐ¾ÑĤ ÑıÐ½ÑĥÐ»
ĠÐ¿ÑĢÐ¾ÑĤ ÑıÐ³Ð¸Ð²Ð°Ñı
Ġdece iving
ĠÐ¿ÑĢÐ¾ÑħÐ¾Ð´ Ñı
ĠÐ»ÑİÐ±Ð¸Ð¼ Ð¾Ð¹
ĠÑĥÐ¿ÑĢÐµÐº Ð°Ð»
ĠÑĥÐ¿ÑĢÐµÐº Ð°Ð»Ð°
ĠÑĢÑĭ Ð´Ð°Ð½Ð¸Ñı
ĠÑıÐ² Ð¸Ð»ÑģÑı
ĠÑģÑĤÑĥÐ¿ Ð°Ñı
Ġworth y
ĠÐ½ÐµÐ²ÐµÑĢ ÑĥÑİÑīÐ¸Ð¹
ĠÐ¿ÐµÑĢÐµÐ¼ÐµÐ½ Ð¸Ð»Ð°
Ġmis chief
Ġmis erable
ĠÐ³ÑĢÑı Ð·ÑĮ
ĠÑĨÐ²ÐµÑĤ Ñĭ
Ġattent ive
Ġbelong ing
Ġguess ing
ĠÐ²ÑĭÑĢÐ°Ð· Ð¸Ð»
ĠÐ¿Ð¾Ð·Ð´ ÑĢÐ°Ð²
ĠÑĥÐ±ÐµÐ´ Ð¸Ð²ÑĪÐ¸ÑģÑĮ
ĠÐ¾Ð¶Ð¸Ð´Ð° Ð½Ð¸Ðµ
Ġhumili ating
ĠÑĤÐ¾ÑĢÐ¾Ð¿ Ð¸Ð»ÑģÑı
Ġsal aries
ĠÐ²ÑĭÐ³ Ð¾Ð´Ð½Ð¾
ĠLE AV
Ġdeal er
ĠÑģÐ¾Ð´ ÑĢÐ¾Ð³
Ġfree ly
ĠÑĥÑħ Ð¾Ð¼
ĠÑģÐ²ÑıÑīÐµÐ½ Ð½Ð¸ÐºÐ°
ĠÐ¾Ð±ÑĭÑĩ Ð½ÑĭÐ¹
ĠÑģÑĤÐ°ÑĤÑĮ Ðµ
." -'
ĠÐ±Ð¾Ðº Ð°Ð»
Ġmed ical
Ġmed ium
ĠÐ·Ð¸Ð¼ Ð¾Ð¹
Ġeat en
ĠÑģÐ¿Ð°Ñģ ÐµÐ½Ð¸Ðµ
ĠÐ¿Ð¾ÐºÐ°Ð·ÑĭÐ² Ð°Ð»
Ġclass es
ĠÐ¿ÑĢÐµ Ð¾Ð´Ð¾Ð»
ĠÐ½Ð°ÑģÐ» ÐµÐ´
ĠÐ·Ð°ÑģÑĤÐ°Ð² Ð¸Ð»
Ġexplan ations
ĠÐ¸Ð·Ð±ÐµÐ³ Ð°ÑĤÑĮ
ĠÐ¾ÑģÑĤÐ°Ð½Ð°Ð²Ð»Ð¸Ð² Ð°Ð»ÑģÑı
Ġwa x
ĠÑģÑĥÐ¼ Ð¼
ĠÑĥÐµÐ·Ð¶ Ð°ÐµÑĤ
ĠÑĢÑĥÑĩ Ð¾Ð½
ĠÐ¿Ð¾Ð´Ð± ÐµÐ¶Ð°Ð»
Ġvar ied
Ġpossi bly
ĠÐ½ÐµÐ²Ñĭ ÑĢÐ°Ð·
ĠÐ½ÐµÐ²Ñĭ ÑģÐ¾Ðº
ĠPeter hof
Ġphil anth
ĠÐ¿ÑĢÐ¸ÑģÐ»ÑĥÑĪ Ð¸Ð²Ð°Ð»ÑģÑı
ĠÐ¾ÑĦÐ¸ÑĨÐµÑĢ Ð¾Ð²
ĠÑģÑĥÐ´ÑĮ Ð¸
ĠÑģÑĥÐ´ÑĮ Ð±Ñĥ
ĠÐºÐ°Ð¿ ÐµÐ»ÑĮ
Ġfet ched
ĠÐ´Ð¸Ð² Ð°Ð½Ð°
ĠÐ´Ð¸Ð² Ð°Ð½Ðµ
ĠÑĢÐ°Ð·ÑĥÐ¼ Ð¾Ð¼
ĠÑģÐ¿ÑĢÐ°Ð²ÐµÐ´Ð»Ð¸Ð² Ð¾ÑģÑĤÐ¸
ĠÐ¿Ð¾Ð»Ð°Ð³ Ð°Ð»
ĠÑĪÐ°ÑĢ Ð°Ð±
ĠÑĥÑĤÐµÑĪ ÐµÐ½Ð¸Ðµ
ĠÐ¿ÑĢÐ¾ÑĪÐµÐ´ ÑĪÐµÐ¼
ĠÐ¿ÐµÑĤÐµÑĢÐ±ÑĥÑĢÐ³ ÑģÐºÐ¸Ð¹
ĠÐ¶ÐµÐ½Ð¸ Ñħ
ĠÑģÐ²Ð¸Ð´Ð° Ð½Ð¸Ð¸
ĠSu pposing
ĠÑģÐ¾Ð¼Ð½ÐµÐ² Ð°ÑİÑģÑĮ
ĠÑģÐ¼ÑĥÑĤ Ð¸Ð»ÑģÑı
ĠÑĩÑĢÐµÐ·Ð²ÑĭÑĩÐ°Ð¹ Ð½Ð¾Ñİ
ĠÐ²ÑĢÐ°Ð¶Ð´ÐµÐ± Ð½Ð¾ÑģÑĤÐ¸
ĠÐ¾Ð² ÐµÑģ
Ġfro zen
Ġmach ines
ĠTur ks
ĠÐ½Ð¾Ñģ Ð¸ÑĤÑĮ
Ġcho king
Ġamb ition
ĠÑĢÑĥÐºÐ¾Ð²Ð¾Ð´ Ð¸ÑĤÑĮ
Ġcup bo
Ġeight y
ĠÐ¿Ð¾Ð´Ð¾Ð· ÑĢÐµÐ½Ð¸Ñı
Ġconsequ ently
Ġdism ally
Ġreconc ile
Ġfulf illing
Ġear n
ĠÐ°Ðº ÑĤÑĢÐ¸
ĠÐ¿Ð¾ÐºÐ°Ñĩ Ð°Ð»
ĠÐķÐ² Ð³
ĠÑĤÑĢÐµÑĤÑĮ ÐµÐ³Ð¾
ĠÐ·Ð°Ð²Ð¸Ñģ ÐµÐ»Ð¾
ĠÐ±ÐµÑģÐµÐ´ ÐºÐµ
ĠÑİ Ð½Ð¾
ĠÑģÐ¾Ð» Ð¾Ð¼
ĠÐ´Ð¾Ð¶Ð¸Ð´ Ð°Ð»ÑģÑı
Ð»Ð¸Ð· Ð¸
ĠÑĢÐ°Ð·Ð¼ ÑĭÑĪ
ĠÑģÐ°Ð¼Ð¾ ÑĥÐ²ÐµÑĢ
Ġenv ied
ĠÐ½ÐµÐ´Ð¾ ÑģÑĤÐ°Ð²Ð°Ð»Ð¾
ĠÑĥÑģÐ¸Ð»Ð¸ ÐµÐ¼
ĠÐ¸ÑģÑĩÐµÐ· Ð»Ð°
ĠÐ¸ÑģÑĩÐµÐ· Ð»Ð¾
Ġconst ruct
Ġleg al
Ġspread ing
ĠÐ¿Ð¾Ð½ÑıÑĤÐ¸Ñı Ð¼
ĠÐºÐ¾Ð»ÐµÐ± Ð»Ñİ
ĠÐ±Ð¾ÑĢÑĮ Ð±Ð°
IT TY
ĠÐ²Ð¾Ð¹ Ð½Ðµ
ĠÐ¿ÑĢÐ¸ÑģÑĤ ÑĭÐ¶
ĠÐ½Ð¸ÑĩÑĤÐ¾Ð¶ Ð½Ð¾
Ð°Ð²ÑĪÐµÐ¹ ÑģÑı
ĠÐ³Ð¾Ð»ÑĥÐ± ÑĩÐ¸Ðº
Ġpersu aded
Ġsupport ed
Ġsupport ing
Ġcontemptu ous
ĠÐ¿Ð¾Ð´ÑĤÐ²ÐµÑĢÐ´ Ð¸Ð»Ð°
Ġwarm ly
ĠÐ´ÑĭÑĪ Ð°
ĠÐ¼ÑĥÐ· ÑĭÐº
ĠÐ³Ð°Ð· ÐµÑĤÑĭ
Ġund oubted
Ð»Ð¸Ð¹ ÑģÐºÐ¸
ĠLv ova
Ġpossess ion
ĠÑĢÐ°ÑģÑħÐ¾Ð´ Ñĭ
ĠÐ±ÐµÑģÑģ Ð¾Ð½
ĠÐ¿Ð¾Ð¿ÑĢÐ¾Ñģ Ð¸ÑĤÑĮ
ĠÐºÐ¾Ð² ÑĢÑĥ
ĠÑĥÑģÑĤÑĢÐ¾Ð¹ ÑģÑĤÐ²Ð°
ĠÑĥÑģÑĤÑĢÐ¾Ð¹ ÑģÑĤÐ²Ðµ
ĠÑĢÐ¾Ð² Ð½Ð¾
ĠÐŁÐ¾Ð» ÐºÐ¾Ð²
Ġsports man
ĠÑĥÐ¼Ð¸ÑĢÐ° ÑİÑīÐµÐ³Ð¾
ĠÐĵÐ¾Ð²Ð¾ÑĢ Ð¸ÑĤÑĮ
Ġrepent ance
Ġtort ured
Ġsuperf icial
Ġconvict ions
ĠÐ²Ð»Ð° ÑģÑĤÑĮ
ĠÐ²Ð»Ð° ÑģÑĤÐ¸
ĠÑĤÐµÑĤ ÐºÐ°
ĠÐ¿ÑĢÐ¸Ð» Ð¸Ð²
ĠÐ¿ÑĢÐ¸Ð» Ð¾Ð¶
ĠÐ¾ÑĤÑģ ÑİÐ´Ð°
ĠÐ¾ÑĤÑĢÐ¸ÑĨ Ð°ÑĤÐµÐ»ÑĮÐ½Ð¾
ĠÑģÐ¾Ð±ÑĢ Ð°Ð»ÑģÑı
ĠÐ¿ÑĢÐ¸ÑıÑĤÐµÐ»ÑĮ Ð½Ð¸ÑĨÐ°
Ġrestr ained
ĠLe ft
ĠLe ave
ĠÐ¿ÐµÑĢÑĩÐ°ÑĤ ÐºÑĥ
Ġmyst ic
Ġdesce nd
Ġdesce nding
ĠÑģÑĤÑĢÐ¾Ð³ Ð¸Ð¼
ĠPetrov ich
ĠÐºÐ¾Ð»ÐµÑģ Ð°
ĠÑħÑĥÐ´Ð¾Ð¶ Ð½Ð¸ÐºÐ°
ĠUn ction
ĠÑģÐ°Ð¿Ð¾Ð³ Ð°Ñħ
Ġaud ible
ĠÐ²Ð± Ð»Ð¸Ð·Ð¸
Ġhes itated
ĠÐ±ÐµÐº Ð°ÑģÐ¾Ð²
Ġsear ched
Ġsear ching
ĠÑĥÐ½Ð¸Ð²ÐµÑĢÑģÐ¸ÑĤ ÐµÑĤÐ°
Ġribb on
Ġburn ed
Ġcustom ary
Ġpal azz
ĠÐ¿Ð¾Ð´ÑħÐ²Ð°ÑĤ Ð¸Ð»
Ġdegr ading
ĠÑģÐ¼ÐµÐ»Ð¾ ÑģÑĤÐ¸
ĠÐ¶Ð¸Ð²Ð¾Ð¿ Ð¸ÑģÑĮ
Ġinsult ed
ĠÐ½Ð°Ð¹Ð´ ÐµÑĤÐµ
ĠÑĥÐ»Ð¸ ÑĨÐµ
ĠÐ·Ð¾Ð» Ð¾Ð²
ĠÐ·Ð¾Ð» Ð¾ÑĤ
ĠÑģÐ²Ð°Ð´ÑĮ Ð±Ñĥ
ĠÐ·Ð°ÑģÐµÐ´ Ð°Ð½Ð¸Ð¸
ĠÐ´Ð²Ð¾ÑĢÑı Ð½Ð¸Ð½
ĠÐ³ÑĢÐ¸Ð± Ð°Ð¼Ð¸
Ð½Ð¾Ð³ Ð¸Ðµ
Ġaston ishment
Ġfold s
Ġfold ed
Ġyield ed
ĠAm ong
Ġrust le
ÑĢÑĥÑģ ÑģÐºÐ¸
Ġnois ily
ĠÑģÐ¼Ð¾ÑĤÑĢÐ¸ ÑĪÑĮ
ĠÑĢÐ°ÑģÑĩ ÐµÑģ
Ġtrous seau
Ġattend ant
ĠÑĤÐµÑĢÑĢÐ°Ñģ Ðµ
ĠÐ´ÑĥÐ¿ ÐµÐ»ÑĮ
ĠÐ»Ð°Ð¼Ð¿ Ð¾Ð¹
ĠÐ³ÑĥÑģÑĤ Ð¾Ð¹
ĠBE FORE
Ġamuse ment
Ġprec ision
ĠÐºÐ¾ÑĢÐ¸Ð´Ð¾ÑĢ Ñĥ
ĠÐ´ÑĢÑĥÐ· ÑĮÑı
ĠÐ±ÐµÑģÐ¿Ð¾ÐºÐ¾Ð¹ ÑģÑĤÐ²Ð¾
ĠÐ¿Ð¾Ð·Ð²Ð¾Ð½ Ð¸Ð»Ð°
ĠÐ²Ð¾ÑĪÐµÐ´ ÑĪÐµÐ³Ð¾
Ġcol our
Ġcol oured
ĠÐ´ÑĭÑħ Ð°Ð½Ð¸Ðµ
ĠÑĩÐ¸Ð½Ð¾Ð² Ð½Ð¸ÐºÐ°
Ġpract ical
Ð°Ð½Ð³ Ð»Ð¸Ð¹ÑģÐºÐ¸
Ġrevol ution
Ġsacr ifice
ĠÐ³Ð½ÐµÐ² Ð°
ĠÐºÐ¾Ð½ÑĮ ÐºÐ°Ñħ
Ġimpat iently
ĠÐĳÐ¾Ð» Ð³Ð°ÑĢ
ĠÑĤÑĢÐ¾Ð³ Ð°ÑĤÐµÐ»ÑĮ
ĠÐ½ÐµÑģÑĩÐ°ÑģÑĤÑĮ Ñı
ĠÑģÑĤÐ¾Ð»Ðº Ð½ÑĥÐ»ÑģÑı
ĠÐ·Ð°ÑīÐ¸Ñī Ð°ÑĤÑĮ
apt ain
Ġwip ed
ĠÐ´Ð°Ñĩ Ñĥ
ĠÑĤÐ°ÑĢ Ð°Ð½ÑĤÐ°Ñģ
Ġshape ly
ĠÐ½ÐµÑĤÐµÑĢÐ¿ ÐµÐ»
ĠÐºÐ»ÐµÐ² ÐµÑĢ
ĠÑģÐµÐºÑĢÐµÑĤ Ð°ÑĢÑĮ
ĠÑĤÐ°Ð½ÑĨÐµÐ² Ð°Ð»Ð°
ĠÑĢÐ°Ð·Ð½Ð¾Ð¾Ð±ÑĢÐ°Ð· Ð½ÑĭÐµ
com ed
ĠÐºÐ¾Ð· Ð»Ð°Ñħ
Ġasp en
ĠAb out
ĠMar ie
Ġinterf ere
Ġinterp retation
Ġveh icle
ĠÑģÐ¾Ð¾Ð±ÑĢÐ°Ð· Ð½Ð¾
ĠÐ½ÐµÐ½Ð°ÑĤÑĥÑĢ Ð°Ð»ÑĮÐ½Ð¾
Ġembroid ered
Ġembroid ery
ĠÐ¿ÐµÑĢÐµÐ½Ð¾Ñģ Ð¸ÑĤÑĮ
ĠÐ³Ð°Ð»ÑģÑĤ Ñĥ
ĠÐ±Ð°ÐºÐµÐ½Ð±Ð°ÑĢÐ´ Ñĭ
minded ly
ĠÐ¿Ð¸ÑĢ Ð¾Ð¶
ĠÐ¾Ñħ Ð»Ð°Ð¶Ð´
Ġben ef
ĠÐ»Ð¸Ð» Ð¾Ð²Ð¾Ð¼
ÑĨÐ¸Ñı Ð¼Ð¸
ĠÑħÐ¸ÑĤ ÑĢÐ¾
ĠÐ¾Ð±ÑıÐ· Ð°Ð½Ð½Ð¾
ĠÐ¿Ð¾Ð´ÑĢÐ°Ð· ÑĥÐ¼ÐµÐ²
ĠÐĶÐµÐ² Ð¾ÑĩÐºÐ°
ĠÑĤÐµÐ¼Ð½Ð¾ ÑĤÐµ
Ġremind ing
ĠÑĥÐ·Ð½Ð° Ñİ
Ġindign ant
Ġindign ation
Ġdisting uish
ĠÐ¾ÑĤÐ´ÐµÐ»ÑĮ Ð½Ð¾
Ġestabl ish
Ġsignific antly
Ġperform ance
ĠÐ´ÑĢÑĥÐ¶ÐµÐ»ÑİÐ± Ð½Ð¾
Ġvalu ed
Ġvalu able
iet te
ĠÐºÐ°Ð½ Ð°Ð²
ĠÐºÐ°Ð½ ÑĨÐµÐ»Ñı
ĠÐ½Ð°ÑģÑĤÐ° Ð¸Ð²Ð°Ð»
ĠÐ¾Ð´ÐµÑı Ð»Ð¾
ĠÐľÐ¸ÑĤ Ñİ
eless ly
ĠDe ath
Ġovert ook
ĠÐ±ÐµÐ·Ð½ Ð°Ð´ÐµÐ¶
ĠÐ¿ÑĢÐµÐ´ÑģÐµÐ´ Ð°ÑĤÐµÐ»ÑĮ
ĠÐ²ÑĭÑĢÐ² Ð°ÑĤÑĮ
ĠÐ¤Ð¸Ð»Ð¸Ð¼Ð¾Ð½Ð¾Ð² Ð½Ð°
mar ried
ĠÐ¿ÑĥÐ± Ð»Ð¸
Ġbod ice
ĠÐºÐ°Ð²Ð°Ð» ÐµÑĢ
ĠÐ±ÐµÐ»ÑĮ Ðµ
Ġdom ain
ĠÐ¾Ð±Ð»Ð° ÑģÑĤÑĮ
ĠÐ¿Ð¾Ð´Ð¾ÑĪ Ð»Ð¸
Ġconqu er
Ġenem ies
ĠÐºÐ¾Ð½ÑĨ ÐµÑĢÑĤ
Ġcondem n
ĠÐĴÐ°ÑģÐ¸Ð»ÑĮ ÐµÐ²Ð¸Ñĩ
Ġencoura ge
ĠÐ¿Ð¾Ð³Ð»ÑıÐ´ÑĭÐ² Ð°Ñı
ĠÐ³Ð¸Ð¼Ð½Ð°Ð· Ð¸Ð¸
ĠÐ·Ð°Ð´ÑĥÑĪÐµÐ² Ð½ÑĭÑħ
Ġthorough ly
Every thing
Ðĵ Ð¾ÑģÐ¿Ð¾Ð´Ð¸
Ġwel comed
ĠÐ¸Ñİ Ð½Ñı
Ġpow der
Ġreleas ing
ĠÐ²ÑĭÑģÑĤÐ°Ð²Ð»Ñı Ñı
ĠÐĽÐ¾ÑĪ Ð°Ð´ÑĮ
ĠÐ¡Ð»Ð°Ð² Ð°
Ġpregn ancy
Ġtend ency
Ġenchant ing
Ġrepres ent
ĠÐļÐ°ÑĤÐµÑĢ Ð¸Ð½Ð°
ĠÐ¼Ð°Ð·ÑĥÑĢ ÐºÑĥ
Ġwit ness
ĠÐ¾ÑĢÑĥÐ´ Ð¸Ñı
Ġpour ing
ÑīÑĥÑĢ Ð¸Ð²ÑĪÐ¸ÑģÑĮ
ĠÑĢÐ°Ð·Ð¾Ð±ÑĢ Ð°ÑĤÑĮ
Ġintol erable
Ġtechn ique
Ġprog ress
ĠÑĦÐ°Ð¼ Ð¸Ð»Ð¸
ĠÐ²Ð¾ÑģÑĮ Ð¼
Ġdesyat ina
Ġpron ounced
Ġchem ist
ĠÐ¼Ð°ÑĤÐµÑĢ Ð¸Ð½
ÐĲÐ½ Ð½Ð°
Ġliter ature
ĠÐ°ÐºÐºÑĥ ÑĢÐ°ÑĤÐ½Ð¾
ĠÑĥÑģÐ¾Ð²ÐµÑĢÑĪÐµÐ½ ÑģÑĤÐ²
cont rol
ĠÑģÐ°Ð» ÑĦ
ĠÐºÐ°Ð»Ð° Ñĩ
ĠÑĢÐ° ÑģÑĤÑĢ
ĠÑĢÑı Ð´Ð°
ĠÐ»ÐµÐ½ÑĤ Ð°Ð¼Ð¸
Ġforb id
ĠOff ice
ĠÐĳÑĢÑı Ð½ÑģÐºÐ¾Ð¼Ñĥ
Ġrespond ed
ĠÐ¸Ð½ÑģÑĤ Ð¸Ð½
Ġperce ived
ĠÐ´ÐµÐ½ÑĮÐ³ Ð°Ð¼Ð¸
ĠÑģÑĥÑīÐµÑģÑĤÐ²Ñĥ ÐµÑĤ
ĠÐ°ÑĢÑĤ Ð¸Ð»
ÐłÐ°Ð· ÑĥÐ¼ÐµÐµÑĤÑģÑı
ĠÐ´ÐµÐ¿ÐµÑĪ Ñĥ
Ãª te
Ġtar antas
ĠÐ¿ÑĥÐ½ ÐºÑĤ
ĠÐ²Ð°Ð½ Ð½Ñĭ
Ġfart her
ĠÐ½ÐµÐµÑģÑĤÐµ ÑģÑĤÐ²ÐµÐ½Ð½Ð¾
ĠÐ¶ÐµÑĢÐµÐ± ÑĨÐ°
ĠÑħÐ°Ð»Ð° ÑĤ
ĠÐ¡Ð»Ð¾Ð² Ð°
ĠÑĢÐ°Ð·Ð¾ÑĪ Ð»Ð¸ÑģÑĮ
ĠMinister s
ĠÑģÐ¾ÑģÑĤÑĢÐ°Ð´ Ð°Ð½Ð¸Ñı
Ġoverfl owing
ĠÐĳÐ¾ÑĢ Ð¸ÑģÐ¾Ð²
ĠÐ¿Ð»ÑĥÑĤ Ð¾Ð²
ĠÐ¿Ð¾Ð²ÐµÑĢÑħ Ð½Ð¾ÑģÑĤ
ĠÐŁÐ¾ÑģÐ¼Ð¾ÑĤÑĢ Ð¸ÑĤÐµ
ĠÐ·Ð½Ð°Ð¼ÐµÐ½Ð¸ ÑĤÐ¾Ð³Ð¾
Ġsevent een
Ġsubmiss ive
ĠÐ´ÐµÑĪÐµÐ² Ð»Ðµ
ĠPRINC ESS
incl ined
ĠÐ¿Ð°ÑģÑģ Ð°Ð¶
Ġfol k
Ġmur m
ĠÐ´Ð¾Ð³Ð¾Ð²Ð¾ÑĢ Ð¸ÑĤÑĮ
Ġge lding
Ġshaw l
Ġaby ss
ĠBoris ovna
Ġalb um
Ġimper cept
ĠÐ§Ð¸ÑĢ Ð¸ÐºÐ¾Ð²
ĠÑĦÐ°Ð½ÑĤ Ð°Ð·
Ġenvel ope
Ġimpossi bility
Ġjoc key
Ġcruelt y
Ġidi ot
ĠErg ushev
ĠVozdvizhen sk
Ġsteeple chase
ĠBezzub ov
Ġtipt oe
Ġfas c
Ġmonstr ous
Ġphen omen
ĠÑĢÑĥÐ¼ ÑıÐ½
ĠÑĢÐ°ÑĨ Ð¸Ð¾Ð½
ĠÐ½Ð°ÐµÐ´ Ð¸Ð½Ðµ
ĠÐ»Ð¸ÑĤ ÐµÑĢ
ĠÐĴÑĢÐµÐ´ Ðµ
Ġatmosp here
ĠKart asov
ĠBart nyansky
ĠÑĪÐ»ÐµÐ¹ ÑĦ
Ġtemp or
ĠExt reme
ĠFler ov
mancip ation
Ġadvan ced
ĠÐ·ÐµÐ¼Ð»ÐµÐ² Ð»Ð°Ð´
ĠÐ¿ÑĢÐµÐ»ÑİÐ± Ð¾Ð´ÐµÑı
ĠÐ¿ÑĢÐµÐ¾Ð´Ð¾Ð» ÐµÑĤÑĮ
Ġpalazz o
ĠÐĳÐ¾Ð»Ð³Ð°ÑĢ Ð¸Ð½Ð¾Ð²
ĠÐºÐ°Ð½ÑĨÐµÐ»Ñı ÑĢÐ¸Ð¸
ĠErgushev o
' ;
? --
? ...'
A K
A ny
A IN
A IR
A bout
B esides
C ount
C ertainly
D id
E ven
G od
I F
I ONS
M P
N T
N e
O S
S B
S omet
T ry
W as
X T
a i
a ur
b anc
c u
c al
c ation
c amp
d our
d ressed
e ed
f ace
f ive
f ield
g re
g eny
i bility
i hil
j us
l it
l au
l ong
m es
m ond
m aster
n owing
n ipe
n urse
o nder
o ps
p et
p ers
p arty
r s
r am
r up
r aces
r iment
r ative
s m
s atisfied
s addle
s nipe
t ally
t hes
u v
Ġ ess
Ġ vers
Ð¾ Ð¾Ð»Ð¾Ð³
Ðµ ÐµÐº
Ðµ ÐµÑĤÐµ
Ð¸ ÑĢÐ°ÑĤ
Ñģ Ñģ
Ð» Ð¸Ð»
Ð» Ð¾Ð´
Ð» Ð°Ð½
Ð» Ð¾Ðµ
Ð» Ð¸ÑĤÐµ
Ð» ÑĥÑħ
Ð» ÑĭÐ¼Ð¸
Ð» ÐµÐ²Ð°
ÑĢ ÐµÐ»
ÑĢ Ð°Ð»Ð°
ÑĢ ÐµÐ¹
ÑĢ ÐµÐ¶
Ġt in
Ġt id
Ġt aught
Ġt ale
he ss
he ard
he red
in ov
in ine
Ñı Ð´Ñı
Ñı ÑīÐµÐµ
ÑĮ ÐµÐ³Ð¾
Ġw ing
Ġw ag
Ġw ont
Ġw ages
ĠÑģ Ñĩ
ĠÑģ ÐµÐ½
ĠÑģ Ð½Ð°
ĠÑģ Ð°Ð½
ĠÑģ ÑĨ
ĠÑģ ÑĥÑĤ
ĠÑģ ÐµÐ³
ĠÑģ Ð°Ð½Ð¸
ĠÑģ Ð°Ñħ
ĠÑģ ÑĭÑĤ
ĠÑģ Ð½Ð¾Ð²
ĠÑģ ÑĥÐº
ĠÑģ Ð½ÑıÑĤ
ĠÑģ ÑĥÐ½Ð´Ñĥ
ĠÑģ Ð³Ð¸Ð±
Ġs ons
Ġs our
Ġs elt
Ġs ided
ĠÐ½ Ð¾Ð¼
Ñĩ Ð¸ÑĪ
ĠÐ¿ Ð°
ĠÐ¿ Ð°ÑĤ
ĠÐ¿ Ð¸Ñī
ĠÐ¿ ÑĥÑĤÑĮ
ĠÐ¿ ÑĮÐµÑĤ
ĠÐ² Ðµ
ĠÐ² Ð²
ĠÐ² Ð°Ð»
ĠÐ² Ð¸Ð½
ĠÐ² ÐµÐ»Ð°
ĠÐ² Ð²Ð¾Ð´
ĠÐ² Ð»ÐµÑĩ
ĠÐ² ÑĢÐ°Ñĩ
Ġh y
Ġh ill
Ġh ood
Ġh ang
Ġh oof
ĠÐ¾ ÑģÑĤÑĢ
ĠÐ¾ ÑĢÐ³
ĠÐ¾ ÑĢÐ¸Ð³
re p
Ð² Ñĥ
Ð² ÑĪÐ¸ÑģÑĮ
Ð² ÐµÑī
Ð´ Ð¾ÑĤ
Ð´ ÐµÑĪÑĮ
Ð´ ÐµÑĤÐµ
Ð°Ð» Ðµ
it ious
it ors
it ute
it ability
ed s
ed ly
ed uc
Ġb i
Ġb as
Ġb other
Ġb ast
Ġb ass
Ġb ud
Ġb athed
is ive
Ð¼ ÐµÐ¹
Ð¼ Ð°ÑĢ
Ð¼ ÑĥÐ¶
ĠÐº Ð°
ĠÐº Ð¸Ð²
ĠÐº Ð¾Ð±
ĠÐº Ð»Ð¸
ĠÐº ÑĥÐ»
ĠÐº ÑģÑĤÐ°ÑĤÐ¸
ÑģÑĤ Ñĭ
ÑģÑĤ Ð¾Ð¹
ÑģÑĤ Ð½ÑĭÐ¹
Ġto il
Ġto ying
Ġto tally
Ð¾Ð² Ð°Ð²
Ð¾Ð² Ð°Ð»Ð¸ÑģÑĮ
Ð¾Ð² Ð°Ð²ÑĪÐ¸ÑģÑĮ
Ð¾Ð² Ð°Ð½Ð¸Ð¸
ÑĪ Ñĥ
ÑĪ ÐµÐ±
ÑĪ ÐºÑĥ
ÐµÐ½ Ð´
ÐµÐ½ Ñī
on ne
Ġc oo
Ġc ure
Ġc uc
Ġc ured
Ġc ries
Ġf oo
ĠÐ± Ñİ
ĠÐ± Ð¾Ð¶
ĠÐ± Ð°ÑĪ
ĠÐ± ÑĢÐ¾Ð½
Ġm ing
Ġm ain
Ġm our
Ġm oth
Ġm ix
ĠÐ´ Ð¾ÑĤ
ĠÐ´ ÑĭÐ¼
ĠÐ´ ÑĢÐ°Ð·
ĠÐ´ ÑĢÐ¾Ð³
ĠÐ´ Ð¾ÑĪÐ»Ð¾
Ñħ Ð¾Ð¶Ñĥ
ĠÑĩ Ð¼Ð¾Ðº
en et
en ance
ÐµÐ» Ð¸Ðµ
Ġd en
Ġd ig
Ġd air
Ġd uck
Ġd ern
Ġd eeper
Ġd awn
Ġd itch
ĠÑĤ Ð¾Ð±
Ġn est
Ġn amed
Ġn ails
Ġn iece
Ġn erves
ÐµÑĢ ÑĨ
ÐµÑĢ Ð³Ð¸
ĠÐµ Ð¶
es ide
ĠÐ¼ ÐµÐ±
ĠÐ¼ ÑĥÑĤ
Ġl av
Ġl ocks
Ġl oos
or ate
or ious
Ġp is
Ġp ress
Ġp ian
ĠÐ¿ÑĢ Ð°Ðº
ĠÐ¿ÑĢ Ð¾ÑĢ
ĠÐ¿ÑĢ Ð¾Ð³Ð¾
ĠÐ¿ÑĢ ÑĭÐ¶
Ġha ven
Ġin e
ot ch
ot hed
Ð°Ð· ÑĩÐ¸Ðº
Ð¸Ð» ÑĥÑĩ
Ð¾Ð» Ð¸
ĠÑĥ ÑĢÐ¾Ð²
ĠÑĥ Ð»Ð¾Ð²
ĠÑĥ ÑģÐ¼
ĠÑĥ ÑĪÐµÐ¹
ĠÑĥ ÑħÐ²Ð°ÑĤ
ĠÑĥ ÐµÐ·Ð´Ð°
ĠÑĥ ÑģÐ¼ÐµÑĪ
ĠÑĥ ÐµÐ´ÐµÐ¼
ĠÑĥ ÑĢÐ¾Ð½
ĠÑĥ ÐµÐ´ÐµÑĪÑĮ
ĠÐ· Ð°Ð·
ĠÐ· Ð¾Ð»Ð¾
ĠÑĢ ÐµÑĤ
ĠÑĢ Ð°Ð¼
ĠÑĢ ÑĤÐ¾Ð¼
ĠÑĢ ÐµÐ¶Ðµ
ĠÑĢ ÐµÐ»ÑĮÑģ
id ay
Ġbe w
ut ch
Ð¾Ð´ Ð½Ñı
Ð¾Ð´ Ð¾Ð²Ð¾Ð»ÑĮ
Ð¾Ð´ Ð»Ð¾Ð±
Ð¶ Ñĥ
ĠÐ½Ð° ÑĤÑı
ĠÐ½Ð° Ð¸Ð»ÑĥÑĩ
Ð°Ð² Ð°Ð»Ð¸
Ġe gg
Ġe mancipation
Ġe jus
Ġg ain
Ġg ate
ĠÐ¿Ð¾ ÑģÑĤÑĢÐ¾
ĠÐ¿Ð¾ Ð½ÐµÐ¼
ĠÐ¿Ð¾ ÐµÐ·Ð¶Ð°Ð¹
Ð¸Ð½ ÑĭÐ¼
Ð³ Ð¾Ð²
ĠI S
ĠI m
ĠI nd
ĠI mper
ic ted
ÑģÐº Ð°Ð·Ð°Ð»
ve lled
Ġnot ed
Ð°Ð½ ÑĮÑİ
se c
se z
se en
ĠÐ¶ Ð¾Ðº
ĠÐ¶ Ð¸Ð²Ð°Ñı
ĠÐ¶ ÐµÐ½Ð¸ÑĤÑģÑı
st ri
st ained
ÐµÐ² Ð¸Ð´Ð½Ð¾
ÐµÐ² ÑĪÐ°Ñı
ĠÐ» Ð°Ð³
ĠÐ» Ð¸Ð½ÐµÐ¹
ent le
ĠÐ³ Ð¸Ð±
Ð¸Ð² Ð°Ð»Ð¾
Ð¸Ð² ÑĭÑħ
Ð¸Ð² Ð°Ð½ÑĮÑı
Ð¸Ð² Ð°Ð½ÑĮÐµ
ÐµÐ½Ð¸ ÑĤÑĮÑģÑı
Ð°Ð´ ÑĬÑİÑĤÐ°Ð½ÑĤ
ĠÑģÐº Ð°Ð½Ð´
ĠÑģÐº Ð°ÑĤÐµÑĢ
ÐµÐ¹ ÐºÐµ
ĠÐ¾ÑĤ ÐµÑĢ
ĠÐ¾ÑĤ Ð¶
ĠÐ¾ÑĤ Ð³Ð¾
ĠÐ¾ÑĤ ÑģÑĤÑĥÐ¿
ĠÐ¾ÑĤ ÑĢÐ°Ð²Ð»Ñı
Ð¾Ð± Ð¾ÑĢÐ¾ÑĤ
ĠÐ²Ñģ Ð»ÑĥÑħ
ĠÐĴ Ð¾Ð»
ĠÐĴ ÐµÑĩ
ĠÐĴ Ð¸ÑĪÑĮ
Ð¸Ñĩ ÐºÐ¸
ÑģÑĤÐ² Ð¾Ð²Ð°Ð»
ÑģÑĤÐ² Ð¾Ð²Ð°ÑĤÑĮ
ÐµÐº Ð´Ð¾ÑĤ
Ġfor th
Ġst if
Ġst all
Ġst ress
Ġst urd
Ġst umbling
ĠÐºÐ°Ðº Ð¾Ð²Ð°
ĠÐĿ Ð¾Ð²
ĠÐĿ Ð°Ð²
Ð¸Ð¼ ÑĭÐ¼
Ð¸Ð¼ ÑĭÐµ
ĠA re
ad d
ĠÑģÐºÐ°Ð· Ð°Ð½Ñĭ
Ġr ig
Ġr ag
Ġr ake
Ġr hy
Ġr ude
Ġr acing
Ġr uts
ĠÑģÐ² Ð°ÑĤ
ĠT I
ĠT R
ĠT est
ĠÐ²Ñĭ Ð½Ð¸Ð¼
ĠÐ²Ñĭ Ð´ÐµÐ»
ĠÐºÐ¾ ÑģÑıÑģÑĮ
Ð»Ð¸ ÑĪÐµ
ur ious
Ð»Ñı Ð»Ð°
Ð¸Ð´ Ñı
ĠÐ¾Ð± Ð¾Ð·
ĠÐ¾Ð± Ð²Ð¸Ð½
ĠÐ¾Ð± Ð½ÑıÐ»Ð°
ĠÐ¾Ð± Ð¾Ð¹ÑĤÐ¸ÑģÑĮ
ĠÐļ Ð°Ð·Ð°Ð»Ð¾ÑģÑĮ
ĠÐļ ÑĥÐ·Ð¾Ð²
ÐºÐ¾ ÑĪ
ÐºÐ¾ Ð½Ð°
ĠS P
ĠS wed
ĠÑģÑĤ ÑĥÐº
ĠÑģÑĤ ÑĥÐ»ÑĮ
ĠH on
ĠH as
ĠH ard
ĠÐĽ Ð¸Ð»Ð¸
ĠÐ¿ÑĢÐ¸ Ð½Ð¾Ñģ
ĠÐ¿ÑĢÐ¸ ÑĪÐ»Ð¾
Ġk illing
Ġk vas
ev es
ĠÐ¡ Ð·Ð°Ð´Ð¸
ĠÐ¡ Ð»ÑĭÑĪ
Ð½Ðµ Ñı
Ð½Ðµ ÑģÑĤÐ¸
ĠK ing
ĠK ITTY
ĠÐ¿Ð¾Ð´ Ð¾Ð¹
ĠÐ¿Ð¾Ð´ Ð´ÐµÐ²
ĠÑĤÐ°Ðº ÑĤÐ¾Ð¼
Ġsh iny
Ġsh irts
all ed
Ð»Ð° Ñĩ
am oured
pe lled
ĠÐ·Ð° ÐµÐ·Ð¶
Ð¾Ð»ÑĮ Ð²ÐµÑĢ
ĠÐĶ ÐµÐ½ÑĮ
ĠÐĶ ÐµÐ»Ð°
ĠÑĢÐ°Ð· ÑĢÐ°Ð·
ĠÑĢÐ°Ð· Ð»Ð¾Ð¶
ĠÑĢÐ°Ð· Ð½Ð¸ÑĨÐ°
qu ence
Ð½Ñı Ð»Ð¾
ĠÑģÐ» Ð¸Ð²
ĠÑģÐ» Ð°Ð´
Ġdo z
Ġdo ll
ÐµÐ½ÑĮ ÐµÐ¼
ÐµÐ½ÑĮ ÐºÐ¸Ðµ
ÐµÐ½ÑĮ ÐºÐ°Ñı
il ies
ÑĥÐ´ ÐµÑĤ
us c
us cript
ĠÐĲÐ»ÐµÐºÑģ ÐµÐµ
ĠÐŁ Ð¾Ð»ÑĮ
ĠÐŁ Ð¾Ð·Ð´
Ġex cess
Ð¾ÑĪ Ð»Ð¸
ĠÐ¸Ð· Ð¾Ð±
ĠÐ¸Ð· Ð»Ð¸ÑĪÐµ
Ġwhe t
Ġne at
Ġsu itable
ul ation
Ð»ÑĮ Ð½Ð¸Ðº
Ġfr act
ÑĭÐ² Ð°ÐµÑĤÑģÑı
Ġkn it
Ġkn ee
pp er
ĠÐ³Ð¾ ÑĢÑĭ
ÐµÑĩ ÐµÐ½
ÑģÑĤÐ¸ ÐµÐ¼
ight s
ÐµÐ¶ Ð°Ð²
ĠÐ³Ð¾Ð²Ð¾ÑĢ Ð¾Ð¼
Ġcon g
Ġde w
Ġde arest
ust r
ĠB eside
Ġal ike
Ġch attered
Ġch aff
ĠÐ¿ÐµÑĢ Ð¸Ð»Ð°
ĠÑģÐ¿ ÑĢÑıÑĤ
ĠP att
ĠP ower
ĠÐ¢ Ñİ
ĠÐ¢ Ð°Ð½
ĠÐ¢ Ð¾ÑĤ
ĠÐ¢ ÑĢÑĥÐ´
Ġqu ot
Ġli p
ÑĥÐ² ÐµÐ»Ð¸Ñĩ
ĠÐ¿Ð¾Ð» ÐµÐ¹
ĠÐ¿Ð¾Ð» Ð½Ð¾Ð³Ð¾
ĠÐ¿Ð¾Ð» Ð½ÑĥÑİ
ÑģÐ» Ð¾
Ġint on
ĠÐľ Ð¸ÑĪ
ĠÐľ Ð°Ð´Ð°Ð¼
ĠC he
ĠC ON
ĠC ela
ĠC aptain
ĠM ish
ĠM any
ist rate
Ð¾Ð¿ Ð°ÑİÑĤ
Ð¾Ñĩ ÐºÐ°Ñħ
Ġwor ries
ĠÑĪ Ð¾ÑĢ
ĠÑĪ ÐºÐ°ÑĦ
Ġv ol
ÐµÐ³ Ð°Ð»
ge y
Ġor n
ĠÑģÐ°Ð¼ Ð¸Ð¼
ĠÑģÐ°Ð¼ Ð¾Ð»ÑİÐ±
ĠÑģÐ°Ð¼ Ð¾Ð´Ð¾Ð²Ð¾Ð»ÑĮ
ate au
Ð°Ñİ ÑīÐµÑİ
Ġam is
Ð¸Ð»Ð¸ Ñı
ÑĥÑĪ ÐºÐ¾Ð¹
ĠÑģÑĤÐ¾ Ñİ
Ġno stri
Ġun m
Ġun su
Ġun even
Ġwill ingly
ĠÐ±ÑĥÐ´ ÑĥÑĩÐ¸
Ġman aging
Ġman uscript
ĠÐ¿ÑĢÐ¾ ÑīÐµ
ĠÐĲÐ»ÐµÐºÑģÐ°Ð½Ð´ÑĢÐ¾Ð² Ð½Ð¾Ð¹
Ġag rees
ĠÐ¿ÑĢÐµÐ´ ÑģÑĤÐ¾
ĠÐ¿ÑĢÐµÐ´ Ð»Ð¾Ð³
ĠÐºÑĢ ÑİÑĩ
Ð»Ð¾ Ð½Ñı
ĠÐ¸Ð¼ ÐµÐµÐ¼
ĠÐ¸Ð¼ ÐµÐ½ÑĮÐµ
Ġbr own
Ġbr ass
Ġbr ings
Ð¸ÑĤÐµÐ»ÑĮ Ð½Ð¾Ð¼
ĠÑģÐ¼ ÐµÑİÑī
Ġthought ful
Ġse aled
Ġse quence
ĠÐ¿Ð¾ÑĤ Ð°
ĠÐ¿Ð¾ÑĤ Ð¸Ñħ
ĠÐ¿Ð¾ÑĤ ÑĥÑĪ
ĠÐ¿Ð¾ÑĤ ÑıÐ³
ĠÐ¾Ð¿ Ð¸Ñģ
ĠÐ¾Ð¿ ÐµÐºÐ¸
ĠÐ¾Ð¿ ÑĥÑģÐºÐ°Ñı
ĠÐ¾Ð¿ Ð¸ÑĥÐ¼
Ð°Ð½Ð¸ ÑĩÐµÑģÐº
ĠÐ½Ð°Ð´ ÐµÑĤÑĮ
ĠÐ½Ð°Ð´ ÐµÐ¶Ð´Ñĥ
ol ic
ol ved
ound ing
ĠÐ¾ÑĤÐ² Ð»ÐµÐº
ÑģÐ»Ð¸ ÑģÑĮ
ĠÐ´ÑĥÐ¼ Ð°ÑİÑĤ
Ġar rest
os ure
os ition
ĠÑĥÐ»ÑĭÐ± Ð½ÑĥÐ²ÑĪÐ¸ÑģÑĮ
ĠÐ¿Ð¾Ðº Ð»Ð¾
ĠÐ¿Ð¾Ðº Ð°Ð¶Ñĥ
ĠÐ¿Ð¾Ðº Ð»Ð¾Ð½Ð¸Ð²ÑĪÐ¸ÑģÑĮ
ĠN evsky
Ġco b
Ġco de
Ġco inc
un ks
ĠÐĲÐ»ÐµÐºÑģÐ°Ð½Ð´ÑĢÐ¾Ð²Ð¸Ñĩ Ðµ
ĠÑģÐ¾ Ñħ
ĠÑģÐ¾ ÑĨÐ¸
red it
ÑĩÐ° ÑģÑĮ
Ġpl anted
Ġpre m
Ġpre cious
ĠÑģÐ¾Ð² ÐµÑĤÑĥ
ĠÑģÑĤÐ°ÑĢ ÑĪÐµ
ĠÑģÑĤÐ°ÑĢ Ð°Ð»Ð¸ÑģÑĮ
ĠÐ´Ð¾ Ð½ÐµÑģ
ĠG u
ĠG ive
ĠG agin
ĠÐ§ ÐµÑĤÐ²ÐµÑĢ
ĠÐ§ ÐµÐ»Ð¾Ð²ÐµÐº
ĠÐ§ ÐµÑĩÐµÐ½
ag ues
ount ed
ount ered
Ġcons isting
ĠÐ³Ð»Ð°Ð· Ð°Ð¼
Ġtr ay
Ġtr aces
Ġtr unk
Ġtr ades
Ġtr unks
ĠÐķ Ð½Ð¾
ĠÐķ Ð´Ð²Ð°
Ġover heard
ĠÐ²ÐµÑĢ Ð¸Ð»Ð¸
ĠÐ²ÐµÑĢ Ð½ÑĥÐ²
ĠÐ²ÐµÑĢ Ð½ÐµÑĤÑģÑı
ĠÐĺÐ² Ð°Ð½Ð°
Ġpro cl
Ð»Ð¸Ð² Ð°ÑıÑģÑĮ
ĠÑĦ ÐµÐ»ÑĮ
ĠÑĢÐ°Ð´ Ð¾Ð²Ð°Ð»Ð¾
ĠÐ²Ð¾Ð· Ð¼ÑĥÑī
ĠE X
ĠE s
ĠE ach
ĠE aster
Ġcl er
Ġac ute
Ġac res
ÐµÐ»Ð¸ ÑģÑĮ
Ġexp ert
Ġexp ens
Ġexp ense
th m
ĠÑħÐ¾ÑĢÐ¾ÑĪ Ð°Ñı
Ð¸ÑĢ Ñİ
ÐµÑı Ð½
Ð¸ÑĤÐµÐ»ÑĮÐ½Ð¾ ÑģÑĤÐ¸
Ġbl ade
Ġbl inking
ĠÑģÐ´ÐµÐ» Ð°Ð½Ñĭ
ĠÑĥÐ¼ ÐµÐ½
ĠÑĥÐ¼ ÑĭÐ²
ĠÑĥÐ¼ Ð½Ð¾Ðµ
ĠÑĥÐ¼ ÐµÑĢÑĪ
ĠÐ¾ÑģÑĤ Ð°Ð»ÑĮÐ½ÑĭÐµ
Ġro b
Ġro cking
ĠÐ¿Ð¾Ð¼ Ð¾ÑĢÑī
Ð¿Ð¾Ð¼ Ð¾Ñī
ĠF IR
ĠF irst
ÑĤÐµ ÑĨ
ĠÐ¸ÑģÐ¿ Ð¾Ð´Ð»Ð¾Ð±
ĠÐ½ÐµÐ¿ Ð¾Ðº
ĠÐ¿Ð¾Ð»Ð¾Ð¶ ÐµÐ½Ð¸ÐµÐ¼
mb ers
ĠÐ¿Ð¾Ð² ÐµÐ´
ĠÑĨ ÑĭÐ³
ĠÐ¿Ð¾Ð½Ñı ÑĤÐ¸
ĠÐĵ Ð°Ð³
ĠÐĵ ÑĥÐ±ÐµÑĢ
ĠÐł Ð¾Ð²
ĠÐł ÐµÐ²
ĠÐł ÐµÐ·Ñĥ
ĠÐ¿ÑĢÐ°Ð² Ð¸Ð»Ð°
ĠÐ¿ÑĢÐ°Ð² Ð¸ÑĤÐµÐ»ÐµÐ¼
ĠÐ¿ÑĢÐ°Ð² Ð¸ÑĤÐµÐ»ÑĮÑģÑĤÐ²Ð¾
ĠÐ½Ð°Ñĩ Ð°ÑĤ
Ġhusband ry
Ġpart ner
Ð»ÐµÐ½ Ð½Ð¾Ð³Ð¾
Ð»ÐµÐ½ Ð½Ð¾Ð¼
Ð»ÐµÐ½ Ð½Ð¾Ð¼Ñĥ
ĠÐ±Ð» ÐµÑģ
ÑĢÐ¾Ð´ Ð¾Ð»Ð¶
ĠÐ¿ÑĢÐ¾Ñģ Ð²ÐµÑī
ious ness
Ġatt ain
Ġatt ended
Ġatt acked
ĠÐ½ÑĥÐ¶ Ð´
ĠÐ£ Ð¿
ĠÐ£ Ð´Ð¸Ð²
Ð°Ñĩ Ðº
ĠÑģÐ¿ÑĢÐ¾Ñģ Ð¸Ð»Ð¸
Ġhere to
ĠÐ²Ð´ Ð¾Ñħ
ĠÐ·Ð°Ð± ÑĥÐ´ÑĮ
ĠÐ·Ð°Ð± ÑĭÐ²Ð°Ñı
ĠÑĤÑĢ Ð¾Ð¿
The se
Ġfl ood
Ġfl ag
Ġfl ash
Ġfl attered
ĠÐ¿ÑĢÐµÐ¶ Ð½ÐµÐ¹
ĠÐ¾ÑĤÐº Ð°Ð¶
Ġwork man
Ġad just
ĠÐ¿Ð¾Ð· Ðµ
ĠÐ¿Ð¾Ð· Ð°Ð´Ð¸
ĠÐ·Ð°Ð¿ ÑĢÐµÑī
ĠÐ²ÑĭÑĢÐ°Ð¶ ÐµÐ½Ð¸Ð¹
ĠÐĹ Ð½Ð°Ð¼
Ġadd ition
ĠÑģÑĩÐ° ÑģÑĤÑĮÑİ
ĠYou ng
ÑıÐ· ÑĮ
Ġsc attered
Ġcle aring
Ġper pet
ĠÑģÐ¾Ð²ÐµÑĢÑĪ Ð°ÐµÑĤÑģÑı
ĠÐ¿ÐµÑĢÐ² Ð¾Ð¼Ñĥ
ĠÐ¿ÐµÑĢÐ² ÑĭÑħ
ĠÐ´ÐµÑĤ ÑģÐºÐ¸Ðµ
ĠÐ½ÐµÐ´ Ð°Ð²
ĠÐ½ÐµÐ´ ÐµÐ»ÑĮ
ĠÐ½ÐµÐ´ Ð¾ÑĢÐ°Ð·
Ġcall s
ÑĥÑģÑĤ Ð¸Ð»Ð°
ĠÐ¾Ð´Ð¸Ð½ Ð½Ð°Ð´ÑĨÐ°ÑĤÑĮ
Ġhel m
ĠÐ·Ð°Ðº ÑĥÑĤ
ĠÐ´ÐµÐ»Ð° ÐµÐ¼
ĠÑĥÐ²Ð¸Ð´ Ð¸ÑĤÐµ
ĠÐ²Ð¾Ð» ÑĪÐµÐ±
Ġfe ars
Ġfe igned
ĠTh ink
ty ard
Ġser ving
ĠÐ¿ÑĢÐ¾Ð´Ð¾Ð»Ð¶ ÐµÐ½Ð¸Ðµ
ĠÐºÐ°ÑĢ Ð¼
ĠÐºÐ¾ÑĢ Ð·
ĠÐĶÐ°ÑĢ ÑĮÐµÐ¹
Ġconvers ing
ĠIn stead
ĠÑĤÐ² Ð¾Ñİ
ĠÐ´Ð¾Ð± Ð¸ÑĤÑĮÑģÑı
ĠÐ´Ð¾Ð± ÑĢÐ¾Ñİ
ĠÐ´Ð¾Ð± ÑĢÐ¾ÑģÐ¾Ð²
ĠÑĥÐ¶Ð°Ñģ Ð½ÑĥÐ»ÑģÑı
ĠAlex ey
ÑģÑĤÐ²ÐµÐ½ Ð½Ð¾Ð¼
ÑģÑĤÐ²ÐµÐ½ Ð½Ð¾Ð¼Ñĥ
so le
Ġind ub
Ġmar k
Ġmar rying
Ġmar riages
ĠÐ¿Ð¾Ñģ Ð¸Ð´
ĠÐ¾ÑģÑĤÐ°Ð½Ð¾Ð² Ð¸Ð²
Ð¸ÑĩÐµÑģÐº Ð¾Ñİ
ĠÐ²ÑĭÑģ ÑĪÐµÐµ
ĠÐ²ÑĭÑģ ÑĪÐ¸Ñħ
ĠÐ²ÑĭÑģ Ð¾ÑĤÑĭ
ĠÐ²ÑĭÑģ Ð¾ÑĤÐµ
ĠÐ±ÐµÑģ Ð¿Ð¾Ð¼Ð¾Ñī
ĠÐ½ÐµÑģ Ð¾
ord ered
Ġcontin ual
ĠÑĩÐµÑĢ Ð½Ð¾Ð¼
Ġdra gged
Ġpos itions
Ġpos itively
ĠÐ³ÑĢÐ°ÑĦ Ð¸Ð½
Ġask s
ĠÐ¶Ð¸Ð² Ð¾Ð³Ð¾
ĠÐ¶Ð¸Ð² ÑĥÑī
Ġdec iding
Ġdec isive
ĠÐ¾Ðº ÑĢÑĥÐ³
Ġdin ners
ĠÐĿÐ¸Ðº Ð¸ÑĤ
Ġconf l
Ġconf orm
Ġconf inement
Ġfam ilies
ĠÐ´Ð¾Ð» Ð¾Ð¶Ð¸Ð»
ĠÑĥÐ¿ ÑĢÑĥÐ³
Ġcal mer
Ġpain s
Ġdist orted
Ð°ÑİÑī Ð¸Ð¼Ð¸ÑģÑı
ĠÐ¿Ð¾ÑģÐ»ÐµÐ´ Ð½ÑıÑı
ĠÐ¿Ð¾ÑģÐ»ÐµÐ´ Ð¾Ð²Ð°ÑĤÐµÐ»ÑĮ
Ġsl anting
Ġel ab
ĠÐ²Ð·Ð³Ð»ÑıÐ´ Ð¾Ð²
Ġmeet ings
ĠÑģÐ»ÑĭÑĪ Ñĥ
ĠÑģÐ»ÑĭÑĪ ÐµÐ½
ĠÑģÐ»ÑĭÑĪ Ð°Ð»ÑģÑı
ĠÐ·Ð°Ð´ Ð¾Ð¼
ĠÐ´Ð¾ÑĢ Ð¾Ð¶Ðµ
ĠÐºÐ¾Ð¼Ð½Ð° ÑĤÐ°
ĠÐ¸Ð½ÑĤÐµÑĢÐµÑģ Ð¾Ð²Ð°ÑĤÑĮ
ĠÑģÑĤÐ°Ð» Ðº
ĠÐ»ÑİÐ±Ð¾Ð² Ð½Ð¸ÐºÐ°
ĠÑħÐ¾Ð·ÑıÐ¹ ÐºÐµ
Ġend ured
ÐµÑĢÐµÐ´ Ð¸
ĠRu ss
ĠÐ¿ÑĢÐ¸ÑıÑĤ ÐµÐ»Ð¸
ĠÐ¿ÑĢÐ¸ÑıÑĤ ÐµÐ»ÐµÐ¹
ĠIvan ov
cept ions
ĠÐ¡Ð² ÐµÑĤ
Ġmor ph
ĠÐ·Ð°Ð³ Ð»Ð°Ð´Ð¸ÑĤÑĮ
ĠÐ¸ÑģÐ¿ÑĭÑĤ ÑĭÐ²Ð°ÐµÑĤ
HE D
ĠÐ¿ÐµÑĢÐµÐ´ Ð°Ð»Ð°
Ġcour tyard
ĠÐ¼ÑĥÑĩ Ð°Ð»Ð¸
Ġinst ru
Ġinter course
ĠÐĿÐ° ÑģÑĤÑĥÐ¿Ð¸Ð»Ð¾
ĠÐºÐ¾Ð½ ÑĨÑĭ
Ġfin al
ĠÐ¿ÑĢÐ¾ÑĤÐ¸Ð² Ð½Ð¸Ðº
ĠÐ·Ð°Ð¼ÐµÑĤ Ð¸Ð»Ð¸
ĠÐ·Ð°Ð¼ÐµÑĤ Ð½Ð¾Ñİ
ĠÐ´ÐµÑĢÐµÐ² ÑĮÑı
Ġdel iver
ĠÐ¿Ð¾Ð»ÑĥÑĩ Ð°ÐµÑĤ
ĠÐ½Ð°Ð² ÐµÑĢÐ½Ð¾
ĠÐ±ÑĭÐ² Ð°Ð»Ð¸
ĠÐ±ÑĭÐ² ÑĪÐµÐ³Ð¾
ĠÑıÑģ Ð½Ð¾ÑģÑĤÐ¸
ĠÑģÐ¸Ð´ Ð¸ÑĤ
ĠÐŀÑĤ Ðº
ĠÐŀÑĤ Ð¿
ĠÐŀÑĤ ÐºÑĥÐ´Ð°
ĠÐºÐ¾Ð½Ñĩ Ð¸Ð»ÑģÑı
ĠÐºÐ¾Ð½Ñĩ Ð¸Ð»Ð¸ÑģÑĮ
ĠÑģÐµÐ¼ ÐµÐ¹ÑģÑĤÐ²
ĠÐ·Ð°ÑĤ ÑĢÐµÑī
ĠÑĤÑıÐ¶ ÐµÐ»Ð°
Ġlight ing
Ð°ÐµÐ¼ Ð¾Ð³Ð¾
Ð°ÐµÐ¼ ÑĥÑİ
ĠÑĢÐ°Ð±Ð¾ÑĤ Ð½Ð¸ÐºÐ¸
ĠÑĢÐ°Ð±Ð¾ÑĤ Ð½Ð¸ÐºÐ°Ð¼Ð¸
ĠÐ·Ð°Ñģ ÑĥÑĩ
ĠÐ²Ð¸Ð´ÐµÑĤÑĮ ÑģÑı
ĠÑĥÐ´Ð¸Ð² Ð»ÐµÐ½Ð¸Ðµ
Ġmer it
Ġmer ged
ĠÑĤÑĢÑĥÐ´ Ð¾Ð²
ĠÑĤÑĢÑĥÐ´ Ð½Ð¾ÑģÑĤÑĮ
ĠÑĤÑĢÑĥÐ´ Ð½ÐµÐµ
ĠÐ¿ÑĢÐ¸Ð´ Ð°ÑĤÑĮ
ĠÐ¿ÑĢÐ¸Ð´ ÐµÑĢÐ¶
Ġbo ard
Ġbo ast
ĠÐ¾ÑĤÐ´ Ð°Ð»Ð°
ĠÐ¾ÑĤÐ´ Ð¾Ñħ
Ð¸Ð½Ð¸ ÑĤÑĮ
Ġhur ting
Ġcomp ared
Ġcomp aris
ĠÑĢÐ°ÑģÐ¿ ÑĢÐµÐ´ÐµÐ»
ĠÐ½ÐµÐ¿ÑĢÐ¸ÑıÑĤ Ð½Ð°
ĠÐ½ÐµÐ¿ÑĢÐ¸ÑıÑĤ Ð½Ñĭ
Ġinf ected
ĠÐ½Ð°ÑħÐ¾Ð´ Ñı
ĠÐ½Ð°ÑħÐ¾Ð´ Ð¸ÑĤ
ĠÐ½Ð°ÑħÐ¾Ð´ Ð¸ÑĪÑĮ
ĠÑģÐ²ÐµÑĤ Ð»Ð¾
ĠÐ¿ÑĢÐ¾ÑģÑĤ ÑĭÐ¼
ĠÐ¿ÑĢÐ¾ÑģÑĤ Ð¸Ð»ÑģÑı
ĠÐ¿ÑĢÐ¾ÑģÑĤ ÑĭÑħ
ÑĪÐµÐ³Ð¾ ÑģÑı
ĠÐ¿ÑĢÐ¾Ð² Ð¸Ð·
ĠÑĥÑĩ ÐµÐ½Ð¸Ñı
ĠÐŁÑĢ ÐµÐ»
Ġve ins
bur nt
ĠÐ±ÐµÐ» Ð¾Ð³Ð¾
ĠÐļÐ°ÑĢ ÐµÑĤÐ°
ĠÑĩÑĥÐ²ÑģÑĤÐ²Ñĥ ÐµÑĤÐµ
ĠÐ²ÑĭÐ¿ ÑĥÑģÑĤÐ¸Ð»
ĠÐ´Ð²Ð¸Ð¶ ÐµÐ½ÑĮÐµ
ĠÐ³Ð»Ð°Ð² Ð½ÑĭÑħ
ĠÐ½ÐµÑģÑĩÐ° ÑģÑĤÑĮÑİ
!" -'
Ġland ing
ĠÐ²ÐµÑģÐµÐ» Ñĭ
ĠÐ²ÐµÑģÐµÐ» ÑĥÑİ
og raph
Ġcomm enced
ĠÐ¾ÑĤÐ²ÐµÑĤ Ñĭ
ĠÑģÑĩÐ°ÑģÑĤÐ»Ð¸Ð² Ð¾
ĠÑģÑĩÐ°ÑģÑĤÐ»Ð¸Ð² Ð¾Ñİ
Ġstand s
Ġdef initeness
Ġcor res
Ġcor ners
ĠÑĥÐ³ Ð»Ð¾Ð²
ÐĿ Ð°Ð´Ð¾
Ġart icles
ĠÐ¤ Ð¾Ð¼
ern al
Ġfoot step
ĠÐ¼Ð¸Ð» Ñĭ
ĠÑħÐ¾Ð»Ð¾Ð´ Ð½ÑĥÑİ
ĠÑħÐ¾Ð»Ð¾Ð´ Ð½Ð¾ÑģÑĤÑĮ
ĠÐ²ÑģÑĤÑĢÐµÑĩ Ð¸
ĠÐ²ÑģÑĤÑĢÐµÑĩ Ñĥ
ĠÐ²ÑģÑĤÑĢÐµÑĩ Ð°Ð»
ĠÐ²ÑģÑĤÑĢÐµÑĩ Ð°ÑĤÑĮ
ĠÑģÐ»ÑĥÐ¶ Ð±Ð°
ĠÐ¿Ð°ÑĢ Ðº
ĠÐ¿Ð°ÑĢ Ð°Ð´
Ġimag ining
ĠÐ¼Ð°Ð»ÐµÐ½ÑĮ ÐºÐ¾Ð¼
ĠÐ¼Ð°Ð»ÐµÐ½ÑĮ ÐºÐ¸Ð¼
Ġdri ly
ĠÐ²ÑģÑĤÑĢÐµÑĤ Ð¸Ð»ÑģÑı
ĠÐµÐ´ ÐµÑĪÑĮ
ĠÐ¿ÑĢÐ¾ÑģÑĤÐ¾ ÑĤÐ¾Ð¹
ĠÐ¿Ð¾Ð± ÑĭÐ²Ð°ÑĤÑĮ
ĠÐ¿Ð¾Ð± ÑĭÑĤÑĮ
ĠÐ¾Ð±ÑĢÐ°Ñī Ð°ÑĤÑĮÑģÑı
ĠÐ¿ÑĢÐ¸Ðº Ð°Ð·Ð°Ð»
ĠÐ¸Ð·Ð± Ñĭ
ĠÐ¸Ð³ ÑĢÐ°Ð²
ĠÑĤÐ¾Ð» ÐºÐ¾Ð²
Ġjo int
Ġjo ining
ĠÐ´Ð°Ð¼ Ð¾Ð¹
ĠÑĤÐ¾Ð½ ÐºÐ¾Ð¹
ĠÑģÐ¸Ð»ÑĮ Ð½Ð°
ĠÑģÐ¸Ð»ÑĮ Ð½ÑĭÑħ
ĠÐ´Ð°Ð² Ð°Ð»Ð°
ĠÑģÑĤÑĢÐ°Ð´ Ð°Ð»Ð°
ĠÑģÑĤÑĢÐ°Ð´ Ð°Ð½Ð¸Ðµ
ĠJ une
ĠÐ¾Ð±Ñī ÐµÐ¹
ĠÐ¿Ð¾Ð²ÐµÑĢ Ð½ÑĥÐ²ÑĪÐ¸ÑģÑĮ
ĠÐ½Ð°Ð¹ Ð´Ñĥ
ĠÐ¾ÑģÐºÐ¾ÑĢÐ± Ð¸Ð»Ð¾
ĠÐ¾ÑģÐºÐ¾ÑĢÐ± Ð¸ÑĤÐµÐ»ÑĮÐ½Ð¾
ĠÐ¿ÑĢÐµÐ´ÑģÑĤÐ°Ð² Ð¸Ð»Ð¾ÑģÑĮ
ĠÐ¿ÑĢÐµÐ´ÑģÑĤÐ°Ð² Ð»ÐµÐ½Ð¸Ðµ
ĠÐ¶Ð´ Ð°ÑĤÑĮ
ĠÐ¼ÐµÑĢ Ñĥ
ĠÐ¿Ð¾ÑģÑĤ ÑĥÐº
ĠÐ¸Ð´ ÑĥÑĤ
ĠÐ³Ð¾ÑĤÐ¾Ð² ÑıÑģÑĮ
Ġsn orting
ĠÐ¸Ñģ ÑĨÐµÐ»
ĠÐŁÐ¾Ñģ Ð»
ĠÐŁÐ¾Ñģ Ð»ÑĭÑĪ
ĠÐ·Ð°Ð¼ÐµÑĩ Ð°ÑĤÐµÐ»ÑĮÐ½ÑĭÐ¹
Ġeduc ate
ĠÑģÐ°Ð´ Ð¾Ð²
ĠÑģÐ°Ð´ Ð¸ÑĤÑĮÑģÑı
ĠÐ½ÐµÐ¶ Ð½ÑĭÐ¼
ĠÐ½ÐµÐ¶ Ð½Ð¾Ñİ
Ġfa ire
Ġball et
Ġball room
Ġce asing
Ġcr im
Ġcr ushed
Ġcr ank
ĠÑĩÐ¸ÑĤ Ð°Ð»Ð¸
ĠÑģÐ²ÑıÐ· Ð°Ð½Ñĭ
ĠÐºÐ¾Ñģ Ð¾Ð¹
ĠÐ¿Ð°Ð»ÑĮ ÑĨÐ°
ĠÐ¿Ð°Ð»ÑĮ ÑĨÐµÐ²
ĠEng land
Ġpresent s
ĠÐ¾ÑħÐ¾ÑĤ Ð½Ð¸Ðº
ÑģÑĤÐ²Ñĥ Ñı
Ġcur ious
Ġcur led
ĠÐ³Ð¾ÑģÐ¿ Ð¾Ð¶
Ġserv ices
ĠÐµÐ· Ð´Ðµ
ĠÐ¿ÑĢÐ¸Ñĩ Ð¸Ð½Ð°
Ġass urance
ÑĤÐ¾Ñĩ ÐºÐµ
ĠÐ¿ÐµÑĢÐµÐ± Ð¸Ð²Ð°Ñı
ĠÐ´Ð¾Ð±ÑĢ Ð°Ñı
ĠÐ´Ð¾Ð±ÑĢ ÑĭÐµ
ĠÐ´Ð¾Ð±ÑĢ ÑĭÐ¼Ð¸
ĠÐ´Ð¾Ð±ÑĢ Ð¾ÑĤÑĥ
ĠÑģÐ¾Ð³Ð»Ð°Ñģ Ð½Ñĭ
Ġpat ri
ĠÐ¿ÐµÑĢÐµÑģÑĤ ÑĥÐ¿
Ġdecided ly
Ġunpleasant ly
ĠÑī ÐµÐ±
ĠÐ½Ð°Ð¿ÑĢÐ°Ð² Ð¸Ð»Ð°ÑģÑĮ
ĠÑĢÑıÐ´ Ð°Ð¼Ð¸
ĠÑĢÑıÐ´ ÑĩÐ¸Ðº
ĠÐ½ÐµÐ²Ð¾Ð·Ð¼Ð¾Ð¶ Ð½Ð°
ĠÐ²ÑħÐ¾Ð´ Ð¸ÑĤÑĮ
ĠÐ²ÑħÐ¾Ð´ Ð¸Ð»Ð°
ĠÐºÑĥÐ¿ Ð¸Ð»
Ġdep utation
ĠÑĢÐ°Ð´Ð¾ÑģÑĤ Ð½Ð¾Ð³Ð¾
ĠÐ¿Ð¾Ñħ Ð²
ĠÐ¿Ð¾Ñħ ÑĥÐ´
ĠÐ²ÑĭÐ· Ð²Ð°Ð»
ĠÑĢÑĥÑģ ÑģÐºÐ¸Ð¼
ĠÐ±ÑĢ Ð°Ð»
ĠÐ¿Ð¾ÑģÐ¿ ÐµÑĤÑĮ
ĠÐ¾Ð³ ÑĥÑĢ
ĠÐ¾Ð³ ÑĢÐ°Ð½Ð¸Ñĩ
ĠÐ¿ÑĢÐ¸ÑĤ Ð¾Ð¼
ĠÐ¿ÑĢÐµÐ´ÑģÑĤÐ°Ð²Ð»Ñı Ð²
Ġforget fulness
res pect
ĠÐ±Ð¾ÑĢ Ð¾Ð½Ñĭ
Ġdirect ions
ĠÐļÐ°ÑĤÐ°Ð²Ð°ÑģÐ¾Ð² Ñĥ
Ġpur ch
Ġpur ity
ĠÐ³Ð»ÑĥÐ¿ Ð°
Ġfine ly
Ġpu is
Ġpu dd
Ġpu ff
ĠÑģÐºÑĥÑĩ Ð°ÑĤÑĮ
ĠÐ¾Ð¿ÑĢÐµÐ´ÐµÐ» ÐµÐ½Ð½ÑĭÐµ
ĠÑĤÑĢÐµÐ± Ð¾Ð²Ð°Ð»Ð¸
Ð¿Ð¾Ð´ ÑĢÐ¾Ð¼
ĠÑĥÐ´ÐµÑĢÐ¶ Ð°Ð»
ĠÑĥÐ´ÐµÑĢÐ¶ Ð¸Ð²Ð°ÑĤÑĮ
ĠÐ©ÐµÑĢÐ±Ð°ÑĨ ÐºÐ¾Ð¹
ÑĥÐ» ÐºÐ¸
ĠÐ¿Ð¾Ð´ÑħÐ¾Ð´ Ð¸Ð»Ð°
Ġexper ience
ĠÑģÐ´ÐµÐ»Ð° ÐµÑĤÑģÑı
ĠÐ½ÑĢÐ°Ð² ÑģÑĤÐ²ÐµÐ½Ð½Ð¾Ðµ
ĠÐ´Ðµ ÑıÑĤ
ĠÑĢÐµÐ² Ð¸Ð·
Ð½ÑĥÑĤ ÑĭÐµ
ĠÑģÐ¼ÐµÑĪ Ð½Ð¾Ð³Ð¾
ĠÑĤÐ²Ð¾ Ð¸Ð¼
ĠÐ´Ð¾ÑģÐ°Ð´ Ñĥ
Ð¸Ð»ÑĮ ÑģÐ¾Ð½
ĠÑģÐ¾Ð· Ð½
Ð²Ð¸Ð½ ÑĥÐ²
ĠÐ±ÐµÑĢ Ñĥ
ĠÐ±ÐµÑĢ ÐµÐ³
ĠÑģÐºÐ°Ñĩ ÐºÐ°
ĠÐ¿Ð»ÐµÑĩ Ð°Ñħ
Ġperf ormed
ĠÐºÑĢÐ°ÑģÐ¸Ð² Ð¾
ĠÐºÑĢÐ°ÑģÐ¸Ð² ÑĭÐµ
ĠÐ´Ð°Ð»ÑĮ Ð½Ð¸Ð¹
ĠÐ¼ÐµÑĪ Ð°ÑĤÑĮ
ĠÑģÐ²Ð¾Ð±Ð¾Ð´ ÐµÐ½
Ġanim osity
ĠÐĺÐ· Ð²
ĠÐ¿ÑĢÐµÐ´Ð»Ð¾Ð¶ Ð¸ÑĤÑĮ
ĠÑĢÐµÑĪÐ¸ÑĤÐµÐ»ÑĮÐ½Ð¾ ÑģÑĤÑĮÑİ
Ġirrit ably
ĠÐ±Ð»Ð¸Ð· ÐºÐ¾Ð³Ð¾
Ġsleep y
ĠÐ¾ÑĤÐ¿ Ð¾ÑĢ
ÑĪÐ¸Ñħ ÑģÑı
ĠÐ³ÑĢÐ¾Ð¼ Ð°Ð´
ĠÐ²ÑĭÑģÐ¾Ðº ÑĥÑİ
ĠÐĴÐ°ÑģÐµÐ½ÑĮ ÐºÐµ
ĠÐ½Ð°Ð·ÑĭÐ² Ð°ÑİÑĤ
Ð²Ð°ÑĢ Ð´
ĠÐºÑĥÑĩ Ñĥ
ĠÐ´Ð»Ð¸Ð½ Ð½Ð¾Ð¹
Ġru ddy
ĠÑĢÐ°Ð·Ð± Ð¸ÑĤÑĭ
Ġagree ing
ĠÐ¾ÑĤÐºÑĢÑĭ Ð»Ð°
ĠÐ¾ÑĤÐºÑĢÑĭ ÑĤÐ¾Ñİ
Ġsk ate
Ġcart e
ĠÐ·Ð°ÑģÑĤ Ð°ÑĤÑĮ
Ġthousand s
ĠÐ¿Ð¾Ð·Ð²Ð¾Ð» Ð¸ÑĤÐµ
ĠÐ¾Ð¶Ð¸Ð² Ð»ÐµÐ½Ð½ÑĭÐ¹
Ġinvolunt ary
ĠÑĤÑıÐ¶ÐµÐ» Ð¾Ð³Ð¾
ĠÑĤÑıÐ¶ÐµÐ» ÑĥÑİ
ĠÑĤÐµÑĢ ÑıÑĤÑĮ
Ġport fol
ĠÐ¾ÑģÑĤÐ°Ð½ ÑĥÑģÑĮ
ĠÑĢÐ°Ð±Ð¾Ñĩ ÐµÐ¹
ĠÑĢÐ°Ð±Ð¾Ñĩ ÑĥÑİ
ĠÐ³Ð¾ÑĢÐ´ Ð¾ÑģÑĤÑĮÑİ
AR D
AR LY
ĠÑħÑĥÐ´ ÑĥÑİ
ĠÐŁÑĢÐ¾ Ñĩ
ĠÐ¸Ð·Ð²ÐµÑģÑĤ Ð½Ð¾
ĠÐ¿ÑĢÐ¸Ð½Ñı ÑĤÐ¾
ĠÑģÑĤÑĭÐ´ Ð¾Ð¼
ĠÐ¿ÑĢÐ¸Ð½Ð¸Ð¼ Ð°Ð»Ð¸
ÑīÐ¸Ðº Ñĥ
Ġcomfort ing
ĠÑĢÐ°Ð²Ð½Ð¾Ð´ÑĥÑĪ Ð½ÑĭÐ¼
ĠÑģÐµÑĢÑĮÐµÐ· Ð½ÑĭÐ¹
Ġsort e
ĠÑĢÐ¾Ð± Ð¾ÑģÑĤÑĮ
ĠÑģÐ»Ð°Ð² Ð½Ð°Ñı
ĠÐ´ÑĢÑĥÐ¶ Ð±Ñĥ
Ð¾ÑĢÐ¼ Ð¸Ð»Ð¸
ĠÐľÐ°ÑĢ ÑĮÐµ
ĠÐľÐ°ÑĢ ÑĮÑİ
ĠÐºÐ¾ÑĢÐ¾ÑĤ ÐºÐ¸Ð¼Ð¸
ÐĴ Ñĭ
ĠÐ½Ð°Ð³ Ð½ÑĥÐ»Ð°ÑģÑĮ
ĠÐ¿ÑıÑĤÑĮ ÑģÐ¾ÑĤ
ĠÐ»Ð¸ÑĪ ÐµÐ½
ĠÑĪÑĥÑĤ ÐºÐ°
ĠÑĪÑĥÑĤ Ð»Ð¸Ð²Ð¾
ser v
Ġbott les
ĠÐ·Ð°Ð» Ð¾Ð¶Ð¸Ð²
Ð½ÐµÑģ Ð»Ð°
Ġsol ved
Ġsol utions
Ġquar ters
ĠÐĸ ÐµÐ½Ð°
ĠÐĸ Ð°Ð»ÐºÐ¾
ĠÐ¿Ð¾Ð³Ð¾Ð²Ð¾ÑĢ Ð¸Ð»
ĠÑĤÑĢÐ°Ð² Ð°
ĠÑĥÑģÑĤÑĢÐ¾ Ð¸Ð»
ĠÐ½ÐµÐ± ÐµÑģ
ĠÐ¿ÑıÑĤ Ð½Ð°Ð´ÑĨÐ°ÑĤÑĮ
ĠÐ½Ð°Ð¿ÑĢÑı Ð³
Ġresult ed
ĠÐ½Ñı Ð½Ñİ
ĠÐ¾Ð· Ð½Ð°Ñĩ
Ġmus ical
ene z
Ð½Ð¸ÑĨÐ° ÐµÐ¼
ĠÐ¾ÑĤÑĬ ÐµÐ·Ð´
ĠDo es
ĠÐºÑĢÑĭÐ»ÑĮ Ñı
ĠÐºÑĢÑĭÐ»ÑĮ ÑĨÑĥ
ÑĭÐ¿ Ð°ÑĤÑĮ
ĠÐ²Ð¾ÑĢ Ð¾ÑĤÐ°
ĠÑģÐ²ÐµÐ¶ ÐµÐ¹
ĠÑģÐ²ÐµÐ¶ ÑĥÑİ
Ġpray ing
ĠÐ´ÐµÐ½ Ð½Ð¸Ðº
ĠÐ´Ð¾Ð²Ð¾Ð»ÑĮ Ð½Ð°
Ġcompl ic
Ġcompl aint
ĠÐ·Ð°Ð±Ð¾ÑĤ Ð¸ÑĤÑĮÑģÑı
ĠÐŁÐµÑĤÑĢÐ¾Ð² Ð½Ñĭ
ĠÑĤÐ¾Ð²Ð°ÑĢÐ¸Ñī ÐµÐ¼
Ġscre en
ĠÑģÐ¾Ð¾Ð±Ñī ÐµÐ½Ð¸Ñı
AS T
Ġgri p
Ġgri eve
Ġsmo king
ĠÑģÐ¼ÐµÑı Ð»ÑģÑı
Ġhast ening
ĠÑĢÑĥÐº Ð¾Ð¿
ĠÐ²ÑĤÐ¾ÑĢ Ð¾Ð³Ð¾
ĠÐºÑĢÐ¾Ð² Ð°ÑĤÑĮ
ĠÐºÑĢÐ¾Ð² ÑĮÑİ
Ġthre ad
ĠÐ¿Ð¾ÑģÑĤÐ°Ð² Ð¸ÑĤÑĮ
ĠÐºÐ¾ÑĦ ÐµÐµÐ¼
Ġjud gment
ĠÐ¿Ð¾ÑĤÐµÑĢ ÑıÐ²
ĠÐºÐ½ÑıÐ¶ Ð½Ñĥ
Ġobser v
Ġdemand ing
ĠU P
Ġsle nder
ĠÐ·Ð°ÑĢ Ð°Ð·
ĠÐ·Ð°ÑĢ ÑĭÐ´
ĠÐ¿ÑĢÐ¾Ð¸Ñģ ÑĪÐµÐ´
ĠÑģÐ¾Ð²ÐµÑĤ Ð¾Ð²Ð°Ð»
ĠXXX III
Ġpet it
Ġgard ens
Ġconcl usions
ĠÐ²Ð·ÑıÐ² ÑĪÐ¸ÑģÑĮ
ĠÐ¿Ð¾Ð¼Ð¾Ð³ Ð°ÑĤÑĮ
ĠÐ¿Ð¾Ð¼Ð¾Ð³ ÑĥÑĤ
ĠÐ¿Ð¾Ð·Ð² Ð¾Ð»ÑĮÑĤÐµ
ĠÐºÐ¾ÑĢÐ¼ Ð¸ÑĤÑĮ
ĠÑģÐ¶ Ð°Ð»
ĠÐ½Ð¾Ð¶ Ð¾Ð¼
Ġcand id
ĠÑģÐºÑĢÑĭ Ð»Ð°ÑģÑĮ
ĠÐ»ÑİÐ±Ð¸Ð¼ Ð¾Ð³Ð¾
ĠÐ½ÐµÑģÑĩÐ°ÑģÑĤ Ð½Ð¾Ð³Ð¾
ĠÐ´ÑĢÐ¾Ð¶ Ð°
ĠÑıÐ² Ð¸Ð»Ð¸ÑģÑĮ
ĠÑģÑĤÑĥÐ¿ ÐµÐ½Ð¸
ĠÐ´Ð¾Ð±ÑĢÐ¾Ð´ ÐµÑĤÐµÐ»ÑĮ
ĠÐ½Ð°Ð¼ÐµÑĢ ÐµÐ½Ð¸Ñı
ĠÐ½Ð°Ð¼ÐµÑĢ ÐµÐ½Ð¸ÐµÐ¼
ĠÐ¿ÑĢÐµÐ»ÐµÑģÑĤ Ð½Ð°Ñı
ĠÐ¿ÐµÑĢÐµÐ¼ÐµÐ½ Ñĥ
ĠÐ¿ÑĢÐ¸ÐºÐ°Ð·ÑĩÐ¸Ðº Ð¾Ð¼
Ġsens itive
Ġmis ery
ĠÑĤÑĢÐ¾ Ð½ÑĥÐ»ÑģÑı
ĠÑĤÑĢÐ¾ Ð½ÑĥÑĤ
ĠÑģÐºÑĢÑĭÐ² Ð°Ð»Ð°
ĠÐĽÐ°ÑģÐº Ñĥ
Ġconv ince
Ġtele g
Ġroad s
ĠÑĨÐ²ÐµÑĤ Ð¾Ð²
ĠÐ¿Ð¾ÑĢÑĤÑĢ ÐµÑĤÐ°
Ġspoil ing
ĠÐ¸Ð³ÑĢ Ð°Ð»
ĠÐ¸Ð³ÑĢ Ð°Ð»Ð¸
Ġportra its
Ġform al
ĠÐ²ÑĭÑĢÐ°Ð· Ð¸Ð»Ð¾
ĠEx cuse
ĠÐ½ÐµÐ¿ÑĢÐ°Ð² Ð´Ñĥ
ĠÐ¾Ð¶Ð¸Ð´Ð° ÐµÑĤ
ĠÐ¾Ð¶Ð¸Ð´Ð° Ð½Ð¸Ð¸
ĠÑĤÐ¾ÑĢÐ¾Ð¿ Ð¸ÑĤÑĮÑģÑı
ĠÐºÐ¾Ð¿ Ð½Ñĭ
ĠÐºÐ¾Ð¿ Ð¾ÑĪ
ĠÐºÐ¾Ð¿ ÐµÐµÐº
Ġdeal t
ĠMe mbers
ĠÐ¿ÑĢÐµÐ´Ð¼ ÐµÑĤÐµ
ĠÑĥÑħ Ð¾
ĠÐ¾ÑĤÐ»Ð¸Ñĩ Ð½ÑĭÐ¹
ĠÐ¿Ð¾Ð»ÑİÐ± Ð¸ÑĤÑĮ
ĠÐ¿Ð¾Ð·Ð½Ð°ÐºÐ¾Ð¼ Ð¸Ð»
ĠÐ¿Ð¾Ð·Ð½Ð°ÐºÐ¾Ð¼ Ð¸ÑĤÑĮ
Ġscy thes
ĠÐ¸ÑģÐºÑĥÑģ ÑģÑĤÐ²Ðµ
ĠÑĥÐ·Ð½Ð°Ð² Ð°Ð»Ð°
ĠÐ±ÑĥÐ´ÑĥÑī ÐµÐ³Ð¾
ĠÐ´ÐµÑģÑıÑĤ Ð¸Ð½Ñĥ
ĠÐ½ÐµÐºÐ¾ÑĤÐ¾ÑĢ ÑĭÐ¼
Ġma is
ĠÐ»Ð¸Ñĩ Ð½Ð¾
ĠÑģÐ¿Ð°Ñģ ÐµÐ½Ð¸Ñı
Ġclass ical
ĠÐ½ÐµÐ¾Ð¶Ð¸Ð´ Ð°Ð½Ð½Ð¾Ðµ
ĠÐ¿ÑĢÐµ ÑĥÐ²ÐµÐ»Ð¸Ñĩ
ĠÐ·Ð°ÑģÑĤÐ°Ð² Ð¸ÑĤÑĮ
ĠÐ±Ð¾Ð³Ð°ÑĤ ÑĭÐ¹
ĠÑĥÐ¿Ð¾ÑĤÑĢÐµÐ± Ð¸ÑĤÑĮ
ĠÑĥÐ¿Ð¾ÑĤÑĢÐµÐ± Ð»ÑıÐ»
ĠÐµÐ´Ð¸Ð½ Ð¾Ð¼
Ġoppos ition
ĠÐ¸Ð·Ð±ÐµÐ³ Ð°Ð»Ð°
ĠÑģÐ¼ÐµÑĢÑĤÑĮ Ñİ
ĠÑģÐ¼ÑĥÑī Ð°Ð»Ð¾
natured ly
Ġsqu e
Ġsqu ee
Ġsqu ire
ĠÐ´Ð¾Ð¿ ÑĥÑģÑĤÐ¸ÑĤÑĮ
ĠÑĥÐµÐ·Ð¶ Ð°Ñİ
Ġbell y
ĠÑģÐ¿Ð°Ð»ÑĮ Ð½Ð¸
ĠÐºÑĢÐ¸Ñĩ Ð¸ÑĤ
ĠÐ²Ð¾Ð·Ð´ÑĥÑħ Ð°
Ġenjoy ing
ĠÐ½Ð°ÑģÑĤÐ¾ÑıÑī ÐµÐ³Ð¾
ĠÐ¾ÑĦÐ¸ÑĨÐµÑĢ Ñĭ
ĠÐ²Ð»Ð¸Ñı Ð½Ð¸Ñı
ĠÐºÑĢÑĥ ÑĤ
ĠAl ine
ĠÑĪÐ°ÑĢ Ð¾Ð²
ĠÑģÐ¼ÐµÑħ Ð°
ĠÐ¾Ð¿ÑĢÐ°Ð² Ð´
Ġargu ing
Ġesc aped
ĠÐ¿ÑĢÐ¾ÑĪÐµÐ´ ÑĪÐµÐ³Ð¾
ĠÑĤÐ¾ÑĢÐ¶Ðµ ÑģÑĤÐ²Ð¾
ĠÐ¿ÐµÑĤÐµÑĢÐ±ÑĥÑĢÐ³ ÑģÐºÐ¾Ð¹
Ġcent uries
ĠÐ·ÑĥÐ± Ð°
ĠÐ¿Ð¾Ð´Ð´ÐµÑĢÐ¶ Ð¸Ð²Ð°Ñı
ĠÑĥÐ´Ð°ÑĢ Ð¸Ð»
ĠÑģÐ¾Ð¼Ð½ÐµÐ² Ð°Ð»ÑģÑı
ĠÑģÐ¾Ð¼Ð½ÐµÐ² Ð°Ð»Ð°ÑģÑĮ
ĠÑģÐ¼ÑĥÑĤ Ð¸Ð²ÑĪÐ¸ÑģÑĮ
ĠÐ¼Ð°Ð½ ÐµÑĢÑĥ
ĠÑįÐ½ ÐµÑĢÐ³Ð¸
ĠÐ²ÑĭÑģÑĤÑĥÐ¿ Ð¸Ð»Ð°
ĠÐ½Ð¾Ñģ Ð¾Ð¼
Ġcho ir
Ġcho ked
ĠÐ¸ÑģÐ¿Ð¾Ð»Ð½ Ð¸Ð»Ð°
ĠÐ¸ÑģÐ¿Ð¾Ð»Ð½ ÐµÐ½Ð¸Ñı
ĠÐ¸ÑģÐ¿Ð¾Ð»Ð½ ÐµÐ½Ð¸Ð¸
Ġenc ountered
ĠÐ¿ÑĢÐ¸Ð²ÐµÐ· Ð»Ð¸
ĠÐ½Ð°Ð·Ð½Ð°Ñĩ ÐµÐ½Ð¸Ñı
ĠÐ¿Ð¸ÑģÑĮÐ¼ Ð¾Ð¼
ĠÐ½ÐµÐ½Ð°Ð²Ð¸Ð´ ÐµÑĤÑĮ
ĠÐ½ÐµÑĩ Ð°ÑıÐ½Ð½Ð¾
ĠÐ¼ÐµÑĩ ÑĤÑĭ
ĠÐŀÑģÑĤÐ°Ð² ÑĮÑĤÐµ
ĠÐ¿ÑĢÐ¸Ð¶ Ð°Ð»Ð°
ĠÐ¿ÑĢÐ¸ÐµÐ¼ Ð½Ð¾Ð¹
ĠÐ¿Ð¾Ð´Ð¾Ð· ÑĢ
Ġdism iss
ĠÑĨÐµÐ»ÑĮ Ñİ
ĠÐ´Ð²Ð¾ÑĢÑıÐ½ ÑģÑĤÐ²Ð¾
ĠÐ½ÐµÐ´Ð¾ÑģÑĤÐ°ÑĤ ÐºÐ¾Ð²
athe tic
Ġsad ly
ĠÐ»ÐµÐ² Ð¾Ð¹
ĠÐľÐ°ÑĤ Ð²
ĠÐķÐ² Ð°Ð½Ð³
ĠÑĨÐµÐ½ ÑĤÑĢ
ĠÐ±ÐµÑģÐµÐ´ ÐºÑĥ
ĠÐ¼ÑĭÑģÐ»Ñı Ñħ
ĠÐ¿ÑĢÐ¾Ð²Ð¾Ð´ Ð¸ÑĤÑĮ
ĠÐ²Ð½ÑĥÑĤÑĢÐµÐ½ Ð½Ð¸Ðµ
OU GH
Ġfle e
Ġfail ing
ĠÑĤÐ°Ð½ ÑĨÑĥ
ĠÑĥÑħÐ¾Ð´ Ð¸
ĠÐĿÐµÐ² ÑģÐºÐ¾Ð³Ð¾
Ġsold iers
ĠÑĢÐ°Ð·Ð¼ Ð°ÑħÐ¸Ð²Ð°Ñı
ĠÑģÐ°Ð¼Ð¾ Ð¾Ð±
ĠÑģÑĥÑīÐµÑģÑĤÐ² Ð¾Ð²Ð°Ð½Ð¸Ðµ
ĠÐ²Ð¸Ð· Ð¶
ĠÐ¼ÐµÐ»ÑĮ Ð½Ð¸ÑĨÑĭ
ĠÑĢÑĥÐ¶ ÑĮÐµÐ¼
Ġstri ps
ĠÐ·Ð°Ñī Ð¸ÑĤ
Ġconst antly
Ġplough ing
ĠÐºÐ¾Ð»ÐµÐ± Ð°Ð½Ð¸Ñı
Ġobject ion
Ġphilosop her
ĠÐ¿ÑĢÐ¾ÑĤÐ¸Ð²Ð¾Ð¿Ð¾Ð»Ð¾Ð¶ Ð½Ð¾ÑģÑĤÑĮ
ĠÐ²Ð¾Ð¹ Ð½Ñĭ
ĠÑĢÐ°ÑģÑĤ ÐµÑĢ
ĠÐ¿ÑĢÐ¸ÑģÑĤ ÑıÐ¶
Ġdevelop ed
ĠÐľÑĥÐ¶ Ð¸ÐºÐ¸
Ġdisple asure
Ð°Ð²ÑĪÐµÐ¼Ñĥ ÑģÑı
ĠGl ancing
ĠÐ¼Ð¾ÑģÐºÐ¾Ð² ÑģÐºÐ¾Ð³Ð¾
ĠÐĴÐ°ÑĢÐ²Ð°ÑĢ Ð¾Ð¹
ĠÐ½Ð°Ð¼ÐµÐº Ð°
ĠÑĢÐ°ÑģÑģÑĥÐ¶Ð´ Ð°ÑĤÑĮ
ĠÑĢÐ°ÑģÑģÑĥÐ¶Ð´ ÐµÐ½Ð¸Ðµ
Ġprinci ples
ĠÐ½ÐµÑģÐ¿ÑĢÐ°Ð²ÐµÐ´Ð»Ð¸Ð² Ð¾ÑģÑĤÑĮ
Ġpar quet
ĠÐ³Ð°Ð· ÐµÑĤÑĥ
Ġrub bed
ĠÐŁÐ°Ð² Ð°
ĠRe ally
ĠÑģÑĤÑĢÐ°ÑģÑĤ Ð½ÑĭÐ¹
ĠÑħÐ»ÐµÐ± Ð¾Ð¼
ĠÑģÐ¾ÑĩÑĥÐ²ÑģÑĤÐ² Ð¸Ðµ
ĠÑģÐ¾ÑĩÑĥÐ²ÑģÑĤÐ² Ð¾Ð²Ð°Ð»
ĠÐºÑĢÐ° Ñİ
ĠÐ´Ð¾Ð¶Ð´ Ð°Ð²ÑĪÐ¸ÑģÑĮ
ĠÐ¼ÑıÐ³ ÐºÐ¾
ĠÐ¾ÑĤÑĤ ÐµÐ½Ð¾Ðº
ĠÐŁÐ¾Ð» ÑĥÑĩ
Ġneg lected
ĠÐ¿ÐµÑĢÐµÑĪ Ð»Ð°
ĠÑĪÑĥÐ± Ñĭ
ĠÑĢÐ°ÑģÑģÑĤ ÐµÐ³
Ġplain ly
ĠÐ½ÐµÐ´Ð¾Ð² ÐµÑĢ
Ġbreath less
ĠÐ¿Ð¾Ð¿ÑĭÑĤ ÐºÐ¸
ĠÐ¿Ð¾Ð¿ÑĭÑĤ Ð°Ð»ÑģÑı
ĠÐ¿Ð¾Ð¿ÑĭÑĤ Ð°ÑĤÑĮÑģÑı
ĠÑĤÐ¾Ð»ÑģÑĤ ÑĭÐ¹
Ġreproach fully
ĠÑįÐºÐ¸Ð¿Ð°Ð¶ Ð¸
ĠÐ²Ð»Ð° ÑģÑĤÑĮÑİ
ĠÐ²Ð°Ð»ÑĮ ÑģÐ°
Ġdim ly
Ġlack ing
Ġsimpl er
ĠÐ½Ð°Ð·Ð² Ð°Ð½Ð¸Ðµ
ĠÐ¿Ð¾ÑģÑĤÐ¾Ð¹ ÑĤÐµ
ĠÐ·Ð»Ð¾Ð± Ð°
ĠÐ½Ð°ÑģÐ»Ð°Ð¶Ð´ ÐµÐ½Ð¸ÐµÐ¼
OM E
zz led
ĠÐ¿Ð°Ð¼ ÑıÑĤÑĮ
Ġmag istrate
ĠÐ¿ÐµÑĢÑĩÐ°ÑĤ ÐºÐµ
ĠÐľÑıÐ³ ÐºÐ¾Ð¹
Ġdisapp roval
Ġgrand father
ĠÑĤÑĥÐ°Ð» ÐµÑĤÐ°
ĠÐ¿ÑĢÐ¸Ð½Ð°Ð´Ð» ÐµÐ¶Ð°Ð»
ĠÑħÑĥÐ´Ð¾Ð¶ Ð½Ð¸ÐºÐ¾Ð¼
ĠÐ¿ÑĢÐ¾ÑĦÐµÑģÑģÐ¾ÑĢ Ð°
oe uv
ĠÐ²Ð± ÐµÐ¶Ð°Ð»
ĠÐ¿ÑĢÐ¾Ð³ ÑĢÐµÑģ
ĠÑĢÐ¾Ð¼ Ð°Ð½Ð°
ĠÑıÐ· ÑĭÐº
Ġexch anging
ĠÐ¡ÑĤÑĢÐµÐ¼ Ð¾Ð²ÑĭÐ¼
Ġperm itted
ĠÐ´Ð¾ÐºÐ°Ð·ÑĭÐ² Ð°ÑĤÑĮ
Ġharm ony
ĠÐ²Ð¾Ð² ÑĢÐµÐ¼Ñı
Ġbal ance
ĠÐ¾ÑĤÐ²ÐµÑĢ Ð½ÑĥÐ²ÑĪÐ¸ÑģÑĮ
ĠÑģÐ¾ÐµÐ´Ð¸Ð½ ÐµÐ½Ð¸Ð¸
Ġattempt s
ĠÐ¤ÐµÐ´ Ð¾ÑĢÐ°
ĠÐ¿ÑĢÐµÐ´ÑģÑĤÐ¾ÑıÑī ÐµÐ¹
ĠÐ¿ÑĢÐµÐ´ÑģÑĤÐ¾ÑıÑī ÐµÐ³Ð¾
ĠÐºÐ¾ÑĢÐ¼Ð¸Ð»Ð¸ ÑĨÐ°
ĠÐ²Ð¾ÑģÑĤÐ¾ÑĢÐ¶ ÐµÐ½Ð½Ð¾
ĠÐ¿Ð¾ÑģÑĤÐ¾ÑĢÐ¾Ð½ Ð½ÐµÐ¼
ĠÑģÑħÐ²Ð°ÑĤ Ð¸Ð²
Ġdust y
ĠÑĥÐ»Ð¸ ÑĨÑĥ
Ġwhist le
Ð°Ð½Ñĥ Ð½Ðµ
Ġren ounce
ĠÐ¶ÐµÐ½Ð¸ÑĤÑĮ Ð±Ð°
Ġroof s
ĠÐ¿ÐµÑĢÐµÐ¶ Ð¸Ð»
ĠÐ¿Ð¾ÐºÐ¾Ñģ Ñĭ
ĠÑĤÑĢÐ¸Ð´ÑĨ Ð°ÑĤÐ¸
ĠÐºÐ°ÑĢÑĤÐ¾Ñĩ ÐºÑĥ
ĠÑĥÑĤÐ² ÐµÑĢÐ¶Ð´
ĠÑĥÑĩÐµÐ½ Ð¾Ð³Ð¾
ĠÐ½ÐµÐ¾Ð¿ÑĢÐµÐ´ÐµÐ» ÐµÐ½Ð½Ð¾
Ġ2 5
Ġmess age
Ġmaint ain
Ġbutt ons
Ġgold en
ĠÐ´Ð¾ÑģÑĤÐ°Ð²Ð»Ñı Ð»Ð¾
Ġgras p
Ġperplex ed
ĠÐ¿Ð»Ð°ÑĤÑĦ Ð¾ÑĢ
ĠÑģÐ¾Ð´ÐµÑĢÐ¶ Ð°Ð½Ð¸Ñı
ĠÑģÐ¾Ð´ÐµÑĢÐ¶ Ð°Ð½Ð¸Ðµ
ĠÐ·Ð°ÑĤÑĢÑĥÐ´Ð½ ÐµÐ½Ð¸Ðµ
ĠÐ¸Ñī ÐµÑĤ
ĠÐºÑĥÑģÑĤ Ð°
anim ous
Ġinev itably
ĠÑĢÐ°Ð·Ð¾ÑĢÐ² Ð°ÑĤÑĮ
ĠÐ¿ÑĢÐµÐ´Ð»Ð°Ð³ Ð°Ð»
ĠÑĥÐ²Ð»ÐµÐº ÑģÑı
ĠÐ¿Ð¾Ð½ÑıÑĤ Ð½Ð¾
ĠÐ·Ð°Ð²Ð¸Ð´ ÑĥÑİ
ĠÐ¿Ð¾ÑģÑĭÐ» Ð°ÑĤÑĮ
Ġcaress ing
ĠÐ¾ÑĤÐ´Ð°Ð² Ð°ÑĤÑĮÑģÑı
ĠÐ¿ÑĢÐµÐ·Ð¸ÑĢÐ° ÐµÑĤ
ĠÐ²ÑĭÑģÐºÐ°Ð·ÑĭÐ² Ð°ÑĤÑĮ
ĠÐ±Ð»Ð°Ð³Ð¾ÑĢÐ¾Ð´ Ð½Ð¾
ĠÑģÐ²Ð¾ÑıÑĩÐµÐ½Ð¸ ÑĨÐµ
ĠÐ¿ÑĢÐ¸Ð²Ð»ÐµÐºÐ°ÑĤÐµÐ»ÑĮ Ð½Ð°
Ġanticip ation
gar inov
ĠÐ¿ÑĥÑħ Ð»ÑĥÑİ
ĠÑģÑĤÐµÐº Ð»ÑıÐ½
Ġwealth y
Ġimpat ient
Ġglit ter
Ġteach ings
ĠÐĳÐ¾Ð» ÐµÐµ
ĠÐºÐ¾Ð¼Ð¿ ÑĢÐ¾Ð¼
ĠÐ·Ð°Ð±Ð» ÐµÑģÑĤ
ĠÐ·Ð°Ð¿ÑĥÑĤ Ð°Ð»ÑģÑı
ĠÐ·Ð°Ð¿Ð»Ð°ÑĤ Ð¸ÑĤÑĮ
Ġindef initeness
ĠÑģÐ»ÑĥÑĩÐ°Ð¹ Ð½Ð¾
ĠÐ±ÑĢÐ°Ðº Ð°
ĠÐ¾ÑĤÑĩÐ°ÑıÐ½ Ð½ÑĭÐ¼
Ġcreature s
ĠÑĥÑħÐ°Ð¶ Ð¸Ð²Ð°Ð»Ð°
ĠÐ²Ð¾Ð·ÑĮÐ¼ Ð¸ÑĤÐµ
Ġeconom ic
ĠÑĢÐ°ÑģÑģÐ¿ÑĢÐ°ÑĪ Ð¸Ð²Ð°ÑĤÑĮ
ĠÐ²ÐµÐ»Ð¸ ÐºÐ¾
Ġdiver t
ĠTH ERE
Ð¸Ð´ÐµÑģÑı ÑĤ
ĠÑģÑĤÑĥÐ´ Ð¸Ð¸
ĠPro bably
ĠÑĥÐ²Ð»ÐµÑĩ ÐµÐ½Ð¸Ðµ
ĠÐ·Ð°ÐºÑĢÑĭ Ð»
ĠÐ´Ð¾Ð±ÑĢÐ¾Ð²Ð¾Ð»ÑĮ ÑĨÐµÐ²
ĠÐ²ÐµÐ»Ð¸Ñĩ Ð°Ð¹
ĠÐ¾ÑĤÑĩÐµÑĤ Ð»Ð¸Ð²Ð¾
ĠÐ¸Ð·Ð¼ÐµÐ½Ñı Ð»
ĠÑĢÐ°ÑģÐºÐ° Ð¸Ð²Ð°ÑĤÑĮÑģÑı
Ġpursu its
Ġenerget ically
ĠÑĤÐ°Ð½ÑĨÐµÐ² Ð°ÑĤÑĮ
Ġizvoshchik s
ĠÑģÐµÐ»ÑĮ ÑĤÐµÑĢ
Ġstir red
ĠÐºÐ¾ÑģÑĤ ÑİÐ¼
ĠÐºÐ¾ÑģÑĤ Ð»ÑıÐ²
Ġsoot he
ĠMar iette
ĠÑĪÑĤÑĥ ÐºÐ°
Ġtem pt
ĠÐ±Ð»Ð°Ð¶ ÐµÐ½Ð½Ð¾
ĠÐ·Ð°Ð²Ð¸ ÑģÑĤÐ¸
Ġdistract ion
ĠÐ¾ÑĤÐ´ÑĭÑħ Ð°
ĠÐ²Ð·Ð´ÑĢÐ¾Ð³ Ð½ÑĥÐ»Ð°
ĠÑģÐ¿ÑĢÐ°ÑĪÐ¸Ð² Ð°ÐµÑĤÐµ
ĠÐ½ÐµÐ½Ð°Ð²Ð¸ ÑģÑĤÑĮ
ĠÐ±ÐµÐºÐ°Ñģ Ð°
ĠÑıÐ·Ñĭ ÐºÐµ
ĠÐ¿ÑĪÐµÐ½Ð¸ ÑĨÑĭ
Ġben ch
Ġban tering
Ġmot ive
Ġmount ed
Ġincess ant
ĠÐ·ÑĢ Ð¸ÑĤÐµÐ»ÐµÐ¹
Ġgle am
Ð³Ð»Ð¸ Ð¸
urb ation
ĠLook ing
ĠÐ¿Ð¾Ð´ÑĢÐ°Ð· Ð´ÐµÐ»
ĠÐ·Ð°ÑĪ ÐµÐ²ÐµÐ»
Ġsmoot hed
ĠÐ¿ÑĢÐµÐ´Ð¾ ÑģÑĤÐ°Ð²
ĠÑĦÑĢÐ°Ðº Ðµ
ĠÐ²ÐµÑģÐµÐ»ÑĮ ÐµÐ¼
Ġprot ection
ĠÐºÑĢÐ°ÑģÐ°Ð² Ð¸ÑĨÐ°
Ġfem inine
ĠÑĤÐµÐ¾ÑĢ ÐµÑĤ
ĠÑĤÐµÐ»ÐµÐ¶ ÐºÑĥ
ĠÐĺÐ·Ð²Ð¸ Ð½Ð¸
ĠÐ¾Ð±Ð»ÐµÐ³Ñĩ ÐµÐ½Ð¸Ðµ
ĠÐ¾Ð±Ð»ÐµÐ³Ñĩ ÐµÐ½Ð¸Ñı
ĠÑģÑĬÐµÐ·Ð´ Ð¸ÑĤÑĮ
ĠÑģÐ°Ð¶ ÐµÐ½
Ð»Ð¸Ðº Ð½ÑĥÐ»
ĠÐ±ÐµÐ·Ð½ ÑĢÐ°Ð²
Ġsli pped
ĠÐºÐ¾Ð½ÑĦ ÐµÑĤ
ĠÐ·Ð°ÑĤÐ²Ð¾ÑĢ Ð¸Ð»
Ġthreat ening
ĠÑģÐ¾ÐµÐ´Ð¸Ð½Ð¸ ÑĤÑĮ
no ch
ĠÐ¿ÑĥÐ± Ð»Ð¸Ñĩ
Ġtoy s
ĠÑĩÑĥÐ» ÐºÐ°Ñħ
Ġmel ted
ĠÐ·Ð°Ð¸Ð½ÑĤÐµÑĢÐµÑģ Ð¾Ð²
ĠÐ°ÑĤ Ð»Ð°Ñģ
ĠNE XT
ĠÐĳÐ°ÑĢ ÑĤÐ½Ñı
Ġenem y
Ġdescri bed
ĠÐ·Ð°Ð±ÑĥÐ´ Ñĥ
Ġinterval s
ĠÐºÐ¾Ð½ÑĨ ÐµÑĢ
ĠÐ³Ð¾ÑĢÐ½Ð¸Ñĩ Ð½Ð¾Ð¹
ĠÐŁÑĢÐ¸Ðº Ð°Ð·ÑĩÐ¸Ðº
Ġcurt ains
ĠÐºÐ»Ð°Ð½Ñı ÑıÑģÑĮ
ĠÐ¿Ð¾ÑĨÐµÐ» Ñĥ
Ġtrave ller
ĠÐ´ÑĢÑĥÐ¶ÐµÑģÐº Ð¸Ñħ
Ġacknowled ged
Ġignor ance
ĠÐºÐ²Ð°ÑĢÑĤÐ¸ ÑĢÐµ
ĠÐ±Ð°Ð»Ð° Ñħ
Ġmale vol
Ġpick led
ĠÐ¿ÑĢÑĥÐ¶ Ð¸Ð½Ð°Ñħ
ĠÑĢÐ¶ Ð°Ð²
Ġgather ing
ĠÐĴÐ¼ ÐµÑģÑĤÐµ
ĠÐĴÐ¼ ÐµÑģÑĤÐ¾
ĠÑģÐ²ÐµÑĢÑħ Ñĥ
Ġshru gged
ĠÐ°Ð¿ ÑĤ
ÑĥÑĤÐ°ÑĨ Ð¸Ñİ
Ġva ult
ĠÑģÑĤÐ°ÑĢÑĥÑħ Ð°
ĠEv geny
ĠÐ·Ð°Ð±Ð¾Ð» ÐµÐ»Ð°
ĠÑģÐ¾Ð²ÐµÑĢÑĪÐµÐ½ ÑģÑĤÐ²Ð°
Ġviol ently
Ġexception al
ĠÐ°ÑĢÑħÐ¸ÑĤ ÐµÐºÑĤÐ¾ÑĢ
Ġfrost y
Ġdisappro ved
Ġemphas izing
Ġcongratul ate
Ġenthusi asm
ÑıÐ½ÑĥÑĤ ÑĥÑİ
Ġble w
Ġsob bing
Ġproceed ings
ĠÑģÐ¾Ð±Ð»ÑİÐ´ ÐµÐ½Ð¸Ñı
ĠÐ¼Ð¾Ð»Ð¸ÑĤ Ð²Ñĭ
ÑĢÑĭÐ· Ð³
Ġincon venient
Ġswift ly
ĠÐ±Ð¾ÑĢÐ¾Ð» ÑģÑı
ĠÐ¿ÐµÑĢÐµÐ³Ð»Ñı Ð½ÑĥÐ»Ð¸ÑģÑĮ
Ġstrengthen ed
Ġphilosoph ical
Ġmirac le
ĠÐĴÐ·Ð³Ð»Ñı Ð´
Ġcav alry
ĠÐ±Ð¾Ñģ ÑĭÐ¼Ð¸
ĠÐ½ÐµÑĥÐ´Ð° Ñĩ
ĠÐĲÑĢ Ñģ
ĠÐ¾ÑĤÑĤÐ¾Ð»Ðº Ð½ÑĥÐ»Ð°
ĠÐļÑĢÐ¸ÑĨ ÐºÐ¸Ð¹
ĠSc otch
Ġkope ks
Ġliber ty
ĠÐ¾Ð¿Ð¾Ð¼Ð½ Ð¸Ð»Ð°ÑģÑĮ
Ġspect ac
ĠÐ¼Ð¾Ð»Ð¾ÑĤ Ð¸Ð»
ĠÐ½Ð°Ð¿Ð¾Ð¼Ð½ Ð¸Ð»Ð°
ĠÑĨÑĭÐ¿ Ð¾ÑĩÐºÐ°Ñħ
ĠÐłÐ°Ñģ ÑģÐº
ĠÑĢÐµÐ²Ð½Ð¸Ð² Ð°
ĠCommun ion
ĠÐ½ÐµÑĢÐµÑĪÐ¸ÑĤÐµÐ»ÑĮÐ½Ð¾ ÑģÑĤÐ¸
ĠÐ¼ÑĥÐ½Ð´Ð¸ÑĢÐ° Ñħ
Ġprecise ly
ĠÐ¾Ð±Ð²Ð¸Ð½Ñı Ð»
Ġraspber ries
ĠÐºÐ°Ð´ÑĢ Ð¸Ð»Ð¸
ĠÐ½ÐµÐ¾Ð´Ð¾Ð±ÑĢ Ð¸ÑĤÐµÐ»ÑĮÐ½Ð¾
con f
Ġsan ct
ĠÐ¿Ð¸ÑĤ Ð°Ð½Ð¸Ðµ
ĠÐ¸ÑĢÐ¾ Ð½Ð¸Ñĩ
ĠÐºÑĥÑģ Ð¾Ðº
ĠÐ´Ð¸ÑĢ ÐµÐºÑĤÐ¾ÑĢ
ĠÑĥÐ¿Ð¾Ð¼Ð¸Ð½Ð° Ð½Ð¸Ð¸
ĠÐ³ÑĢÐ¾ ÑħÐ¾ÑĤ
ĠÐŁÐ¸ÑģÑĮ Ð¼Ð¾
ĠPe ace
ĠPl ato
ĠÑģÐ°Ð¼Ð¾Ð²Ð°ÑĢ Ð°
Ġsplas hing
Ġdiseng aging
ĠGard ens
ĠGos pels
ĠÐłÐµÐ± ÐµÐ½Ð¾Ðº
Ġpert urbation
ĠÐ¿Ð¾ÑģÐ² ÑıÑĤ
Ġrefresh ment
ĠÐŀÑĤÐ»Ð¸Ñĩ Ð½Ð¾
Ġdepra ved
ĠÐ±Ð°Ð»ÐºÐ¾ Ð½Ðµ
Ġemaci ated
Ġdisput ing
ĠRETUR N
Ġskelet on
press ible
Ġbuck wheat
ĠÐ±Ð¸Ð»ÑĮÑıÑĢ Ð´
Ġmars hes
Ġnast y
ĠÐ³Ð¸Ð¿ Ð¿Ð¾Ð´ÑĢÐ¾Ð¼
ĠÐĴÐ°ÑģÑĮ ÐºÐ°
Ġstub born
ĠÐļÐ°Ð¶Ð´ ÑĭÐ¹
ĠÐĲÐ»ÐµÐºÑģÐµ Ð¸Ñĩ
ĠÐŁÑĢÐ¾Ð² Ð¾Ð´
Ġvac ant
Ġunquestion able
ĠDuc hess
Ġimmor al
Ġblo ss
ĠÐ±ÐµÐ·Ð· Ð°Ð±Ð¾ÑĤ
ĠÐ£Ð»ÑĭÐ± ÐºÐ°
ĠÑĥÐ±ÑĭÑĤ Ð¾Ðº
Ġregul arly
Ġdrown ed
Ġinfat uation
Ġinfer ior
ĠÐ¿ÑĢÐ¸Ð½ÑıÑĤ Ñĭ
ĠÑĢÐ°Ð²Ð½Ð¾Ð¼ ÐµÑĢÐ½Ð¾
ĠÐļÐ½ÑıÐ¶ Ð½Ð°
Ġcolle agues
Ġlegitim ate
ÑĢÑĥÐ±Ð»ÐµÐ² ÑĥÑİ
Ġraptur ous
ĠÐ¿Ð°Ð¿Ð¸ÑĢÐ¾ ÑģÐºÑĥ
ĠÐ°Ð»Ð» ÐµÐµ
ĠÑıÐ³Ð´ ÑĤÐ°ÑĪ
ĠÐ°Ð¿Ð¿ÐµÑĤ Ð¸ÑĤ
la ise
Ġholl ow
Ġbask et
ĠÐ¼Ð°Ð»ÑĮ ÑĩÐ¸ÑĪ
ĠÐ½Ð°ÑĤÑĥ ÑĢÐ°
ĠIgn at
Ġasso ci
ĠÐĴÐ¾Ð·Ð² ÑĢÐ°ÑīÐ°ÑıÑģÑĮ
ĠÐĿÐµÑģÐº Ð¾Ð»ÑĮÐºÐ¾
ĠÐ¡Ð¾Ð² ÑģÐµÐ¼
Ġshlyupik s
ĠÐ°Ð»ÑĮ Ð±Ð¾Ð¼
ĠÑģÐ¿Ð¾ÑĤ ÑĭÐº
Ġunce asingly
Ġunnot iced
Ġbron ze
ĠÐ´Ð¾ÑģÑĤÐ° ÑĤÐ¾ÑĩÐ½Ð¾
Ġblanc he
ĠFR OM
ĠÐ½ÐµÐ¿Ð¾Ñģ ÑĢÐµÐ´
Ġrepet ition
Ġfeature s
Ġsubord inates
Ġmerc iful
Ġillum inated
Ġhorseb ack
Ġconcent rated
Ġstead ily
Ġbenef it
ĠÐ¾Ð±ÑıÐ·Ð°Ð½Ð½Ð¾ ÑģÑĤÐµÐ¹
ĠÑĥÑģÐ¾Ð²ÐµÑĢÑĪÐµÐ½ÑģÑĤÐ² Ð¾Ð²Ð°Ð½Ð¸Ñı
Ġmurm ured
ĠÐ·ÐµÐ¼Ð»ÐµÐ²Ð»Ð°Ð´ ÐµÐ»ÑĮ
Ð¸ÑĢÐ°ÑĤ ÐµÐ»ÑĮ
ĠÑģÐµÐ³ Ð¾Ð´Ð½Ñı
educ ated
Ġfoo lish
ĠÐ±ÑĢÐ¾Ð½ Ð·
Ġdair y
ĠÑĤÐ¾Ð± Ð¾Ñİ
ĠÐ¿ÑĢÐ°Ðº ÑĤÐ¸Ðº
ĠÑĥÑĢÐ¾Ð² ÐµÐ½ÑĮ
ĠÑĥÑģÐ¼ ÐµÑħ
ĠÑĥÑģÐ¼ÐµÑĪ ÐºÐ¾Ð¹
ĠImper ial
Ġrig id
Ġrhy thm
ĠTest ament
ĠMish ka
Ġnostri ls
ĠÐ¿ÑĢÐµÐ´ÑģÑĤÐ¾ Ð¸ÑĤ
Ġexpens es
ĠFIR ST
ĠÐ¸ÑģÐ¿Ð¾Ð´Ð»Ð¾Ð± ÑĮÑı
ĠÐłÐµÐ·Ñĥ Ð½Ð¾Ð²
Ġhereto fore
[...]
