{"version":"1.0","truncation":null,"padding":null,"added_tokens":[{"id":0,"special":true,"content":"<|endoftext|>","single_word":false,"lstrip":false,"rstrip":false,"normalized":false}],"normalizer":null,"pre_tokenizer":{"type":"ByteLevel","add_prefix_space":false,"trim_offsets":true},"post_processor":{"type":"ByteLevel","add_prefix_space":true,"trim_offsets":false},"decoder":{"type":"ByteLevel","add_prefix_space":true,"trim_offsets":true},"model":{"type":"BPE","dropout":null,"unk_token":null,"continuing_subword_prefix":null,"end_of_word_suffix":null,"fuse_unk":false,"vocab":{"<|endoftext|>":0,"!":1,"\"":2,"'":3,"(":4,")":5,"*":6,",":7,"-":8,".":9,"/":10,"0":11,"1":12,"2":13,"3":14,"4":15,"5":16,"6":17,"7":18,"8":19,"9":20,":":21,";":22,"?":23,"A":24,"B":25,"C":26,"D":27,"E":28,"F":29,"G":30,"H":31,"I":32,"J":33,"K":34,"L":35,"M":36,"N":37,"O":38,"P":39,"Q":40,"R":41,"S":42,"T":43,"U":44,"V":45,"W":46,"X":47,"Y":48,"Z":49,"[":50,"]":51,"a":52,"b":53,"c":54,"d":55,"e":56,"f":57,"g":58,"h":59,"i":60,"j":61,"k":62,"l":63,"m":64,"n":65,"o":66,"p":67,"q":68,"r":69,"s":70,"t":71,"u":72,"v":73,"w":74,"x":75,"y":76,"z":77,"{":78,"}":79,"¡":80,"¢":81,"£":82,"¤":83,"¥":84,"¦":85,"§":86,"¨":87,"©":88,"ª":89,"¬":90,"®":91,"¯":92,"°":93,"±":94,"²":95,"³":96,"´":97,"µ":98,"¶":99,"·":100,"¸":101,"¹":102,"º":103,"»":104,"¼":105,"½":106,"¾":107,"¿":108,"Ã":109,"Ð":110,"Ñ":111,"â":112,"Ġ":113,"Ģ":114,"ģ":115,"Ĥ":116,"ĥ":117,"Ħ":118,"ħ":119,"Ĩ":120,"ĩ":121,"Ī":122,"ī":123,"Ĭ":124,"ĭ":125,"Į":126,"į":127,"İ":128,"ı":129,"Ĳ":130,"ĳ":131,"Ĵ":132,"ĵ":133,"Ķ":134,"ķ":135,"ĸ":136,"Ĺ":137,"ĺ":138,"ļ":139,"Ľ":140,"ľ":141,"Ŀ":142,"ŀ":143,"Ł":144,"ł":145,"Ń":146,"ĠÐ":147,"Ð¾":148,"Ðµ":149,"Ð°":150,"ÑĤ":151,"Ð¸":152,"Ñģ":153,"Ð½":154,"Ð»":155,"ÑĢ":156,"Ð¾Ð":157,"Ġt":158,"he":159,"Ġa":160,"Ñĥ":161,"Ð°Ð":162,"in":163,"ÐµÐ":164,"Ñı":165,"ÑĮ":166,"Ñĭ":167,"Ġw":168,"ĠÑģ":169,"Ġs":170,"ĠÐ½":171,"Ñĩ":172,"ĠÐ¿":173,"ĠÐ²":174,"Ðº":175,"Ġh":176,"Ġthe":177,"ĠÐ¾":178,"re":179,"Ð²":180,"nd":181,"ÑĤÐ¾":182,"Ġo":183,"ĠÐ¸":184,"Ð´":185,"Ð°Ð»":186,"ou":187,"it":188,"ed":189,"Ġb":190,"at":191,"ing":192,"is":193,"Ð¼":194,"Ġhe":195,"er":196,"ĠÐº":197,"Ġand":198,"ÑģÑĤ":199,"Ġto":200,"Ð¾Ð²":201,"ÑĪ":202,"ÐµÐ½":203,"on":204,"--":205,"Ġc":206,"Ġ--":207,"Ġf":208,"ĠÐ±":209,"³Ð¾":210,"Ġm":211,"ĠÐ´":212,"Ñħ":213,"ĠÑĩ":214,"en":215,"Ġth":216,"ÐµÐ»":217,"Ġd":218,"as":219,"ÑĤÑĮ":220,"Ñİ":221,"ll":222,"ĠÑĤ":223,"Ġn":224,"Ð½Ð°":225,"ÐµÑĢ":226,"ĠÐµ":227,"ĠÐ½Ðµ":228,"es":229,"ĠÐ¼":230,"Ð½Ð¾":231,"Ġl":232,"Ð¾Ð¼":233,"Ġof":234,"or":235,"Ġp":236,"ĠÐ¿ÑĢ":237,"an":238,"Ġha":239,"Ġin":240,"Ġ'":241,"ot":242,"Ð°Ð·":243,"Ð¸Ð»":244,"Ð°Ðº":245,"Ð±":246,"Ð¾Ð»":247,"ar":248,"ĠÑĥ":249,"ĠÐ·":250,"ÐµÑĤ":251,"om":252,"ĠÑĩÑĤÐ¾":253,"Ð¿":254,"ĠÑĢ":255,"le":256,"im":257,"id":258,"Ġbe":259,"ut":260,"Ð½Ð¸":261,"ĠÐ±Ñĭ":262,"Ð¾Ð´":263,"Ð¶":264,"ow":265,"Ð·":266,"Ð¾ÑĢ":267,"Ġthat":268,"ÐµÐ¼":269,"Ġher":270,"ĠÑ":271,"ly":272,"Ð¹":273,"ĠÐ½Ð°":274,"Ġhis":275,"Ð°Ð²":276,"Ġe":277,"Ġg":278,"ÑģÑı":279,"Ġwas":280,"ĠÐ¿Ð¾":281,"Ð¸Ð½":282,"Ġwh":283,"Ð³":284,"ĠI":285,"Ð¾Ð¹":286,"ÑģÑĮ":287,"ic":288,"ĠÐ¾Ð½":289,"ÑģÐº":290,"ve":291,"Ġnot":292,"Ð°Ð½":293,"Ġon":294,"ith":295,"se":296,"ld":297,"ĠÑį":298,"Ġre":299,"Ġwith":300,"Ġy":301,"ĠÐ¶":302,"st":303,"Ġit":304,"Ġsa":305,"..":306,"ÐµÐ²":307,"Ð°Ð¼":308,"ĠÐ»":309,"et":310,"ent":311,"ĠÐ±ÑĭÐ»":312,"ĠÐ³":313,"ĠÐĲ":314,"Ð¸Ð²":315,"ÐµÐ´":316,"ion":317,"Ñī":318,"ÐµÐ½Ð¸":319,"Ġhad":320,"Ð°ÑĤÑĮ":321,"Ð°Ð»Ð°":322,"Ð¸ÑĤ":323,"Ð¾Ð³":324,"gh":325,"Ð½Ñĭ":326,"Ġyou":327,"Ð°Ð´":328,"Ð¾Ð³Ð¾":329,"ĠÑģÐº":330,"Ġhim":331,"ver":332,"Ġshe":333,"Ð¾ÑĤ":334,"ÐµÐ¹":335,"Ð°Ñı":336,"Ġas":337,"ce":338,"Ġu":339,"ÑĨ":340,"Ð³Ð¾":341,"ĠÑĤÐ¾":342,"ĠÐ¾ÑĤ":343,"Ð¾Ð±":344,"Ð°Ñģ":345,"al":346,"ĠÐ²Ñģ":347,"ÑĢÐ¾":348,"ĠÐĴ":349,"Ð¸Ñĩ":350,"Ð¾Ð¶":351,"ÑģÑĤÐ²":352,"ÐµÐº":353,"Ġat":354,"Ġfor":355,"ĠÐŀ":356,"Ġst":357,"ĠÐºÐ°Ðº":358,"ere":359,"ĠÐĿ":360,"Ð¸Ð¼":361,"ĠA":362,"ir":363,"ad":364,"Ð°ÑĢ":365,"ĠÐ¾Ð½Ð°":366,"ght":367,"ĠÑģÐºÐ°Ð·":368,"Ġr":369,"ĠÑģÐ²":370,"ĠT":371,"ay":372,"ĠÐµÐ³Ð¾":373,"ĠÐ²Ñĭ":374,"ĠÐºÐ¾":375,"Ġan":376,"Ð»Ð¸":377,"Ð°ÑĤ":378,"ould":379,"ÐµÐ³Ð¾":380,"ur":381,"Ð»Ñı":382,"Ð´Ð°":383,"Ġis":384,"ĠÑı":385,"oo":386,"ÑĢÑĥ":387,"ĠÑħ":388,"if":389,"Ġbut":390,"her":391,"'s":392,"Ð¸Ð´":393,"Ð¾Ðº":394,"Ġsaid":395,"ĠÐ¾Ð±":396,"ÐµÐ¿":397,"ĠÐļ":398,",'":399,"ÑĤÐ¾ÑĢ":400,"ĠÑįÑĤÐ¾":401,"ÐºÐ¾":402,"ĠS":403,"ons":404,"ÐµÐ±":405,"Ð½Ñĥ":406,"Ð¸ÑĤÑĮ":407,"ĠÑģÑĤ":408,"ĠL":409,"ct":410,"ĠH":411,"ess":412,"Ð¾Ð²Ð¾ÑĢ":413,"ee":414,"ĠÐĽ":415,"ky":416,"ch":417,".'":418,"ĠÐ¿ÑĢÐ¸":419,"Ġk":420,"ri":421,"ĠÑįÑĤ":422,"ter":423,"ev":424,"ĠÐ¡":425,"ĠÐ½Ð¾":426,"Ġme":427,"ro":428,"ĠÐ²ÑģÐµ":429,"Ð½Ðµ":430,"ĠÐµÐµ":431,"Ð°Ð¶":432,"ill":433,"ĠK":434,"ich":435,"ÐµÐ·":436,"ĠÐ¿Ð¾Ð´":437,"ss":438,"ĠÑģÐ²Ð¾":439,"ĠÑĤÐ°Ðº":440,"ain":441,"Ð¸Ð¹":442,"Ġso":443,"Ġsh":444,"Ð¸Ðº":445,"all":446,"Ð»Ð°":447,"am":448,"hing":449,"ÐµÐ»ÑĮ":450,"out":451,"pe":452,"ĠÐ·Ð°":453,"ĠÐĽÐµÐ²":454,"Ð¾Ð»ÑĮ":455,"Ð¾Ñģ":456,"ant":457,"Ð¸Ð»Ð°":458,"ĠÐ±ÑĭÐ»Ð¾":459,"Ġall":460,"ÐµÑģ":461,"ĠÐĶ":462,"and":463,"ĠÑĢÐ°Ð·":464,"ÑģÑĤÑĮ":465,"qu":466,"ÑĥÐ¶":467,"Ð»ÐµÐº":468,"ĠThe":469,"ĠÐĺ":470,"evin":471,"are":472,"ĠLevin":473,"Ð¾Ð·":474,"Ð½Ñı":475,"Ġhave":476,"ĠÑģÐ»":477,"Ð¼Ñĥ":478,"Ġdo":479,"ore":480,"ÐµÐ½ÑĮ":481,"...":482,"ÑĥÐ¼":483,"il":484,"ÑĢÐ°":485,"onsky":486,"ÑĥÐ´":487,"Ð»ÐµÐºÑģ":488,"us":489,"Ð¸Ñħ":490,"ĠÐĲÐ»ÐµÐºÑģ":491,"ĠV":492,"ble":493,"ĠÑģÐºÐ°Ð·Ð°Ð»":494,"very":495,"ak":496,"ĠÐŁ":497,"ĠÐºÐ¾ÑĤÐ¾ÑĢ":498,"ÐµÑĪ":499,"Ġex":500,"?'":501,"lf":502,"Ð¾ÑĪ":503,"ome":504,"ĠÐ¸Ð·":505,"ĠÐ¶Ðµ":506,"Ġwhe":507,"ĠÐĽÐµÐ²Ð¸Ð½":508,"Ġne":509,"ell":510,"Ġsu":511,"ul":512,"Ð»ÑĮ":513,"Ġfr":514,"ÑĭÐ²":515,"Ġwhich":516,"Ġkn":517,"pp":518,"ĠÐ³Ð¾":519,"na":520,"ÐµÑĩ":521,"Ġab":522,"ĠHe":523,"Ð¾Ð¼Ñĥ":524,"Ġwho":525,"ÑģÑĤÐ¸":526,"ÐµÐ½Ð½Ð¾":527,"Ð¾Ð³Ð´Ð°":528,"ight":529,"ÐµÐ¶":530,"ĠÐ°":531,"ation":532,"ĠÐ³Ð¾Ð²Ð¾ÑĢ":533,"!'":534,"Ġcon":535,"Ġone":536,"Ð°Ð»Ð¸":537,"ook":538,"itt":539,"Ġde":540,"ust":541,"ÐµÐ»Ð°":542,"ÑīÐµ":543,"ĠÐ¯":544,"ĠB":545,"Ġal":546,"Ġwhat":547,"ac":548,"ĠÐµÐ¼Ñĥ":549,"Ġch":550,"ÑĢÐ¾Ð²":551,"ĠÐ¿ÐµÑĢ":552,"self":553,"ÐºÐ°":554,"Ð°Ð¼Ð¸":555,"ÑĥÑĩ":556,"ÐµÐ½Ð¸Ðµ":557,"ĠW":558,"ard":559,"Ð½ÑģÐº":560,"ĠÑģÐ¿":561,"ĠP":562,"Ġfrom":563,"ÐºÑĥ":564,"ĠO":565,"Ġj":566,"ov":567,"âĢ":568,"Ġsee":569,"Ġby":570,"ÑĢÑĥÐ³":571,"ĠÐ»Ð¸":572,"Ð¸Ðµ":573,"ĠÐ¢":574,"ĠâĢ":575,"ĠâĢĵ":576,"Ġqu":577,"Ġli":578,"ĠÐŀÐ½":579,"Ġwere":580,"ÑĪÐµ":581,"ĠÐ¾Ð´":582,"ÐµÐ½Ð¸Ñı":583,"ÑĥÑĤ":584,"ĠÐ»Ñİ":585,"ÑĥÐ²":586,"ÐµÑģÑĤ":587,"ĠÐ¿Ð¾Ð»":588,"bl":589,"ÑģÐ»":590,"Ġint":591,"Ð°Ð»Ð¾":592,"Ġgo":593,"ĠÐľ":594,"Ġthou":595,"ĠC":596,"ÐµÑĢÑĮ":597,"ĠM":598,"ÑıÑĤ":599,"Ġthey":600,"ÑĭÐ¹":601,"est":602,"ist":603,"ĠÑģÐµÐ±":604,"Ġwould":605,"ind":606,"Ġabout":607,"Ð»ÑĮÐºÐ¾":608,"Ġup":609,"Ð¾Ð¿":610,"ĠÑĥÐ¶":611,"Ð¾Ñĩ":612,"Ġwor":613,"Ġdid":614,"ÑĥÐ²ÑģÑĤÐ²":615,"hed":616,"Ġlook":617,"ite":618,"Ġthis":619,"ÑĭÐ¼":620,"ĠÑĢÑĥ":621,"ĠÐ¼Ð¾Ð³":622,"nt":623,"Ð½Ð¸Ð¼":624,"ĠÑĪ":625,"Ð°Ð±":626,"ered":627,"Ġv":628,"Ġthem":629,"ÑĥÑİ":630,"ÐµÐ³":631,"Ġ\"":632,"ĠÑĤÐ¾Ð»ÑĮÐºÐ¾":633,"ked":634,"art":635,"ge":636,"'t":637,"Ð¾Ðµ":638,"ra":639,"ous":640,"Ġor":641,"ĠAn":642,"Ð¸Ð·":643,"ÐºÐ¸":644,"ÑħÐ¾Ð´":645,"el":646,"Ð½Ð¾Ð³Ð¾":647,"Ġout":648,"Ð½ÑĭÐ¼":649,"au":650,"ers":651,"ress":652,"Ð°Ð¿":653,"ĠÑģÐ°Ð¼":654,"ate":655,"Ġwhen":656,"ĠÐ²Ð¸Ð´":657,"ĠÐ·Ð½Ð°":658,"Ġthere":659,"other":660,"Ġcould":661,"Ð°Ð½Ð´":662,"ÑĢÐ¾Ð½ÑģÐº":663,"ĠÐĴÑĢÐ¾Ð½ÑģÐº":664,"ong":665,"Ð°Ñİ":666,"ĠÐĲÐ½":667,"Ġknow":668,"Ġle":669,"Ġam":670,"Ġbeen":671,"ĠÐ´Ð²":672,"nder":673,"Ġmy":674,"Ð¸Ð»Ð¸":675,"Ð¸Ð½Ð°":676,"ood":677,"ife":678,"ĠÐ²Ð·":679,"ÑĥÑĪ":680,"ronsky":681,"ĠÐĿÐ¾":682,"ÑģÐ¿":683,"ace":684,"ĠÑģÑĤÐ¾":685,"Ġno":686,"Ġun":687,"ĠVronsky":688,"Ð°Ð¹":689,"Ġpo":690,"Ġsm":691,"ĠÑģÐºÐ°Ð·Ð°Ð»Ð°":692,"ĠShe":693,"Ġwill":694,"ĠAnna":695,"ĠÐ±ÑĥÐ´":696,"hat":697,"ĠÐĲÐ»ÐµÐºÑģÐ°Ð½Ð´":698,"ry":699,"Ġare":700,"ÐµÐ¿ÐµÑĢÑĮ":701,"ĠD":702,"Ġman":703,"Ġim":704,"ke":705,"one":706,"Ġnow":707,"ÑģÑĤÐ°Ð²":708,"ĠÑĤÑĭ":709,"ĠÐ¿ÑĢÐ¾":710,"ure":711,"ÑĭÐµ":712,"ort":713,"ĠÐĲÐ»ÐµÐºÑģÐ°Ð½Ð´ÑĢÐ¾Ð²":714,"ĠÐ»ÑİÐ±":715,"ÐµÑħ":716,"Ġonly":717,"Ġag":718,"oll":719,"ove":720,"ĠÐ¿ÑĢÐµÐ´":721,"way":722,"ame":723,"ĠÐºÑĢ":724,"ĠÐŀÐ½Ð°":725,"ĠÑĩÑĥÐ²ÑģÑĤÐ²":726,"Ð½ÑĭÐ¹":727,"Ð»Ð¾":728,"own":729,"ven":730,"ĠÐ¸Ð¼":731,"ĠÐ´Ð»Ñı":732,"ÑĦ":733,"Ġbr":734,"Ð½Ð¾Ðµ":735,"ÑĢÐ°Ð²":736,"ĠÐ³Ð»":737,"Ð¸ÑĤÐµÐ»ÑĮ":738,"Ġsp":739,"ĠÑģÐ¼":740,"ÑĤÐ¾Ð±":741,"Ð´Ðµ":742,"Ġthought":743,"ÑĢÐ¾Ñģ":744,"Ġse":745,"ĠBut":746,"ive":747,"ile":748,"ther":749,"ĠÑĩÑĤÐ¾Ð±":750,"ĠÐ±ÑĭÐ»Ð°":751,"ĠÐ´ÐµÐ»":752,"Ð°Ð´ÑĮ":753,"ĠÑħÐ¾ÑĤ":754,"ving":755,"ĠÐ¡ÑĤ":756,"ĠÐ¶ÐµÐ½":757,"Ð°Ð³":758,"Ġany":759,"Ġhand":760,"ĠÐ¿Ð¾ÑĤ":761,"Ð°Ð½Ð¾Ð²":762,"aren":763,"Ð½Ð¾Ð¹":764,"ĠÐ¾Ð¿":765,"Ð»Ñĭ":766,"ÑĤÐ¸":767,"ĠÑĤÐµÐ¿ÐµÑĢÑĮ":768,"Ġvery":769,"Ð°Ð½Ð¸":770,"ĠÐ¾Ñĩ":771,"itty":772,"me":773,"ci":774,"ew":775,"Ġtheir":776,"ĠÐ½Ð°Ð´":777,"Ð¸ÑĤÐ¸":778,"ĠÐ±Ð¾Ð»ÑĮ":779,"ĠÐºÐ¾Ð³Ð´Ð°":780,"ÑĢÐ¸":781,"Ġcom":782,"Ġcan":783,"ol":784,"ound":785,"ose":786,"Ġtim":787,"Ð°Ð»ÑĮ":788,"ĠÐ¾ÑĤÐ²":789,"ĠKitty":790,"urn":791,"ally":792,"ig":793,"ÑģÐ»Ð¸":794,"Ð¸Ð»ÑģÑı":795,"ink":796,"ĠÐµÑīÐµ":797,"Ġunder":798,"ĠÐ´ÑĢÑĥÐ³":799,"ide":800,"ĠÐļÐ¸ÑĤÐ¸":801,"our":802,"Ġsay":803,"ÑıÑĤÑĮ":804,"ÑĢÐº":805,"Ġpe":806,"Ġevery":807,"ĠÐ´ÑĥÐ¼":808,"Ð½ÑĭÐµ":809,"Ġaf":810,"Ġar":811,"ÑĭÑħ":812,"ĠÐµÐ¹":813,"ple":814,"Ð»Ð¾Ð²":815,"Ð»ÑĭÐ±":816,"ĠÐ¾Ñģ":817,"Ð°ÑıÑģÑĮ":818,"Ġif":819,"Ġmore":820,"ĠObl":821,"Ð¾ÑĤÑĢ":822,"ĠOblonsky":823,"ĠÐ½ÐµÐ³Ð¾":824,"os":825,"ĠÐ·Ð½":826,"ast":827,"ĠÑĥÐ»ÑĭÐ±":828,"ÐµÐ¼Ñĥ":829,"ity":830,"ĠÐ¿Ð¾Ðº":831,"ÑĥÐ¿":832,"Ġwe":833,"Ð¸Ñı":834,"Ð³Ð»Ñı":835,"Ġbeg":836,"thing":837,"ĠÐĲÑĢÐº":838,"Ð°Ð»ÑģÑı":839,"ĠÐĲÑĢÐºÐ°Ð´ÑĮ":840,"Ġwent":841,"fore":842,"ÐµÐ»Ð¾Ð²":843,"ĠÐ¼Ð¾Ð¶":844,"ĠÐ¼Ñĭ":845,"ĠN":846,"Ġtoo":847,"Ġbec":848,"elt":849,"pl":850,"Ð¾Ð»Ð¶":851,"Ð°ÐµÑĤ":852,"ÑĢÐ°ÑĤ":853,"ĠÑĢÐ°Ñģ":854,"pt":855,"ÑĢÐµÐ¼":856,"ĠÐ»Ð¸ÑĨ":857,"Ġco":858,"ĠÐĶÐ°":859,"un":860,"ĠÑĥÐ¶Ðµ":861,"ÐµÐ½Ñı":862,"dd":863,"ĠÐ¼Ð½Ðµ":864,"ĠÐĲÐ»ÐµÐºÑģÐ°Ð½Ð´ÑĢÐ¾Ð²Ð¸Ñĩ":865,"ment":866,"Ð°Ñħ":867,"ish":868,"ÑĥÑĢ":869,"ÑĪÐ¸":870,"ĠÐ¼ÑĥÐ¶":871,"ĠÑģÐ¾":872,"able":873,"ass":874,"Ġfelt":875,"cess":876,"Ġhow":877,"ĠÐ±ÑĭÑĤÑĮ":878,"Ġhimself":879,"red":880,"ÑĩÐ°":881,"ary":882,"Ġyour":883,"ĠAnd":884,"ĠÐ¡ÑĤÐµÐ¿":885,"Ġpl":886,"ĠÐĲÑĢÐºÐ°Ð´ÑĮÐ¸Ñĩ":887,"ssi":888,"ÑĢÐ°Ð¶":889,"arenin":890,"med":891,"ĠÐ½Ð¸":892,"ÐµÑĪÑĮ":893,"Ġtime":894,"ĠKarenin":895,"Ġinto":896,"rin":897,"Ġpre":898,"You":899,"Ġdis":900,"od":901,"ated":902,"ice":903,"ied":904,"ĠÐ¿Ð¾ÑģÐ»":905,"ie":906,"Ġagain":907,"ÐµÑĤÑĮ":908,"ÑģÑĤÑĢ":909,"ÐºÐ¾Ð¹":910,"ĠÐ¼ÐµÐ½Ñı":911,"Ġey":912,"Ġimp":913,"ĠÑģÐ¾Ð²":914,"Ð´ÐµÐ»":915,"Ð¸Ñģ":916,"Ð¸Ð¼Ð¸":917,"Ġface":918,"Ġshould":919,"ĠÐ¾Ð½Ð¸":920,"Ġother":921,"eel":922,"ĠÑĩÑĤÐ¾Ð±Ñĭ":923,"Ð¸Ð»Ð¾":924,"Ġgl":925,"ĠÑģÑĤÐ°ÑĢ":926,"ĠÐĴÑĢÐ¾Ð½ÑģÐºÐ¸Ð¹":927,"Ġthink":928,"ĠÐ½Ð¸Ñĩ":929,"ful":930,"ĠÐ¾ÑĩÐµÐ½ÑĮ":931,"Ġunderst":932,"ine":933,"Ġoff":934,"leas":935,"Ð°Ð²ÑĪ":936,"ĠÑģÐµÐ±Ñı":937,"Ġfeel":938,"Ġlong":939,"ĠÐ½Ð¸Ðº":940,"ĠÐ´Ð¾":941,"ĠÑģÐµÐ±Ðµ":942,"ĠG":943,"ect":944,"Ð½ÑĥÐ»":945,"ĠÑįÑĤÐ¾Ð³Ð¾":946,"ĠÐ±ÑĭÐ»Ð¸":947,"ĠÐĲÐ½Ð½Ð°":948,"ack":949,"ĠÐ§":950,"ag":951,"Ð¾ÑĢÐ¾ÑĪ":952,"Ġeyes":953,"ost":954,"ĠPrin":955,"Ġcome":956,"olly":957,"Ð½Ð°Ñı":958,"ake":959,"ĠÐ¡ÐµÑĢ":960,"Ġlike":961,"ause":962,"ness":963,"ount":964,"ĠÑĤÐ¾Ð³Ð¾":965,"ap":966,"omet":967,"Ġsome":968,"Ġcons":969,"ĠÑĤÐ¾Ð¼":970,"Ġeven":971,"ĠÐ³Ð»Ð°Ð·":972,"ÐµÐµ":973,"ÑĮÑı":974,"sky":975,"ĠÐ¡ÑĤÐµÐ¿Ð°Ð½":976,"Ġthen":977,"ĠIt":978,"Ġjust":979,"Ġtr":980,"ull":981,"ck":982,"ings":983,"Ġasked":984,"ĠÐķ":985,"ĠÐŃ":986,"Ġhas":987,"ĠÑĩÐµÐ¼":988,"Ð½ÑĭÑħ":989,"Ġover":990,"ady":991,"Ð°Ð»Ð¾ÑģÑĮ":992,"Ġbefore":993,"ĠÑĥÐ²":994,"Ġte":995,"ĠÑĥÐ´":996,"ild":997,"Ġdown":998,"ĠDolly":999,"ĠÐ²ÐµÑĢ":1000,"um":1001,"Ð¾Ð½":1002,"ĠÐ½ÐµÐ¹":1003,"Ġmust":1004,"ĠÐĺÐ²":1005,"Ġsomet":1006,"ĠÐ²ÑĢÐµÐ¼":1007,"Ġlove":1008,"ÐµÐ»Ð¾":1009,"Ġus":1010,"Ġpro":1011,"Ġwithout":1012,"ward":1013,"Ġdon":1014,"Ġpleas":1015,"Ð»Ð¸Ð²":1016,"ÑĥÐ±":1017,"ĠÑĩÐµÐ»Ð¾Ð²":1018,"ĠÑĦ":1019,"ĠÐ¶Ð¸Ð·":1020,"ions":1021,"Ð´Ñĥ":1022,"ĠÐ½Ð¸ÑĩÐµÐ³Ð¾":1023,"ved":1024,"alk":1025,"wn":1026,"Ġstr":1027,"ĠÑĢÐ°Ð´":1028,"ĠÑĤÐµÐ¼":1029,"Yes":1030,"ĠÐ²Ð¾Ð·":1031,"ance":1032,"ĠÐĿÑĥ":1033,"ried":1034,"hen":1035,"ĠÐ²Ð¾":1036,"ĠÐĲÐ»ÐµÐºÑģÐµÐ¹":1037,"ĠE":1038,"ĠÐĳ":1039,"ĠÐºÐ¾ÑĤÐ¾":1040,"Ġcont":1041,"ough":1042,"Ġcl":1043,"Ġquite":1044,"ĠÐ¸Ñħ":1045,"Ġac":1046,"ĠÑĩÐµÐ»Ð¾Ð²ÐµÐº":1047,"ĠÑĤÐµÐ±":1048,"ÐµÐ»Ð¸":1049,"ÐµÑĤÑģÑı":1050,"ÐºÐµ":1051,"ĠÐºÐ½Ñı":1052,"Ġexp":1053,"ach":1054,"end":1055,"th":1056,"ren":1057,"ade":1058,"ĠÑħÐ¾ÑĢÐ¾ÑĪ":1059,"Ð¸ÑĢ":1060,"Ġturn":1061,"ened":1062,"ÐµÑı":1063,"Ġwant":1064,"Ð¸ÑĤÐµÐ»ÑĮÐ½Ð¾":1065,"Ġlife":1066,"Ġsomething":1067,"Ð½Ð¾Ð¼":1068,"Ġbl":1069,"oy":1070,"Ġfir":1071,"ĠÑģÐ´ÐµÐ»":1072,"Ġspe":1073,"ĠÐ¿Ð»":1074,"ĠÐ±Ð¾Ð»":1075,"Ð°ÑĤÑĮÑģÑı":1076,"Ġwife":1077,"ĠÑģÐ¾Ð±":1078,"Ð¸ÑĤÐµ":1079,"ff":1080,"ĠÐ¼Ð¾Ð»":1081,"ĠÑĥÐ¼":1082,"ily":1083,"ĠÐ¾ÑģÑĤ":1084,"ĠÐ½Ð°Ð¿":1085,"ÐµÑĤÐµ":1086,"Ġro":1087,"ĠÐ²Ð·Ð³Ð»Ñı":1088,"ÑĬ":1089,"ĠÐ¿Ð¾Ð¼":1090,"Ġsaw":1091,"ĠÐļÐ°Ðº":1092,"Ġword":1093,"ĠÐ·Ð°Ð¼":1094,"Ð¿Ð¾Ð¼":1095,"Ġmu":1096,"Ġbet":1097,"ĠF":1098,"ÑĢÑı":1099,"Ġthan":1100,"Ġbegan":1101,"ÑĤÐµ":1102,"Ð¾Ð²Ð°Ð»":1103,"Ð¸Ð½Ñı":1104,"Ġknew":1105,"Ġchild":1106,"Ġhapp":1107,"ĠÐ¸ÑģÐ¿":1108,"Ġafter":1109,"aking":1110,"ĠÐŃÑĤÐ¾":1111,"ĠÐ½ÐµÐ¿":1112,"Ġold":1113,"ĠÑģÐ»Ð¾Ð²":1114,"ĠÐ¿Ð¾Ð»Ð¾Ð¶":1115,"...'":1116,"Ð¾Ð»ÑĮÐºÐ¾":1117,"ÐµÑĢÐ¶":1118,"ÑĢÐ°Ð·":1119,"ÐµÑĢÐ´":1120,"ÑĪÐ¸ÑģÑĮ":1121,"ars":1122,"ĠÐĺÐ²Ð°Ð½Ð¾Ð²":1123,"Ð»Ñİ":1124,"ence":1125,"Ġgood":1126,"ka":1127,"ÑĭÑĤ":1128,"Ġget":1129,"Ġlet":1130,"ĠÐ¿Ð¾Ð½Ð¸Ð¼":1131,"ĠÐ¿Ð¾Ñĩ":1132,"mb":1133,"ang":1134,"ĠÐ¾ÑģÐ¾Ð±":1135,"Ð¾Ñİ":1136,"Ġsame":1137,"Ð½Ð¾Ð²":1138,"Ð³Ð¾Ð²Ð¾ÑĢ":1139,"ĠÐµÑģÑĤÑĮ":1140,"pect":1141,"ĠÐ²ÑĢÐµÐ¼Ñı":1142,"air":1143,"Ġgr":1144,"Ġaway":1145,"Ġway":1146,"Ð½Ñĩ":1147,"Ġtw":1148,"Ð¼Ð¸":1149,"ÑĪÐµÐ»":1150,"ft":1151,"Ġwom":1152,"ath":1153,"Ġday":1154,"ÑģÐ¼":1155,"ĠÐ¿Ð¾Ð²":1156,"ĠÑĨ":1157,"Ġstill":1158,"Ð½ÑĥÑİ":1159,"Ġunderstand":1160,"Ġ(":1161,"Ġbecause":1162,"ĠÐ¿Ð¾Ð½Ñı":1163,"Ð¸Ð»Ð°ÑģÑĮ":1164,"Ġbrother":1165,"ĠÐ¿Ð¾ÑĤÐ¾Ð¼Ñĥ":1166,"ĠÐĵ":1167,"ÐµÑģÐº":1168,"Ġnew":1169,"ĠÐ³Ð¾Ð²Ð¾ÑĢÐ¸Ð»":1170,"ĠÐł":1171,"ĠÐ¿ÑĢÐ°Ð²":1172,"Ð¸Ð²ÑĪ":1173,"ĠÐ½Ð¸Ð¼":1174,"ÑģÑĤÐ²Ð¾":1175,"Ġsmile":1176,"ĠÐ¼Ð¾Ð¶ÐµÑĤ":1177,"Ġen":1178,"ĠÐ¸Ð»Ð¸":1179,"ĠÐ±ÑĥÐ´ÐµÑĤ":1180,"ÑĭÑĪ":1181,"Ġhus":1182,"ĠÐ´Ð¾Ð»Ð¶":1183,"ave":1184,"ĠÐ½ÐµÐµ":1185,"ab":1186,"ĠÐ½Ð¾Ð²":1187,"ÑĩÐ°Ñģ":1188,"Ġmuch":1189,"band":1190,"ÑĥÑħ":1191,"ĠÐ½ÐµÐ²":1192,"Ġdes":1193,"ĠÐ¾Ð¿ÑıÑĤÑĮ":1194,"ĠÐ½Ð°Ñĩ":1195,"ting":1196,"Ġhusband":1197,"Ð°ÑĪ":1198,"ĠÐ¿Ð¾ÑĢ":1199,"Ġcame":1200,"Ġpart":1201,"Ġrem":1202,"Ð°Ð·ÑĭÐ²":1203,"ĠÐ¾ÑĤÐ²ÐµÑĩ":1204,"ER":1205,"ced":1206,"ished":1207,"Ð°Ð»Ð°ÑģÑĮ":1208,"Ġent":1209,"ÐµÑİ":1210,"ĠÐ²ÐµÑģ":1211,"Ð½Ð¾ÑģÑĤÐ¸":1212,"ud":1213,"ree":1214,"hy":1215,"ĠX":1216,"Ð»ÐµÐ½":1217,"ep":1218,"ĠÐ±ÐµÐ·":1219,"ĠÐ´Ð¾Ð¼":1220,"ng":1221,"ĠÐµÑģÐ»Ð¸":1222,"Ġnothing":1223,"ÐµÐ½Ð¸Ð¸":1224,"av":1225,"ĠÐ±Ð»":1226,"Ð½Ð¾ÑģÑĤÑĮ":1227,"Ġgre":1228,"ÑĢÐ¾Ð´":1229,"ways":1230,"Ð½Ð¸Ðº":1231,"ĠR":1232,"age":1233,"Ġtalk":1234,"ĠÑģÑĤÑĢ":1235,"iff":1236,"Ð¸ÑĤÑĮÑģÑı":1237,"ssible":1238,"ne":1239,"Ġhor":1240,"ĠÐ§ÑĤÐ¾":1241,"ick":1242,"Ġnever":1243,"Ġsuch":1244,"iz":1245,"sw":1246,"ĠÐ¿ÑĢÐ¾Ñģ":1247,"ĠÐ½Ð°Ð´Ð¾":1248,"Ð´Ñı":1249,"Ġright":1250,"ition":1251,"Ġherself":1252,"iv":1253,"ious":1254,"Ġown":1255,"Ġpr":1256,"Ġansw":1257,"Ġfirst":1258,"hev":1259,"Ġmade":1260,"Ġatt":1261,"Ġgoing":1262,"ies":1263,"ĠÐ±ÑĢÐ°ÑĤ":1264,"ÐµÐ³Ð´Ð°":1265,"Ġthose":1266,"ire":1267,"ĠÑĢÐµÑĪ":1268,"ĠÐĶÐ¾Ð»":1269,"ĠPrincess":1270,"asant":1271,"Ð½Ð¸Ðµ":1272,"Ġhead":1273,"Ġlooked":1274,"ĠÑĢÑĥÐºÑĥ":1275,"ÑĢÐ°Ñģ":1276,"ĠÐ½ÑĥÐ¶":1277,"ĠÑĤÐ¾ÑĤ":1278,"ult":1279,"ittle":1280,"Ġback":1281,"Ġseemed":1282,"Well":1283,"ĠÐĿÐµÑĤ":1284,"Ġput":1285,"ĠÐ¡ÐµÑĢÐ³":1286,"ÑĢÐµÐ´":1287,"Ð¸Ð½Ñĥ":1288,"ĠÐ³Ð¾Ð»Ð¾Ð²":1289,"Ġalways":1290,"Ġeverything":1291,"Ġwell":1292,"Ġfri":1293,"Ġlittle":1294,"Ð¸Ð¸":1295,"Ð¾Ð¿ÑĢÐ¾Ñģ":1296,"ĠÐĶÐ¾Ð»Ð»Ð¸":1297,"man":1298,"ĠÐ£":1299,"Ð¾ÑģÑĤ":1300,"Ð°Ñĩ":1301,"Ġtell":1302,"ĠÐºÐ¾Ð¼":1303,"ait":1304,"vers":1305,"act":1306,"oment":1307,"Ġmoment":1308,"ÑĨÐ°":1309,"ĠÐ²ÑģÐµÐ³Ð´Ð°":1310,"ĠÑģÐ¿ÑĢÐ¾Ñģ":1311,"Ġhere":1312,"ĠÐºÐ¾ÑĤÐ¾ÑĢÑĭÐµ":1313,"ner":1314,"ĠÐ¼Ð¸Ð½":1315,"ently":1316,"Ġwhere":1317,"ĠÐ¾ÑģÐ¾Ð±ÐµÐ½Ð½Ð¾":1318,"ĠÐ²Ð´":1319,"ĠÐ²Ð¿":1320,"Ġho":1321,"ĠÑĢÐ°Ð·Ð³Ð¾Ð²Ð¾ÑĢ":1322,"az":1323,"ÑģÐµ":1324,"ĠÐ·Ð°Ð±":1325,"Ġmat":1326,"Ġhaving":1327,"ny":1328,"Ð¸Ð¶":1329,"ĠÑĤÑĢ":1330,"ĠÐ½ÐµÑĤ":1331,"But":1332,"ople":1333,"Ġop":1334,"Ð½ÐµÐµ":1335,"ouse":1336,"ÐµÑĢÑĪ":1337,"Ġwr":1338,"Ġroom":1339,"ĠÐ³ÑĢÐ°":1340,"ÑĨÑĥ":1341,"ĠÑįÑĤÐ¾Ð¼":1342,"Ġrep":1343,"Ð»Ð°ÑģÑĮ":1344,"ĠÐºÐ¾ÑĤÐ¾ÑĢÐ¾":1345,"Ġexpress":1346,"Ġsat":1347,"Ġpeople":1348,"Ġtwo":1349,"ared":1350,"ĠÐ³Ð¾Ð»":1351,"ĠÐ¼Ð¸Ð½ÑĥÑĤ":1352,"The":1353,"ning":1354,"ĠÑįÑĤÐ¸":1355,"cl":1356,"Ð½ÑĮ":1357,"Ġthr":1358,"Ġrec":1359,"Ġforg":1360,"Ð½ÑĥÐ²":1361,"Ġtoward":1362,"Ġcar":1363,"Ġfl":1364,"ĠÐ¿ÑĢÐ¾Ð´":1365,"ÐµÐ½Ð¸ÐµÐ¼":1366,"ÑģÑĤÐ²Ð°":1367,"ÑĤÐ¾Ñı":1368,"Ġpass":1369,"ĠÐ¿ÑĢÐµÐ¶":1370,"ĠÐ¾ÑĤÐº":1371,"Ġquest":1372,"ange":1373,"ĠÐĽÐµÐ²Ð¸Ð½Ð°":1374,"Ġwork":1375,"Ġad":1376,"ĠÑģÐºÐ°Ð·Ð°ÑĤÑĮ":1377,"What":1378,"Ġrel":1379,"ĠÑģÐ²Ð¾Ñİ":1380,"ÐµÑī":1381,"Ġapp":1382,"ĠÐ¿Ð¾Ð·":1383,"ĠÐ²Ð°Ñģ":1384,"ĠÐ·Ð°Ð¿":1385,"Ð¾Ð¶Ðµ":1386,"ĠÐ²ÑĭÑĢÐ°Ð¶":1387,"Ġlooking":1388,"led":1389,"Ġonce":1390,"II":1391,"TER":1392,"Ġsmil":1393,"ĠÐĺÐ²Ð°Ð½Ð¾Ð²Ð¸Ñĩ":1394,"ĠÐĹ":1395,"Ġadd":1396,"ÐºÐ¾Ð¼":1397,"Ġres":1398,"ĠÐ±Ð¾Ð»ÑĮÑĪÐµ":1399,"ĠÐ±Ð¾Ð»ÐµÐµ":1400,"Ð°Ð½Ð¸Ñı":1401,"HA":1402,"ue":1403,"ĠÑģÑĩÐ°":1404,"ĠÐĿÐµ":1405,"Ð¾ÑĪÐµÐ»":1406,"ĠÑģÐ¼Ð¾ÑĤÑĢ":1407,"ĠÐ²ÑģÐ¿Ð¾Ð¼":1408,"ĠÐ»Ð¸ÑĨÐ¾":1409,"Ġwords":1410,"ĠÐ²Ð¾Ð¿ÑĢÐ¾Ñģ":1411,"ÑģÐºÐ¸Ð¹":1412,"ĠÐºÐ¾ÑĤÐ¾ÑĢÑĭÐ¹":1413,"ÑĤÐµÑĢ":1414,"Ġheard":1415,"Ġev":1416,"Ð¸Ð²Ð°Ñı":1417,"ĠYou":1418,"Ð¸ÑĪ":1419,"ĠÐ¸Ð½":1420,"iss":1421,"Ð°Ð»Ð¸ÑģÑĮ":1422,"Oh":1423,"ÑĢÐ¾Ð¼":1424,"Ġhouse":1425,"oth":1426,"ÑĢÑĥÐ´":1427,"ĠÐ¢Ñĭ":1428,"ĠÐ·Ð½Ð°Ñİ":1429,"Ġconsid":1430,"oz":1431,"Ð½Ð¾Ñİ":1432,"Ġanything":1433,"Ġtook":1434,"ÑıÐ·":1435,"Ġsc":1436,"Ġcle":1437,"ÑĭÐ¼Ð¸":1438,"ĠÐ²Ð´ÑĢÑĥÐ³":1439,"lov":1440,"ĠÐºÐ°Ð¶":1441,"Ġper":1442,"ĠÑģÐ¾Ð²ÐµÑĢÑĪ":1443,"ĠÐ´ÐµÐ»Ð¾":1444,"ĠÐ²Ð¾Ñģ":1445,"ĠÐ¿ÐµÑĢÐ²":1446,"\",":1447,"ather":1448,"room":1449,"Ð¸Ð»Ð¾ÑģÑĮ":1450,"ted":1451,"ĠÐ´ÐµÑĤ":1452,"Ġyet":1453,"ĠÑģÐ²Ð¾ÐµÐ¹":1454,"ĠÑĢÐ°Ð·Ð²":1455,"Ġanother":1456,"ÑĢÐ°ÑĪ":1457,"ÑĥÐ´ÑĮ":1458,"Ġleft":1459,"ĠÐ»ÑĥÑĩ":1460,"ĠÑįÑĤÐ¾ÑĤ":1461,"Ġap":1462,"ĠÐ¿ÑĢÐ¸Ð²":1463,"Ð·Ñı":1464,"Ð¾ÑĤÐ¸Ð²":1465,"ĠÐ·Ð½Ð°Ð»":1466,"ĠÐ½ÐµÐ´":1467,"ĠÑĩÐ°Ñģ":1468,"Ġwhile":1469,"Ð¾Ð·Ñı":1470,"ha":1471,"lex":1472,"ĠÐ¶ÐµÐ»":1473,"owed":1474,"Ġcall":1475,"ĠÑħÐ¾Ñĩ":1476,"Ġshall":1477,"Ġbel":1478,"ÑĥÑģÑĤ":1479,"Ð°Ð·Ð°Ð»Ð¾ÑģÑĮ":1480,"Ġwhom":1481,"shev":1482,"ĠÐ²ÑģÑĤÑĢ":1483,"Ġdiff":1484,"ĠKoz":1485,"nyshev":1486,"HAP":1487,"ĠKoznyshev":1488,"ĠÐ´ÐµÐ½ÑĮ":1489,"ĠWhen":1490,"ĠÐ¾Ð´Ð¸Ð½":1491,"ĠÐºÑĢÐ°Ñģ":1492,"HAPTER":1493,"up":1494,"iness":1495,"Ġtold":1496,"ÐµÑĢÐ¸":1497,"ĠCHAPTER":1498,"ĠÐ¶ÐµÐ½Ñī":1499,"ĠÐ¶Ð¸Ð·Ð½Ð¸":1500,"ÑĢÑĭ":1501,"Ġhel":1502,"ĠÐ·Ð°Ðº":1503,"Ð°Ð²Ð½Ð¾":1504,"Ð°Ð¶Ðµ":1505,"Ġfeeling":1506,"ÑģÐ¼Ð¾ÑĤÑĢ":1507,"ÑıÐ»":1508,"ÑĭÑĩ":1509,"Ġmother":1510,"Ġrepl":1511,"!--":1512,"ĠÐ´ÐµÐ»Ð°":1513,"\".":1514,"Ġhands":1515,"ĠÑĥÐ²Ð¸Ð´":1516,"Ġchildren":1517,"Ġthese":1518,"arly":1519,"Ġits":1520,"erest":1521,"Ġkind":1522,"ĠÐ»ÑİÐ´":1523,"ully":1524,"memb":1525,"ond":1526,"Ġbeing":1527,"Ġmean":1528,"ĠÐºÐ¾ÑĤÐ¾ÑĢÐ¾Ðµ":1529,"No":1530,"ĠÑħÐ¾Ð·Ñı":1531,"dden":1532,"ĠÐºÐ½ÑıÐ³":1533,"ĠÐ²Ð¾Ð»":1534,"ĠÐ·Ð°Ð²":1535,"Ġret":1536,"Ġinterest":1537,"ĠÐ±Ð¾Ð»ÑĮÑĪ":1538,"Ġfe":1539,"ÐµÑģÑĤÐµ":1540,"It":1541,"ÑģÑĤÑĢÐ¾":1542,"ĠÐ´Ð¾Ðº":1543,"ĠÑĢÐ°Ð±":1544,"ĠTh":1545,"ained":1546,"Ġdoor":1547,"Ġvo":1548,"per":1549,"ty":1550,"Ð¸Ð½Ñĭ":1551,"ĠÐ³Ð¾Ð²Ð¾ÑĢÐ¸ÑĤÑĮ":1552,"Ġser":1553,"ations":1554,"ĠÐ¿ÑĢÐ¾Ð´Ð¾Ð»Ð¶":1555,"oot":1556,"Ð»Ðµ":1557,"ĠÐ²Ð¼":1558,"Ġsto":1559,"Ġthough":1560,"ready":1561,"Ġhar":1562,"Ġwhole":1563,"Ð½ÑĭÐ¼Ð¸":1564,"Ð°Ð½Ð¸Ðµ":1565,"Ġhelp":1566,"ise":1567,"Ð¾Ð²Ð¾Ð»ÑĮ":1568,"ĠÐ¼Ð¾":1569,"ĠÑĥÐ·":1570,"Ġrememb":1571,"ÑĨÐµ":1572,"Ð°ÑĤÐµÐ»ÑĮ":1573,"ĠÐ¼Ð¾Ð³Ñĥ":1574,"ÐºÐ¾Ð²":1575,"ĠÐºÐ°ÑĢ":1576,"Ġmight":1577,"Ġyoung":1578,"ĠÐĴÑĭ":1579,"ĠÐ¿ÑĢÐ¸ÐµÑħ":1580,"Ġwoman":1581,"ĠÐ³Ð¾Ð»Ð¾Ñģ":1582,"ĠÐºÐ¾ÑĢ":1583,"ĠÐĶÐ°ÑĢ":1584,"Ġconvers":1585,"Ġalready":1586,"Ġpeasant":1587,"we":1588,"ÐµÑĢÐ±":1589,"anc":1590,"Ð°ÐºÐ¾Ð¼":1591,"ĠIn":1592,"ĠÑħÐ¾ÑĤÐµÐ»":1593,"Ġreplied":1594,"ĠÑĤÐ²":1595,"Ð¾ÐºÐ¾Ð¹":1596,"ĠÐ¡ÐµÑĢÐ³ÐµÐ¹":1597,"Ġfriend":1598,"ual":1599,"Ġmind":1600,"ĠThey":1601,"ĠÐ½Ð¸ÐºÐ¾Ð³Ð´Ð°":1602,"Ð½ÑĥÐ»ÑģÑı":1603,"ĠÑĤÐµÐ±Ñı":1604,"Ð¾ÑģÑĤÑĮ":1605,"Ð²Ð¸":1606,"ĠÐ³Ð»Ñı":1607,"Ġround":1608,"ÑĩÐ¸ÑĤ":1609,"Ġour":1610,"ering":1611,"ĠÐ´Ð¾Ð±":1612,"rov":1613,"ĠÐŁÐµÑĤ":1614,"ĠPet":1615,"ĠÑĥÐ¶Ð°Ñģ":1616,"ĠÐ²Ð¸Ð´ÐµÐ»":1617,"Ġmatter":1618,"Ð°ÑģÐº":1619,"ĠÑģÐ¸Ð»":1620,"arm":1621,"ĠAlex":1622,"ÐµÐ»ÑĮÐ·Ñı":1623,"ĠÐ¿Ð¾ÑģÐ»Ðµ":1624,"Ð½Ð¾ÑĪ":1625,"ÑģÑĤÐ²ÐµÐ½":1626,"Ġord":1627,"Ġbetter":1628,"row":1629,"ÑĥÐ³":1630,"ÑĩÐ¸Ðº":1631,"Ġwhy":1632,"ÑĨÑĭ":1633,"ĠÐ²ÑģÐµÑħ":1634,"so":1635,"te":1636,"ĠÑģÐµÑĢÐ´":1637,"Ġdone":1638,"Ġind":1639,"ĠÐĴÑģÐµ":1640,"ÑĢÐ°Ñī":1641,"ĠÑĩÑĥÐ²ÑģÑĤÐ²Ð¾Ð²Ð°Ð»":1642,"ody":1643,"not":1644,"ÑıÐ¶":1645,"ĠÐ½ÐµÐ¼":1646,"Ġquestion":1647,"ĠÐ½Ð°Ñģ":1648,"ĠÐ½ÑĥÐ¶Ð½Ð¾":1649,"ddenly":1650,"ÐµÑģÑı":1651,"ÐºÐ°Ð¼Ð¸":1652,"ÑģÑĤÑĥÐ¿":1653,"Ġmar":1654,"ĠÑĥÐ±":1655,"ĠÐ¿Ð¾Ñģ":1656,"pped":1657,"ĠÑħÐ¾ÑĢÐ¾ÑĪÐ¾":1658,"ĠÐ¾ÑģÑĤÐ°Ð½Ð¾Ð²":1659,"aw":1660,"fully":1661,"ĠÐ´Ð°Ð¶Ðµ":1662,"ĠÐ³Ð´Ðµ":1663,"oved":1664,"ĠCount":1665,"ĠÑĤÐ¾ÑĤÑĩÐ°Ñģ":1666,"Ð½Ñİ":1667,"Ġwait":1668,"ĠÐ¾Ð¶":1669,"ĠÐĴÑĢÐ¾Ð½ÑģÐºÐ¾Ð³Ð¾":1670,"Ð±ÑĥÐ´ÑĮ":1671,"ÐµÑĤÐ°":1672,"ĠWhat":1673,"Ġreturn":1674,"ÑĤÐ¾Ð²":1675,"Ð½Ð¸Ð±ÑĥÐ´ÑĮ":1676,"Ð¸ÑĩÐµÑģÐº":1677,"ĠÐ²ÑĭÑģ":1678,"ĠÐ±ÐµÑģ":1679,"ĠÐ½ÐµÑģ":1680,"Ð¸Ð»Ð¸ÑģÑĮ":1681,"ĠÐ³Ð»Ð°Ð·Ð°":1682,"ĠÑĤÐµÐ±Ðµ":1683,"ired":1684,"sh":1685,"Ð¼Ð¾":1686,"Ġthing":1687,"ÐµÑĢÐ°":1688,"rying":1689,"ord":1690,"owing":1691,"ign":1692,"Ġcontin":1693,"Ġacc":1694,"ĠÐ¼Ð¾Ð»Ð¾Ð´":1695,"And":1696,"ĠÑĩÐµÑĢ":1697,"Ġdra":1698,"Ġlast":1699,"Ð°Ð½ÑĤ":1700,"ĠÑģÐ²Ð¾ÐµÐ³Ð¾":1701,"Ġpos":1702,"Ġpres":1703,"ĠÐ¶Ð¸Ð·Ð½ÑĮ":1704,"ĠÐ³ÑĢÐ°ÑĦ":1705,"ik":1706,"ĠÐ»Ð¾ÑĪ":1707,"Ġappe":1708,"ÑıÑģ":1709,"ĠÑģÐ²Ð¾Ðµ":1710,"ĠÐ¼Ð¾Ð³Ð»Ð°":1711,"Ġconversation":1712,"ĠÐ²Ð¾ÑĤ":1713,"ĠÐºÐ¾Ð»":1714,"ĠÐ¼Ð°Ð»":1715,"Ġread":1716,"Ġask":1717,"ÐµÐ¶Ð´Ñĥ":1718,"Ġthrough":1719,"ÑĤÐµÑĢÐµÑģ":1720,"ms":1721,"ĠÐ½ÐµÐ»ÑĮÐ·Ñı":1722,"Ð¸Ð½Ðµ":1723,"ĠÑģÑĤÐ¾ÑĢÐ¾":1724,"Ġturned":1725,"ĠÐ¿ÑĢÐµÐ¶Ð´Ðµ":1726,"Ð¼Ð¾Ð¶":1727,"Ġfind":1728,"ĠÐ´Ð°":1729,"ĠÐĴÐ°ÑĢ":1730,"Ġexpect":1731,"Ð¸ÑĪÑĮ":1732,"vi":1733,"Ġact":1734,"Ġdre":1735,"ĠÐ¶Ð¸Ð²":1736,"ÑģÑĤÐ°Ð²Ð»Ñı":1737,"Ð½ÐµÐ¹":1738,"ĠÑģÑĭ":1739,"ĠÐ´ÐµÐ²":1740,"ĠÑĩÐµÐ³Ð¾":1741,"Ġdress":1742,"ĠÐŀÐ±":1743,"Ġdec":1744,"ĠÐ¾Ðº":1745,"Ġdin":1746,"ĠÐĿÐ¸Ðº":1747,"ince":1748,"ĠÐ²Ð°Ð¼":1749,"Ġconf":1750,"ĠÐ»ÑĥÑĩÑĪÐµ":1751,"Ð¾ÑģÑĤÐ¸":1752,"Ġfam":1753,"ĠÐ±Ð¾Ð³":1754,"ĠÐ´Ð¾Ð»":1755,"ĠÑĥÐ¿":1756,"ict":1757,"ĠÐ¢Ð°Ðº":1758,"ĠÐ´ÑĥÐ¼Ð°Ð»":1759,"ĠÐ³Ð»ÑıÐ´Ñı":1760,"ÑıÐ²":1761,"Ġob":1762,"Ġcal":1763,"Ġthings":1764,"ÐµÐ¹ÑģÑĤÐ²":1765,"Ġsuddenly":1766,"ÑĤÑĥ":1767,"Ð²Ðµ":1768,"Ġheart":1769,"Ġpain":1770,"cc":1771,"ever":1772,"ĠÐ½Ñĭ":1773,"Ġmet":1774,"Ġmake":1775,"Ġdist":1776,"Ġlist":1777,"Ġinv":1778,"ĠÐ·Ð²":1779,"Ġref":1780,"Ġalone":1781,"Ġjoy":1782,"Ð°ÑİÑĤ":1783,"Ġcannot":1784,"ĠÐ¿Ð¾Ð¶":1785,"ĠÐ´ÑĥÑĪ":1786,"ÑģÐºÐ¾Ð»ÑĮÐºÐ¾":1787,"ĠÐ¿Ð¾Ð´ÑĥÐ¼":1788,"Ġvoice":1789,"Ġposition":1790,"Ð¾ÑĢÐ¾Ð²":1791,"ĠÐ¶Ð°Ð»":1792,"ĠÐĴÐ¾ÑĤ":1793,"ĠÐļÐ¾Ð³Ð´Ð°":1794,"ĠSo":1795,"ĠÐ³Ð¾Ð²Ð¾ÑĢÐ¸Ð»Ð°":1796,"ail":1797,"Ð¸ÑģÑĮ":1798,"Ġtake":1799,"ĠÐ¾ÑĤÐ½Ð¾ÑĪ":1800,"ĠÐ²ÑģÐµÐ¼":1801,"Ð°ÑİÑī":1802,"ĠÐ¿Ð¾ÑģÐ»ÐµÐ´":1803,"Ġevid":1804,"Ġcare":1805,"Ġalso":1806,"ĠÐ¾ÑĤÐ²ÐµÑĩÐ°Ð»":1807,"ÑĢÑĭÐ²":1808,"Ġsl":1809,"Ġel":1810,"ĠÐ¿ÑĢÐ¸Ð±":1811,"ĠÐ±ÑĥÐ´ÑĤÐ¾":1812,"ĠÐ²Ð·Ð³Ð»ÑıÐ´":1813,"ru":1814,"ÑıÑī":1815,"ĠÐ½ÐµÐ¼Ñĥ":1816,"ĠÐ²ÑģÑı":1817,"ised":1818,"ase":1819,"ÑĢÑĥÐ¶":1820,"ĠÐ¾Ð±ÐµÐ´":1821,"aught":1822,"Ð¾Ð³Ð¾Ð²Ð¾ÑĢ":1823,"ĠÑģÐ¿Ð¾ÐºÐ¾Ð¹":1824,"ps":1825,"Ġmost":1826,"ĠÐ¼ÐµÐ¶Ð´Ñĥ":1827,"Ð½Ð¸Ñı":1828,"ention":1829,"riage":1830,"Ġmeet":1831,"ĠÑģÐ»ÑĭÑĪ":1832,"ĠÐºÐ¾ÑĤÐ¾ÑĢÐ°Ñı":1833,"ĠÑģÐ¾Ñģ":1834,"Ġboth":1835,"ÑĪÐ»Ð°":1836,"ĠÐ·Ð°Ð´":1837,"ÐµÐ½Ð½Ð¾Ðµ":1838,"ĠÑĥÐ»ÑĭÐ±ÐºÐ¾Ð¹":1839,"ĠÐ²Ð¼ÐµÑģÑĤÐµ":1840,"Ð°Ð½Ð°":1841,"ating":1842,"ĠÐ´Ð¾ÑĢ":1843,"ĠÑģÐ²Ð¾Ð¸":1844,"ĠÑĥÐ»ÑĭÐ±Ð°ÑıÑģÑĮ":1845,"ĠXX":1846,"ĠÐºÐ¾Ð¼Ð½Ð°":1847,"ĠÐ¸Ð½ÑĤÐµÑĢÐµÑģ":1848,"hes":1849,"Ġwat":1850,"cially":1851,"Ġimpo":1852,"day":1853,"less":1854,"van":1855,"Ð»Ð°Ð´":1856,"ÑĮÐµ":1857,"ought":1858,"ĠÑĤÐ¾Ð¶Ðµ":1859,"ĠÑĥÑģÐ¿":1860,"ĠÑģÑĤÐ°Ð»":1861,"ĠÐ»ÑİÐ±Ð¾Ð²":1862,"ĠÐ¿Ð¾ÑĤÐ¾Ð¼":1863,"aving":1864,"ĠÑĤÑĥ":1865,"ĠÑĥÑĤ":1866,"Ġanswered":1867,"ĠÑħÐ¾Ð·ÑıÐ¹":1868,"Ġsil":1869,"Ð¸Ð´Ð½Ð¾":1870,"Ð¾ÐºÐ¾":1871,"ĠÐ¾Ð´Ð½Ð¾":1872,"osc":1873,"ĠÑģÐ¾Ð²ÐµÑĢÑĪÐµÐ½Ð½Ð¾":1874,"Ġes":1875,"ret":1876,"Ġche":1877,"ÐµÑĢÐµÐ²":1878,"Ġend":1879,"Ġgu":1880,"Ġwanted":1881,"oscow":1882,"ined":1883,"ÑĭÐº":1884,"Ġmen":1885,"ety":1886,"ĠÐ¾Ð±ÑĬ":1887,"used":1888,"ĠÐĽÐµÐ²Ð¸Ð½Ñĥ":1889,"ĠMoscow":1890,"ately":1891,"Ð½Ð¾Ð¼Ñĥ":1892,"ÐµÑĢÐµÐ´":1893,"ctor":1894,"ĠRu":1895,"Ġcontinu":1896,"ten":1897,"ÑıÐ´":1898,"Ġhome":1899,"Ġpers":1900,"Ġgive":1901,"Ġnotic":1902,"Ġreg":1903,"ÑĢÑĥÑİ":1904,"ĠÐ¿ÑĢÐ¸ÑıÑĤ":1905,"ĠÑįÑĤÐ¸Ð¼":1906,"Ġsub":1907,"ĠOn":1908,"ĠÑģÐ»Ð¾Ð²Ð°":1909,"Ġgreat":1910,"ert":1911,"ĠIvan":1912,"cept":1913,"ĠThat":1914,"ĠThere":1915,"ĠPrince":1916,"ided":1917,"Ġreally":1918,"ĠÐ¡Ð²":1919,"Ġspo":1920,"ÑĩÐ½Ð¾":1921,"ĠÐºÐ°Ð·Ð°Ð»Ð¾ÑģÑĮ":1922,"Ð¾Ð²Ð°ÑĢ":1923,"Ġmor":1924,"ĠÑĤÑĥÑĤ":1925,"Ġgot":1926,"Ġspeak":1927,"int":1928,"Ġsim":1929,"ĠÐ½Ð°Ð¼":1930,"ĠÐ¾ÑģÑĤÐ°Ð²":1931,"ĠÐ¸ÑģÐº":1932,"ĠÐ·Ð°Ð³":1933,"Ð¸Ð½Ð¾Ð²":1934,"ÑģÐºÐ¾Ð³Ð¾":1935,"ĠÑįÑĤÑĥ":1936,"Ð¾ÑģÐº":1937,"Ġmay":1938,"ĠÑĤÐµ":1939,"Ð¾Ð¼Ð½":1940,"ĠÐ³ÑĥÐ±":1941,"ÑĥÐ¶Ð´":1942,"Ġaff":1943,"Ġimpossible":1944,"ÑĮÑİ":1945,"Ġson":1946,"Ġset":1947,"ĠÐµÑħ":1948,"ĠÑģÐ»ÑĥÑĪ":1949,"Ġdoes":1950,"Ġpossible":1951,"ĠÐ´ÐµÐ»Ð°ÑĤÑĮ":1952,"ĠÐ¾ÑĩÐµÐ²":1953,"ĠÐ¸ÑģÐ¿ÑĭÑĤ":1954,"ĠRussi":1955,"HE":1956,"ÑıÑģÑĮ":1957,"ÑģÐºÐ¾Ð¹":1958,"ĠÐ¿ÐµÑĢÐµÐ´":1959,"Ġimport":1960,"igh":1961,"ÑĢÐ°Ð½":1962,"Ġwish":1963,"Ġside":1964,"ĠÐ½Ð¾Ð³":1965,"ÐµÐ½Ð°":1966,"Ġcour":1967,"Ġcount":1968,"ĠÐ¼ÑĥÑĩ":1969,"ark":1970,"ĠÑģÐ²Ð¾Ð¸Ð¼":1971,"ÑĢÐ¸ÑıÑĤ":1972,"ÑģÑĤÐ»Ð¸Ð²":1973,"Ġgi":1974,"eep":1975,"ÐµÐ·Ð´":1976,"Ð½ÑĩÐµ":1977,"ĠÑģÐ¿ÑĢÐ¾ÑģÐ¸Ð»":1978,"Ġadded":1979,"mer":1980,"uc":1981,"ÐºÐ¸Ð¹":1982,"ister":1983,"ÑħÐ¾ÑĤ":1984,"Ð½Ð°Ñĩ":1985,"ĠÐ¼Ð°ÑĤ":1986,"ĠÐ¿ÑĢÐ¾ÑĪ":1987,"Ġinst":1988,"Ġinter":1989,"Ð°ÐºÐ¸":1990,"ĠÐ»ÐµÐ³":1991,"ĠÐĿÐ°":1992,"ĠÐºÐ¾Ð½":1993,"ĠÐ¼Ð¾Ð¶Ð½Ð¾":1994,"Ġexpression":1995,"ĠCountess":1996,"Ð»Ð°Ñģ":1997,"Ġtre":1998,"ĠÐ½Ð°Ð·":1999,"Ġfin":2000,"ĠÐ¿ÑĢÐ¾ÑĤÐ¸Ð²":2001,"aken":2002,"ĠÑħÐ¾ÑĤÐµÐ»Ð°":2003,"ĠÐ·Ð°Ð¼ÐµÑĤ":2004,"Ġwished":2005,"Ð¾Ð²Ð°Ð»Ð°":2006,"ĠÐ´ÐµÑĢÐµÐ²":2007,"ĠÐ¿ÑĢÐµÐº":2008,"Ġyes":2009,"Ġdel":2010,"ĠÐ¿Ð¾Ð»ÑĥÑĩ":2011,"arenka":2012,"wing":2013,"Ġter":2014,"Ġsou":2015,"ĠÐ½Ð°Ð²":2016,"Ġbre":2017,"ĠÐ±ÑĭÐ²":2018,"Ġrose":2019,"ĠÑıÑģ":2020,"ĠHis":2021,"ĠÐ½Ð¸ÐºÐ°Ðº":2022,"How":2023,"mor":2024,"Ġtable":2025,"ĠÑģÐ¸Ð´":2026,"oud":2027,"Ġfoll":2028,"ĠÐ¼Ð½Ð¾Ð³Ð¾":2029,"ĠÑĥÑģÐ»":2030,"ĠÐŀÑĤ":2031,"ĠÐºÐ¾Ð½Ñĩ":2032,"ĠÐ¾Ð±ÑĢÐ°ÑĤ":2033,"ÐµÐ·Ð¶":2034,"Ġsoon":2035,"ĠÐ¼ÑĥÐ¶Ð¸Ðº":2036,"Ġtried":2037,"ĠÐ²ÐµÐ»":2038,"Ð²ÐµÑĢ":2039,"Ð´ÐµÑĤ":2040,"ens":2041,"Ġye":2042,"ĠÐ¿ÑĢÐ¸Ð·":2043,"ĠÐºÐ¾ÑĤÐ¾ÑĢÐ¾Ð¹":2044,"ĠÑĢÐ°ÑģÑģÐº":2045,"ĠÐĴÐ°ÑĢÐµÐ½ÑĮ":2046,"ject":2047,"here":2048,"ÐµÐ½Ð¸Ñİ":2049,"ĠSt":2050,"ÐµÑģÑĤÐ¾":2051,"ushed":2052,"ĠÐºÐ¾ÑĤÐ¾ÑĢÐ¾Ð³Ð¾":2053,"Ġturning":2054,"ĠÐºÐ°Ð¶Ð´":2055,"ween":2056,"ĠÐ¾ÑĩÐµÐ²Ð¸Ð´Ð½Ð¾":2057,"ial":2058,"ĠÑģÐµÐ¼":2059,"ĠÐ¿Ð¾Ð¹":2060,"Ġocc":2061,"Ð°Ð»Ñĥ":2062,"Ġfre":2063,"Ġfell":2064,"Ġfound":2065,"ĠÐ·Ð°ÑĤ":2066,"Ġgir":2067,"ĠÐ²ÑģÐµÐ³Ð¾":2068,"erent":2069,"Ð¸Ð¼Ð¾":2070,"Ġsuff":2071,"ached":2072,"ĠÐĲÐ»ÐµÐºÑģÐ°Ð½Ð´ÑĢÐ¾Ð²Ð½Ð°":2073,"ĠÑĩÑĥÐ²ÑģÑĤÐ²Ð¾":2074,"),":2075,"body":2076,"get":2077,"Ġ.":2078,"ĠÑĤÑıÐ¶":2079,"Ġlight":2080,"Ġreal":2081,"ÐµÐ´ÑĮ":2082,"ĠHow":2083,"ĠÑįÑĤÐ°":2084,"ĠÑħÐ¾ÑĤÑı":2085,"ves":2086,"Ð°ÐµÐ¼":2087,"ÑģÐµÐ¼":2088,"ÑĥÑģÐº":2089,"Ġsur":2090,"ĠÐ¾Ð³Ð»Ñı":2091,"Ð²Ð¾ÑĢ":2092,"ither":2093,"ÐµÐ½Ð¾":2094,"Ġgave":2095,"Ġdoctor":2096,"ĠVarenka":2097,"ĠÐķÑģÐ»Ð¸":2098,"ĠÑĢÐ°Ð±Ð¾ÑĤ":2099,"Ġaw":2100,"ÑģÑĤÐ°":2101,"orm":2102,"Ð¾Ð»Ð¾Ð´":2103,"aring":2104,"ĠÐ·Ð°Ñģ":2105,"Ð½ÑĥÐ»Ð°":2106,"ĠÑģÐ»ÑĥÑĩ":2107,"ĠÐ²Ð¸Ð´ÐµÑĤÑĮ":2108,"ĠÐ·Ð½Ð°ÐºÐ¾Ð¼":2109,"ĠÑĥÐ´Ð¸Ð²":2110,"ĠÐ³Ð¾Ð»Ð¾Ð²Ñĥ":2111,"ched":2112,"em":2113,"Ð¸Ð³":2114,"ĠÐ¿Ð¾Ð¿":2115,"ener":2116,"ĠÑĤÐ¾Ð¼Ñĥ":2117,"ank":2118,"Ġwhether":2119,"ĠÑĢÑĥÐºÐ¸":2120,"Ġplace":2121,"Ġunderstood":2122,"ĠÑģÐ´ÐµÐ»Ð°ÑĤÑĮ":2123,"Ġbetween":2124,"ĠÐłÐ°Ð·":2125,"ĠÐĶÐ°ÑĢÑĮÑı":2126,"Ġevidently":2127,"ÐµÑĨ":2128,"Ð»Ð¸Ñĩ":2129,"Ġbus":2130,"isf":2131,"Ġmer":2132,"Ġdr":2133,"ĠÑĤÑĢÑĥÐ´":2134,"ical":2135,"Ð¸ÑĤÑģÑı":2136,"ĠÑģÐºÐ°Ð¶":2137,"Ġstood":2138,"Ġneed":2139,"ĠÐ´ÑĢÑĥÐ³Ð¾Ð¹":2140,"Ġsaying":2141,"'ll":2142,"Why":2143,"Ġir":2144,"Ð´ÑĭÐ²":2145,"ĠÐ¿ÑĢÐ¸Ð´":2146,"ĠÑĥÑģ":2147,"Ð·ÑĮ":2148,"ĠÑģÐ²Ð¾Ð¹":2149,"ĠÐľÐ¸Ñħ":2150,"Ġvis":2151,"Ġentered":2152,"aut":2153,"ÑģÐ¸":2154,"ĠÑĤÐ°Ð¼":2155,"ets":2156,"ĠAt":2157,"ĠÐ·Ð½Ð°Ñĩ":2158,"Ġcond":2159,"ĠÐ¼Ð¸Ð½ÑĥÑĤÑĥ":2160,"Ġappro":2161,"Ġbelie":2162,"ÑĥÐ´Ð°":2163,"ĠÐ½Ð¸Ñħ":2164,"ĠÐ¿Ð¸ÑģÑĮ":2165,"Ġstep":2166,"ĠÐ³Ð¾ÑĢ":2167,"ĠÐºÐ¾ÑĤÐ¾ÑĢÑĥÑİ":2168,"Ġhard":2169,"Ġgirl":2170,"ÐµÑģÑĤÑĮ":2171,"Ġsister":2172,"Ġbo":2173,"ĠÑĢÐµÐ±":2174,"ĠÐ¾ÑĤÑĩ":2175,"ĠÐ¾ÑĤÐ´":2176,"pecially":2177,"ĠÑĢÐ°Ð·Ð´":2178,"ĠÐ¼ÑĭÑģ":2179,"Ġglad":2180,"Ġsmiling":2181,"Ð¸Ð½Ð¸":2182,"Ġbes":2183,"ÑĤÑĮÑģÑı":2184,"ĠÑĥÐº":2185,"Ð³Ð¸":2186,"icult":2187,"ĠÑħÐ¾Ð´":2188,"ĠÐ¾Ð±ÑīÐµ":2189,"Ġquick":2190,"ĠÐ¼ÑĭÑģÐ»Ð¸":2191,"Ġpleased":2192,"ĠÐ²ÐµÑģÐµÐ»Ð¾":2193,"op":2194,"ĠÐ²ÑģÑĤ":2195,"Ġhur":2196,"ĠÐ´ÑĥÑĢ":2197,"ĠÐ³Ð¾ÑģÑĤ":2198,"Ġcomp":2199,"ĠÑĢÐ°ÑģÐ¿":2200,"cessary":2201,"ĠÑģÐ¾Ð²ÑģÐµÐ¼":2202,"ĠGod":2203,"ĠÐ½ÐµÐ¿ÑĢÐ¸ÑıÑĤ":2204,"anged":2205,"Ġsoul":2206,"hsky":2207,"rit":2208,"Ð°Ð³Ð¾":2209,"Ġthree":2210,"ĠÑĤÐµÑħ":2211,"Ġinf":2212,"Ġwomen":2213,"ĠÐ½Ð°ÑħÐ¾Ð´":2214,"ĠÐľÐ¾ÑģÐº":2215,"Ġmyself":2216,"Ð¸ÑıÐ¶":2217,"Ð°ÐµÑĤÑģÑı":2218,"Ġpleasure":2219,"Ġdesp":2220,"ĠÐ´Ð¾ÐºÑĤÐ¾ÑĢ":2221,"ĠÐ¿ÑĢÐ¸Ð±Ð°Ð²":2222,"ÑıÐ³":2223,"ĠÐ´ÐµÐ¹ÑģÑĤÐ²":2224,"ĠÑģÐ²ÐµÑĤ":2225,"Ð»Ð¸ÑģÑĮ":2226,"ĠÐ´Ð²Ð°":2227,"ĠÐºÐ½ÑıÐ³Ð¸Ð½Ñı":2228,"ĠÐ¡Ð²Ð¸ÑıÐ¶":2229,"Ð´Ð¾ÑĢÐ¾Ð²":2230,"icul":2231,"Ð¸Ð²Ð°Ð»":2232,"Ġang":2233,"Ġlive":2234,"ĠÐ¿ÑĢÐ¾ÑģÑĤ":2235,"ĠÐ·Ð½Ð°Ð»Ð°":2236,"ĠÐ¿Ð¾Ð²ÑĤÐ¾ÑĢ":2237,"vin":2238,"yaz":2239,"Ġtrying":2240,"ening":2241,"Ġbeh":2242,"ĠSvi":2243,"ĠÑĩÐµÐ»Ð¾Ð²ÐµÐºÐ°":2244,"Ġdinner":2245,"ĠÐ´Ð¾ÑĢÐ¾Ð³":2246,"Ġespecially":2247,"yazhsky":2248,"ĠSviyazhsky":2249,"uck":2250,"Ġbri":2251,"ÑĪÐµÐ³Ð¾":2252,"ĠÐ¿ÑĢÐ¾Ð²":2253,"ĠÑĥÑĩ":2254,"ĠÐ·ÐµÐ¼":2255,"Ð¶Ðµ":2256,"ÐµÐ½Ð¸Ð¹":2257,"ĠÐŁÑĢ":2258,"ĠÑĪÐ°Ð³":2259,"Ð»Ð¾Ð½ÑģÐº":2260,"ĠÑĥÐ·Ð½":2261,"ĠÐĿÐ¸ÐºÐ¾Ð»":2262,"ip":2263,"ĠY":2264,"Ġbad":2265,"ash":2266,"ĠÐ½ÐµÑģÐºÐ¾Ð»ÑĮÐºÐ¾":2267,"ÑģÐºÐ¾ÑĢ":2268,"Ġrepe":2269,"ĠÐŀÐ½Ð¸":2270,"ĠÑįÑĤÐ¾Ð¹":2271,"ĠÐ¿Ð¾Ð´Ð½Ñı":2272,"Ġseen":2273,"ĠÐ´Ð¾Ð»Ð¶ÐµÐ½":2274,"Ġcalled":2275,"ĠÐŀÐ±Ð»Ð¾Ð½ÑģÐº":2276,"ock":2277,"unt":2278,"Ġve":2279,"ĠÐ¥":2280,"ÑĤÑĢ":2281,"ĠÐ½ÐµÐ¾Ð±":2282,"ÐºÐ°Ñħ":2283,"bles":2284,"ĠÑģÐ°Ð¼Ð°":2285,"Ġthoughts":2286,"ÑĥÑĢÐ³":2287,"ĠÐ¼ÑĥÐ¶Ð°":2288,"bur":2289,"ÑĪÐ¸Ð¹":2290,"ĠÐĲÐ»ÐµÐºÑģÐµÑı":2291,"ĠÐ±ÑĥÐ´Ñĥ":2292,"Ġbrought":2293,"Ġbegin":2294,"ments":2295,"ief":2296,"Ġcarriage":2297,"ĠÐ½ÑĭÐ½ÑĩÐµ":2298,"ses":2299,"ĠÐ±ÐµÐ»":2300,"Ġlau":2301,"Ġins":2302,"Ð½Ð¸ÐºÐ°":2303,"Ð¸Ð²ÑĪÐ¸ÑģÑĮ":2304,"ĠÐļÐ°ÑĢ":2305,"ĠÐļÐ¾Ð½":2306,"ÑĭÐ²Ð°Ð»":2307,"ĠÐ´Ð²Ð¾ÑĢ":2308,"ĠÑĩÑĥÐ²ÑģÑĤÐ²Ñĥ":2309,"ĠÐľÐ¸ÑħÐ°Ð¹":2310,"Ð»ÐµÐ½Ð¸Ðµ":2311,"ĠÑģÑĩÐ¸ÑĤ":2312,"ÐµÐ½Ð½Ð¾Ð³Ð¾":2313,"ĠÐ¿ÑĢÐ¸Ð½":2314,"ĠÐ²ÑĭÐ¿":2315,"ush":2316,"ĠÐ´Ð²Ð¸Ð¶":2317,"ĠÐ¿ÑĢÐ¾Ð¸Ð·":2318,"ĠÐ³Ð»Ð°Ð²":2319,"Ġhappy":2320,"ĠÐ½ÐµÑģÑĩÐ°":2321,"!\"":2322,"aid":2323,"gg":2324,"Ð°ÐµÑĪÑĮ":2325,"Ġland":2326,"ĠÑĥÑģÑĤ":2327,"leep":2328,"Ð¾Ð´Ð°":2329,"Ġexc":2330,"Ġexpl":2331,"ĠThis":2332,"ÐµÑģÑĮ":2333,"ÑĤÑĭ":2334,"ont":2335,"ĠÐ´Ñĥ":2336,"ÑģÑĤÐ²Ð¸Ðµ":2337,"ĠÐ¾Ð±ÑĢÐ°Ð·":2338,"aces":2339,"ciety":2340,"ĠNo":2341,"Ġothers":2342,"airs":2343,"ĠÐ²ÐµÑģÐµÐ»":2344,"Ġtalking":2345,"ized":2346,"ÐµÑĢÐ±ÑĥÑĢÐ³":2347,"Ġcontinued":2348,"og":2349,"Ġill":2350,"Ð°ÑĦ":2351,"Ð»ÑģÑı":2352,"ĠÐ²ÐµÑĩ":2353,"ĠÐ·Ð°Ð½":2354,"ĠÐ¶ÐµÐ»Ð°":2355,"ĠÐ¸Ð·Ð²":2356,"ĠÑģÑĤÐ¾Ð»":2357,"Ġcomm":2358,"ĠÐ¾ÑĤÐ²ÐµÑĤ":2359,"Ġbecame":2360,"ĠÐ¿Ð¾Ð»Ð¾Ð¶ÐµÐ½Ð¸Ðµ":2361,"Ġconsider":2362,"He":2363,"ÑĤÐ°ÐºÐ¸":2364,"Ġsince":2365,"ÑĩÐµÐ¼":2366,"ĠÐºÑĤÐ¾":2367,"ows":2368,"ĠCh":2369,"Ġsec":2370,"Ġcold":2371,"Ġlonger":2372,"ĠÐ¡ÐµÑĢÐµÐ¶":2373,"ĠÑģÑĩÐ°ÑģÑĤÐ»Ð¸Ð²":2374,"Ġstopped":2375,"ix":2376,"ĠÐ´Ð°Ð²Ð½Ð¾":2377,"Ġstand":2378,"Ġnecessary":2379,"Ġdef":2380,"Ġhold":2381,"ĠÐ»Ð¾ÑĪÐ°Ð´":2382,"Ġnoticed":2383,"ĠÐ¿ÑĢÐµÐºÑĢÐ°Ñģ":2384,"gether":2385,"ĠÑĢÐµÐ±ÐµÐ½":2386,"burg":2387,"ia":2388,"ible":2389,"Ð»Ð¾Ð¶":2390,"Ð²Ð¾Ð´":2391,"ĠÐ´ÐµÑĢÐ¶":2392,"Ġdiv":2393,"Ġnur":2394,"ors":2395,"ented":2396,"ĠÐĲÑħ":2397,"ĠSer":2398,"ross":2399,"aint":2400,"Ġcoming":2401,"Ġthinking":2402,"ĠÑģÐ¾Ð±Ð¾Ð¹":2403,"ĠÐ¿Ð¾ÑĩÑĥÐ²ÑģÑĤÐ²":2404,"ĠÐ´Ð¾Ð¼Ð°":2405,"Ġpeasants":2406,"Ġelse":2407,"Ġcourse":2408,"Ġcountry":2409,"Ġbelieve":2410,"Ġtaking":2411,"ited":2412,"onst":2413,"Ġcor":2414,"Ġfather":2415,"ense":2416,"ĠÑĥÐ³":2417,"Ð½Ð¸Ð¹":2418,"Ð°Ð½Ð½Ð¾":2419,"Ġrece":2420,"ĠÐŀÐ´":2421,"ĠÐ¾Ð´Ð½Ð°":2422,"ĠÐĲÐ½Ð½Ñĭ":2423,"Ġanswer":2424,"ĠPeters":2425,"ĠÑģÐ¾ÑģÑĤÐ¾Ñı":2426,"ĠÐµÑħÐ°ÑĤÑĮ":2427,"IN":2428,"ÐĿ":2429,"ides":2430,"Ġever":2431,"ĠÐ¿Ð¾ÑĪÐµÐ»":2432,"ÐµÐ¹ÑĩÐ°Ñģ":2433,"ĠÑįÑĤÐ¸Ñħ":2434,"ili":2435,"itting":2436,"ressed":2437,"Ġart":2438,"Ġoffic":2439,"ĠÐ³Ð»Ð°Ð·Ð°Ð¼Ð¸":2440,"Ġletter":2441,"Ġopin":2442,"ĠÐ¾Ð±ÑĬÑıÑģ":2443,"ĠÐľÐ¸ÑħÐ°Ð¹Ð»Ð¾Ð²":2444,"ÑĢÐ¾Ð±":2445,"ÑĥÐº":2446,"Ġwon":2447,"Ġsent":2448,"ĠÐ½Ð°Ðº":2449,"Ġhum":2450,"ĠÐ¼Ð½":2451,"Ġeff":2452,"ĠÐ²ÑĭÑħÐ¾Ð´":2453,"ility":2454,"ĠPetersburg":2455,"?\"":2456,"ling":2457,"ĠÐ¤":2458,"ĠÑģÐ¾Ð³":2459,"att":2460,"Ð¾Ð²Ð°ÑĤÑĮ":2461,"ÐµÐ½Ñĭ":2462,"Ġdet":2463,"ĠÐ½Ð°ÑĢÐ¾Ð´":2464,"Ġgener":2465,"ĠÐĴÐ°Ñģ":2466,"Ð½ÑĥÐ»Ð°ÑģÑĮ":2467,"ĠÑģÐ²Ð¾Ð¸Ñħ":2468,"ĠÐ¢ÐµÐ¿ÐµÑĢÑĮ":2469,"Ġmany":2470,"ump":2471,"Ġappeared":2472,"Ġfamily":2473,"That":2474,"vo":2475,"ern":2476,"Ġfoot":2477,"eslov":2478,"ĠÐ¼Ð¸Ð»":2479,"Ð¾Ð»Ð¾Ð¶":2480,"ower":2481,"ĠTHE":2482,"ĠÐ²ÑĭÐ±":2483,"ĠÑħÐ¾Ð»Ð¾Ð´":2484,"ÐµÑħÐ°Ð»":2485,"ĠÐĲÐ»ÐµÐºÑģÐ°Ð½Ð´ÑĢÐ¾Ð²Ð¸ÑĩÐ°":2486,"Ġstrange":2487,"ĠÐ²ÑģÑĤÑĢÐµÑĩ":2488,"ÑģÐ¼Ð¾ÑĤÑĢÑı":2489,"ertain":2490,"eslovsky":2491,"ÐµÑģÑĤÐ¸":2492,"Ð¸ÑĨ":2493,"ature":2494,"ÐµÐ½Ð½ÑĭÐ¹":2495,"Ġmove":2496,"ÐµÐ»Ñı":2497,"ÑİÑī":2498,"ĠÐ½ÐµÑģÐ¼Ð¾ÑĤÑĢÑı":2499,"Ġbeaut":2500,"Ð½Ð¸Ð²":2501,"ĠÑģÐ²Ð¾ÐµÐ¼":2502,"Ġvi":2503,"cial":2504,"ĠAlexand":2505,"Ġorder":2506,"aughter":2507,"ÑĥÑģ":2508,"ĠÐ²Ð½Ð¸Ð¼":2509,"Ð²Ð¾Ð»":2510,"its":2511,"Ġbed":2512,"ĠÐ½Ð°ÑĪ":2513,"Ð¸Ð½Ð¾Ð¹":2514,"Ġrest":2515,"ĠÑįÑĤÐ¾Ð¼Ñĥ":2516,"ĠVeslovsky":2517,"oney":2518,"Ġpassed":2519,"Ġsmiled":2520,"ĠÐ»ÑİÐ´ÐµÐ¹":2521,"fort":2522,"Ġ[":2523,"Ð¸ÑĢÐ°":2524,"ĠÐ²Ð¾Ð´":2525,"ÑģÑĤÐ°Ð½ÑĤ":2526,"ĠÐ±Ð»Ð¸":2527,"lect":2528,"uring":2529,"ĠÑģÐ»ÑĥÐ¶":2530,"Ġsupp":2531,"Ð´ÐµÑģÑĮ":2532,"ĠÐ´ÑĥÐ¼Ð°ÑĤÑĮ":2533,"ĠÐ»Ð¸ÑĨÐ°":2534,"Ġacqu":2535,"ĠÐ±ÑĢÐ°ÑĤÐ°":2536,"Ġbehind":2537,"Ġtaken":2538,"ĠÐ¿Ð¾Ð³":2539,"ĠÐ¿Ð°ÑĢ":2540,"ery":2541,"ason":2542,"ĠÐ±ÑĭÑģÑĤÑĢÐ¾":2543,"ĠÐĴÐµÑģ":2544,"ĠÐĽÐ¸Ð´":2545,"ĠÐ·Ð°Ð½Ð¸Ð¼":2546,"Ġqui":2547,"Ġimag":2548,"cious":2549,"ĠÐ¿Ð¾Ð½Ð¸Ð¼Ð°Ñİ":2550,"Ġreturned":2551,"ĠÐ¼Ð°Ð»ÐµÐ½ÑĮ":2552,"ĠSociety":2553,"ĠÐļÐ¾Ð½ÑģÑĤÐ°Ð½ÑĤ":2554,"over":2555,"xt":2556,"zha":2557,"Ð°ÑĨ":2558,"ÑĤÐ°":2559,"Ð¸ÑģÑĤ":2560,"Ġdri":2561,"erezha":2562,"Ġkiss":2563,"ĠÑģÐ¾Ð¾Ð±":2564,"ĠÐ²ÑĭÑĢÐ°Ð¶ÐµÐ½Ð¸Ðµ":2565,"ĠÐ²ÑģÑĤÑĢÐµÑĤ":2566,"Ġmorning":2567,"Ð¸Ñī":2568,"ÑĭÐ»":2569,"Ġdou":2570,"ĠÐµÐ´":2571,"ĠÐ¿ÑĢÐ¾Ð³Ð¾Ð²Ð¾ÑĢ":2572,"ute":2573,"ÐµÐ´Ñĥ":2574,"Ġstra":2575,"ĠÑĤÐ°ÐºÐ¾Ðµ":2576,"ÑģÑĤÑĮÑİ":2577,"ĠÐľÑĭ":2578,"Ð°Ð¹ÑĤÐµ":2579,"Ġdisc":2580,"ĠÐ¿ÑĢÐ¾ÑģÑĤÐ¾":2581,"Ġdrawing":2582,"ber":2583,"ĠÐ¿Ð¾Ð±":2584,"ĠÐ²Ð¸Ð½Ð¾Ð²":2585,"ĠÐºÐ½Ð¸":2586,"ĠÐ´Ð¾Ñģ":2587,"Ġnight":2588,"Ġlab":2589,"Ð°Ð·Ð°ÑĤÑĮ":2590,"ĠÐ¾Ð±ÑĢÐ°Ñī":2591,"ĠVas":2592,"ovna":2593,"ĠÑģÐ°Ð¼Ð¾Ðµ":2594,"ĠÑĢÐ°ÑģÑģ":2595,"ÑĭÐºÐ½Ð¾Ð²":2596,"ĠÐ¼ÑĭÑģÐ»ÑĮ":2597,"Ġed":2598,"Ð»ÐµÐ½Ð¸Ñı":2599,"Ġbest":2600,"Ġtogether":2601,"ĠÐ²ÑģÑİ":2602,"ĠÐºÐ¾ÑĤÐ¾ÑĢÑĭÑħ":2603,"Ġdear":2604,"ÑĪÐµÐµ":2605,"Ġtherefore":2606,"Ð°Ð²ÑĪÐ¸Ð¹":2607,"Ġevening":2608,"Ð»ÑİÐ±":2609,"Ġhorses":2610,"Ġdifferent":2611,"Ġterri":2612,"hay":2613,"ÑĥÑīÐµ":2614,"Ġbook":2615,"ising":2616,"Ġfact":2617,"ÑİÑĤ":2618,"ĠÐ¼Ð°ÑĤÑĮ":2619,"Ġoften":2620,"ĠÐ¿ÑĢÑı":2621,"Ġhair":2622,"ĠÑĢÐ¾Ð´":2623,"ĠÐ¿Ð¾ÑģÐ¼Ð¾ÑĤÑĢ":2624,"Ġwhite":2625,"Ð»Ð¸ÑĪ":2626,"ĠMik":2627,"Ġarm":2628,"osed":2629,"ĠÑĥÐ´Ð¾Ð²Ð¾Ð»ÑĮ":2630,"rench":2631,"ĠÐ¿Ð¾ÑĩÑĤÐ¸":2632,"Ġvisit":2633,"ĠMikhay":2634,"fter":2635,"ĠÑģÐµÐ¹ÑĩÐ°Ñģ":2636,"Ġsound":2637,"ĠÐ²Ð°ÑĪ":2638,"Ð²ÐµÑĤ":2639,"Ġfore":2640,"aster":2641,"ĠAs":2642,"ĠSh":2643,"ĠÐ¿ÑĢÐ¸Ðº":2644,"Ġworld":2645,"ĠÐ²Ð¸Ð´ÐµÐ»Ð°":2646,"ĠÐĳÐµÑĤ":2647,"Ð¿Ð¾Ð¼Ð¸Ð½Ð°":2648,"ĠFrench":2649,"Ġhorse":2650,"ĠRussian":2651,"cul":2652,"Ġwind":2653,"ĠÑģÐ´":2654,"Ġhigh":2655,"Ġopp":2656,"atur":2657,"ĠÐ±Ð°ÑĢ":2658,"Ġmoney":2659,"Ġinc":2660,"Ġstart":2661,"Ġrid":2662,"ĠÐļÐ°ÑĤ":2663,"ĠÑģÑĤÑĢÐ°ÑĪ":2664,"ĠÐ¸Ð·Ð±":2665,"ÑĭÐ²Ð°Ñı":2666,"ĠÐ´ÑĥÐ¼Ð°Ð»Ð°":2667,"ĠÐ¿Ð¾Ð½ÑıÐ»":2668,"ĠÐ¾ÑĤÐ²ÐµÑĩÐ°Ð»Ð°":2669,"ÑĢÐµÐ´ÐµÐ»":2670,"ĠÐĴÐµÑģÐ»Ð¾Ð²":2671,"ĠÐ¸Ð³":2672,"ĠÐ´ÑĥÑħ":2673,"ĠÐ¿ÑĢÐµÐ»":2674,"Ð¾Ð»Ð½":2675,"Ġgone":2676,"Ġready":2677,"ĠÑĤÐ¾Ð»":2678,"Ġstud":2679,"ĠÐ²ÑĭÑĪÐµÐ»":2680,"ĠÑģÑĤÑĢÐ°":2681,"antine":2682,"Ġjo":2683,"ĠÐ²Ð·Ð´":2684,"Ġusual":2685,"ĠÐ²Ð¿ÐµÑĢÐµÐ´":2686,"ĠMikhaylov":2687,"ÑĢÐµÐ·":2688,"ÑĥÐ½":2689,"Ġtor":2690,"ĠÐ´Ð°Ð¼":2691,"ĠÑĤÐ¾Ð³Ð´Ð°":2692,"ĠÑģÐºÐ¾ÑĢ":2693,"ĠÑĤÐ¾Ð½":2694,"ĠAll":2695,"ĠSerezha":2696,"ching":2697,"ichol":2698,"ĠÐ³Ð¾Ð²Ð¾ÑĢÐ¸Ð»Ð¸":2699,"ĠWe":2700,"ressing":2701,"medi":2702,"ĠÐ±Ð»Ð°Ð³":2703,"Ġprom":2704,"ĠÐ¾ÑģÐ¾Ð±ÐµÐ½Ð½Ð¾ÑģÑĤÐ¸":2705,"ĠÑģÐ¸Ð»ÑĮ":2706,"Ð°Ð»ÑĥÐ¹":2707,"ÑģÐºÐ¾ÑĢÐ±":2708,"onstantine":2709,"icholas":2710,"ĠÐ´Ð°Ð²":2711,"Ð°Ð´ÑĨ":2712,"ĠÐ°Ð½":2713,"ract":2714,"ĠÑģÑĤÑĢÐ°Ð´":2715,"Ġconsidered":2716,"ĠÐ¼Ð°ÑĤÐµÑĢÐ¸":2717,"ĠÐĳÐµÑĤÑģÐ¸":2718,"ub":2719,"ĠJ":2720,"ĠÐ²Ð°Ð¶":2721,"oun":2722,"Ġhear":2723,"ÐµÐ½Ð½ÑĭÐ¼":2724,"ĠÐ·Ð´Ð¾ÑĢÐ¾Ð²":2725,"Ð½Ð¸Ð¸":2726,"Ð°ÑģÐ¾Ð²":2727,"ird":2728,"Ġra":2729,"ĠÐ¾Ð±Ñī":2730,"ĠÐ¸Ð·Ð¼":2731,"Ġarri":2732,"ĠNicholas":2733,"ĠÐ¿Ð¾Ð²ÐµÑĢ":2734,"Ġadv":2735,"Ġremembered":2736,"etsy":2737,"Ġide":2738,"ĠÑģÐµÑģÑĤ":2739,"ĠÐ½Ð°Ð¹":2740,"Ġhat":2741,"ĠÐ¾ÑģÐºÐ¾ÑĢÐ±":2742,"Ð²Ð°ÑĤ":2743,"Ġfull":2744,"Ġmist":2745,"ĠÐ´Ð¾Ñĩ":2746,"ĠÑĩÐ°":2747,"ĠÑĤÐ°":2748,"Ġlat":2749,"ĠÐºÐ¾ÑĤÐ¾ÑĢÑĭÐ¼":2750,"ĠWhy":2751,"ĠÐ¿ÑĢÐµÐ´ÑģÑĤÐ°Ð²":2752,"Ð½ÑĥÐ²ÑĪÐ¸ÑģÑĮ":2753,"Ġdifficult":2754,"most":2755,"ÑĢÐ¸Ñĩ":2756,"Ġsw":2757,"Ġsor":2758,"ÑİÐ±":2759,"Ð¾Ð¼Ðµ":2760,"Ġhalf":2761,"Ġeach":2762,"ĠÐ¶Ð´":2763,"ĠBetsy":2764,"ĠÐľÐ½Ðµ":2765,"ÑıÑĤÐµÐ»ÑĮ":2766,"Ġleave":2767,"ĠÐ»ÑİÐ±Ð²Ð¸":2768,"ÐµÐ»Ð¾ÑģÑĮ":2769,"ĠÐ²Ð¾Ð·Ð¼Ð¾Ð¶":2770,"Ġadm":2771,"ĠÑģÑĩÐ°ÑģÑĤÑĮ":2772,"ĠÐºÐ°Ð¶ÐµÑĤÑģÑı":2773,"Ġbeside":2774,"ĠÐ²ÐµÑģÑĮ":2775,"ĠÐºÐ°Ð±":2776,"Ġtone":2777,"ĠÐ¼ÐµÑĢ":2778,"ĠÐ¿Ð¾ÑģÑĤ":2779,"ĠIf":2780,"ĠÐ¶Ð¸ÑĤÑĮ":2781,"Ð¾ÑĤÐ¾Ð¼":2782,"ĠÑģÐ»ÐµÐ·":2783,"ĠConstantine":2784,"ĠÐ¸Ð¼ÐµÐ½Ð½Ð¾":2785,"Ġspir":2786,"Ġused":2787,"ĠÐ¿Ð»Ð°ÑĤÑĮ":2788,"arsh":2789,"ĠÐ½Ð°ÑĩÐ°Ð»":2790,"Ð°ÑĤÐµÐ»ÑĮÐ½Ð¾":2791,"Ġcalm":2792,"Ġimportant":2793,"bt":2794,"ived":2795,"lish":2796,"Ð»ÐµÐ´":2797,"ĠÐ¸Ð´":2798,"Ġmoved":2799,"ĠÐ´ÑĢÑĥ":2800,"vel":2801,"ÑģÑĤÐ²Ðµ":2802,"ĠÐ³Ð¾ÑĤÐ¾Ð²":2803,"Ġeverybody":2804,"ably":2805,"Ġhorr":2806,"arming":2807,"ĠÐ´ÑĥÑĪÐµ":2808,"mediately":2809,"ho":2810,"Ð¸ÑģÐº":2811,"Ġsn":2812,"ĠÐ½ÐµÐ·":2813,"ĠÐ¸Ñģ":2814,"Ġcertain":2815,"Ġmaking":2816,"ased":2817,"Ġnor":2818,"Ġloved":2819,"ÐµÑĤÑĭ":2820,"alked":2821,"ÑģÑĤÐ²Ð¸Ñı":2822,"ĠAg":2823,"illed":2824,"ĠÐŁÐ¾Ñģ":2825,"ÐµÑĩÐ°ÑĤ":2826,"ĠÐ¢Ð¾Ð»ÑĮÐºÐ¾":2827,"Ġpoint":2828,"overed":2829,"ĠÐ·Ð°Ð¼ÐµÑĩ":2830,"Ġparticul":2831,"Ð¸Ð¶Ñĥ":2832,"Ġrespect":2833,"Ġclear":2834,"ĠÐ¾ÑĤÐ½Ð¾ÑĪÐµÐ½Ð¸Ñı":2835,"Ġbright":2836,"Ġeduc":2837,"ĠÑģÐ°Ð´":2838,"ĠÐ½ÐµÐ¶":2839,"ĠÐ¿Ð¸Ñģ":2840,"Ġfall":2841,"ĠÐ±Ð¾":2842,"Ġlay":2843,"Ġpast":2844,"ĠÐ·Ð´ÐµÑģÑĮ":2845,"Ġgaz":2846,"ÑģÑĤÐ²ÐµÐ½Ð½Ð¾":2847,"ĠTo":2848,"ĠHer":2849,"Ġke":2850,"Ð½ÐµÑĪ":2851,"ĠÐºÐ¾ÑĤÐ¾ÑĢÐ¾Ð¼":2852,"Ð¾ÑĪÐ»Ð°":2853,"aced":2854,"ĠÑģÐ¿ÑĢÐ°ÑĪ":2855,"ĠÑģÐ¼ÐµÑĢ":2856,"Ġagainst":2857,"ĠÐºÐ½ÑıÐ·ÑĮ":2858,"There":2859,"ĠÐ¿ÑĢÐ¾Ð´Ð¾Ð»Ð¶Ð°Ð»":2860,"Ġview":2861,"pr":2862,"ying":2863,"Ġest":2864,"ĠÐ¨":2865,"ÑĭÐ´":2866,"ĠÐ²Ñĩ":2867,"Ġfa":2868,"ĠÐ¼Ð¾Ð¹":2869,"ĠÑĥÐ½Ð¸":2870,"idly":2871,"sel":2872,"Ġreason":2873,"ĠÐ¿ÑĢÐ¸Ñģ":2874,"road":2875,"amed":2876,"ĠÑģÐ»ÐµÐ´":2877,"ĠÐºÑĢÐ¾Ð¼Ðµ":2878,"Ġtears":2879,"Ġhappened":2880,"ĠÐ¾Ð¶Ð¸Ð´":2881,"ĠÐ¿Ð¾Ð´ÑĥÐ¼Ð°Ð»":2882,"Ġdivor":2883,"sk":2884,"Ñį":2885,"Ġball":2886,"Ġce":2887,"Ġcr":2888,"ĠÑĩÐ¸ÑĤ":2889,"ĠÐ½ÐµÑİ":2890,"anced":2891,"Ġeas":2892,"ĠÑģÐ²ÑıÐ·":2893,"ĠÐºÐ¾Ñģ":2894,"ific":2895,"ĠWell":2896,"Ġprep":2897,"ĠÐ²ÑģÐ¿Ð¾Ð¼Ð½":2898,"ĠÐ»ÑİÐ´Ð¸":2899,"ĠÑıÑģÐ½Ð¾":2900,"Ġquiet":2901,"Ð»Ð¸ÑĪÐºÐ¾Ð¼":2902,"du":2903,"gr":2904,"yd":2905,"ÑĤÑĢÐ°":2906,"Ð¸Ñİ":2907,"ÑıÐ½":2908,"ĠÐ½ÐµÐ½":2909,"ÑĩÐµÐ³Ð¾":2910,"ĠÐ¿Ð°Ð»ÑĮ":2911,"Ð¼Ð°Ð½":2912,"ĠÐ´Ð¾Ð²":2913,"ĠÑģÑĤÐ°Ð»Ð¾":2914,"ĠThen":2915,"Ð¾Ð·Ð¼Ð¾Ð¶":2916,"ĠÐĲÐ½Ð½Ðµ":2917,"Ġimmediately":2918,"ĠEng":2919,"Ġpresent":2920,"Ġexpected":2921,"Ð½ÐµÐ¼":2922,"ĠÑģÐ»Ð¸ÑĪÐºÐ¾Ð¼":2923,"ĠÐ¾ÑħÐ¾ÑĤ":2924,"Ð¾Ð´ÑĥÑĪ":2925,"alth":2926,"ÑģÑĤÐ²Ñĥ":2927,"ool":2928,"ĠHaving":2929,"ĠÐ½Ð¾Ñĩ":2930,"Ġfront":2931,"ÑĭÐ²Ð°ÑĤÑĮ":2932,"ĠÐ¿ÐµÑĢÐµÐ¼":2933,"ĠAlexis":2934,"Ġmarried":2935,"Ġsubject":2936,"Ġgiven":2937,"ĠÐ²ÐµÑĩÐµÑĢ":2938,"ĠAlexandrov":2939,"Ġterrible":2940,".]":2941,"und":2942,"Ð¾Ñħ":2943,"ÑĤÐ²":2944,"ĠÑģÐ¾Ð¼Ð½":2945,"ĠÐ²ÑģÐº":2946,"ÐºÐ¸Ðµ":2947,"Ġcur":2948,"ĠÑĤÐµÐ»":2949,"ĠÑĤÐ¾Ð¹":2950,"ĠÑĤÑĢÐ¸":2951,"ĠLyd":2952,"Ġshout":2953,"Ġshort":2954,"pping":2955,"ĠÐ³Ð¾ÑģÐ¿":2956,"Ġchange":2957,"ĠÐĲÐ½Ð½Ñĥ":2958,"ĠÑħÐ¾ÑĤÐµÐ»Ð¾ÑģÑĮ":2959,"Ġanyone":2960,"ĠNow":2961,"Ġconscious":2962,"ended":2963,"ĠÐ½ÐµÐ²Ð¾Ð»ÑĮ":2964,"Ġrelations":2965,"ĠÑħÐ¾ÑĩÑĥ":2966,"Ġserv":2967,"ĠÐŁÐµÑĤÐµÑĢÐ±ÑĥÑĢÐ³":2968,"Ġopinion":2969,"ĠLydia":2970,"gs":2971,"ÑıÐ»Ð°":2972,"Ġsit":2973,"Ġfar":2974,"ĠÐµÐ·":2975,"Ġlaw":2976,"ĠÐ¿ÑĢÐ¸Ñĩ":2977,"ĠÐ¿ÑĢÐµÐ·":2978,"ĠÐ»Ð°Ðº":2979,"Ġass":2980,"ĠAfter":2981,"ĠÑģÐ²Ð¾ÐµÑİ":2982,"Ġabove":2983,"ĠÐ·Ð½Ð°ÐµÑĪÑĮ":2984,"Ġhappiness":2985,"Ġdays":2986,"ĠÐ¿ÑĢÐ¸ÐµÑħÐ°Ð»":2987,"Ġwaiting":2988,"ĠÐ±ÐµÑģÐ¿":2989,"ĠÐ»ÑİÐ±Ð¾Ð²ÑĮ":2990,"Ġperson":2991,"Ġbusiness":2992,"Ġquickly":2993,"Ġstraight":2994,"ĠÐ¿ÑĢÑıÐ¼Ð¾":2995,"selves":2996,"ks":2997,"use":2998,"Ð¸Ð´Ð°":2999,"ÑıÑħ":3000,"ĠÐ²Ð¾ÑĪÐµÐ»":3001,"ÑĤÐ¾Ñĩ":3002,"ishing":3003,"ĠÑĢÐ°ÑģÐº":3004,"Ð½Ð¸ÑĤÑĮ":3005,"Ð¸Ð²Ð°ÑĤÑĮ":3006,"iful":3007,"ĠÐ¿Ð¾Ð´Ð¾ÑĪÐµÐ»":3008,"ÐµÐ¶Ð´":3009,"Ġdeath":3010,"ĠÐ¿ÐµÑĢÐµÐ±":3011,"ĠÐ·Ð½Ð°ÑĤÑĮ":3012,"Ġunple":3013,"olunt":3014,"Ġcoat":3015,"Ġcontr":3016,"ĠÐ¿Ð¾Ð½ÑıÑĤÑĮ":3017,"ĠÐ´ÐµÑĤÐµÐ¹":3018,"ĠÐ´Ð¾Ð±ÑĢ":3019,"ĠÐ·Ð°Ð³Ð¾Ð²Ð¾ÑĢ":3020,"ĠÐĴÐ°ÑĢÐµÐ½ÑĮÐºÐ°":3021,"Ġlaugh":3022,"ĠÑģÐ¾Ð³Ð»Ð°Ñģ":3023,"ÑĤÐ¾Ð³Ð¾":3024,"Ð½ÐµÐ²":3025,"Ġsitting":3026,"ÐºÐ¸Ñħ":3027,"ÑĪÐµÐ¹":3028,"asov":3029,"Ġpat":3030,"ĠÐ³ÑĢÑĥ":3031,"Ð»ÑıÐ¿":3032,"ĠÐ¿ÐµÑĢÐµÑģÑĤ":3033,"Ġlived":3034,"Ġlips":3035,"ĠÑĪÐ»ÑıÐ¿":3036,"ĠÑĤÑĭÑģÑı":3037,"ĠÐ²Ð¾Ð¾Ð±":3038,"ĠÑģÐ´ÐµÐ»Ð°Ð»":3039,"ĠÐ¿Ð¾Ð»Ð¾Ð¶ÐµÐ½Ð¸Ñı":3040,"ĠÐ±Ð»ÐµÑģÑĤ":3041,"ÑĨÑĥÐ·":3042,"Ġdecided":3043,"ĠÐ·Ð°Ð½ÑıÑĤ":3044,"Ġkept":3045,"Ġunpleasant":3046,"Ð°Ð½Ð¾":3047,"ĠÐ²Ð»ÑİÐ±":3048,"ÐºÐ¸Ð¼":3049,"Ġhon":3050,"ÐµÑĢÐº":3051,"ÐµÑĢÐ²":3052,"ĠÐ¼ÐµÐ´":3053,"Ġpri":3054,"ĠÑī":3055,"Ġliving":3056,"ĠÐ¾Ð´Ð½Ð¾Ð³Ð¾":3057,"ĠÐ½Ð°Ð¿ÑĢÐ°Ð²":3058,"ancing":3059,"ÑĢÐ°Ð½ÑĨÑĥÐ·":3060,"Ġsurpr":3061,"Ġrepeated":3062,"ĠEnglish":3063,"ien":3064,"king":3065,"the":3066,"ÐµÐµÑĤÑģÑı":3067,"Ġhost":3068,"ĠÑĢÑıÐ´":3069,"ÐµÐ´ÐµÑĤ":3070,"Ġkeep":3071,"Ġnext":3072,"ĠÐ³Ð¾Ð²Ð¾ÑĢÐ¸ÑĤ":3073,"ĠÐ¶ÐµÐ½Ð°":3074,"Ġarr":3075,"ung":3076,"Ġtrue":3077,"ĠÐ½ÐµÐ²Ð¾Ð·Ð¼Ð¾Ð¶":3078,"irect":3079,"ĠIvanovna":3080,"ĠÐ¿Ð¸ÑģÑĮÐ¼Ð¾":3081,"ĠÐ²Ð¸Ð½Ð¾Ð²Ð°ÑĤ":3082,"ĠÐ²ÑħÐ¾Ð´":3083,"Ð²ÐµÐ¹":3084,"ĠÐºÑĢÑĥÐ³":3085,"ĠÐºÑĥÐ¿":3086,"ĠÐºÑĥÐ´Ð°":3087,"ĠÐ»ÐµÑĤ":3088,"ĠÐ²ÑĭÑģÐº":3089,"Ð½ÑĥÑĤÑĮ":3090,"ĠÐ¿Ð¾Ð´ÑĢÐ¾Ð±":3091,"Ġdep":3092,"Ġalmost":3093,"ĠÑĢÑĥÐ±":3094,"ĠÐ´Ð²ÐµÑĢÑĮ":3095,"ĠÐ¡ÑĤÐµÐ¿Ð°Ð½Ð°":3096,"Ġprev":3097,"ĠÑĢÐ°Ð´Ð¾ÑģÑĤ":3098,"Ġfirm":3099,"ĠÑģÑĭÐ½Ð°":3100,"Ġoccup":3101,"ĠÐļÐ¾Ð½ÑģÑĤÐ°Ð½ÑĤÐ¸Ð½":3102,"Ġdivorce":3103,"ĠÐ½ÐµÐ²Ð¾Ð»ÑĮÐ½Ð¾":3104,"ian":3105,"Ġpict":3106,"ĠÐ¿Ð¾Ñħ":3107,"Ġuse":3108,"ĠÑĤÐ¾ÑĢ":3109,"Ġran":3110,"ĠÐ²ÑĭÐ·":3111,"pend":3112,"Ġext":3113,"Ð¸ÐµÑģÑı":3114,"ĠÑĢÑĥÑģ":3115,"raid":3116,"ĠÐ·Ð½Ð°ÐµÑĤ":3117,"ĠÐ´Ð²ÐµÑĢÐ¸":3118,"ĠÐ¿Ð¾ÐºÑĢÐ°Ñģ":3119,"ĠÐĲÑĢÐºÐ°Ð´ÑĮÐ¸ÑĩÐ°":3120,"ĠÑģÑĤÐ°ÑĢÐ¸Ðº":3121,"ected":3122,"ection":3123,"Ġspeaking":3124,"Ð°Ð·ÑĭÐ²Ð°Ñı":3125,"ĠÑģÐ¿ÑĢÐ¾ÑģÐ¸Ð»Ð°":3126,"Ġhope":3127,"ĠÑĤÐ²ÐµÑĢÐ´":3128,"ĠÐ³ÑĢÐ°ÑĦÐ¸Ð½Ñı":3129,"ĠÐ´ÐµÐ²ÑĥÑĪ":3130,"Ġspoke":3131,"ĠÑĤÑĭÑģÑıÑĩ":3132,"ON":3133,"We":3134,"ĠÑĪÐµ":3135,"Ġwalk":3136,"ĠÑģÐµÐ»":3137,"Ġbu":3138,"ĠÐºÐ»":3139,"ĠÐ±ÑĢ":3140,"ĠÐ¼ÐµÑģÑĤÐ¾":3141,"uth":3142,"ĠÐ¿Ð¾ÑģÐ¿":3143,"ÑģÐºÐ¸":3144,"ÐµÐºÐ¾":3145,"Ġformer":3146,"Ġabs":3147,"igure":3148,"Ġafraid":3149,"ĠÐ´Ð¾Ð»Ð¶Ð½Ð¾":3150,"ĠÐ¶ÐµÐ½ÑīÐ¸Ð½Ð°":3151,"ĠÐ´Ð¾Ð»Ð³Ð¾":3152,"ĠÐ½Ð°Ð·Ð°Ð´":3153,"Ġfellow":3154,"bat":3155,"ring":3156,"Ġtou":3157,"ĠÐ¾Ð³":3158,"oubles":3159,"ĠÐ±Ð°Ð»":3160,"ĠÐ´ÐµÑģÑı":3161,"Ġdro":3162,"Ġlar":3163,"arked":3164,"Ġwhis":3165,"Ġitself":3166,"amp":3167,"Ġexist":3168,"ĠÐ²Ð·ÑıÐ»":3169,"Ġsmall":3170,"Ġcomple":3171,"ĠÐ»Ð¸ÑĨÐµ":3172,"aching":3173,"ĠÑģÑĤÑĢÐ°Ð½":3174,"ĠÐ²Ð¾ÑģÐ¿Ð¾Ð¼Ð¸Ð½Ð°":3175,"Ġyear":3176,"ĠÐºÐ°Ð±Ð¸Ð½":3177,"cher":3178,"eal":3179,"ÐºÐ¾Ð³Ð¾":3180,"Ġcase":3181,"Ġmaster":3182,"Ġname":3183,"ĠÐ¿ÑĢÐ¸ÑĤ":3184,"Ð°Ð·Ð°Ð»":3185,"Ġstay":3186,"ĠÐĿÐ°Ð´":3187,"Ġdoing":3188,"ĠÐ¿ÑĢÐµÐ´ÑģÑĤÐ°Ð²Ð»Ñı":3189,"ĠÐ´ÑĢÑĥÐ³Ð¸Ñħ":3190,"ĠÐ´ÑĥÐ¼Ð°Ñİ":3191,"aps":3192,"Ð½Ð¾ÑģÑĤÑĮÑİ":3193,"ĠÐ¼Ð¸Ð½ÑĥÑĤÑĭ":3194,"Ġforget":3195,"III":3196,"ĠÑĩÐµÑĢÐµÐ·":3197,"ĠÑģÑĤÐ¾ÑĢÐ¾Ð½Ñĭ":3198,"Ġfollowed":3199,"Ġsteps":3200,"Ġnurse":3201,"atural":3202,"les":3203,"men":3204,"ÐĶ":3205,"Ð¾Ñī":3206,"res":3207,"Ġboy":3208,"ÐµÐ½Ð½ÑĭÐµ":3209,"Ġfew":3210,"Ġfigure":3211,"ĠÐ±Ð¾ÑĢ":3212,"ÑħÐ²Ð°ÑĤ":3213,"Ġdirect":3214,"ote":3215,"Ð°Ð²Ð°ÑģÐ¾Ð²":3216,"Ð¾Ð¶Ð´":3217,"ÐºÐ¾Ðµ":3218,"ĠÑĤÐ°ÐºÐ¾Ð¹":3219,"Ġchanged":3220,"Ġseeing":3221,"ĠÐ»ÑİÐ±Ð¸Ð»":3222,"ĠÐ¶ÐµÐ½Ðµ":3223,"ĠÐ¶ÐµÐ½Ñĭ":3224,"Ġpret":3225,"Ġprop":3226,"ĠFor":3227,"ĠÑĨÐµÐ»":3228,"Ġdesire":3229,"ĠÐ²Ð¾Ð»Ð¾Ñģ":3230,"ÐµÑĢÐ±Ð°ÑĨ":3231,"ĠÐļÐ°ÑĤÐ°Ð²Ð°ÑģÐ¾Ð²":3232,"Ð°Ð»ÑĥÐ¹ÑģÑĤÐ°":3233,"ale":3234,"bed":3235,"but":3236,"ĠÐ©":3237,"ÑĥÑī":3238,"ÐºÐ°Ñı":3239,"atav":3240,"Ġless":3241,"Ġpur":3242,"ĠÐ¿ÑĢÐ¾Ñĩ":3243,"Ġuna":3244,"ĠÑģÑĤÐ°Ð»Ð°":3245,"ÑīÐµÐµ":3246,"oving":3247,"bled":3248,"ĠMary":3249,"ÑĥÑİÑī":3250,"ĠÐ³Ð»ÑĥÐ¿":3251,"ively":3252,"Ġbecome":3253,"ĠÐ¸ÑģÐ¿ÑĥÐ³":3254,"ĠÐ¿ÑĢÐ°Ð²Ð´Ð°":3255,"ĠÐ²Ð¿ÐµÑĩÐ°ÑĤ":3256,"Ġlistened":3257,"Ġfresh":3258,"ĠShcher":3259,"ĠÐ´ÑĢÑĥÐ³Ð¾":3260,"Ġpicture":3261,"atavasov":3262,"ĠShcherbat":3263,"ken":3264,"Ð»ÐµÐ½Ð½Ð¾":3265,"Ġwo":3266,"ĠÑģÑĥÐ´":3267,"ĠÑģÑĢÐµÐ´":3268,"Ð¼Ð°":3269,"Ġlo":3270,"Ġlad":3271,"ĠÑĢÐ°Ð²":3272,"Ġnote":3273,"ĠÑĤÐ¾ÑĩÐ½Ð¾":3274,"Ð¾Ð±Ð¾Ð´":3275,"Ġrun":3276,"ĠKatavasov":3277,"orts":3278,"Ġfeelings":3279,"Ġtender":3280,"Ġpleasant":3281,"Ġgetting":3282,"iously":3283,"ĠÑģÐ¼Ð¾ÑĤÑĢÐµÐ»":3284,"Ġdread":3285,"Ġfinished":3286,"ĠÐµÐ·Ð´":3287,"If":3288,"ged":3289,"ÑĢÐµ":3290,"ÑıÐ¼Ð¸":3291,"Ġhour":3292,"Ġcir":3293,"Ġfine":3294,"Ġdaughter":3295,"Ġpu":3296,"Ġhall":3297,"Ð½Ð¸ÐµÐ¼":3298,"ĠÐĲÐ³":3299,"Ð¸Ð²Ð°ÑıÑģÑĮ":3300,"ĠÑģÐºÑĥÑĩ":3301,"eved":3302,"Ð½ÐµÑĨ":3303,"ÑĥÐ¶Ðµ":3304,"ÑĥÐ¼ÐµÐµÑĤÑģÑı":3305,"ĠÐŁÐ¾":3306,"Ġliked":3307,"Ġunc":3308,"ĠÑĩÑĥÐ²ÑģÑĤÐ²Ð¾Ð²Ð°Ð»Ð°":3309,"ĠÐ¾Ð¿ÑĢÐµÐ´ÐµÐ»":3310,"ÑĢÐ¸ÑĨ":3311,"ĠÐĵÐ¾Ð»":3312,"Ġremarked":3313,"ĠÐ´Ð¾Ð¼Ð¾Ð¹":3314,"ĠÑĤÑĢÐµÐ±":3315,"ĠÑĩÐ°ÑģÑĤÐ¾":3316,"Ġinterested":3317,"ĠÑĢÐ°Ð·Ð´ÑĢÐ°Ð¶":3318,"ĠÐºÐ½Ð¸Ð³":3319,"ÑĢÑĭÑĤ":3320,"ÑĥÑĤÑĮ":3321,"Ġsign":3322,"ĠÐºÐ¾Ð³Ð¾":3323,"Ġcap":3324,"Ġfing":3325,"Ġinqu":3326,"Ð¿Ð¾Ð´":3327,"Ġreached":3328,"ĠÐ»ÐµÑģ":3329,"Ġmemor":3330,"ÐµÐ·Ð´Ð°":3331,"Ġchief":3332,"ĠÑĢÑĥÐºÐ°Ð¼Ð¸":3333,"Ġknowing":3334,"Ġspite":3335,"Ġarms":3336,"ĠÑĥÐ´ÐµÑĢÐ¶":3337,"Ġremained":3338,"Ġwrong":3339,"ĠÐ¿ÐµÑĢÐ²ÑĭÐ¹":3340,"Ġremember":3341,"rupt":3342,"ĠÐŀÐ±Ð»Ð¾Ð½ÑģÐºÐ¸Ð¹":3343,"Ġholding":3344,"Ġacquaint":3345,"ĠÐ°Ð½Ð³":3346,"Ġeducation":3347,"ĠÐ©ÐµÑĢÐ±Ð°ÑĨ":3348,"ĠÐĲÐ³Ð°ÑĦ":3349,"ÐµÐµÑĤ":3350,"ÑĥÐ»":3351,"ĠÐ²Ð¸Ð¶Ñĥ":3352,"ĠÐ¾Ð½Ð¾":3353,"ÐµÐ½Ð½ÑĭÑħ":3354,"imed":3355,"Ð¾Ð´Ð°ÑĢ":3356,"ÑĨÐµÐ²":3357,"ÑģÑĤÐ²Ð¾Ð¼":3358,"ĠÐŀÑĩ":3359,"ĠÐ²ÑĭÐ¹":3360,"ĠÐ¿Ð¾Ð´ÑħÐ¾Ð´":3361,"Ġconc":3362,"ĠWith":3363,"ĠÐºÑĢÐ¸Ðº":3364,"ĠÐ¸Ð¼ÐµÑĤÑĮ":3365,"Ġbring":3366,"ĠNot":3367,"ĠEvery":3368,"Ġexper":3369,"Ġfright":3370,"Ġreply":3371,"Ġforgot":3372,"Ġmeaning":3373,"ĠÐ»Ð¾ÑĪÐ°Ð´ÑĮ":3374,"isfied":3375,"Ġbeginning":3376,"ĠÑĩÑĥÐ²ÑģÑĤÐ²ÑĥÑı":3377,"Ġgeneral":3378,"ĠÑģÐ´ÐµÐ»Ð°":3379,"ĠÐ²ÑĩÐµÑĢÐ°":3380,"ah":3381,"li":3382,"tered":3383,"Ð½ÐµÐ³Ð¾":3384,"ÑĮÐ¸":3385,"ĠÐ½ÑĢÐ°Ð²":3386,"ĠÐ´Ðµ":3387,"ĠÐ´Ð½Ñı":3388,"any":3389,"ĠÑĢÐµÐ²":3390,"Ð½Ð¸Ñĩ":3391,"Ð°Ð²Ð°Ñı":3392,"Ġemb":3393,"ÑģÐºÐ¸Ðµ":3394,"Ð½ÑĥÑĤ":3395,"ĠÐ¢Ð¾":3396,"Ġthemselves":3397,"ÑĢÐ°Ð²Ð»Ñı":3398,"ĠÑģÐ¼ÐµÑĪ":3399,"Ġplay":3400,"Ġplease":3401,"ĠÐ²Ð¾Ð·Ð²":3402,"Ġattention":3403,"ĠÑĤÐ²Ð¾":3404,"ĠÐ¾ÑģÑĤÐ°Ð½Ð¾Ð²Ð¸Ð»ÑģÑı":3405,"Ġsett":3406,"Ġdrink":3407,"ĠÐ¡Ð²Ð¸ÑıÐ¶ÑģÐºÐ¸Ð¹":3408,"ĠÐ¿ÑĢÐ¾Ð³Ð¾Ð²Ð¾ÑĢÐ¸Ð»":3409,"ĠÐ´Ð¾ÑģÐ°Ð´":3410,"Ð»Ð¸Ð½":3411,"ĠÐ¼ÑĢÐ°":3412,"Ġlate":3413,"ory":3414,"Ð¸Ð»ÑĮ":3415,"arily":3416,"Ð½Ð¸ÑĨÑĥ":3417,"Ġste":3418,"eren":3419,"evna":3420,"ĠÐ¿Ð¾Ð´ÑĬ":3421,"Ġsun":3422,"Ġfrown":3423,"Ġupon":3424,"ÑĪÐ¸Ð±":3425,"ield":3426,"Ġglanced":3427,"ize":3428,"Ġclearly":3429,"ĠÐ¿ÑĢÐ¸Ð²ÑĭÑĩ":3430,"Ġlarge":3431,"bility":3432,"law":3433,"mp":3434,"ÑģÐ¾ÑĢ":3435,"ĠÑģÐ¾Ð·":3436,"ĠÑģÐ¼Ñĥ":3437,"Ð²Ð¸Ð½":3438,"Ġou":3439,"ingly":3440,"ĠÐ±ÐµÑĢ":3441,"Ġpower":3442,"Ġgent":3443,"ÑģÐºÐ¸Ð¼":3444,"Ġred":3445,"ĠÐ³Ð¾Ð´":3446,"ĠÑģÐºÐ°Ñĩ":3447,"aya":3448,"ĠOne":3449,"ĠÑĢÐ°Ð´Ð°":3450,"ĠÐ¿Ð»ÐµÑĩ":3451,"ÑıÐ·Ð°Ð½":3452,"Ġperf":3453,"ĠÐºÑĢÐ°ÑģÐ¸Ð²":3454,"ashvin":3455,"ogn":3456,"ĠÐ¿Ð¾ÑĩÑĥÐ²ÑģÑĤÐ²Ð¾Ð²Ð°Ð»":3457,"Ġsorry":3458,"Ð¸Ð±":3459,"ÑĢÐ°Ð¼":3460,"ĠÑģÑĥÑīÐµ":3461,"ĠÐ½Ð¸Ð¼Ð¸":3462,"ÑĪÐ¸Ð¼":3463,"Ġmin":3464,"ĠÐ´Ð°Ð»":3465,"ĠÐ´Ð°Ð»ÑĮ":3466,"Ġduring":3467,"Ð½Ð°ÑĤÑĮ":3468,"ĠÐ¼ÐµÑĪ":3469,"ĠÐ¼ÐµÑģÑĤ":3470,"Ð½Ð¾Ñģ":3471,"Ġpity":3472,"omm":3473,"lend":3474,"ĠÐ¿Ð¾ÑĨ":3475,"Ð°Ð½Ñĭ":3476,"ÑīÐµÐ²":3477,"ĠÑģÐºÐ¾Ð»ÑĮÐºÐ¾":3478,"Ġash":3479,"ĠÑģÐ²Ð¾Ð±Ð¾Ð´":3480,"Ġanim":3481,"ĠÐĺÐ·":3482,"ushing":3483,"ĠÐ¿ÑĢÐµÐ´Ð»Ð¾Ð¶":3484,"ĠÑĩÑĥÐ²ÑģÑĤÐ²Ð°":3485,"Ð°Ð»ÑĮÑĩÐ¸Ðº":3486,"Ġcoach":3487,"Ġtea":3488,"ĠÐ¼Ð¾Ð»Ñĩ":3489,"ĠÐ¿Ð¾ÑĩÐµÐ¼Ñĥ":3490,"ĠÑĢÐµÑĪÐ¸ÑĤÐµÐ»ÑĮÐ½Ð¾":3491,"Ġfeet":3492,"ĠÑĥÑģÐ¿Ð¾ÐºÐ¾":3493,"ĠÐľÐ¾ÑģÐºÐ²":3494,"Ġstanding":3495,"Ġbeautiful":3496,"ĠShcherbatsky":3497,"aused":3498,"ÐµÐµÐ¼":3499,"Ð»ÐµÑĤ":3500,"ÑĢÐ¾ÑĤÐ¸Ð²":3501,"ĠÑģÐ±":3502,"enka":3503,"Ġlady":3504,"Ð°ÐºÐ¾":3505,"Ð·Ð°":3506,"Ġeither":3507,"Ð¸Ð²Ð°Ð»Ð°":3508,"ĠÐ²ÑĭÑĪÐ»Ð°":3509,"ĠÐļÐ½Ñı":3510,"ÐµÐ½ÑĮÐµ":3511,"Ġsuc":3512,"ÑĭÐ²Ð°Ð»Ð°":3513,"ÐµÐ¶Ð°Ð»":3514,"ĠÐ»ÑİÐ±Ð¸ÑĤÑĮ":3515,"ĠÐ»ÑİÐ±Ð»Ñİ":3516,"Ġtimes":3517,"Ð°ÐµÑĤÐµ":3518,"Ð°Ð²ÑĪÐµÐ³Ð¾":3519,"ĠÐķÐ¼Ñĥ":3520,"Ġopened":3521,"ĠÑĥÐ¶Ð°ÑģÐ½Ð¾":3522,"ĠÑģÐµÑĢÐ´ÑĨÐµ":3523,"Ġmeeting":3524,"Ġirrit":3525,"ĠÐ½ÐµÐ¾Ð±ÑħÐ¾Ð´":3526,"ĠÐ±Ð»Ð¸Ð·":3527,"Ġdoubt":3528,"Ġwindow":3529,"ĠÐ³Ð¾ÑģÐ¿Ð¾Ð´":3530,"ĠÐ¿Ð¾ÑģÐ¿ÐµÑĪ":3531,"Ah":3532,"Ġable":3533,"ÑĭÑģÐ»":3534,"Ġsleep":3535,"Ð¼Ð¾ÑĤÑĢ":3536,"ĠÐºÐ°Ð·":3537,"Ð³Ð¾ÑĢ":3538,"ĠÐ¾ÑĤÐ¿":3539,"ĠÐŁÐ¾Ð´":3540,"ÐµÑĩÑĮ":3541,"ÑģÑĤÐ¸Ðµ":3542,"ĠÐĴÑĢÐ¾Ð½ÑģÐºÐ¾Ð¼Ñĥ":3543,"ĠÐ¿ÑĢÐµÐ´Ð¿":3544,"Ġsplend":3545,"Ġtrain":3546,"ĠÐ²ÑĢÐµÐ¼ÐµÐ½Ð¸":3547,"Ġgrass":3548,"atha":3549,"ĠÐ´Ð¾Ð»Ð¶Ð½Ð°":3550,"aby":3551,"Ġrecogn":3552,"Ġinterrupt":3553,"ĠÐ»ÐµÐ³ÐºÐ¾":3554,"Ġyears":3555,"empt":3556,"ĠYashvin":3557,"ĠÐ¾Ð±ÑĢÐ°Ð·Ð¾Ð²":3558,"ĠÐ¡ÐµÑĢÐµÐ¶Ð°":3559,"ĠÐĴÐµÑģÐ»Ð¾Ð²ÑģÐºÐ¸Ð¹":3560,"ĠMikhaylovna":3561,"Ð°Ð´ÑĨÐ°ÑĤÑĮ":3562,"lu":3563,"ĠÐ½Ð°Ð±":3564,"ĠÐ²ÐµÐ´ÑĮ":3565,"Ð´ÑĥÐ¼":3566,"Ġbur":3567,"ÑĪÐ¸Ñħ":3568,"Ġph":3569,"ĠÑĢÐ°Ð²Ð½Ð¾":3570,"Ð½Ð¸Ñħ":3571,"Ð³Ð¾Ð²Ð°ÑĢ":3572,"ÑģÐºÐ¸Ñħ":3573,"ĠÐ³ÑĢÐ¾Ð¼":3574,"Ð³Ð¾ÑĤÐ¾Ð²":3575,"Ð¾Ð¶Ð¸Ð´":3576,"ĠÐºÐ°ÐºÐ¾Ð¹":3577,"ĠÐ¾Ð±Ð¼Ð°Ð½":3578,"ĠÐ¿ÑĢÐ¸ÑģÐ»":3579,"ĠÑģÐ²Ð¾Ð¸Ð¼Ð¸":3580,"ĠÐ·Ð°ÑĩÐµÐ¼":3581,"Ġsure":3582,"ĠÐ³Ð¾ÑĢÑı":3583,"ĠÐ³Ð¾Ð²Ð¾ÑĢÑİ":3584,"ĠÐ¯ÑĪ":3585,"ĠÐ¾Ð´Ð½Ð¾Ð¹":3586,"ĠÑĢÑĥÐºÐ¾Ð¹":3587,"ĠÐ·Ð½Ð°Ñı":3588,"Ġamong":3589,"ĠÐ¶ÐµÐ½Ñĥ":3590,"ĠÑģÑĤÐ°ÑĢÐ°ÑıÑģÑĮ":3591,"anger":3592,"ĠÐ²ÑĭÑģÐ¾Ðº":3593,"Ġwater":3594,"ĠÑĥÑģÐ»Ð¾Ð²":3595,"ĠÐ¾Ð±ÑĢÐ°ÑĤÐ¸Ð»ÑģÑı":3596,"ĠÑĢÐ°ÑģÑģÐºÐ°Ð·ÑĭÐ²":3597,"ĠÐ¾Ð³Ð»ÑıÐ´ÑĭÐ²":3598,"Ġreceived":3599,"ĠÐĴÐ°ÑģÐµÐ½ÑĮ":3600,"ĠÐĽÐ¸Ð´Ð¸Ñı":3601,"Ġshouted":3602,"Ġought":3603,"She":3604,"cy":3605,"Ð¸ÐµÐ¼":3606,"Ġtra":3607,"ĠÐ½Ð°Ð·ÑĭÐ²":3608,"ĠÐ¾ÑĪÐ¸Ð±":3609,"Ð²Ð°ÑĢ":3610,"ĠÐºÑĥÑĩ":3611,"ÐµÐ½Ð½Ð¾Ð¹":3612,"Ġfond":3613,"ĠÐ±ÑĭÑģÑĤÑĢ":3614,"ÐµÐ½Ð¸ÑĤÑĮ":3615,"ÐµÐ½Ð¸ÑīÐµÐ²":3616,"Ġrap":3617,"Ġroubles":3618,"ĠÐ¾Ð±ÐµÑī":3619,"Ġsoft":3620,"Ġworse":3621,"ĠÐ¸Ð¼ÐµÐ»":3622,"Ġforgive":3623,"Ġmeans":3624,"ĠÐ²Ð¾Ð»Ð½":3625,"Ġindiff":3626,"Ġslight":3627,"Ġsilent":3628,"Ġregard":3629,"ĠÐ¾ÑĤÑĩÐ°Ñı":3630,"Ġsecond":3631,"Ġtorment":3632,"Ġidea":3633,"ĠAgatha":3634,"Ġcontrary":3635,"Ġashamed":3636,"ts":3637,"uss":3638,"ÑĢÐ¾Ð¶":3639,"ÑĢÐ¸Ðº":3640,"Ġsense":3641,"ĠÐ½ÐµÐ»Ð¾Ð²":3642,"ÑĪÐ°Ñı":3643,"ĠÐµÑİ":3644,"ans":3645,"Ð¾Ð±ÑĢ":3646,"ĠÐ¿Ð¾Ð´Ð½Ð¸Ð¼":3647,"Ġshame":3648,"Ġalong":3649,"Ġpoin":3650,"Ġstruck":3651,"ĠÐĺÐ²Ð°Ð½Ð¾Ð²Ð½Ð°":3652,"ĠÑģÐ¼Ð¾ÑĤÑĢÐµÑĤÑĮ":3653,"ĠÐ¶ÐµÐ»Ð°Ñı":3654,"ĠÑĥÐ²Ð¸Ð´Ð°Ð»":3655,"Ġfriends":3656,"ĠÐ³ÑĥÐ±ÐµÑĢ":3657,"morrow":3658,"Ġhardly":3659,"ĠÐ²ÑģÑĤÐ°Ð»":3660,"ealous":3661,"ĠÐĵÐ¾Ð»ÐµÐ½Ð¸ÑīÐµÐ²":3662,"ĠÐŀÑĩÐµÐ½ÑĮ":3663,"chev":3664,"ef":3665,"ply":3666,"Ġtill":3667,"ĠÐ²ÐµÑī":3668,"iting":3669,"Ġbaby":3670,"ĠÐ±ÑĢÐ¾Ñģ":3671,"ĠÐ´Ð»Ð¸Ð½":3672,"ĠÑĩÑĢÐµÐ·":3673,"Ð¾Ð»Ð½Ðµ":3674,"ÐµÑĤÑĥ":3675,"ĠÐ¿Ð¾ÑģÑĤÑĥÐ¿":3676,"Ð°Ð½ÑĮÑı":3677,"Ġstate":3678,"Ġru":3679,"ĠÑħÑĥÐ¶Ðµ":3680,"ÑĤÐ¾ÑĢÐ¾Ð¶":3681,"rily":3682,"ama":3683,"ĠÑĢÐ°Ð·Ð±":3684,"ĠÑĪÐµÐ»":3685,"Ġmanner":3686,"ĠÐ¿ÑĢÐ¾Ñī":3687,"Ġagree":3688,"ĠÐºÑĢÑĭ":3689,"ĠÐ¸Ð¼ÐµÑİ":3690,"Ġyourself":3691,"Ġimpress":3692,"wards":3693,"Ġblack":3694,"Ġremain":3695,"ĠÐ¾ÑĤÐºÑĢÑĭ":3696,"ledge":3697,"ails":3698,"ĠÐ¸ÑģÐ¿ÑĭÑĤÑĭÐ²Ð°Ð»":3699,"ĠÐľÐ¾ÑģÐºÐ²Ðµ":3700,"ĠÐ¿ÑĢÐ¸Ð±Ð°Ð²Ð¸Ð»":3701,"ĠÐ´ÐµÐ¹ÑģÑĤÐ²Ð¸ÑĤÐµÐ»ÑĮÐ½Ð¾":3702,"ĠÐĿÐ¸ÐºÐ¾Ð»Ð°Ð¹":3703,"ĠÐ¿ÑĢÐ¸ÑĤÐ²Ð¾ÑĢ":3704,"ĠÐ´ÐµÑıÑĤÐµÐ»ÑĮ":3705,"Ġgentle":3706,"Ġcoachman":3707,"haps":3708,"sand":3709,"ÑģÐ¸Ð¸":3710,"ÑĢÐµÐº":3711,"Ġtri":3712,"Ġsk":3713,"ĠÐ²Ð°":3714,"Ð´ÐµÑĢÐ¶":3715,"Ð¾Ð²Ð°":3716,"ÑĪÐ»Ð¸":3717,"ÐµÐ½Ð½Ð°Ñı":3718,"Ġcart":3719,"Ġcause":3720,"Ġcried":3721,"ott":3722,"ÑģÐºÐ¾Ð¼":3723,"ÐµÐ´Ð»Ð¸Ð²":3724,"ĠÐºÐ°ÐºÐ¾Ðµ":3725,"ĠAr":3726,"ĠÐ¾Ð±ÑĭÐºÐ½Ð¾Ð²":3727,"ĠÐ¿ÑĢÐ¸Ð³Ð¾ÑĤÐ¾Ð²":3728,"ĠÑģÐ²Ð¾ÐµÐ¼Ñĥ":3729,"ĠÐ·Ð°ÑģÑĤ":3730,"Ġabroad":3731,"ÐºÑĥÑİ":3732,"Ġthousand":3733,"ĠComm":3734,"ÑĢÐ°Ð²ÐµÐ´Ð»Ð¸Ð²":3735,"Ġsend":3736,"ĠÐ¡ÑĤÐ¸Ð²":3737,"olen":3738,"ĠÑĥÐ²ÐµÑĢ":3739,"Ġstrong":3740,"ĠXV":3741,"ives":3742,"Ġquestions":3743,"ĠÐ¿Ð¾Ð·Ð²Ð¾Ð»":3744,"ances":3745,"ĠÐ¾Ð¶Ð¸Ð²":3746,"Ġinvolunt":3747,"ĠÐ´ÑĥÑĪÐ¸":3748,"ĠÑģÐ»ÑĭÑĪÐ°Ð»":3749,"Ġguil":3750,"ĠÑĤÑıÐ¶ÐµÐ»":3751,"Ġangry":3752,"ĠÐ³Ð»Ð°Ð²Ð½Ð¾Ðµ":3753,"ĠÐ»Ð¾ÑĪÐ°Ð´Ð¸":3754,"ĠÐ¿ÑĢÐ¸ÐºÐ°Ð·":3755,"Ġunable":3756,"Ġexperien":3757,"Ġfrightened":3758,"aimed":3759,"ec":3760,"ex":3761,"mit":3762,"ÐĲ":3763,"Ð¸ÑĢÐ¾Ð²":3764,"itions":3765,"Ġmention":3766,"Ġdut":3767,"Ġdark":3768,"ĠÑĤÐµÑĢ":3769,"Ġlost":3770,"Ġport":3771,"Ð½Ð¸ÑĨÑĭ":3772,"ĠÐ»Ð¾Ð¶":3773,"Ð°ÑĤÐ¸":3774,"ĠÐ¿ÑĢÐ¸ÑħÐ¾Ð´":3775,"ĠÐ¿Ð¾Ð´Ð»Ðµ":3776,"ĠÐŁÐ¾ÑĤÐ¾Ð¼":3777,"Ġlear":3778,"ĠÐ»ÑİÐ±Ð¸ÑĤ":3779,"Ð»Ð¾Ð½":3780,"Ġpecul":3781,"ishchev":3782,"ĠÐ³Ð»Ð°Ð·Ð°Ñħ":3783,"Ġtrou":3784,"ĠÐ¾ÑģÑĤÐ°Ð½":3785,"ĠFr":3786,"izing":3787,"ĠÐ³Ð¾Ð»Ð¾Ð²Ð¾Ð¹":3788,"ĠÐ²Ð¿Ð¾Ð»Ð½Ðµ":3789,"ĠÐ¶ÐµÐ½ÑīÐ¸Ð½Ñĭ":3790,"ĠÑĢÐ°Ð±Ð¾Ñĩ":3791,"Ð¾ÑģÑĤÑĮÑİ":3792,"Ġpresence":3793,"ĠÐ³Ð¾ÑĢÐ´":3794,"Ġbox":3795,"ĠVasenka":3796,"Ġstudy":3797,"ĠÐ±Ð»Ð°Ð³Ð¾Ð´Ð°ÑĢ":3798,"ĠÐ¿Ð»Ð°ÑĤÑĮÐµ":3799,"erence":3800,"Ġpeculi":3801,"AR":3802,"ead":3803,"ĠYes":3804,"ÑĤÑı":3805,"ÑĥÐ·":3806,"ÑĩÐµÑĤ":3807,"Ð´ÐµÐ¼":3808,"Ġheld":3809,"ÐµÐ½Ð½ÑĥÑİ":3810,"Ġcrow":3811,"Ġcross":3812,"lle":3813,"Ð±Ñĭ":3814,"ĠÐ·Ð»":3815,"Ð¿Ð¸ÑĤ":3816,"Ð¾Ð¹ÑĤÐ¸":3817,"ĠÐĴÐµÐ´ÑĮ":3818,"adame":3819,"ĠÑħÑĥÐ´":3820,"Ġmeant":3821,"ĠÐŁÑĢÐ¾":3822,"Ġexcl":3823,"Ġnear":3824,"Ġchar":3825,"Ġjealous":3826,"ÑĤÐ¸Ñı":3827,"ĠÐ´ÑĢÑĥÐ³Ð¸Ðµ":3828,"ĠÑĦÐ¸Ð³":3829,"ÑĤÐ¾ÑıÑī":3830,"ĠÐ´ÐµÑĤÐ¸":3831,"ĠÑĢÐ°Ð·Ð²Ð¾Ð´":3832,"ĠÐ·Ð°Ð²ÑĤÑĢÐ°":3833,"Ġasking":3834,"Ġgiving":3835,"ĠÐ¿ÑĢÐ¸Ð·Ð½":3836,"ĠÐ¸Ð·Ð²ÐµÑģÑĤ":3837,"ĠÑĢÐµÐ±ÐµÐ½ÐºÐ°":3838,"Ġofficial":3839,"Ġcrowd":3840,"ape":3841,"oc":3842,"ÑĤÐ°Ð»ÑĮ":3843,"Ð½Ð¾Ð´ÑĥÑĪ":3844,"Ġtalked":3845,"ĠÑģÑİ":3846,"ĠÐ²ÑģÑĤÐ°Ð²":3847,"Ġbro":3848,"Ġfilled":3849,"Ġmon":3850,"Ġmere":3851,"ĠÑĤÐ¸Ñħ":3852,"ÐµÑĢÐ³":3853,"ĠÐ¼Ð°Ð»ÑĮÑĩÐ¸Ðº":3854,"Ġpay":3855,"Ġpap":3856,"ĠÐ¿ÑĢÐ¸Ð½Ñı":3857,"Ð¾Ð»ÐµÐ½":3858,"Ġsake":3859,"ĠÐ³ÑĢÑĥÐ´":3860,"ĠÑģÑĤÑĭÐ´":3861,"ĠÐ¿ÑĢÐ¸Ð½Ð¸Ð¼":3862,"ĠÐ¿ÐµÑĢÐµÐ³":3863,"bling":3864,"ĠÐĴÑĢÐ¾Ð½ÑģÐºÐ¸Ð¼":3865,"ĠÑģÑĤÐ¾Ð»ÑĮ":3866,"ĠÐ¼ÑĥÐ¶Ñĥ":3867,"ĠÐ½Ð°Ð¿Ð¸Ñģ":3868,"ĠÐ¾ÑĤÐºÐ°Ð·":3869,"ĠÑħÐ¾ÑĩÐµÑĤ":3870,"ĠÐ³Ð¾Ð»Ð¾ÑģÐ¾Ð¼":3871,"ĠÐ¶Ð°Ð»ÐºÐ¾":3872,"ĠÐºÐ¾Ð¼Ð½Ð°ÑĤÑĥ":3873,"ĠOnly":3874,"Ġvex":3875,"Ġstarted":3876,"ĠÐ½ÐµÐ½Ð°Ð²":3877,"ĠÐ²Ð»ÑİÐ±Ð»ÐµÐ½":3878,"ĠÐ´ÑĢÑĥÐ³Ð¾Ðµ":3879,"olenishchev":3880,"Not":3881,"bly":3882,"hile":3883,"ier":3884,"ped":3885,"rist":3886,"where":3887,"ÑģÑĤÐ¾":3888,"Ġwin":3889,"Ġsight":3890,"Ð²Ð°Ð»":3891,"Ġbody":3892,"Ġcoll":3893,"Ġfur":3894,"ĠÐ±ÑĥÐ¼":3895,"Ġhay":3896,"Ġem":3897,"ÑīÐ¸Ðº":3898,"Ð¾ÑĤÐ°":3899,"ÑĨÐ°ÑĢ":3900,"ĠÐºÐ°ÐºÐ¸Ðµ":3901,"ĠÐ¡Ðº":3902,"Ġconn":3903,"ĠÐ¿ÐµÑĢÐµ":3904,"ÐµÑĢÑĮÐµÐ·":3905,"ĠÐ·Ð½Ð°ÐµÑĤÐµ":3906,"Ġcomfort":3907,"Ġglancing":3908,"ĠGolenishchev":3909,"Ġprof":3910,"ĠÑģÐ»Ð¾Ð²Ð¾":3911,"ĠÐ¿Ð¾Ð»Ð¾Ð¶ÐµÐ½Ð¸Ð¸":3912,"ĠÐ¿Ð¾Ð½ÑıÐ»Ð°":3913,"Ġgrew":3914,"ĠÐ±ÑĢÐ°ÑĤÑĥ":3915,"Ġrecall":3916,"Ġmatters":3917,"ĠÐ´ÐµÐ²Ð¾Ñĩ":3918,"Ġtrem":3919,"ĠÑĥÑģÐ»ÑĭÑħ":3920,"Ġdespair":3921,"ixed":3922,"ĠÑģÐºÐ¾ÑĢÐ¾":3923,"undred":3924,"ĠÐ¾Ð³ÑĢÐ¾Ð¼":3925,"ĠÐĿÐ°Ð´Ð¾":3926,"ĠÑĢÐ°Ð²Ð½Ð¾Ð´ÑĥÑĪ":3927,"'ve":3928,"uk":3929,"Ġavo":3930,"inite":3931,"ĠÑģÐµÑĢÑĮÐµÐ·":3932,"Ġsort":3933,"rer":3934,"Ġhealth":3935,"ÑĪÐ¸Ðµ":3936,"ĠÑĤÐ¾Ð²Ð°ÑĢ":3937,"ĠÐ¼Ð¾Ðµ":3938,"ĠÑĢÐ¾Ð±":3939,"Ð½Ð¸Ð·":3940,"ÑĨÐ¸Ð¸":3941,"ĠÐĴÐ¾":3942,"ĠÑģÐ»Ð°Ð²":3943,"Ġexcept":3944,"Ġdem":3945,"ĠÑģÐ¿Ð¾ÑĢ":3946,"Ġlegs":3947,"ĠÐ´Ð²ÑĥÑħ":3948,"ĠÑĥÐ»ÑĭÐ±Ð½ÑĥÐ»ÑģÑı":3949,"ĠÐĲÑĢÐºÐ°Ð´ÑĮÐµÐ²":3950,"ĠÐ¼ÑĥÐ¶Ñĩ":3951,"Ġdiss":3952,"ĠÐĺÐ²Ð°Ð½":3953,"ĠÐ¿Ð»Ð°ÑĤ":3954,"ÑģÐ¼ÐµÑĪ":3955,"Ð¸Ð²ÑĪÐ¸Ð¹":3956,"ude":3957,"ĠÐ²ÑģÐ¿Ð¾Ð¼Ð¸Ð½Ð°":3958,"ĠÐ´ÐµÐ½ÑĮÐ³Ð¸":3959,"ĠÐºÐ°ÑĢÑĤ":3960,"Ġlistening":3961,"ĠÐ²ÑģÐµÐ¼Ð¸":3962,"ĠÑģÑĩÐ°ÑģÑĤÑĮÐµ":3963,"Ġspirit":3964,"Ġlaughing":3965,"Ð²ÐµÐ¹ÑĨÐ°ÑĢ":3966,"ÐĶÐ°":3967,"Ġwonder":3968,"!...":3969,"ED":3970,"EN":3971,"kaya":3972,"par":3973,"ugg":3974,"Ġut":3975,"Ð½Ð°ÐºÐ¾Ð¼":3976,"ining":3977,"Ġsing":3978,"Ġhundred":3979,"ĠÐ´ÑĢÑĥÐ¶":3980,"Ġnatural":3981,"Ġloud":3982,"Ġhab":3983,"Ð¾ÑĢÐ¼":3984,"ĠÐ¶Ð¸Ð»":3985,"chool":3986,"terday":3987,"Ġneck":3988,"ĠÐ°ÑĢ":3989,"ĠÐľÐ°ÑĢ":3990,"Ġknown":3991,"Ġleast":3992,"Ġleaving":3993,"ĠÑģÑĤÐ¾ÑıÐ»":3994,"ÑĦÐ¸ÑĨ":3995,"Ġclose":3996,"ĠÑģÐ¼Ð¾ÑĤÑĢÐµÐ»Ð°":3997,"ĠÑħÐ¾ÑĩÐµÑĪÑĮ":3998,"ĠÐºÐ¾ÑĢÐ¾ÑĤ":3999,"teve":4000,"Ġappear":4001,"ĠÐºÐ¾Ð»Ñı":4002,"Ġdream":4003,"ĠÐ¿Ð¾Ð¶Ð°Ð»ÑĥÐ¹ÑģÑĤÐ°":4004,"Ġsimple":4005,"Ġsimply":4006,"Ġdelight":4007,"Ġsuffer":4008,"ĠÑĤÑıÐ¶ÐµÐ»Ð¾":4009,"ÑĥÐ½Ð´":4010,"Ġcirc":4011,"ĠÐ¿Ð¾ÑĨÐµÐ»Ð¾Ð²":4012,"Ġinvoluntarily":4013,"gu":4014,"gth":4015,"uation":4016,"Ð¯":4017,"ÐĴ":4018,"Ġswe":4019,"ĠÐ½Ð°Ð³":4020,"ĠÐ¿ÑıÑĤÑĮ":4021,"ÑĪÑĥÑİ":4022,"Ġcre":4023,"Ġfal":4024,"ĠÐ¼Ð¾ÑĢ":4025,"ĠÐ¼Ð°Ð»Ð¾":4026,"omp":4027,"ĠÐ½Ð°Ñħ":4028,"ĠÐ³Ð°Ð´":4029,"Ð¸ÑĤÐµÐ»":4030,"Ġstation":4031,"ĠÑģÐ²ÐµÑĤÐµ":4032,"ÐµÐ·Ð´Ðµ":4033,"ĠÐ»Ð¸ÑĪ":4034,"ĠMadame":4035,"ĠÑĪÑĥÑĤ":4036,"ĠÐ´Ð²Ðµ":4037,"ured":4038,"ĠÐ»Ð¸ÑĨÐ¾Ð¼":4039,"ĠÑģÐ´ÐµÐ»Ð°Ð»Ð°":4040,"ĠÐ¿Ð¾Ð½Ð¸Ð¼Ð°Ð»":4041,"Ġremark":4042,"upid":4043,"ĠIvanich":4044,"Ġimportance":4045,"ĠÐºÐ°Ð¶Ð´ÑĭÐ¹":4046,"ĠÐ´ÑĥÑĢÐ½Ð¾":4047,"Ġlabou":4048,"ĠÑģÐ¼ÐµÑĢÑĤÐ¸":4049,"ient":4050,"ser":4051,"ually":4052,"Ð¾ÑĤÑĮ":4053,"Ð°ÑģÑĤ":4054,"Ð¸ÑĤÐ¾":4055,"Ð»Ñĥ":4056,"ĠÑģÐ¸Ð»Ð°":4057,"Ġsy":4058,"Ð´Ð²":4059,"Ġbit":4060,"Ġbott":4061,"Ġmid":4062,"Ð½Ð¾ÑģÑĤ":4063,"Ġlow":4064,"orter":4065,"ĠÐ·Ð°Ð»":4066,"Ð°Ð½Ð½Ð¾Ðµ":4067,"Ġstew":4068,"urch":4069,"Ð½ÐµÑģ":4070,"Ġsol":4071,"Ð¸ÑħÑģÑı":4072,"ĠÐ¶ÐµÑģÑĤ":4073,"Ġquar":4074,"ĠÑģÐ°Ð¼ÑĭÐµ":4075,"Ġpost":4076,"ĠÐ±ÑĥÐ´ÑĥÑĤ":4077,"Ġago":4078,"ĠÑĥÐ²Ð°Ð¶":4079,"Ġspecial":4080,"ĠÐ½Ð°Ð¿ÑĢÐ¾ÑĤÐ¸Ð²":4081,"ĠÐ´Ð¾Ð»Ð¶Ð½Ñĭ":4082,"ÐµÑīÐ¸Ðº":4083,"Ġfear":4084,"Ġaccount":4085,"ĠÐ½Ð¾Ð³Ð¸":4086,"ĠÐŀÑĤÑĩÐµÐ³Ð¾":4087,"ĠÑĥÐºÐ°Ð·ÑĭÐ²Ð°Ñı":4088,"ĠÐļÐ°ÑĢÐµÐ½":4089,"iliar":4090,"Ġfootman":4091,"Ġdrive":4092,"Ġarrived":4093,"ĠÐ¸Ð´ÑĤÐ¸":4094,"ĠÐ²Ð¾Ð¾Ð±ÑĢÐ°Ð¶":4095,"Ġdreadful":4096,"Ġsplendid":4097,"app":4098,"by":4099,"ĠÐĸ":4100,"ĠÐ¿Ð¾Ð³Ð¾Ð²Ð¾ÑĢ":4101,"ĠÐ²Ð°Ð³Ð¾":4102,"Ġdull":4103,"ĠÑĤÑĢÑĥ":4104,"ĠÑĤÑĢÐ°Ð²":4105,"Ð±Ð°":4106,"ĠÑĥÑģÑĤÑĢÐ¾":4107,"Ð°Ð²Ð°Ð»":4108,"ĠÐ¿Ð¾ÐµÑħÐ°Ð»":4109,"Ð°Ð½Ð½ÑĭÐ¹":4110,"Ġones":4111,"Ġstupid":4112,"ified":4113,"Ġshowed":4114,"ants":4115,"ÑĥÐ¶ÐµÐ»Ð¸":4116,"ĠÑģÐ»Ð¾Ð¶":4117,"ĠÑģÐ»Ð°Ð±":4118,"Ġsum":4119,"ĠÐ³Ð¾Ð²Ð¾ÑĢÑıÑĤ":4120,"Ġjump":4121,"ÑĪÐµÑİ":4122,"ĠÑģÐ°Ð¼Ð¾Ð¼":4123,"ĠÐºÑĢÐ°Ð¹":4124,"Ð»Ð¾ÑģÑĮ":4125,"ĠÐ¶ÐµÐ½Ð¾Ð¹":4126,"ĠÐ¾ÑĤÐ²Ð¾ÑĢ":4127,"ĠÐ´ÑĢÑĥÐ³Ð°":4128,"Ġglass":4129,"ĠÐķÐ¹":4130,"Ð»ÑİÐ´":4131,"Ġgrown":4132,"ĠÐłÐ¾Ñģ":4133,"Ð¸Ð²ÑĪÐµÐ³Ð¾":4134,"ĠÐ½Ð¾Ð²Ð¾Ðµ":4135,"ĠÐºÐ¾Ð¼Ð½Ð°ÑĤÑĭ":4136,"Ð½Ð°ÑĩÐ°Ð»Ð°":4137,"ĠÐłÐ°Ð·Ð²Ðµ":4138,"ĠChrist":4139,"ĠÐ¸Ð·Ð¼ÐµÐ½":4140,"Ġlater":4141,"ĠÐ¿ÑĢÐ¸ÑģÑĥÑĤ":4142,"duced":4143,"ĠAlexandrovich":4144,"Ġcomplete":4145,"ĠÐ¿Ð¾ÑģÐ¿ÐµÑĪÐ½Ð¾":4146,"ĠÐ½ÐµÐ»Ð¾Ð²ÐºÐ¾":4147,"Ġexperienced":4148,"Ġsteward":4149,"Do":4150,"side":4151,"Ð»Ð°Ð³":4152,"Ġten":4153,"ĠÐ½ÐµÐ±":4154,"ĠÐ¿ÑıÑĤ":4155,"ĠÐ¾ÑĦÐ¸ÑĨ":4156,"Ġcou":4157,"Ġfive":4158,"Ġpull":4159,"imes":4160,"Ð½Ð¸ÑĨ":4161,"ĠÐ¿Ð¾Ð½":4162,"ÑģÐºÐ¾Ð¼Ñĥ":4163,"Ð°Ð½Ð½ÑĭÐµ":4164,"ĠÐ»ÐµÐ¶":4165,"ĠÐ»Ð°ÑģÐº":4166,"adow":4167,"ĠÑģÑĤÐ°Ð½":4168,"Ġshoot":4169,"Ġseems":4170,"ĠÑģÑĤÐ¾Ñı":4171,"ĠÐ´ÐµÐ»Ðµ":4172,"ĠÐ¿Ð¾ÐºÐ°Ð·Ð°Ð»Ð¾ÑģÑĮ":4173,"Ġdisp":4174,"ĠÐ´Ð¾ÑģÑĤ":4175,"ĠÐ½Ð°Ð¿ÑĢÑı":4176,"ĠÐ¿Ð¾Ð¼Ð¾Ñī":4177,"anging":4178,"ĠÐ±Ð»Ð°Ð³Ð¾":4179,"Ð°ÑĩÐµÐ¼":4180,"ĠÑĢÐ°Ð·Ð³Ð¾Ð²Ð¾ÑĢÐ°":4181,"Ġwrote":4182,"Ġrelig":4183,"ĠÐĹÐ°":4184,"Ġresult":4185,"Ð½ÑİÑİ":4186,"Ġdrew":4187,"ĠÐ±Ð¾Ð³Ð°":4188,"ĠÐ¿Ð¾Ð´ÑĥÐ¼Ð°Ð»Ð°":4189,"Ġcarefully":4190,"ĠRussia":4191,"Ġcondition":4192,"Ġhurried":4193,"Ġexplain":4194,"Ġhorror":4195,"Ġsettled":4196,"Ġexclaimed":4197,"Ġlabourer":4198,"Come":4199,"ins":4200,"ĠÐ½Ñı":4201,"ĠÐ¿Ð°Ð¿":4202,"Ġhot":4203,"ĠÐ¾Ð·":4204,"Ð²ÐµÐ´":4205,"Ð¼Ð¸ÑĤ":4206,"Ð¾Ð²Ð°Ð»Ð¸":4207,"ÑĪÐµÐ¼Ñĥ":4208,"ÐµÐ½ÑĤ":4209,"Ġfixed":4210,"Ġmus":4211,"Ġmaid":4212,"ene":4213,"eness":4214,"Ġthin":4215,"Ġdev":4216,"ÐµÑĢÑħ":4217,"Ġla":4218,"Ġled":4219,"Ð½Ð¸ÑĨÐ°":4220,"ÐµÐ´Ð¸Ð½":4221,"Ġasleep":4222,"ĠÐ¾ÑĤÑĬ":4223,"ĠÐ²ÑģÐ»ÐµÐ´":4224,"ĠÐºÐ°ÐºÐ¸Ð¼":4225,"ÑĢÑĥÑĪ":4226,"ĠÐĶÐ»Ñı":4227,"Ð½ÑıÑı":4228,"Ġchair":4229,"ĠÐ¿ÐµÑĢÐµÐ²":4230,"ĠÐ¾Ð´Ð½Ñĥ":4231,"ÐµÑģÑĤÐ½Ð¾":4232,"ĠÐľÐ¾Ð¶":4233,"ests":4234,"Ġknows":4235,"ĠDo":4236,"ĠÐ´ÐµÐ»Ð°Ð»":4237,"osing":4238,"ĠÐ¼Ð¾Ð¶ÐµÑĪÑĮ":4239,"ĠGr":4240,"ĠÐ²Ð¾ÑģÐ¿Ð¸ÑĤ":4241,"ĠÐ½ÐµÐ´Ð¾ÑģÑĤ":4242,"ĠÐ¶ÐµÐ½ÑīÐ¸Ð½":4243,"ĠÐ¿ÑĢÐ¾Ð´Ð¾Ð»Ð¶Ð°Ð»Ð°":4244,"ĠÐ¿ÑĢÐ¸Ð·Ð½Ð°":4245,"ĠÑģÐµÐ¼ÐµÐ¹":4246,"Ġlandown":4247,"Ġexcited":4248,"ĠÐºÑĢÑĭÐ»ÑĮ":4249,"Ġguilty":4250,"Ġpeculiar":4251,"Is":4252,"aven":4253,"ear":4254,"gi":4255,"ghed":4256,"tic":4257,"ÑģÐ°":4258,"Ð»ÐµÐ½Ð¸ÐµÐ¼":4259,"Ġtry":4260,"ÑĭÐ¿":4261,"ĠÑģÐ¸Ñı":4262,"ĠÐ½Ð°Ð»":4263,"ĠÐ½ÐµÑĢ":4264,"ĠÐ²Ð¾ÑĢ":4265,"ities":4266,"Ġment":4267,"ĠÑĩÑĥÑĤÑĮ":4268,"Ġthird":4269,"ĠÐ¿ÑĢÐ¾Ð¿":4270,"Ð¸Ð»Ð¸Ñĩ":4271,"Ð¾Ð»Ñĩ":4272,"Ġelect":4273,"ĠIs":4274,"ÑģÐºÑĥÑİ":4275,"Ð°Ð½ÑĮÐµ":4276,"ÐµÐ´ÐµÐ¼":4277,"Ġrather":4278,"ĠÑģÐ²ÐµÐ¶":4279,"tering":4280,"outh":4281,"usion":4282,"Ġsuper":4283,"ards":4284,"ĠMy":4285,"ĠÐ¼Ð¾Ð³Ð»Ð¸":4286,"Ġlean":4287,"ĠÐ»ÑİÐ±Ð¸Ð»Ð°":4288,"Ġself":4289,"Ġpeace":4290,"Ġbegun":4291,"Ġimpro":4292,"Ġglance":4293,"ĠÐ²Ð¾Ð·Ð±":4294,"Ġblushed":4295,"ĠÐ²Ð·Ð³Ð»ÑıÐ½ÑĥÐ»":4296,"ĠÐ½Ð°ÑĩÐ°Ð»Ð°":4297,"Ġpray":4298,"Ġputting":4299,"Ġexpressed":4300,"Ġrecoll":4301,"Ġstop":4302,"Ġaccord":4303,"ĠÐ½ÑĭÐ½ÐµÑĪ":4304,"ĠÐ²Ð·Ð³Ð»ÑıÐ´Ð¾Ð¼":4305,"ĠÐ·Ð°Ð´ÑĥÐ¼":4306,"ĠÐ´ÐµÑĢÐµÐ²Ð½Ðµ":4307,"ĠÐ¿ÑĢÐ¸Ð±Ð°Ð²Ð¸Ð»Ð°":4308,"ĠÐ²Ð·Ð´Ð¾Ñħ":4309,"Ġparticularly":4310,"ĠÐ±Ð»ÐµÑģÑĤÑıÑī":4311,"ĠÐ¿Ð¾ÐºÑĢÐ°ÑģÐ½":4312,"Ġladies":4313,"br":4314,"oat":4315,"Ð»Ð°Ð²":4316,"Ð»ÐµÐ¹":4317,"ĠÐ½Ð¸Ð·":4318,"ĠÐ´ÐµÐ½":4319,"ĠÐ´Ð¾Ð²Ð¾Ð»ÑĮ":4320,"esides":4321,"ĠÐ¼Ð½Ð¾Ð¹":4322,"Ġlif":4323,"Ð±Ñĥ":4324,"ĠÑĥÐµÑħ":4325,"ĠÐ½Ð°ÑģÐ¼ÐµÑĪ":4326,"Ð¸Ð½Ð°Ð»":4327,"Ð°Ð´Ð¸":4328,"Ġstren":4329,"ĠÐĿÐ¸Ñĩ":4330,"Ð¸Ð¼Ð°Ñı":4331,"ĠÐ¾Ð±Ðµ":4332,"ĠÐ¾Ð±Ð°":4333,"ĠÐ¾Ð±Ð»":4334,"ĠSteve":4335,"Ġshow":4336,"Ð¾ÑģÐ¾Ð±":4337,"ĠÐ³Ð¾ÑĢÐ¾Ð´":4338,"ÐµÑĩÑĥ":4339,"ĠÐ¿Ð¾Ð»Ð¾Ð²":4340,"Ð°ÑİÑģÑĮ":4341,"ĠÑģÑĤÐ¾Ð»ÑĮÐºÐ¾":4342,"Ġpol":4343,"ortun":4344,"ĠÐ¸Ð¼ÐµÐµÑĤ":4345,"Ġspent":4346,"Ġspring":4347,"Ġcompl":4348,"ÑıÑĤÑĮÑģÑı":4349,"Ð°Ð²ÑĪÐ°Ñı":4350,"ages":4351,"Ġtruth":4352,"ĠÐ²ÐµÑĢÐ½Ð¾":4353,"Ð½Ð¸ÐºÐ¾Ð¼":4354,"ĠÐ·Ð°Ð±Ð¾ÑĤ":4355,"Ġopen":4356,"Ġpassion":4357,"ĠÐŁÐµÑĤÑĢÐ¾Ð²":4358,"Ġfamiliar":4359,"Ġpainful":4360,"ĠÐ¾Ð±ÐµÐ´Ð°":4361,"Ġaffairs":4362,"ĠÑģÐ»ÑĥÑĪÐ°Ð»":4363,"Ġyesterday":4364,"ĠÑĥÑģÐ¸Ð»":4365,"ĠÐ½ÐµÐ¿ÑĢÐ¸ÑıÑĤÐ½Ð¾":4366,"Ġdiscuss":4367,"Ġcertainly":4368,"Ġeasy":4369,"ĠÐ²ÑģÐºÑĢÐ¸Ðº":4370,"ĠÐ¿ÑĢÐµÐ·ÑĢ":4371,"ĠÐ½ÐµÐ²Ð¾Ð·Ð¼Ð¾Ð¶Ð½Ð¾":4372,"ĠÐ¿Ð¾Ð´ÑĢÐ¾Ð±Ð½Ð¾ÑģÑĤÐ¸":4373,"Ġfingers":4374,"Ġforgotten":4375,"Ġinterrupted":4376,"ĠÐ¯ÑĪÐ²Ð¸Ð½":4377,"ĠÑĤÐ¾Ð²Ð°ÑĢÐ¸Ñī":4378,"Ġfalse":4379,"gius":4380,"All":4381,"Th":4382,"ces":4383,"Ðŀ":4384,"Ð½Ð°ÐºÐ¾":4385,"ÐºÐ¸Ð¼Ð¸":4386,"ÑĤÐ¾Ñİ":4387,"Ġbowed":4388,"Ġtown":4389,"Ġcut":4390,"Ġcovered":4391,"Ġmil":4392,"Ġdeep":4393,"Ġlit":4394,"ĠÐ¿ÑĢÐ¾ÑĪÐµÐ»":4395,"otion":4396,"iment":4397,"Ġele":4398,"Ð¾Ð¹Ð´Ñı":4399,"Ġnotice":4400,"ĠÐ³ÑĢ":4401,"ĠÐ¾ÑĤÑĤÐ¾Ð³Ð¾":4402,"irt":4403,"Ġann":4404,"Ð°ÑĤÑĢ":4405,"ĠÐ¾Ð±Ð¾":4406,"Ð¾Ð»ÑĮÐ·":4407,"ĠÐĶÐ¼Ð¸ÑĤ":4408,"Ð½ÑıÐ»":4409,"acing":4410,"ĠOh":4411,"Ġintim":4412,"ĠMarsh":4413,"ĠÐ¼Ð¾Ð³ÑĥÑĤ":4414,"ĠÐ¼Ð¾Ð³Ð»Ð¾":4415,"Ġlead":4416,"ĠÐºÑĢÐµÐ¿":4417,"Ġsepar":4418,"ĠÐ¾ÑģÑĤÐ¾ÑĢÐ¾Ð¶":4419,"Ð¸Ð¼Ð¸ÑģÑı":4420,"ĠÐ½ÐµÐ¿ÑĢ":4421,"Ġnews":4422,"Ġeng":4423,"ĠÐ´Ð¾Ð¼Ðµ":4424,"ĠÐ·Ð°Ð±Ñĭ":4425,"ĠÐ·Ð°Ð¿Ð¸ÑģÐº":4426,"ĠÐĹÐ°ÑĩÐµÐ¼":4427,"Ġscre":4428,"ĠÑĩÐ°ÑģÐ¾Ð²":4429,"ĠÑĥÐ²Ð¸Ð´Ð°Ð²":4430,"ĠÐ¾Ð±ÑĢÐ°ÑĤÐ¸Ð»Ð°ÑģÑĮ":4431,"Ġapproached":4432,"Ġmovement":4433,"ĠÑģÐ¾Ð¾Ð±Ñī":4434,"Ġlabour":4435,"ĠÐ¾Ð±ÑĢÐ°ÑīÐ°ÑıÑģÑĮ":4436,"Ġpromised":4437,"ĠÐŁÐ¾ÑģÐ»Ðµ":4438,"Ġfault":4439,"Ġsituation":4440,"?..":4441,"AS":4442,"che":4443,"dle":4444,"ipe":4445,"Ð¢":4446,"Ð¸Ð¿":4447,"Ð½ÐµÑĤ":4448,"Ġwishing":4449,"ÑĩÐ¸Ð²":4450,"ĠÐ²Ð½Ñĥ":4451,"itation":4452,"Ġbar":4453,"ĠÐºÑĥÑĢ":4454,"Ġmarsh":4455,"ĠÑĩÑĥÐ¶":4456,"Ġnice":4457,"ĠÐ¼Ð¸ÑĢ":4458,"ĠÐ¼ÐµÑģÑı":4459,"ĠÐ¿ÑĢÐ¾Ð±":4460,"arr":4461,"ĠÑĢÐµÐ»Ð¸":4462,"Ġgri":4463,"ÑģÐºÐ°Ñı":4464,"ĠÐ»ÐµÑģÑĤ":4465,"cell":4466,"ÑĢÐ¾ÑĩÐµÐ¼":4467,"Ġstre":4468,"Ġrising":4469,"oof":4470,"ĠÑħÐ»":4471,"race":4472,"ously":4473,"Ġsmo":4474,"ĠÐ¿ÑĢÐµÐ´Ð²Ð¾Ð´":4475,"ĠÑģÐ¼ÐµÑı":4476,"ĠÐ´ÑĢÑĥÐ³Ð¾Ð³Ð¾":4477,"ĠÐ´ÑĢÑĥÐ³ÑĥÑİ":4478,"Ġsays":4479,"ÑĢÐµÐ¼ÐµÐ½Ð½Ð¾":4480,"ĠÐ½Ð¸ÐºÑĤÐ¾":4481,"Ġstrugg":4482,"ĠÑĢÐ°Ð´Ð¾ÑģÑĤÐ¸":4483,"Ġenough":4484,"ĠÑģÑĤÑĢÐ¾Ð³Ð¾":4485,"ĠÐºÐ¾ÑĤÐ¾ÑĢÐ¾Ñİ":4486,"Ġresol":4487,"ĠÐ¶ÐµÐ»Ð°Ð»":4488,"ĠXXV":4489,"ĠÐ²ÐµÐ»Ð¸Ðº":4490,"ĠSergius":4491,"ĠÐ¾Ð±ÑĬÑıÑģÐ½":4492,"ĠÑĤÐ¾Ð»Ð¿":4493,"ĠÑģÐ»ÐµÐ·Ñĭ":4494,"ĠÑĤÐµÐ»ÐµÐ³":4495,"ĠÐ°Ð½Ð³Ð»Ð¸Ñĩ":4496,"ĠÑģÐ¾Ð·Ð½Ð°":4497,"ĠArk":4498,"ĠMarshal":4499,"An":4500,"Then":4501,"ope":4502,"val":4503,"Ð°Ñī":4504,"Ð»Ð¾Ð¼":4505,"head":4506,"Ġair":4507,"ÑĥÐ»ÑĮ":4508,"ĠÐ¿ÑĥÑĤ":4509,"Ġhast":4510,"Ġobl":4511,"ĠÐ¸Ð½Ð°Ñĩ":4512,"Ð¾Ð²Ð°Ð»Ð¾":4513,"ĠÐ½ÐµÐ¸Ð·":4514,"Ð±Ðµ":4515,"ution":4516,"Ð°Ð²Ð»Ð¸Ð²":4517,"Ð³Ð½Ð¾Ð²":4518,"ÑģÐºÐ¾Ðµ":4519,"Ð¾Ð±ÑĢÐ°Ð·":4520,"ĠÐºÐ°ÐºÐ°Ñı":4521,"Ð¸Ð¼ÑģÑı":4522,"Ġraces":4523,"ĠLand":4524,"aman":4525,"Ð½ÑıÑĤ":4526,"Ð¼ÑĥÑĢ":4527,"ĠÐŁÑĢÐ¸":4528,"Ġexact":4529,"Ġneither":4530,"ĠBe":4531,"ĠÐ¿Ð¾Ð»ÐºÐ¾Ð²":4532,"ĠÑĢÑĥÐº":4533,"ĠÑĪÐ²ÐµÐ¹ÑĨÐ°ÑĢ":4534,"Ġunha":4535,"ĠÐºÑĢÐµÑģ":4536,"ĠÐ³Ð»ÑĥÐ±":4537,"Ġsever":4538,"ĠÐ¿Ð¾ÐºÐ°Ð·":4539,"Ġclosed":4540,"Ġacross":4541,"ĠÐ±Ð¾Ð»ÐµÐ·":4542,"hys":4543,"ĠXI":4544,"ÑĭÑĩÐ°Ð¹":4545,"Ġreading":4546,"ÑıÑīÐµÐ½":4547,"Ġcheer":4548,"Ġmerry":4549,"Ġinflu":4550,"Ġdefinite":4551,"Ġgazing":4552,"ĠÐ¨ÑĤÐ°Ð»ÑĮ":4553,"Ġpriest":4554,"Ġoccupied":4555,"Ġmemory":4556,"ahl":4557,"Ġimpression":4558,"Ġtrouble":4559,"ĠÐ¸Ð½Ð°ÑĩÐµ":4560,"Ġunhapp":4561,"?...":4562,"to":4563,"uct":4564,"Ð»ÐµÑĩ":4565,"ĠÑģÐ¾Ñĩ":4566,"ĠÐ¿ÑĥÑģÑĤ":4567,"ĠÐ²ÑĤÐ¾ÑĢ":4568,"nding":4569,"ates":4570,"ĠÐºÑĢÐ¾Ð²":4571,"ony":4572,"Ġfarming":4573,"Ġmut":4574,"ĠÐ´ÐµÑĤÑĮ":4575,"Ġthre":4576,"ĠÐ¼Ð³Ð½Ð¾Ð²":4577,"Ġphys":4578,"Ð°ÐºÐ¾Ð²":4579,"ime":4580,"utes":4581,"Ð°Ð²ÑĪÐ¸ÑģÑĮ":4582,"ĠÐ¿Ð¾ÑģÑĤÐ°Ð²":4583,"ĠÐ¿Ð¾ÐµÐ·Ð´":4584,"ÐµÐ²Ð¸Ñĩ":4585,"enty":4586,"ÑĨÐ°Ð¼Ð¸":4587,"ĠÐ¾ÑĤÑĨÐ°":4588,"adi":4589,"ĠÐºÐ¾ÑĦ":4590,"ĠÐļÐ¾ÑĢ":4591,"ĠÑģÑĤÐ°Ð½Ð¾Ð²":4592,"ĠÐĽÐ¸Ð·":4593,"ĠÑĤÐ°ÐºÐ¾Ð³Ð¾":4594,"Ġwhose":4595,"Ġcharming":4596,"ĠProv":4597,"Ġjud":4598,"Ġintell":4599,"ĠÑĪÐ¸ÑĢ":4600,"ĠÑģÑĤÐ¾Ð»Ð°":4601,"ĠÐ¿Ð¾ÑĤÐµÑĢ":4602,"ĠÐ¾Ð¿ÑĥÑģÑĤ":4603,"ĠÐ¾ÑģÐ²":4604,"ĠÐ¼ÑĭÑģÐ»":4605,"ÑģÑĤÑĢÐ¾Ð¹":4606,"lease":4607,"Ð¾ÑĢÐ¾ÑĪÐ¾":4608,"ĠÐĳÑĭ":4609,"ĠÐºÐ½ÑıÐ¶":4610,"ĠÐ¿Ð¾Ð¼ÐµÑīÐ¸Ðº":4611,"Ð»ÑİÑĩ":4612,"Ġattract":4613,"They":4614,"ÑĢÐ¾Ð¼Ðµ":4615,"ĠÐ±Ð¾Ð»ÑĮÑĪÐ¾Ð¹":4616,"Ġmarriage":4617,"ĠÐ½ÐµÑģÐ¾Ð¼Ð½":4618,"Ġobser":4619,"ĠÐ¿Ð¾ÑģÐ»ÐµÐ´Ð½ÐµÐµ":4620,"ĠStahl":4621,"ĠÑĥÐ·Ð½Ð°Ð»":4622,"ĠÐ»Ð¾ÑĪÐ°Ð´ÐµÐ¹":4623,"ING":4624,"Ġkissed":4625,"ĠÑģÑĤÑĢÐ°Ñħ":4626,"ĠJust":4627,"ĠÐ½Ð°Ð¹ÑĤÐ¸":4628,"ĠÐºÐ°Ð±Ð¸Ð½ÐµÑĤ":4629,"Ġdemand":4630,"ĠArkady":4631,"ĠLandau":4632,"'m":4633,"To":4634,"old":4635,"Ã¨":4636,"ĠU":4637,"ĠÑģÐµÑĢ":4638,"ĠÑģÐµÐ»Ð°":4639,"Ġsle":4640,"ision":4641,"Ġmouth":4642,"ĠÑĩÐ»ÐµÐ½":4643,"Ġpressed":4644,"ĠÐ·Ð°ÑĢ":4645,"ices":4646,"ically":4647,"Ð°Ð¼Ð°":4648,"ÐµÐ½Ð¸Ð½Ð°":4649,"Ð¾Ð±Ð¾Ð¹":4650,"ĠÐļÑĢÐ¾Ð¼Ðµ":4651,"ÐºÐ¾Ñİ":4652,"ĠÐĲÐ»ÐµÐºÑģÐµÑİ":4653,"akes":4654,"ĠÐºÐ¾ÑĤÐ¾ÑĢÐ¾Ð¼Ñĥ":4655,"ĠÐ¿ÐµÑĢÐµÐ½":4656,"ĠÑģÐ¿ÑĥÑģÐº":4657,"Ġseem":4658,"Ġgover":4659,"els":4660,"ĠÐ¿ÑĢÐ¾Ð¸Ñģ":4661,"ĠÐ¿ÑĢÐµÐ´Ñģ":4662,"Ġweak":4663,"arya":4664,"Ġdisg":4665,"ĠÑģÐ¾Ð²ÐµÑĤ":4666,"aged":4667,"ĠÑĦÐ¸Ð·":4668,"ĠÐ¿ÑĢÐ°Ð²Ð¾":4669,"ney":4670,"Ġproud":4671,"ĠÐ±ÑĢÐ°ÑĤÐ¾Ð¼":4672,"Ġserious":4673,"ĠÐ´Ð¾Ð»Ð³":4674,"ĠXXX":4675,"ĠÑħÐ¾Ð·ÑıÐ¹ÑģÑĤÐ²Ð¾":4676,"Ġinstead":4677,"ĠÐ±ÑĭÐ²Ð°ÐµÑĤ":4678,"ĠÑģÐ¸Ð´ÐµÐ»":4679,"Ġsuffering":4680,"Ġapproaching":4681,"ritsky":4682,"ĠÐļÐ°ÑĢÐµÐ½Ð¸Ð½Ð°":4683,"ĠÐ¿ÑĢÐµÐºÑĢÐ°ÑģÐ½Ð¾":4684,"Ġeffort":4685,"ĠÑģÐ¾Ð¾Ð±ÑĢÐ°Ð¶":4686,"ĠÐ¿Ð¾ÑģÐ¼Ð¾ÑĤÑĢÐµÐ»":4687,"ĠÐŁÐµÑĤÐµÑĢÐ±ÑĥÑĢÐ³Ðµ":4688,"Ġpointing":4689,"ĠÐĿÐ¸ÑĩÐµÐ³Ð¾":4690,"ĠÐ´ÐµÑĤÑĮÐ¼Ð¸":4691,"ieved":4692,"Ðļ":4693,"ÑıÐ¼":4694,"ĠÑģÐµÐº":4695,"ĠÑģÐ¾Ð»Ð½":4696,"Ġsick":4697,"Ġschool":4698,"Ġbird":4699,"ĠÐºÐ°ÑĤ":4700,"Ġpet":4701,"owers":4702,"Ġgard":4703,"Ġwithin":4704,"Ð¾ÑĤÑĥ":4705,"ĠÐ¾Ð±Ð´ÑĥÐ¼":4706,"ÐºÐ¾Ð½Ñĩ":4707,"tern":4708,"ĠÑĤÐ°ÐºÐ¸Ð¼":4709,"aming":4710,"arer":4711,"Ġconcl":4712,"ĠÑģÐ°Ð¼Ð¾Ð¹":4713,"ĠÑģÐ°Ð¼Ð¾Ð³Ð¾":4714,"ĠÐ²Ð·ÑıÐ²":4715,"Ġhowever":4716,"Ġcontempt":4717,"ĠÐ¼Ð¾Ð»ÑĩÐ°":4718,"ĠÐ²Ð·Ð³Ð»ÑıÐ½ÑĥÐ²":4719,"ĠÐ¿Ð¾Ð¼Ð¾Ð³":4720,"Ð¾ÑİÑģÑĮ":4721,"Ġrepro":4722,"ĠÐ¾ÑĤÐºÑĢÑĭÐ²":4723,"ĠÐ¿Ð¾Ð·Ð²":4724,"ĠÐ²ÑĭÑĢÐ°Ð¶ÐµÐ½Ð¸ÐµÐ¼":4725,"Ġaddressing":4726,"ĠÐ³Ð¾Ð»Ð¾ÑģÐ°":4727,"ĠÐºÐ¾ÑĢÐ¼":4728,"ĠÐ¼Ð¾Ð»Ð¾Ð´Ð¾Ð¹":4729,"ĠÑģÐ¿Ð¾ÐºÐ¾Ð¹Ð½Ð¾":4730,"ĠÐ¿ÑĢÐ¸ÑıÑĤÐ½Ð¾":4731,"ĠÐ½ÐµÐ¾Ð±ÑĭÐºÐ½Ð¾Ð²":4732,"Ġcorner":4733,"Ġdetails":4734,"ĠÑģÑĤÑĢÐ°ÑĪÐ½Ð¾":4735,"Ġprepared":4736,"Ġarrange":4737,"ĠÑĤÐ²ÐµÑĢÐ´Ð¾":4738,"Ġacquaintance":4739,"Ġsuccess":4740,"Ġcharact":4741,"Ġhabit":4742,"Ġseveral":4743,"coat":4744,"iven":4745,"ls":4746,"pic":4747,"Ġver":4748,"Ð¾Ð½ÐµÑĨ":4749,"ÑĤÐ¾Ð¶":4750,"Ð»Ð°ÑĤ":4751,"ĠÑģÐ¶":4752,"ĠÐ½Ð¾Ð¶":4753,"Ġheav":4754,"Ġcand":4755,"Ġfour":4756,"Ġfield":4757,"ases":4758,"ĠÐ¿ÑĢÐ¾ÑĤ":4759,"ĠÐ¿ÑĢÐ¸Ð¼":4760,"Ð¾Ð»Ð¾":4761,"Ð¾ÑĢÑĤ":4762,"set":4763,"sequ":4764,"ĠÑģÐºÑĢÑĭ":4765,"ĠÐ²ÑģÐµÐ¹":4766,"ÑģÑĤÐ²ÐµÐ½Ð½Ð¾Ðµ":4767,"Ġanx":4768,"Ð°Ð¶Ð´":4769,"ĠÑĤÐ°ÐºÐ¸Ðµ":4770,"Ġshook":4771,"Ġconvin":4772,"Ġdece":4773,"ĠBesides":4774,"ĠÑģÐ¿Ð¾ÑģÐ¾Ð±":4775,"Ġunf":4776,"Ġunif":4777,"ĠÐ¿ÑĢÐ¾ÑħÐ¾Ð´":4778,"ĠÐ»ÑİÐ±Ð¸Ð¼":4779,"Ð¸ÑĤÐµÐ»ÑĮÐ½ÑĭÐ¼":4780,"ÑĢÐ°Ð¶Ð´":4781,"Ġshoulders":4782,"pected":4783,"ĠÐ¿ÑĢÐ°Ð²Ð°":4784,"Ġinteresting":4785,"ĠÐ¿ÑĢÐ¸ÐµÑħÐ°Ð»Ð°":4786,"Ġordered":4787,"ĠÑĥÐ¿ÑĢÐµÐº":4788,"Ġsilence":4789,"Ġnoticing":4790,"ĠÐ·Ð°Ð¼ÐµÑĤÐ¸Ð»":4791,"ĠÐ½Ð¸ÐºÐ°ÐºÐ¾Ð³Ð¾":4792,"ĠÑģÐºÐ°Ð¶Ñĥ":4793,"ĠÐ·Ð½Ð°ÑĩÐµÐ½Ð¸Ðµ":4794,"ĠÐ¾ÑĤÑĩÐµÐ³Ð¾":4795,"ĠÐ´Ð¾ÐºÑĤÐ¾ÑĢÐ°":4796,"ĠÐ½ÐµÑģÑĩÐ°ÑģÑĤ":4797,"Ġsecret":4798,"ĠÐ²ÑĭÐ±Ð¾ÑĢ":4799,"ĠÐ´Ð¾ÑĩÑĮ":4800,"ĠÐ²Ð¾Ð·Ð¼Ð¾Ð¶Ð½Ð¾":4801,"Ġsurprised":4802,"Ġpurp":4803,"ĠÐ²Ð¿ÐµÑĩÐ°ÑĤÐ»ÐµÐ½Ð¸Ðµ":4804,"Ġmerely":4805,"Ġdissat":4806,"ĠÐºÐ¾Ð»ÑıÑģÐº":4807,"AD":4808,"Don":4809,"ches":4810,"hov":4811,"look":4812,"Ð¡":4813,"ÑĤÐµÐ»ÑĮ":4814,"inary":4815,"Ġsir":4816,"Ġsix":4817,"ĠÐ¿ÐµÑĤ":4818,"ÑĤÐ¾Ð»":4819,"itude":4820,"edom":4821,"ĠÐºÐµÐ¼":4822,"ĠÐºÑĢÑĥÐ¶":4823,"Ð¾Ð²Ð°Ð½Ð¸Ñı":4824,"ÑĪÐµÐ´":4825,"Ġcat":4826,"Ġmo":4827,"Ġmiss":4828,"ĠÐ´ÑĢÐ¾Ð¶":4829,"ĠÑĩÐµÐ¼Ñĥ":4830,"Ġdie":4831,"aska":4832,"ĠÑĢÑĭ":4833,"Ġrequ":4834,"ÑĢÐ¾Ð½":4835,"ÑģÑĤÐ²Ð¸ÐµÐ¼":4836,"ĠÐĿÐ¸":4837,"ĠÐĿÐµÑģ":4838,"ĠÑıÐ²":4839,"ĠÑģÑĤÑĥÐ¿":4840,"antly":4841,"arent":4842,"Ð¾Ð·Ð´":4843,"using":4844,"ĠÐŁÑĢÐ°Ð²":4845,"ache":4846,"Ġworth":4847,"Ð°Ð½Ð¸Ð¸":4848,"ighed":4849,"ĠÐ¾ÑģÐ½Ð¾Ð²":4850,"Ð¾ÑĤÑĢÐµÐ±":4851,"ĠÐ¿Ð¾ÐºÐ¾ÑĢ":4852,"ĠÑĦÑĢÐ°Ð½ÑĨÑĥÐ·":4853,"ĠÐ·Ð°Ð¼ÑĥÐ¶":4854,"ĠÐ¿Ð¾Ð½Ð¸Ð¼Ð°ÐµÑĤ":4855,"ĠÐ½ÐµÐ²ÐµÑĢ":4856,"Ġwrite":4857,"Ġwriting":4858,"ĠÐ¸Ð½Ð¾Ð³Ð´Ð°":4859,"Ġhandsome":4860,"ĠÐ¼Ð¾Ñı":4861,"ĠÐ´Ð¾Ð±ÑĢÐ¾Ð´":4862,"ĠÐ½Ð°Ð¼ÐµÑĢ":4863,"ĠÐ²ÐµÐ»ÐµÐ»":4864,"Ġrealized":4865,"ĠÑħÐ¾Ð´Ð¸ÑĤÑĮ":4866,"ĠÐľÐ¸ÑħÐ°Ð¹Ð»Ð¾Ð²Ð½Ð°":4867,"ĠÐ½Ð°ÐºÐ¾Ð½ÐµÑĨ":4868,"Ġimagine":4869,"ĠÐ¿ÑĢÐµÐ»ÐµÑģÑĤ":4870,"Ġestate":4871,"ĠÐ¿ÐµÑĢÐµÐ¼ÐµÐ½":4872,"ÐµÐºÐ¾ÑĤÐ¾ÑĢ":4873,"ĠÐĲÐ³Ð°ÑĦÑĮÑı":4874,"like":4875,"ĠÐ¿ÑĢÐ¸ÐºÐ°Ð·ÑĩÐ¸Ðº":4876,"ĠÐĺÐ²Ð°Ð½ÑĭÑĩ":4877,"ĠÐ¿Ð¾Ð½ÑĢÐ°Ð²":4878,"ĠÐľÐ¾Ð¶ÐµÑĤ":4879,"Ġlandowner":4880,"!..":4881,"iver":4882,"nature":4883,"ping":4884,"Ð½Ð½Ð¾":4885,"ÑĢÐ°Ð´":4886,"ÑĢÐµÑĪ":4887,"Ġsens":4888,"ÑĩÐµ":4889,"Ġhid":4890,"ÑģÑĤÐµ":4891,"Ġcaused":4892,"Ġmis":4893,"ĠÑĤÑĢÐ¾":4894,"Ġpie":4895,"ĠÐ¶Ð°ÑĢ":4896,"ston":4897,"Ð°Ð¼ÐµÑĤ":4898,"ĠÐ³ÑĢÑı":4899,"ÐµÐ½Ð¸ÑĤ":4900,"ĠÑģÐºÑĢÑĭÐ²":4901,"Ġunt":4902,"ÑĨÐ¾Ð²":4903,"Ġforce":4904,"Ð»Ð¸Ð¶":4905,"ĠÑħÐ¾ÑĤÑĮ":4906,"Ð¾ÐºÐ°ÑĤ":4907,"ĠLaska":4908,"ĠÐĽÐ°ÑģÐº":4909,"evich":4910,"ĠÐ¿Ð¾Ð´Ð¾ÑĪÐ»Ð°":4911,"ĠÐ¿Ð¾Ð´ÑĤÐ²":4912,"ÑĥÐ¼Ñı":4913,"Ġexam":4914,"ÐµÑĩÐ¸":4915,"ÐµÐ½Ð½Ð¾Ñİ":4916,"Ġconv":4917,"blic":4918,"Ġintro":4919,"ÐµÑĢÑĮÑİ":4920,"ures":4921,"ĠÑħÐ¾ÑĤÐ¸ÑĤÐµ":4922,"ĠÐ´ÑĢÑĥÐ³Ð¸Ð¼":4923,"ĠÐ´ÑĥÐ¼Ð°ÐµÑĪÑĮ":4924,"Ġtele":4925,"hens":4926,"Ġroad":4927,"ĠÑĨÐ²ÐµÑĤ":4928,"ĠÐ¿Ð¾ÑĢÑĤÑĢ":4929,"Ġgrey":4930,"Ġattent":4931,"ĠÐ¡ÐµÑĢÐ³ÐµÑı":4932,"Ġcarried":4933,"ĠÐĺÐ²Ð°Ð½Ð¾Ð²Ð¸ÑĩÐ°":4934,"ĠÐ½ÐµÐ´Ð¾Ð²Ð¾Ð»ÑĮ":4935,"Ġbelong":4936,"Ġdressed":4937,"Ġguess":4938,"ĠÐ¾Ð±ÑĬÑıÐ²":4939,"Ġspoil":4940,"ĠÐ¿ÑĢÐ¸Ð´ÑĥÐ¼":4941,"ĠÐĿÐ¸ÐºÐ¾Ð»Ð°":4942,"ĠÑģÐ¾ÑģÑĤÐ¾ÑıÐ½Ð¸Ðµ":4943,"Ġbeauty":4944,"Ġforest":4945,"ĠÐ¸Ð³ÑĢ":4946,"ĠÐ¶Ð´Ð°Ð»":4947,"ĠÐ²ÑģÐ¿Ð¾Ð¼Ð½Ð¸Ð»":4948,"Ġwalking":4949,"ĠÐ²Ð¾Ð·Ð²ÑĢÐ°Ñī":4950,"ĠÐ¡ÑĤÐ¸Ð²Ð°":4951,"Ġportra":4952,"Ġmonth":4953,"ĠÐ²ÑģÐ¿Ð¾Ð¼Ð¸Ð½Ð°Ñı":4954,"Ġsummer":4955,"ĠÐ½Ð°Ð¿ÑĢÑıÐ¶":4956,"ĠÐĶÐ¼Ð¸ÑĤÑĢÐ¸Ñĩ":4957,"Ġoblig":4958,"oor":4959,"puk":4960,"that":4961,"ÑģÑĥ":4962,"ÑĢÐµÑģÑĤ":4963,"ÑıÐ»Ð°ÑģÑĮ":4964,"ÑĭÑģÐº":4965,"ĠÑģÐ½Ð°ÑĩÐ°Ð»Ð°":4966,"ĠÐ¿Ð¾Ð»ÑĮÐ·":4967,"ĠÐ¾Ð³Ð¾ÑĢ":4968,"rect":4969,"Ð²Ð°":4970,"Ð´Ð¾":4971,"Ġbig":4972,"ism":4973,"Ġcaught":4974,"ĠÐ±Ð°Ð±":4975,"ĠÐ±Ð¾ÑİÑģÑĮ":4976,"Ġmoving":4977,"Ġthick":4978,"ĠÐ¼Ð¸Ð¼Ð¾":4979,"ĠÑĥÐ¹":4980,"ĠÑĥÑĩÐ°":4981,"Ð¿ÑĥÑħ":4982,"ĠÑĢÐµÐ´":4983,"Ġearly":4984,"Ð¸ÑĤÐµÐ»Ñı":4985,"ĠÐĴÐµÑĢ":4986,"Ġform":4987,"ĠÐ²ÑĭÑĢÐ°Ð·":4988,"ĠÐ¾Ð±ÑıÐ·Ð°Ð½":4989,"ĠÑģÑĤÐ°Ð»Ð¸":4990,"Ġnearly":4991,"uls":4992,"ustom":4993,"ĠBar":4994,"ĠÐ¾Ð´Ð½Ð¾Ð¼":4995,"Ġval":4996,"ĠÐ²Ð¸Ð´Ð½Ð¾":4997,"ĠDmit":4998,"Ġcomes":4999,"ĠNik":5000,"ĠÐĲÐ»ÐµÐºÑģÐ°Ð½Ð´ÑĢÐ¾Ð²Ð¸ÑĩÑĥ":5001,"ĠÐ¼ÑĥÐ¶ÐµÐ¼":5002,"ĠEx":5003,"Ġblame":5004,"ĠÑģÐ¾Ð±Ð¾Ñİ":5005,"ĠÐ½ÐµÐ¿ÑĢÐ°Ð²":5006,"ĠÐ½Ð°ÑĩÐ¸Ð½Ð°":5007,"Ġentire":5008,"ĠÐ¿Ð¾Ð·Ð´":5009,"ÑıÐ»ÑģÑı":5010,"ĠÑĥÐ·Ð½Ð°ÑĤÑĮ":5011,"Ġremembering":5012,"ĠÑĥÐ±ÐµÐ´":5013,"ĠÐ¿Ð¾ÑģÑĤÐ¾Ñı":5014,"ĠÐ¾Ð¶Ð¸Ð´Ð°":5015,"ĠÐ¾Ð±ÐµÐ´Ð°ÑĤÑĮ":5016,"ĠÐ³Ð¾ÑģÑĤÐ¸Ð½":5017,"ĠÑģÑĤÐ¾Ð»Ñĥ":5018,"Ġhumili":5019,"attle":5020,"Ġvisitors":5021,"ĠÐ²ÑģÐ¿Ð¾Ð¼Ð½Ð¸Ð»Ð°":5022,"Ġfirmly":5023,"ĠÑĤÐ¾ÑĢÐ¾Ð¿":5024,"ONS":5025,"Ġdrove":5026,"Ġwhisp":5027,"ĠÐļÐ½ÑıÐ³":5028,"ĠÐĴÐ°ÑģÐµÐ½ÑĮÐºÐ°":5029,"Ġwinter":5030,"Ġfurther":5031,"Ġpurpose":5032,"hovsk":5033,"ib":5034,"Ð»ÑĥÑĪ":5035,"ÑĢÐµÐ½Ð¸Ñı":5036,"ination":5037,"ĠÐ½ÐµÐº":5038,"Ġhung":5039,"oured":5040,"Ġbir":5041,"atre":5042,"ative":5043,"ĠÐºÐ°Ð¼":5044,"ĠÐºÐ¾Ð¿":5045,"Ġfut":5046,"lled":5047,"Ð¾Ð´Ð½Ð¾":5048,"ĠÐ½Ð°ÑĢÐ¾":5049,"ĠÐ½Ð°ÑĪÐµÐ»":5050,"stairs":5051,"Ġsal":5052,"ÑĢÐ¾ÑĪ":5053,"irty":5054,"ĠÐ²ÑĭÐ³":5055,"Ð»Ð¸Ñı":5056,"ĠLE":5057,"ĠÐ¿Ð¾Ð´Ð¾Ð±":5058,"ÑĢÐ°ÑĦ":5059,"ĠÐ³Ð¾Ð²Ð¾ÑĢÑı":5060,"Ġdeal":5061,"ardon":5062,"ĠÐ¾Ð´Ð½Ð¸Ð¼":5063,"ĠMe":5064,"ĠÐ¿ÑĢÐµÐ´Ð¼":5065,"Ġseat":5066,"ĠÐ¿Ð¾ÐºÐ°":5067,"Ġcoff":5068,"ÑģÑĤÑĢÐµÑĩÑĥ":5069,"Ð°Ð²ÑĪÐ¸Ðµ":5070,"ĠGer":5071,"apa":5072,"Ð»Ð¸Ð²Ð¾":5073,"though":5074,"Ġafterwards":5075,"Ð½Ð¸ÐºÐ¾Ð²":5076,"ĠÐ£Ð¶":5077,"ĠÐ·Ð°Ð±ÑĭÐ»":5078,"ĠÐ²Ð¾ÑģÑĤÐ¾ÑĢ":5079,"ĠÐ¶ÐµÐ»ÐµÐ·":5080,"Ġdraw":5081,"ĠÑģÑĤÐ¾ÑĢÐ¾Ð½Ñĥ":5082,"Ġconfess":5083,"Ġreflect":5084,"Ġslow":5085,"ĠÐºÐ¾Ð¼Ð½Ð°ÑĤÐµ":5086,"Ġwatch":5087,"ception":5088,"ĠÐ³ÑĥÐ±Ñĭ":5089,"ĠÐ½Ð°Ð²ÑģÑĤÑĢÐµÑĩÑĥ":5090,"Ġbreak":5091,"Ġfreedom":5092,"Ġconditions":5093,"Ġhurt":5094,"ĠÐ¿Ð¾Ð²ÑĤÐ¾ÑĢÐ¸Ð»":5095,"ĠÑģÑĩÐ¸ÑĤÐ°Ð»":5096,"ĠÐ²Ð½Ð¸Ð¼Ð°ÑĤÐµÐ»ÑĮÐ½Ð¾":5097,"ĠÐ¿ÑĢÐµÐ»ÐµÑģÑĤÑĮ":5098,"ĠÐ¾ÑĤÐ½Ð¾ÑĪÐµÐ½Ð¸ÑıÑħ":5099,"gram":5100,"Ġsurprise":5101,"ĠÑģÐºÑĥÑĩÐ½Ð¾":5102,"ĠÐ´Ð°Ð»ÑĮÑĪÐµ":5103,"ĠÐ¼ÐµÑģÑĤÐ°":5104,"Ġburst":5105,"ĠÐ³Ð¾ÑĢÑıÑĩ":5106,"Ġslightly":5107,"Ġduty":5108,"ĠÐ½Ð°ÑħÐ¼ÑĥÑĢ":5109,"Ġquarre":5110,"Ġhurriedly":5111,"Ġunhappy":5112,"Ġcharacter":5113,"pukhovsk":5114,"ĠÐ¾Ð³Ð¾ÑĢÑĩ":5115,"pukhovskoy":5116,"bably":5117,"iber":5118,"rich":5119,"ricult":5120,"Ð¾ÑıÑĤ":5121,"ÑıÐ½ÑģÐº":5122,"Ġwis":5123,"Ġwet":5124,"Ġwood":5125,"ĠÑģÐ¾Ð´":5126,"ÑĩÑĤÐ¾":5127,"ĠÐ²Ð¾ÑĪÐ»Ð°":5128,"read":5129,"reme":5130,"rehens":5131,"Ġhearing":5132,"Ġcig":5133,"Ġfree":5134,"ency":5135,"ĠÐµÑģÑĤÐµ":5136,"Ġpressing":5137,"ĠÐ¿ÑĢÐ¾Ð¼":5138,"ĠÑĥÑħ":5139,"ĠÑĢÐµÐ·":5140,"let":5141,"Ð¾Ð´Ñĭ":5142,"ĠÐ¿Ð¾ÑĪÐ»Ð°":5143,"ĠÐ¿Ð¾Ñį":5144,"Ð°Ð½Ðµ":5145,"Ð°Ð½ÑĮ":5146,"ceed":5147,"ÑĨÐµÐ¼":5148,"ĠÐ¾ÑĤÐ»Ð¸Ñĩ":5149,"Ð¾Ð¶Ñĥ":5150,"ĠÐŀÐ¿":5151,"ĠÑģÐ²ÑıÑīÐµÐ½":5152,"Ð¾ÐºÐ°":5153,"ĠÐ¾Ð±ÑĭÑĩ":5154,"ĠÑģÑĤÐ°ÑĤÑĮ":5155,"ĠÑĢÐ°Ð·Ð³Ð¾Ð²Ð°ÑĢ":5156,"Ð¾Ð·Ð²":5157,"ĠÐ³Ð¾ÑĢÐ°Ð·":5158,"ÐµÐ½Ð¸ÑıÑħ":5159,"ĠÐ¿Ð¾Ð»ÑİÐ±":5160,"Ġoutside":5161,"Ġunex":5162,"ĠDon":5163,"ĠÑģÐ¼ÑĭÑģÐ»":5164,"ounded":5165,"Ð³Ð»ÑıÐ´ÑĭÐ²":5166,"Ġplaced":5167,"ÑģÑĤÑĢÐ°Ð½":5168,"ĠÑģÑĤÐ°ÑĢÐ°Ð»ÑģÑı":5169,"ĠÐ¡ÐµÑĢÐ¿ÑĥÑħ":5170,"ĠÐ²ÐµÑĢÐ¸ÑĤÑĮ":5171,"Ġblushing":5172,"ĠÑĥÐ¼ÐµÑĢ":5173,"Ġhappen":5174,"ĠÐ³Ð¾Ð»Ð¾Ð²Ðµ":5175,"ĠÐ¿Ð¾Ð·Ð½Ð°ÐºÐ¾Ð¼":5176,"ĠÐ²ÑģÐ¿Ð¾Ð¼Ð½Ð¸Ð²":5177,"Ġscy":5178,"Ġscar":5179,"ĠÑĢÐ°Ð·Ð²Ðµ":5180,"ĠÑĩÐ°ÑģÑĭ":5181,"ĠÐºÑĢÐ°ÑģÐ½Ðµ":5182,"ĠThough":5183,"Ġinde":5184,"Ð¸ÑĩÐµÑģÐºÐ¸":5185,"ĠÑģÑĤÐ¾ÑĢÐ¾Ð½":5186,"Ġaction":5187,"Ġlisten":5188,"ĠÐ·Ð²Ñĥ":5189,"ĠÐ¸ÑģÐºÑĥÑģ":5190,"Ġfollowing":5191,"ĠÑģÐ»ÑĥÑĩÐ°":5192,"isfact":5193,"ĠÐ²ÑģÑĤÐ°Ð»Ð°":5194,"ĠÑĥÐ·Ð½Ð°Ð²":5195,"ĠÐ±ÑĥÐ´ÑĥÑī":5196,"ĠÐ¿ÑĢÐ¸Ð½ÐµÑģ":5197,"ĠSerpukhovskoy":5198,"ĠÐ²ÑģÑĤÑĢÐµÑĤÐ¸Ð»":5199,"velop":5200,"ĠÑĥÐ½Ð¸Ð¶":5201,"ĠÐ·Ð°Ð³Ð¾Ð²Ð¾ÑĢÐ¸Ð»":5202,"ĠÐ´ÐµÑģÑıÑĤ":5203,"ĠÐľÐ¾ÑģÐºÐ²Ñĥ":5204,"ĠÐ²ÐµÑīÐ¸":5205,"ĠÐ²Ð°ÑĪÐµ":5206,"Ġpaper":5207,"Ð´Ð²Ð¾ÐºÐ°ÑĤ":5208,"ĠÐ·Ð°Ð¿Ð¸ÑģÐºÑĥ":5209,"Ġinfluence":5210,"ĠÐ¼ÑĭÑģÐ»ÐµÐ¹":5211,"ĠArkadyevna":5212,"Ġgoverness":5213,"ĠÐ¿ÑĢÐ¾Ð¸ÑģÑħÐ¾Ð´":5214,"ĠÐ³Ð¾ÑģÑĤÐ¸Ð½ÑĥÑİ":5215,"ĠÐļÐ½ÑıÐ³Ð¸Ð½Ñı":5216,"Ġfuture":5217,"ĠGerman":5218,"ĠÐ³Ð¾ÑĢÐ°Ð·Ð´Ð¾":5219,"ĠÐ¡ÐµÑĢÐ¿ÑĥÑħÐ¾Ð²":5220,".\"":5221,"00":5222,"In":5223,"My":5224,"kn":5225,"ÐŁ":5226,"Ð¾Ð½Ð°":5227,"Ð»Ð¾ÑĤ":5228,"ÑĢÐ¾Ð³":5229,"ÑĥÑı":5230,"ÑĥÐµÑĤ":5231,"ines":5232,"ĠÑģÐ½Ð¸Ð¼":5233,"ĠÐ½ÐµÐºÐ¾ÑĤÐ¾ÑĢ":5234,"ĠÐ²ÑģÑĤÑĥÐ¿":5235,"ĠÐ²Ð½Ð¸Ð·":5236,"Ġhig":5237,"Ð²Ð¸Ð´":5238,"ital":5239,"erk":5240,"onc":5241,"Ġfav":5242,"ĠÐ±Ð¾Ðº":5243,"Ġma":5244,"Ġmed":5245,"ĠÐ´Ð°ÑĤÑĮ":5246,"ÐµÑĢÑĥ":5247,"ĠÐ¼ÐµÐ»":5248,"ĠÐ¼ÑĥÐ½Ð´":5249,"ĠÐ¿ÑĢÐ¾Ðº":5250,"ĠÐ·Ð¸Ð¼":5251,"Ð½Ð¸ÑĤÐµ":5252,"Ġeat":5253,"icated":5254,"ĠÐ¶Ð°Ð»Ð¾":5255,"ÐµÐ²Ð°":5256,"Ð°Ð¼Ð¿":5257,"ĠÐ»Ð¸Ñĩ":5258,"Ġring":5259,"oose":5260,"Ð½ÑĥÑĤÑĮÑģÑı":5261,"ĠÑģÑĤÐµÐ¿":5262,"ĠÑĤÐ°ÐºÐ°Ñı":5263,"ĠÑģÐºÐ°Ð·Ð°Ð»Ð¸":5264,"ĠÐºÐ¾ÑĤÐ¾ÑĢÑĭÐ¼Ð¸":5265,"ĠÐĽÐµÐ²Ð¸Ð½ÑĭÐ¼":5266,"ĠÐ³Ð¾ÑģÑĤÐ¸":5267,"itted":5268,"Ġdepend":5269,"ĠÑģÐ¿Ð°Ñģ":5270,"ÑĥÐ²ÐµÑĢ":5271,"ists":5272,"ĠÑĢÑĥÐºÐ°Ñħ":5273,"ĠÑĪÐµÐ¿":5274,"Ġvan":5275,"arth":5276,"Ġknowledge":5277,"ĠÐ²Ð·ÑıÑĤÑĮ":5278,"ĠÐ²Ð·ÑıÐ»Ð°":5279,"ĠÐ±Ð¾Ð»ÑĮÐ½Ð¾":5280,"ĠÐ¿Ð¾ÐºÐ°Ð·ÑĭÐ²":5281,"Ġplan":5282,"ĠÐ¿Ð¾ÑģÐ»ÑĭÑĪ":5283,"ĠÐ²ÐµÑĢÐ½ÑĥÐ»ÑģÑı":5284,"ĠÐ²Ð¾Ð·ÑĮ":5285,"Ġclass":5286,"ĠÐĵÑĢÐ¸":5287,"Ġparty":5288,"ĠÑģÑĤÑĢÐ°Ð½Ð½Ð¾":5289,"Ġmoments":5290,"Ġrelation":5291,"ission":5292,"ĠÐ¿ÐµÑĢÐ²ÑĥÑİ":5293,"ĠÑĥÐ±ÐµÐ¶Ð´":5294,"ĠXXI":5295,"Ġregret":5296,"ĠÑģÐ»ÑĥÑĩÐ¸Ð»Ð¾ÑģÑĮ":5297,"ĠÐ¿Ð¾Ð¿ÑĢÐ°Ð²":5298,"ĠÑĤÑĢÑĥÐ´Ð¾Ð¼":5299,"ĠÐ³Ð¾ÑģÑĤÐ¸Ð½Ð¾Ð¹":5300,"Ġcommon":5301,"Ġeffect":5302,"Ġviews":5303,"ĠÐ³ÑĢÑĥÐ±":5304,"Ġhonest":5305,"Ġtenderness":5306,"Ġpublic":5307,"ĠÐ¿ÑĢÐµÐ´Ð»Ð¾Ð¶ÐµÐ½Ð¸Ðµ":5308,"Ð¼Ð¾ÑĤÑĢÑı":5309,"Ġrapidly":5310,"ĠÐ³ÑĥÐ±ÐµÑĢÐ½ÑģÐº":5311,"Ġsweet":5312,"Ġsymp":5313,"Ġshooting":5314,"Ġconvinced":5315,"ĠDmitrich":5316,"Ġwhispered":5317,"ĠÐ½Ð°ÑĢÐ¾ÑĩÐ½Ð¾":5318,"Ġunexpected":5319,"bs":5320,"how":5321,"las":5322,"net":5323,"Ã©":5324,"ÑģÑĥÐ´":5325,"ÑĢÐ°Ðº":5326,"ÑĢÐµÑĤ":5327,"ĠÑģÐµÐ´":5328,"ĠÑģÐµÑĢÐµÐ´":5329,"ĠÐ¿Ð»Ð¾":5330,"Ð²Ð¸Ð½Ñĥ":5331,"itable":5332,"Ð¾Ð²Ð¾Ð¹":5333,"Ġfun":5334,"ĠÐ´Ð¾Ð³":5335,"ĠÑĤÐ¾Ð±Ð¾Ð¹":5336,"ĠÐ½ÐµÐ¾Ð¶Ð¸Ð´":5337,"Ġlaughter":5338,"ĠÐ¿ÑĢÐµ":5339,"Ð°ÐºÑĤÐµÑĢ":5340,"ident":5341,"Ð¾ÑĢÐ²":5342,"ĠÐ½Ð°ÑģÐ»":5343,"Ġec":5344,"Ġearth":5345,"ĠÐ»ÑĥÐ³":5346,"Ġstret":5347,"iring":5348,"Ð°ÑĢÐ°ÐºÑĤÐµÑĢ":5349,"Ġrail":5350,"ĠÐ·Ð°ÑģÑĤÐ°Ð²":5351,"Ġallow":5352,"Ð½ÑıÑĤÑĮ":5353,"ĠÐŁÐ¾Ð¶":5354,"ÑģÑĤÐ¸Ñı":5355,"ĠÑģÐ¿Ð°ÑĤÑĮ":5356,"Ġjour":5357,"ÐµÑħÐ°Ð»Ð°":5358,"Ġagricult":5359,"ĠÐ¡ÑĤÐ°ÑĢ":5360,"Ġeye":5361,"Ð°Ð²ÑĪÐ¸Ñħ":5362,"Ð°Ð²ÑĪÑĥÑİ":5363,"ĠÐķÑīÐµ":5364,"Ġsometimes":5365,"ĠÑĥÐ¼Ð¾Ð»":5366,"ĠÑĨÐµÑĢÐº":5367,"Ð¸Ð²ÑĪÐµÐ¹":5368,"Ð¸Ð²ÑĪÐ°Ñı":5369,"Ġforgiven":5370,"ĠÐ²Ð¾Ð¿ÑĢÐ¾ÑģÑĭ":5371,"ĠÐºÐ½ÑıÐ³Ð¸Ð½Ð¸":5372,"ĠÑģÐ¸Ð»Ñĭ":5373,"ĠÐ¾ÐºÑĢÑĥÐ¶":5374,"Ġconfused":5375,"ĠÐ±Ð¾Ð³Ñĥ":5376,"ĠÐ±Ð¾Ð³Ð°ÑĤ":5377,"ĠÑĥÐ¿Ð¾ÑĤÑĢÐµÐ±":5378,"ĠÐ¸ÑģÐºÑĢ":5379,"ĠÐ´ÐµÑĢÐµÐ²Ð½Ñİ":5380,"ĠÑģÐ¸Ð´ÐµÐ»Ð°":5381,"ĠÐ¿Ð¾Ð¹Ð¼":5382,"ĠÐłÐ°Ð·ÑĥÐ¼ÐµÐµÑĤÑģÑı":5383,"Ġexplan":5384,"ĠÐ¿Ð¾ÑĩÑĥÐ²ÑģÑĤÐ²Ð¾Ð²Ð°Ð»Ð°":5385,"ĠÐŀÐ´Ð½Ð¾":5386,"Ġhuman":5387,"ĠÐµÐ´Ð¸Ð½":5388,"ĠÑĥÐ´Ð¾Ð²Ð¾Ð»ÑĮÑģÑĤÐ²Ð¸Ñı":5389,"Ġoppos":5390,"ĠÐ¸Ð·Ð±ÐµÐ³":5391,"ĠÑģÑĤÑĢÐ°Ð´Ð°Ð½Ð¸Ñı":5392,"Ġspirits":5393,"ĠÐ¸ÑģÑĤÐ¾ÑĢ":5394,"ĠÑģÐ¼ÐµÑĢÑĤÑĮ":5395,"ĠÐ´Ð¾Ð²Ð¾Ð»ÐµÐ½":5396,"ĠAlexandrovna":5397,"Ġlawy":5398,"ĠÑĪÐ»ÑıÐ¿Ñĥ":5399,"Ġhonour":5400,"ĠÑĢÑĥÐ±Ð»ÐµÐ¹":5401,"ĠÐºÑĢÐ¸ÐºÐ½ÑĥÐ»":5402,"ĠÐ¼ÑĢÐ°Ñĩ":5403,"Ġfrowning":5404,"ĠÑģÐ¼ÑĥÑī":5405,"ĠÐ½ÐµÐ¾Ð±ÑħÐ¾Ð´Ð¸Ð¼":5406,"ĠÐ¾ÑģÑĤÐ°Ð½Ð°Ð²Ð»Ð¸Ð²":5407,"ĠÐłÐ¾ÑģÑģÐ¸Ð¸":5408,"eneath":5409,"ĠÐ¾ÑģÑĤÐ¾ÑĢÐ¾Ð¶Ð½Ð¾":5410,"ĠÑģÐ¾Ð»Ð½ÑĨÐµ":5411,"natured":5412,"Ġcoffee":5413,"Of":5414,"So":5415,"Where":5416,"bar":5417,"hood":5418,"jo":5419,"joy":5420,"ror":5421,"Ð¾ÑħÐ¾ÑĤ":5422,"ÑĢÐ°Ð³":5423,"ÑĮÐµÐ¹":5424,"Ġwa":5425,"Ġwee":5426,"Ġwalked":5427,"ĠÑģÑĥÐ¼":5428,"ĠÑģÐ°Ð¼Ð¸":5429,"Ġsqu":5430,"reed":5431,"ĠÐ¸Ð´ÐµÑĤ":5432,"ÑĪÐºÐ°":5433,"Ġcry":5434,"Ġcru":5435,"ĠÐ´Ð¾Ð¿":5436,"ĠÑĩÐµÑģÑĤ":5437,"ÐµÑĢÑĤ":5438,"ĠÐ¼ÐµÐ½ÑĮ":5439,"orn":5440,"ĠÑĥÐµÐ·Ð¶":5441,"ĠÑĢÑĥÑĩ":5442,"Ġbell":5443,"Ġgall":5444,"lder":5445,"ĠÑĤÐ¾Ñİ":5446,"ĠÐ¾ÑĤÑĭÑģÐº":5447,"Ġrate":5448,"ĠÑħÑĢÐ¸":5449,"ĠÑħÐ°ÑĢÐ°ÐºÑĤÐµÑĢ":5450,"ĠÐ¿Ð¾Ð´Ð±":5451,"ĠThese":5452,"...\"":5453,"ular":5454,"ĠÑģÐ¿Ð°Ð»ÑĮ":5455,"ĠOf":5456,"ĠMama":5457,"isted":5458,"Ġvar":5459,"ĠÑģÐ°Ð¼ÑĭÐ¹":5460,"ĠÐ²Ð¸Ð´Ð°Ð»":5461,"Ġpossi":5462,"ĠÐºÑĢÐ¸Ñĩ":5463,"ÑĤÐ¸Ð¸":5464,"Ð°Ð½Ð¸Ð¹":5465,"ĠÑĥÐ»ÑĭÐ±ÐºÑĥ":5466,"isha":5467,"ĠÑģÑĤÐ°ÑĢÑĭÐ¹":5468,"ĠÐ½Ð¸ÐºÐ¾Ð³Ð¾":5469,"ĠÑĦÐ¸Ð»":5470,"Ð´ÑĥÑħ":5471,"ĠÐ²Ð¾Ð·Ð´ÑĥÑħ":5472,"ending":5473,"Ð¸ÑĢÐ°Ñı":5474,"Ġenjoy":5475,"ĠÐ½ÐµÐ²Ñĭ":5476,"ancy":5477,"ĠPeter":5478,"ĠÐ½Ð°ÑģÑĤÐ¾ÑıÑī":5479,"ĠÐ¾ÑģÑĤÐ°Ð½Ð¾Ð²Ð¸Ð»Ð°ÑģÑĮ":5480,"Ġdistur":5481,"Ġevident":5482,"Ġinstant":5483,"Ġtrees":5484,"Ġbesides":5485,"ĠÑĢÐ°ÑģÐ¿Ð¾Ð»Ð¾Ð¶":5486,"Ġlaughed":5487,"Ġcommun":5488,"ĠÐ¾ÑĤÐ²ÐµÑĤÐ¸Ð»":5489,"ĠÐ¿ÑĢÐµÐ´ÑģÑĤÐ°Ð²Ð¸ÑĤÑĮ":5490,"Ġdifficulty":5491,"ÑĢÐ¸ÑĩÐ°Ð»":5492,"Ġceased":5493,"ĠÐ½Ð¾ÑĩÑĮ":5494,"Ġservice":5495,"ĠÐ¿Ð¾ÑħÐ¾Ð¶":5496,"ĠÐ²ÑĭÐ·Ð²":5497,"Ġtouched":5498,"ĠÐ²ÑĭÐ¹ÑĤÐ¸":5499,"Ġconcern":5500,"ĠÐ¼ÑĢÐ°ÑĩÐ½Ð¾":5501,"ĠShcherbatskys":5502,"Ġphil":5503,"ĠÐ¿ÑĢÐ¸ÑģÐ»ÑĥÑĪ":5504,"Ġindifferent":5505,"ĠÐ¾Ð±ÑĭÐºÐ½Ð¾Ð²ÐµÐ½Ð½Ð¾":5506,"ĠÐ²ÑģÑĤÐ°Ð²Ð°Ñı":5507,"Ġbroken":5508,"Ġavoid":5509,"Ġjumped":5510,"ĠÐ¾ÑĦÐ¸ÑĨÐµÑĢ":5511,"Ġstrength":5512,"Ġgarden":5513,"ĠÐĿÐµÑģÐ¼Ð¾ÑĤÑĢÑı":5514,"ĠÐ´Ð¾Ð±ÑĢÐ¾Ð´ÑĥÑĪ":5515,"Ġtelegram":5516,"Ġportrait":5517,"Ġobliged":5518,"Ġslowly":5519,"Ġwishes":5520,"ging":5521,"wo":5522,"ĠZ":5523,"Ð°ÑĢÐ¾":5524,"ĠÑģÑĥÐ´ÑĮ":5525,"ĠÑģÑģÐ¾ÑĢ":5526,"ĠÐ¿Ð¾Ð²Ð¾ÑĢ":5527,"ĠÐ²Ð¾ÑĪ":5528,"ĠÐ²ÑĢÐ°Ð¶Ð´":5529,"ĠÐ²Ð»Ð¸Ñı":5530,"ÐºÐ¾Ð»":5531,"Ġhate":5532,"Ð²Ð¾Ð·":5533,"Ġbare":5534,"Ġbore":5535,"Ġbeneath":5536,"athing":5537,"ĠÐºÑĢÑĥ":5538,"ĠÐºÐ°Ð¿":5539,"ÑĪÐ»Ð¾":5540,"Ġfet":5541,"ĠÐ±ÐµÐ´":5542,"Ġmaman":5543,"ĠÐ´Ð¸Ð²":5544,"ĠÑĤÐµÐ¿":5545,"ĠÐ¼Ð°Ñħ":5546,"Ġpun":5547,"Ġinn":5548,"Ġbear":5549,"ÑģÐºÐ¾Ð²":5550,"Ġyouth":5551,"ÐµÐºÐ¸":5552,"Ġforward":5553,"Ġstern":5554,"ĠAl":5555,"Ġrace":5556,"ĠLet":5557,"Ġmeadow":5558,"ĠÑĢÐ°Ð·ÑĥÐ¼":5559,"Ġnearer":5560,"Ġdead":5561,"ĠWhile":5562,"ĠÑģÐ¿ÑĢÐ°Ð²ÐµÐ´Ð»Ð¸Ð²":5563,"ĠPests":5564,"ĠPapa":5565,"ĠÐ¿Ð¾Ð»Ð°Ð³":5566,"Ġupset":5567,"Ġlooks":5568,"ĠÑĪÐ°ÑĢ":5569,"Ð°Ð±Ð¾ÑĤ":5570,"ĠÐ·Ð½Ð°ÑĩÐ¸ÑĤ":5571,"ĠÑĩÑĥÐ²ÑģÑĤÐ²ÑĥÑİ":5572,"ÑĦÑĢÐ°Ð½ÑĨÑĥÐ·":5573,"ĠÑģÐ¼ÐµÑħ":5574,"ĠÐ´ÐµÐ»Ñĥ":5575,"ĠÐ¾Ð¿ÑĢÐ°Ð²":5576,"ĠÐ´ÑĢÑĥÐ³Ð¾Ð¼":5577,"Ġargu":5578,"ĠÑĥÐ»ÑĭÐ±ÐºÐ°":5579,"ĠÐ¿Ð¾ÐºÐ»Ð¾Ð½":5580,"Ġshoulder":5581,"ĠÑĩÐµÐ»Ð¾Ð²ÐµÐºÑĥ":5582,"ĠÑħÐ¾ÑĢÐ¾ÑĪÐ°":5583,"Ġenorm":5584,"ĠÐ½Ð¾Ð²Ð¾Ð¹":5585,"ĠÑĢÐµÑĪÐ¸Ð»":5586,"Ġworking":5587,"Ġperhaps":5588,"ĠÐ¿ÐµÑĢÐ²Ð¾Ðµ":5589,"ĠÐ¼Ð¾ÐµÐ¹":5590,"ĠÐŁÐµÑĤÑĢÐ¸ÑĨ":5591,"Ġdining":5592,"ĠÑĥÑĤÐµÑĪ":5593,"Ġesc":5594,"Ġaffair":5595,"ĠÐ¿ÑĢÐ¾ÑĪÐµÐ´":5596,"Ġoccur":5597,"ĠHowever":5598,"Ġsurr":5599,"ĠÑĥÐ´Ð¸Ð²Ð»Ñı":5600,"Ġmerrily":5601,"ĠÑģÐºÐ°Ð¶ÐµÑĤ":5602,"ĠÑĢÐ°ÑģÐ¿Ð¾ÑĢ":5603,"ĠÐ¿ÑĢÐ¾Ð¸Ð·Ð²Ð¾Ð´":5604,"Ġexcite":5605,"Ġnurs":5606,"ĠÐ¼Ð½Ð¾Ð³":5607,"ĠÐ¼Ð½ÐµÐ½Ð¸Ðµ":5608,"ĠÐ²Ð½Ð¸Ð¼Ð°Ð½Ð¸Ðµ":5609,"ĠÑģÐºÐ¾ÑĢÐµÐµ":5610,"Ġraised":5611,"Ġsnipe":5612,"ĠÑĤÐ¾ÑĢÐ¶Ðµ":5613,"ĠÑĥÑģÐ»Ð¾Ð²Ð¸Ñı":5614,"Ġspiritual":5615,"Ġcircle":5616,"ĠGrisha":5617,"Ġmental":5618,"Ġexactly":5619,"ĠÐ¿ÐµÑĤÐµÑĢÐ±ÑĥÑĢÐ³":5620,"ĠÐ³ÑĢÑıÐ·":5621,"Ġentirely":5622,"Ġfavour":5623,"ĠÑĨÐµÑĢÐºÐ²Ð¸":5624,"ĠPestsov":5625,"Ġenormous":5626,"KY":5627,"Let":5628,"Now":5629,"OR":5630,"mov":5631,"porter":5632,"su":5633,"Ð§":5634,"ÑıÑı":5635,"Ġsus":5636,"Ġsighed":5637,"Ð²ÑĭÑĩÐ°Ð¹":5638,"Ġboot":5639,"Ð¼ÐµÑı":5640,"Ð¾Ð²Ð°Ð»ÑģÑı":5641,"Ġcent":5642,"Ġfu":5643,"Ġfarm":5644,"ask":5645,"Ġnature":5646,"ĠÐ¼ÐµÐ½":5647,"Ġprin":5648,"ĠÑĥÐµÑħÐ°Ð»":5649,"ĠÐ·ÑĥÐ±":5650,"Ð½Ð¸ÐºÑĥ":5651,"Ð½Ð¸ÐºÐ¸":5652,"Ġears":5653,"sem":5654,"ĠÐ¶ÐµÐ½Ð¸":5655,"Ð¸Ð²Ð°Ð»ÑģÑı":5656,"Ð¾ÑĤÑĢÐ¸":5657,"ĠÐ¾ÑĤÐµÑĨ":5658,"aled":5659,"ĠÑģÐ²Ð¸Ð´Ð°":5660,"ĠSu":5661,"ĠÐ¿ÑĢÐ¸ÑĪÐµÐ»":5662,"ĠÐ¿ÑĢÐ¸ÐµÐ·Ð¶":5663,"illing":5664,"ĠÐ¿Ð¾Ð´Ð´ÐµÑĢÐ¶":5665,"ĠÐ°Ð´Ð²Ð¾ÐºÐ°ÑĤ":5666,"ĠÐ³Ð¾Ð²Ð¾ÑĢÐ¸ÑĤÐµ":5667,"Ġwhatever":5668,"ĠÐ¾Ð´Ð½Ð¸":5669,"Ð¾ÑĩÑĮ":5670,"ĠÐĲÐ½Ð½Ð¾Ð¹":5671,"Ġpock":5672,"ĠÐ±ÑĥÐ´ÐµÐ¼":5673,"Ð°Ð»ÑĮÐ½Ð¾":5674,"Ġoffended":5675,"ĠÑĥÐ´Ð°ÑĢ":5676,"Ġproper":5677,"Ġstranger":5678,"Ð¸ÑĢÐ°ÑĤÑĮ":5679,"ĠÐ¿Ð¾Ð¼Ð¾Ð»Ñĩ":5680,"ĠÐ¸ÑģÐ¿Ð¾Ð»":5681,"ĠÐ¿Ð¾Ð½Ð¸Ð¼Ð°ÑĤÑĮ":5682,"Ġground":5683,"Ġdesired":5684,"ĠÐ¿Ð¾ÑĢÐ°Ð¶":5685,"Ġenter":5686,"Ġtelling":5687,"Ġvoices":5688,"ĠÐ²Ð¼ÐµÑģÑĤÐ¾":5689,"ĠPetritsky":5690,"Ġreturning":5691,"ship":5692,"Ġdecide":5693,"ĠcalÃ¨":5694,"Ġchest":5695,"ĠÐ¿ÑĢÐ¾ÑĤÐ¸Ð²Ð¾Ð¿":5696,"Ġdelic":5697,"ĠÑĢÐ°ÑģÑģÐºÐ°Ð·":5698,"Ġaware":5699,"ĠÐ¿ÑĢÐ¾Ð³Ð¾Ð²Ð¾ÑĢÐ¸Ð»Ð°":5700,"Ġridicul":5701,"ĠÐ´ÑĥÑħÐ°":5702,"ounc":5703,"Ġsnow":5704,"ĠÐ¾Ð¶Ð¸Ð´Ð°Ñı":5705,"ĠÑģÐ¾Ð¼Ð½ÐµÐ²":5706,"ĠÐ¼ÐµÐ´Ð»ÐµÐ½Ð½Ð¾":5707,"Ġinquired":5708,"ĠEverything":5709,"ĠÑģÐ¼ÑĥÑĤ":5710,"Ġminutes":5711,"ĠÐ³ÑĢÐ¾Ð¼ÐºÐ¾":5712,"ĠÑĩÑĢÐµÐ·Ð²ÑĭÑĩÐ°Ð¹":5713,"ĠFrom":5714,"ĠÑĦÐ¸Ð³Ñĥ":5715,"ĠÑĤÐ¸ÑħÐ¾":5716,"ĠÑģÐ¸Ð»Ð°Ñħ":5717,"ĠÐ²Ð¾Ð·Ð±ÑĥÐ¶Ð´":5718,"ĠÐ²Ð½ÑĥÑĤÑĢ":5719,"Ġdissatisfied":5720,"ĠÐĿÐ¸ÐºÐ¾Ð»Ð°ÐµÐ²":5721,"ĠNikol":5722,"Ġsympath":5723,"ĠÐ²ÑĢÐ°Ð¶Ð´ÐµÐ±":5724,"ÑĦÑĢÐ°Ð½ÑĨÑĥÐ·ÑģÐºÐ¸":5725,"Ġexcitement":5726,"ĠcalÃ¨che":5727,"be":5728,"mper":5729,"ners":5730,"rou":5731,"uz":5732,"Ð¾ÑĦ":5733,"ÑĢÐ¾Ð¿":5734,"inct":5735,"Ġwar":5736,"ĠÐ²Ð½ÐµÑĪ":5737,"Ġhind":5738,"Ġhide":5739,"ĠÐ¾Ð²":5740,"ĠÐ¾ÐºÐ¾Ð½Ñĩ":5741,"oura":5742,"Ġbent":5743,"Ġheaven":5744,"oned":5745,"Ġfro":5746,"Ġfaces":5747,"Ġmach":5748,"Ġdanger":5749,"lli":5750,"ĠÐ½ÐµÑģÐ¿":5751,"ĠÐ½ÐµÑĩÐµÐ³Ð¾":5752,"ĠÐ¼Ð°Ð½":5753,"Ġpit":5754,"Ġpor":5755,"Ġpaid":5756,"ÐµÑĤÐ²ÐµÑĢ":5757,"Ð°Ð²Ð¸Ñģ":5758,"ĠÑįÐ½":5759,"eth":5760,"alid":5761,"ĠÐ²ÑģÐ¿":5762,"Ġrushed":5763,"ĠTit":5764,"ĠTur":5765,"ĠÐ²ÑĭÐ³Ð¾Ð²Ð¾ÑĢ":5766,"ĠÐ²ÑĭÑģÑĤÑĥÐ¿":5767,"Ð½ÑĥÐ»Ð¸ÑģÑĮ":5768,"ĠHere":5769,"ĠÐ¿ÑĢÐ¸Ð³":5770,"ĠÐ½Ð¾Ñģ":5771,"Ð»Ð°ÑĪ":5772,"Ġallowed":5773,"ĠÐŁÐ¾Ð¼":5774,"Ġcho":5775,"ĠÑĢÑĥÐºÐ¾Ð²":5776,"Ġamb":5777,"ĠÐ´Ð²ÐµÑĢ":5778,"ĠÑģÑĤÐ¾Ð¸ÑĤ":5779,"Ġnoble":5780,"Ġbride":5781,"Ð¸ÑĤÐµÐ»ÑĮÐ½Ð¾Ðµ":5782,"Ð°Ð½Ð¸ÐµÐ¼":5783,"Ġcost":5784,"Ð¸ÑģÑĤÐ¾":5785,"ĠÐķÐ³Ð¾":5786,"ĠÑħÐ¾ÑĢÐ¾ÑĪÐµÐ½ÑĮ":5787,"Ġspecially":5788,"Ð¸ÑĤÐµÑģÑĮ":5789,"ĠÐ¸ÑģÐ¿Ð¾Ð»Ð½":5790,"ĠÐĵÐ´Ðµ":5791,"Ġenc":5792,"ĠÐ¿Ð¾ÑĢÑıÐ´":5793,"ĠÐ±Ð»ÐµÑģÐº":5794,"Ġsatisfied":5795,"Ġclean":5796,"ĠÐ¿ÑĢÐ¸Ð²ÐµÐ·":5797,"ĠÑħÐ¾ÑĩÐµÑĤÑģÑı":5798,"Ġinterests":5799,"ĠÐ¿ÑĢÐ¸ÐµÑħÐ°Ð»Ð¸":5800,"Ġactiv":5801,"Ġinvalid":5802,"ĠÐ·Ð²ÑĥÐº":5803,"Ð°ÑİÑĤÑģÑı":5804,"ĠÐ¿Ð¾Ð¶Ð°Ð»":5805,"ĠÑĥÑĤÑĢÐ¾Ð¼":5806,"Ġspoken":5807,"ĠÐ½Ð°Ð·Ð½Ð°Ñĩ":5808,"ĠÐ¿Ð¸ÑģÑĮÐ¼":5809,"ĠÐ¡Ð²Ð¸ÑıÐ¶ÑģÐºÐ¾Ð³Ð¾":5810,"ĠÐ´Ð¾ÑĢÐ¾Ð³Ð¸":5811,"ĠÐ´Ð¾ÑĢÐ¾Ð³Ñĥ":5812,"Ġillness":5813,"Ġreceive":5814,"Ġbedroom":5815,"overn":5816,"Ġincre":5817,"Ġarrival":5818,"Ġparticular":5819,"Ġfaith":5820,"Ġconsciousness":5821,"Ġarranged":5822,"ĠÑĢÐ°Ð´Ð¾ÑģÑĤÐ½Ð¾":5823,"Ġdirection":5824,"Ġembarr":5825,"Ġperfect":5826,"ĠÐ½Ð°Ð±Ð»ÑİÐ´":5827,"ĠÐ´ÐµÑıÑĤÐµÐ»ÑĮÐ½Ð¾ÑģÑĤÐ¸":5828,"ĠÑģÑİÐ´Ð°":5829,"Ġvexed":5830,"ĠÐ½ÐµÐ½Ð°Ð²Ð¸Ð´":5831,"ĠÐ±ÑĥÐ¼Ð°Ð³":5832,"ĠChristian":5833,"ĠÑģÑĤÐ¾ÑıÐ»Ð¸":5834,"Ġleaning":5835,"ĠÑģÐ¼ÐµÑıÑģÑĮ":5836,"Ġuniform":5837,"Ð¾ÑıÑĤÐ½Ð¾":5838,"Ġscythe":5839,"Ġlawyer":5840,"ĠÑĢÑĥÐºÐ¾Ð²Ð¾Ð´":5841,"Ġembarrass":5842,"cri":5843,"kin":5844,"ron":5845,"Ġtight":5846,"Ġaim":5847,"ÑĥÑģÑĮ":5848,"ĠÑģÐ½":5849,"ĠÐ²ÐºÑĥ":5850,"ator":5851,"ÑģÑĤÐµÑĢ":5852,"ÑĪÑĮ":5853,"Ġcup":5854,"Ġdying":5855,"ÑİÑģÑĮ":5856,"ĠÐ½ÐµÑĩ":5857,"ĠÐ½ÐµÑħ":5858,"ĠÐ½ÐµÑĥÐ´":5859,"ĠÐ¼ÐµÑĩ":5860,"ĠÐ¿ÑĢÐ¸Ð¼Ð¸":5861,"Ð½Ð¸ÑĨÐµ":5862,"Ð¾ÑĢÐ´":5863,"ĠÐ½Ð°ÑĤ":5864,"Ġeight":5865,"Ġgun":5866,"ĠÐ¿Ð¾ÐµÐ´Ñĥ":5867,"Ð¸Ð½Ñİ":5868,"Ð¸Ð½ÐµÐ¹":5869,"Ð¾Ð¹Ð´ÐµÐ¼":5870,"vere":5871,"ÑĨÐ¸":5872,"ĠÐŀÑģÑĤÐ°Ð²":5873,"aded":5874,"Ð°ÑĢÑĮ":5875,"ĠÐ¿ÑĢÐ¸Ð¶":5876,"ĠÐ¿ÑĢÐ¸ÐµÐ¼":5877,"ĠÐ¿Ð¾Ð´Ð¾Ð·":5878,"ssess":5879,"ĠÑĢÐ°Ð·ÑĥÐ¼ÐµÐµÑĤÑģÑı":5880,"Ð½ÑıÐ»Ð°":5881,"ĠÐ³Ð¾ÑģÑĥÐ´":5882,"ÐµÐ¶Ð°Ð»Ð°":5883,"Ġconsequ":5884,"acy":5885,"Ġchurch":5886,"ĠÑĪÐºÐ¾Ð»":5887,"ĠÐĲÐ»ÐµÐºÑģÐ°Ð½Ð´ÑĢÐ¾Ð²Ð½Ðµ":5888,"ĠÐ¾ÑĤÐ²ÐµÑĤÐ°":5889,"ĠÐ·Ð½Ð°Ð¼":5890,"ĠÐ·Ð½Ð°Ð»Ð¸":5891,"Ġdism":5892,"odka":5893,"ĠÑģÐ¾Ð²ÐµÑģÑĤÐ½Ð¾":5894,"Ġglo":5895,"ĠGovern":5896,"Ġaccept":5897,"ĠÐ½ÐµÐ¿Ð¾":5898,"ĠÐ½ÐµÐ¿ÑĢÐµÐ¼ÐµÐ½Ð½Ð¾":5899,"ĠÑĨÐµÐ»ÑĮ":5900,"Ġunderstanding":5901,"Ġener":5902,"ĠÐ½Ð¾Ð²ÑĭÑħ":5903,"ĠÐ¿Ð¾ÑĢÐ°Ð·":5904,"aves":5905,"ĠÐ¿ÑĢÐ¾ÑģÐ¸ÑĤÑĮ":5906,"Ð¾ÑģÑĤÑı":5907,"Ġreconc":5908,"ĠÑĢÐ°Ð·Ð²Ð¾Ð´Ð°":5909,"Ġbelieved":5910,"Ġorders":5911,"ĠÐ¶Ð¸Ð·Ð½ÑĮÑİ":5912,"Ġchee":5913,"Ġaffection":5914,"ĠÑģÐ»ÑĥÑĪÐ°Ñı":5915,"Ġfinish":5916,"ĠÐ±ÑĭÐ²Ð°Ð»Ð¾":5917,"ĠÐ¾Ð³Ð»ÑıÐ½ÑĥÐ»ÑģÑı":5918,"ĠÐ·Ð°ÑģÐ¼ÐµÑı":5919,"ĠÑĥÐ·Ð½Ð°Ð»Ð°":5920,"Ġbadly":5921,"ĠÐ´Ð²Ð¾ÑĢÑıÐ½":5922,"Ġexplained":5923,"ĠÑĢÐµÐ±ÐµÐ½Ð¾Ðº":5924,"Ð²Ð¾Ð»Ð½Ð¾Ð²":5925,"ĠÐ±Ð»Ð¸Ð¶Ðµ":5926,"Ġkissing":5927,"ĠVasily":5928,"ĠÑĥÐ´Ð¾Ð²Ð¾Ð»ÑĮÑģÑĤÐ²Ð¸Ðµ":5929,"ĠÐ·Ð´Ð¾ÑĢÐ¾Ð²ÑĮÐµ":5930,"ĠÑĩÐ°ÑīÐµ":5931,"ĠÐ½ÐµÐ·Ð°Ð²Ð¸Ñģ":5932,"ĠÐ»Ð°ÐºÐµÐ¹":5933,"ĠÐ²Ð¾Ð¾Ð±ÑīÐµ":5934,"ĠÑĢÑıÐ´Ð¾Ð¼":5935,"ĠÐ²Ð¸Ð½Ð¾Ð²Ð°ÑĤÐ°":5936,"Ġextreme":5937,"ĠÑĨÐµÐ»ÑĭÐ¹":5938,"Ġhours":5939,"Ġirritated":5940,"ĠÐ½ÐµÐ¾Ð±ÑħÐ¾Ð´Ð¸Ð¼Ð¾":5941,"Ġrecognized":5942,"ĠÐļÐ°ÑĢÐµÐ½Ð¸Ð½":5943,"bye":5944,"Ð½Ð¸ÑĨÐµÐ¹":5945,"Ġreligion":5946,"Ġlabourers":5947,"ĠÐ½ÐµÐ´Ð¾ÑģÑĤÐ°ÑĤ":5948,"Ġpolit":5949,"Ġannoun":5950,"Ġintimate":5951,"Anna":5952,"Ġintellig":5953,"ĠÐ¿Ð¾ÑįÑĤ":5954,"Ġfulf":5955,"ES":5956,"LY":5957,"Qu":5958,"just":5959,"Ġtast":5960,"hew":5961,"ÑĥÐ»Ñı":5962,"ÑıÐ±":5963,"ĠÑģÑĬ":5964,"ĠÐ¿Ð¸ÑĤÑĮ":5965,"ĠÐ²ÐµÑĤ":5966,"Ð²Ð¾":5967,"Ġbroad":5968,"athe":5969,"Ð¼Ñĭ":5970,"ÑĪÐ¸Ð¼Ð¸":5971,"Ġcases":5972,"Ġfif":5973,"Ġmare":5974,"ÐµÐ»ÐµÐ½":5975,"Ġdest":5976,"Ġloving":5977,"Ġpale":5978,"Ð·Ð°Ð´Ð¸":5979,"Ġear":5980,"ics":5981,"Ð°Ð½Ñı":5982,"Ġsad":5983,"ĠÐ»ÐµÐ²":5984,"Ð¸Ð²Ð°ÑĤÑĮÑģÑı":5985,"Ð¾ÑĤÐ¾Ð¹":5986,"cely":5987,"ĠÐĴÐ¿":5988,"ĠÐ²ÑĭÑĪÐµ":5989,"ÑĤÐ¾ÑĢÐ°":5990,"ĠHAD":5991,"ĠÑĤÐ°ÐºÐ¸Ñħ":5992,"aining":5993,"Ð¾ÑģÐ¾ÑĦ":5994,"ĠÐŁÐµÑģ":5995,"ÑĭÐ²Ð°Ð»Ð¸":5996,"ĠÐ°Ðº":5997,"ĠÐľÐ°ÑĤ":5998,"ÑıÑĤÑģÑı":5999,"ĠÑģÐ°Ð¼ÑĭÐ¼":6000,"ĠÐ²Ð¸Ð´Ð¸Ð¼Ð¾":6001,"ĠÑģÑĤÐ¾ÑıÐ²":6002,"ĠÑģÑĤÐ¾ÑıÐ»Ð°":6003,"Ġmanage":6004,"ĠÐ¸Ð¼ÐµÐ»Ð°":6005,"ĠÐ¿Ð¾ÐºÐ°Ñĩ":6006,"Ġdisag":6007,"ĠÐķÐ²":6008,"ĠÑĦÑĢÐ°Ð·":6009,"ĠÑĢÐ°Ð´Ð¾ÑģÑĤÑĮ":6010,"ĠEven":6011,"ĠÑĩÐµÐ»Ð¾Ð²ÐµÐºÐ¾Ð¼":6012,"ĠÐ²Ð·Ð³Ð»ÑıÐ´Ð°":6013,"Ġtwenty":6014,"ĠÑĨÐµÐ½":6015,"ĠÐ½Ð¾Ð²Ð¾Ð³Ð¾":6016,"Ġentr":6017,"Ð»ÐµÐ½Ñĭ":6018,"avna":6019,"Ġgreet":6020,"ĠÐºÐ¾Ð¼Ð¸Ñģ":6021,"ĠÑĤÑĢÐµÑĤÑĮ":6022,"ĠÐĹÐ½Ð°":6023,"ĠÐ¶ÐµÐ»Ð°Ð»Ð°":6024,"ĠÐ·Ð°Ð²Ð¸Ñģ":6025,"ĠÐĶÐ°ÑĢÑĮÐµ":6026,"ĠÑģÐµÑĢÐ´Ð¸ÑĤÐ¾":6027,"Ġwaited":6028,"ĠÐ±ÐµÑģÐµÐ´":6029,"view":6030,"ĠÑģÑĭÐ½":6031,"Ġconfir":6032,"Ġobt":6033,"Ġobst":6034,"ĠÐ·Ð²Ð¾Ð½":6035,"ĠÐ´ÑĥÑĪÐµÐ²":6036,"ĠÐ¾ÑĤÐ½Ð¾ÑĪÐµÐ½Ð¸Ð¸":6037,"Ð°ÑİÑīÐ¸Ð¹":6038,"ĠÐ¼ÑĥÑĩÐ¸ÑĤÐµÐ»ÑĮÐ½Ð¾":6039,"ĠÐ·Ð°Ð¼ÐµÑĤÐ¸Ð²":6040,"ĠÐºÐ¾Ð½ÑĩÐµÐ½Ð¾":6041,"Ġiron":6042,"ĠÐ¼ÑĭÑģÐ»Ñı":6043,"ĠÐ¿ÑĢÐ¾Ð²Ð¾Ð´":6044,"ĠÐ´Ð²Ð¸Ð¶ÐµÐ½Ð¸Ðµ":6045,"ÐĿÐµÑĤ":6046,"Ġsupper":6047,"Ġraising":6048,"Ġlatter":6049,"ĠÐ¼ÐµÑĢÐµ":6050,"ĠÐ¸ÑģÑĩ":6051,"Ġquietly":6052,"ĠÐ¿Ð°Ð»ÑĮÑĤÐ¾":6053,"Ġacquaintances":6054,"Ġindifference":6055,"Ġgentleman":6056,"Ġtrembling":6057,"Ġmiddle":6058,"ĠÐ¿Ð°Ð¿Ð°":6059,"ÑĢÐµÑģÑĤÐ°Ð½Ð½Ð¾":6060,"ONSKY":6061,"ĠÑģÐ»ÑĥÑĩÐ°Ðµ":6062,"Ġopposite":6063,"ĠÑĦÐ¸Ð»Ð¾ÑģÐ¾ÑĦ":6064,"ĠÐ¼ÐµÐ½ÐµÐµ":6065,"ĠÐ²Ð½ÑĥÑĤÑĢÐµÐ½":6066,"ĠNikolavna":6067,"'re":6068,"OU":6069,"ger":6070,"ior":6071,"iving":6072,"ma":6073,"rict":6074,"ux":6075,"ĠÑİ":6076,"ÑĢÐµÐ±":6077,"ĠÑģÐ¾Ð»":6078,"ĠÑģÐ¾ÑĢ":6079,"ĠÑģÑĥÐ¿":6080,"ĠÐ²Ð°Ð¼Ð¸":6081,"ĠÐ²Ð³Ð»ÑıÐ´ÑĭÐ²":6082,"Ð²Ð¸Ð¶":6083,"ĠÐºÐ»Ð°Ñģ":6084,"Ġcattle":6085,"Ġfle":6086,"Ġfail":6087,"Ġmill":6088,"ĠÐ´Ð¾Ð¶Ð¸Ð´":6089,"ĠÑĤÐ°Ð½":6090,"ĠÐµÐ´ÐµÑĤ":6091,"ĠÐ¼ÐµÑģÑĤÐµ":6092,"ĠÑĥÑħÐ¾Ð´":6093,"ĠÐ·ÐµÑĢÐº":6094,"oming":6095,"ÐµÐ¼ÑĮ":6096,"ÑģÑıÑĤ":6097,"ĠÐ³Ð°Ð»":6098,"ĠÐ³Ð¾Ð´Ð°":6099,"Ð¸Ð²Ð°Ð»Ð¸":6100,"ÑĨÐ¾Ð¼":6101,"ĠÐ¾ÑĤÐ´ÐµÐ»":6102,"ĠÐ²ÑģÐµÐ¼Ñĥ":6103,"ĠÐĿÐµÐ²":6104,"ĠAN":6105,"Ð°ÑĢÐ´":6106,"Ð»Ð¸Ð·":6107,"ĠÐļÑĤÐ¾":6108,"ĠÐļÐ¾ÑģÑĤÑı":6109,"ĠÐ¿ÑĢÐ¸ÐµÐ´ÐµÑĤ":6110,"Ġmemb":6111,"ĠÑĤÐ°ÐºÐ¾Ð¼":6112,"ains":6113,"Ġsold":6114,"Ð¸ÐºÐ¸":6115,"ÐµÑģÑģÐ¾ÑĢ":6116,"ĠÑĢÐ°Ð·Ð¼":6117,"ĠÑĢÐ°Ð·ÑĢÐµÑĪ":6118,"ĠÐ¸Ð·Ð²Ðµ":6119,"ittee":6120,"Ġdecl":6121,"ĠÐ¿ÐµÑĢÐµÐ¿":6122,"ĠÐ¢ÑĥÑĤ":6123,"ĠÐ¢Ð²ÐµÑĢ":6124,"ĠCounc":6125,"Ð¾ÑĩÐ¸Ð»":6126,"ĠÑģÐ°Ð¼Ð¾":6127,"Ġpoor":6128,"Ġagreed":6129,"ĠÐ¾Ð¿Ð°Ñģ":6130,"Ġtimid":6131,"Ġaround":6132,"ples":6133,"Ġprobably":6134,"ĠÐ¿Ð¾Ð¼Ð¾ÑĩÑĮ":6135,"Ġenv":6136,"ĠÐ½Ð¾Ð²ÑĭÐµ":6137,"ĠÑĤÑĢÐµÑĤ":6138,"Ġrepuls":6139,"ĠÐ¾ÑĤÐºÑĢÑĭÑĤ":6140,"ĠÐ²ÑĭÑĢÐ°Ð¶ÐµÐ½Ð¸Ñı":6141,"ĠÐ½ÐµÐ´Ð¾":6142,"ĠÐ·Ð°ÐºÐ¾Ð½":6143,"ĠÐ´ÐµÐ»Ð°ÐµÑĤ":6144,"Ġkindly":6145,"ĠÐ¿ÑĢÐ¸ÐµÑħÐ°ÑĤÑĮ":6146,"rows":6147,"Ġmarry":6148,"Ġexpecting":6149,"ĠÐ¾ÐºÐ½Ð¾":6150,"ĠÐ¾ÐºÐ¾Ð»Ð¾":6151,"Ġrefused":6152,"ĠÑħÐ¾Ð·ÑıÐ¹ÑģÑĤÐ²Ð°":6153,"ĠÐ·Ð°Ð¼ÐµÑĤÐ¸Ð»Ð°":6154,"ĠÐ½Ð°Ð²ÐµÑĢÑħ":6155,"ĠÐ½Ð¸ÐºÐ°ÐºÐ¾Ð¹":6156,"Ġoccas":6157,"ĠÑĢÐ°Ð±Ð¾ÑĤÐ°ÑĤÑĮ":6158,"Ġbusy":6159,"ĠÑĥÑģÐ¸Ð»Ð¸":6160,"ĠÐ¾Ð±ÑīÐµÑģÑĤÐ²Ð¾":6161,"ĠÐ½Ð°ÑħÐ¾Ð´Ð¸Ð»":6162,"Ġangrily":6163,"ĠÐ¿ÑĢÐ¾ÑģÑĤÐ¸ÑĤÑĮ":6164,"ĠÑĪÐ°Ð³Ð¸":6165,"ĠÐ¥Ð¾ÑĤ":6166,"ĠÐ¿ÑĢÐ¾Ð¸Ð·Ð²":6167,"ĠÐ½Ð°ÑĢÐ¾Ð´Ð°":6168,"Ġmovements":6169,"ĠÐĽÐ¸Ð´Ð¸Ð¸":6170,"Ġimagined":6171,"Ġforehead":6172,"ĠÐ½ÐµÐ·Ð°Ð¼ÐµÑĤ":6173,"Ġfallen":6174,"Ġgazed":6175,"ĠÑģÐ¿ÑĢÐ°ÑĪÐ¸Ð²Ð°Ð»":6176,"ĠÐ¾Ð¶Ð¸Ð´Ð°Ð»":6177,"ificant":6178,"ĠÐ³ÑĢÑĥÑģÑĤ":6179,"ĠÑĢÑĥÐ±Ð°ÑĪ":6180,"ĠÐ¿Ð¾ÐºÑĢÐ°ÑģÐ½ÐµÐ²":6181,"Ġbuild":6182,"ĠÐºÐ»ÑĥÐ±":6183,"ĠÐ²Ð¾ÑģÐ¿Ð¾Ð¼Ð¸Ð½Ð°Ð½Ð¸Ñı":6184,"ĠÑģÑĥÑīÐµÑģÑĤÐ²":6185,"Ġjealousy":6186,"ĠÐ²ÑģÐ»ÐµÐ´ÑģÑĤÐ²Ð¸Ðµ":6187,"This":6188,"Ġcheerful":6189,"ĠProvince":6190,"Ġdisgust":6191,"ternal":6192,"ĠÐĽÐ°ÑģÐºÐ°":6193,"Ġattentively":6194,"ĠÑģÑĤÐµÐ¿ÐµÐ½Ð¸":6195,"ĠÐ´Ð¾Ð³Ð°Ð´":6196,"Ġexplanation":6197,"ĠÑħÑĢÐ¸ÑģÑĤÐ¸":6198,"Ð§ÑĤÐ¾":6199,"Ġboots":6200,"Ġporch":6201,"ĠÐ³Ð¾ÑģÑĥÐ´Ð°ÑĢ":6202,"ĠÐ¸ÑģÑĩÐµÐ·":6203,"When":6204,"ivers":6205,"ned":6206,"night":6207,"ph":6208,"rate":6209,"ya":6210,"Ðĺ":6211,"ÐµÑĤÐ¾":6212,"Ð°ÑģÑĮ":6213,"ÑģÑĭ":6214,"Ð»ÐµÐ²":6215,"ÑĢÐ¾Ðº":6216,"Ġtall":6217,"ĠÐ¿Ñĩ":6218,"ĠÐ²Ð¸Ð·":6219,"Ð²Ñĭ":6220,"Ð´Ð¸Ð²":6221,"itary":6222,"Ġbon":6223,"ÐµÐ½Ð½ÑĭÐ¼Ð¸":6224,"Ġmod":6225,"ĠÐ¼ÐµÐ»ÑĮ":6226,"ĠÐ¼Ð¸Ð»Ð¾":6227,"Ġpath":6228,"ĠÐ¿ÑĢÐµÐ²":6229,"ĠÐ¿ÑĢÐµÑģÑĤ":6230,"Ð¸Ð»Ð¸Ð¹":6231,"ĠÑĢÐ¾ÑĤ":6232,"ĠÑĢÑĥÐ¶":6233,"ĠÑĢÐµÑĩÐ¸":6234,"Ġgame":6235,"Ð°Ð½Ð½Ð¾Ð³Ð¾":6236,"Ð°Ð½Ð½Ð°Ñı":6237,"Ġrejo":6238,"ents":6239,"Ð°Ð´Ð°Ð¼":6240,"ĠÐ¾ÑĤÐ½Ð¾Ñģ":6241,"Ġstri":6242,"ĠÐĿÑĭ":6243,"ĠÑģÐºÐ°Ð·Ð°Ð½Ð¾":6244,"urd":6245,"Ġmeas":6246,"ainted":6247,"Ġshone":6248,"Ġshowing":6249,"ĠÐ·Ð°Ñī":6250,"ĠÐŁÐ¾Ñĩ":6251,"ÐµÐ½Ð½Ð¾ÑģÑĤÑĮ":6252,"ĠÐ³Ð¾Ð²Ð¾ÑĢÐ¸ÑĪÑĮ":6253,"Ġconst":6254,"itten":6255,"ÑīÐµÑİ":6256,"ĠWAS":6257,"ova":6258,"oves":6259,"Ġintention":6260,"ĠÑĢÑĥÐºÐµ":6261,"Ġvodka":6262,"Ġleg":6263,"ĠÐ²Ð·Ð²Ð¾Ð»Ð½Ð¾Ð²":6264,"Ġspread":6265,"ĠÐ¾ÑĤÐ²ÑĢÐ°Ñī":6266,"osop":6267,"ĠÑĥÐ»ÑĭÐ±Ð½ÑĥÐ»Ð°ÑģÑĮ":6268,"ĠÐ»Ð¸ÑĨÑĥ":6269,"Ġplough":6270,"ĠKarenina":6271,"Ġovercoat":6272,"ĠÐ²ÐµÑĢÑħ":6273,"Ġprove":6274,"Ġproduced":6275,"Ġwants":6276,"ĠÑģÐ¾Ð±Ð°Ðº":6277,"ĠÐ¿Ð¾ÑĩÑĤ":6278,"Ġgrowing":6279,"ĠÐ¿Ð¾Ð½ÑıÑĤÐ¸Ñı":6280,"ĠÐĵÑĢÐ°ÑĦ":6281,"ĠÐ½ÐµÐ²ÐµÑģÑĤ":6282,"Ġentre":6283,"Ġentering":6284,"uded":6285,"ĠÑģÐ¿ÑĢÐ¾ÑģÐ¸ÑĤÑĮ":6286,"Ġcarp":6287,"Ġfloor":6288,"ĠÐ·Ð°Ð¿Ð°Ñħ":6289,"ĠÐ±Ð¾Ð»ÑĮÑĪÐ¾Ðµ":6290,"ĠÐºÐ¾Ð»ÐµÐ±":6291,"ĠÐ¼Ð°Ð»ÐµÐ¹":6292,"ĠÑģÑĤÐ¾ÑĢÐ¾Ð½Ðµ":6293,"Ð¸ÑĪÑĮÑģÑı":6294,"Ġdecision":6295,"Ġobject":6296,"ĠÐ´ÑĥÑĪÑĥ":6297,"ĠÐ¶Ð°Ð»Ð¾Ð²":6298,"ĠÐ²ÑģÑıÐºÐ¾Ð³Ð¾":6299,"Ġsilently":6300,"ĠÑģÐ»ÑĥÑĪÐ°ÑĤÑĮ":6301,"ĠÑĤÑĢÑĥÐ´Ð½Ð¾":6302,"Ġbold":6303,"ĠÐ½ÐµÑģÑĩÐ°ÑģÑĤÐ»Ð¸Ð²":6304,"ĠÐ¶ÐµÐ»Ð°Ð½Ð¸Ðµ":6305,"ĠÐ¸Ð·Ð²Ð¾Ð·":6306,"Ġsincere":6307,"Ġopinions":6308,"ĠÐ¿Ð¾Ð³Ð»Ñı":6309,"Ġmistake":6310,"ĠÑģÑĩÐ°ÑģÑĤÑĮÑı":6311,"ĠÐ¿Ð»Ð°ÑĤÑĮÑı":6312,"ĠÐ¿Ð¸ÑģÐ°Ð»":6313,"ĠÑģÐ²ÑıÐ·Ð¸":6314,"ĠÑģÐ¾Ð¼Ð½ÐµÐ½Ð¸Ñı":6315,"Ġpersonal":6316,"Ġpriv":6317,"ĠÐ±Ð¾ÑĢÑĮ":6318,"ĠÐºÐ½Ð¸Ð³Ñĥ":6319,"Ġminute":6320,"Ġanimated":6321,"Ġrecalled":6322,"ĠÑĥÑģÐ»ÑĭÑħÐ°Ð»":6323,"Ġsingle":6324,"ĠÐľÐ°ÑĢÑĮÑı":6325,"ĠÑĤÑĢÑĥÐ´Ð°":6326,"Ġcompletely":6327,"ĠÐ»Ð°ÑģÐºÐ¾Ð²":6328,"Ġelections":6329,"ĠÐ´ÐµÐ½ÐµÐ³":6330,"ĠÐ½ÐµÐ¿ÑĢÐ¸Ð»Ð¸Ñĩ":6331,"ĠÑĢÐµÐ»Ð¸Ð³":6332,"ĠÐ½ÐµÑģÐ¾Ð¼Ð½ÐµÐ½Ð½Ð¾":6333,"ĠÐºÑĢÐ°ÑģÐ½ÐµÑı":6334,"isfaction":6335,"ĠÐ¿Ð»Ð¾Ñħ":6336,"Ġphilosop":6337,"ĠÐ¿ÑĢÐ¾ÑĤÐ¸Ð²Ð¾Ð¿Ð¾Ð»Ð¾Ð¶":6338,"Ġgloom":6339,"ĠÑĤÑĢÐµÑĤÐ¸Ð¹":6340,"ĠÐ¿ÑĢÐµÑģÑĤÑĥÐ¿":6341,"AT":6342,"Have":6343,"IT":6344,"VIN":6345,"oint":6346,"vol":6347,"yond":6348,"Ð½Ð°Ð´ÑĨÐ°ÑĤÑĮ":6349,"Ġtired":6350,"ÑĥÐ¹":6351,"ÑıÑİ":6352,"ÑĮÐ²":6353,"Ġwra":6354,"ĠÑģÑħÐ¾Ð´":6355,"ÑĩÐ°ÑĤ":6356,"ĠÐ¿Ð¸ÑĪ":6357,"ĠÐ²Ð¾Ð¹":6358,"ÐºÐ°Ð¼":6359,"reci":6360,"Ð´Ð¸":6361,"erhaps":6362,"ĠÑĩÑĥÐ´":6363,"asing":6364,"ĠÑĤÑı":6365,"ĠÑĤÐµÐ»Ð¾":6366,"Ð½Ð°Ð½":6367,"Ð½Ð°Ñħ":6368,"ĠÐ¼Ð¾Ñİ":6369,"Ġpause":6370,"Ġpaused":6371,"Ġincl":6372,"Ð¿Ð¿":6373,"ĠÑĢÐ°ÑģÑĤ":6374,"ĠÐ¿Ð¾ÐµÐ´ÐµÐ¼":6375,"icle":6376,"ÐµÐ²ÑĪÐ¸Ð¹":6377,"ĠÐ»Ð¾Ð²":6378,"Ð¾ÑĤÑĭ":6379,"ÑĨÐ¾":6380,"ĠÑĤÐ¾Ñĩ":6381,"ĠÑĤÐ¾Ð½Ð¾Ð¼":6382,"Ġrain":6383,"ĠÑģÐ²ÐµÑĤÐ°":6384,"Ð½ÑĥÐ»Ð¸":6385,"ĠÐ¿ÑĢÐ¸ÑģÑĤ":6386,"ĠÐ¿ÑĢÐ¸Ð¿":6387,"ĠÐ¿Ð¾Ð´Ð¿":6388,"ĠÑģÐ²Ð¾Ñı":6389,"Ġshirt":6390,"Ġdog":6391,"ĠÐŁÐ¾Ð»Ð¾Ð¶":6392,"Ġfrank":6393,"Ġdevelop":6394,"ĠÐ¿ÐµÑĢÐµÐº":6395,"ĠOr":6396,"ÑĪÐµÐµÑģÑı":6397,"ĠÐ¾Ð´ÐµÐ²":6398,"ĠÐ¾Ð´Ð½Ð¾Ð¼Ñĥ":6399,"ĠÐľÑĥÐ¶":6400,"ĠÑģÐ°Ð¼Ð¾Ð¼Ñĥ":6401,"ĠÑĩÑĥÐ²ÑģÑĤÐ²Ð¾Ð²Ð°ÑĤÑĮ":6402,"Ġsevere":6403,"ĠÐ¶ÐµÐ½Ð¾Ñİ":6404,"cience":6405,"ĠÐ½Ð°Ð´ÐµÑı":6406,"osity":6407,"unk":6408,"Ġdisple":6409,"ĠÐ½Ð¸ÑĩÑĤÐ¾Ð¶":6410,"Ð°Ð²ÑĪÐµÐ¹":6411,"Ð°Ð²ÑĪÐµÐ¼Ñĥ":6412,"ĠGl":6413,"ĠÑĦÐ¾ÑĢÐ¼":6414,"ĠÐ²Ð·Ð³Ð»ÑıÐ½ÑĥÐ»Ð°":6415,"ĠÐ¿Ð¾Ð¼Ð½":6416,"ĠÑģÐ»Ð¾Ð²Ð°Ð¼Ð¸":6417,"ĠÐ½Ð°ÑĩÐ°Ð»ÑĮ":6418,"ĠÐ¿ÑĢÐ¾ÑģÐ¸Ñı":6419,"Ġwritten":6420,"ĠÐ³Ð¾Ð»ÑĥÐ±":6421,"clock":6422,"Ġaddressed":6423,"Ġclever":6424,"ĠÐ¿ÑĢÐ¸Ð²ÑĭÐº":6425,"ÑĥÑģÑĤÐ¸ÑĤÑĮ":6426,"ĠÑĥÐ²Ð¸Ð´Ð°Ð»Ð°":6427,"Ġhelped":6428,"ĠÐ¼Ð¾ÑģÐºÐ¾Ð²":6429,"ĠÐºÐ°ÑĢÐµÑĤÑĥ":6430,"Ġfriendly":6431,"ÑģÑĤÐ²ÐµÐ½Ð½ÑĭÑħ":6432,"Ġpresented":6433,"ĠÐĴÐ°ÑĢÐ²Ð°ÑĢ":6434,"Ġdressing":6435,"ĠÑģÐ»ÑĭÑĪÐ°Ð»Ð°":6436,"Ġpersu":6437,"ĠÐ½Ð°Ð¼ÐµÐº":6438,"Ġneeded":6439,"Ġbrilli":6440,"ĠYet":6441,"ocks":6442,"ĠÐ¶ÐµÐ»Ð°Ð½Ð¸Ñı":6443,"ĠÑģÑĩÐ°ÑģÑĤÐ»Ð¸Ð²Ð°":6444,"Ġartist":6445,"ĠÐĴÐ°ÑģÐ¸Ð»Ð¸Ð¹":6446,"ĠÑħÐ¾Ð»Ð¾Ð´Ð½Ð¾":6447,"ĠÐ²Ð¾Ð´Ñĭ":6448,"Ġsupport":6449,"ĠÑĢÐ°ÑģÑģÑĥÐ¶Ð´":6450,"ĠÑĥÐ´Ð¾Ð²Ð¾Ð»ÑĮÑģÑĤÐ²Ð¸ÐµÐ¼":6451,"Ġadmit":6452,"ĠÐ¿Ð¸ÑģÐ°ÑĤÑĮ":6453,"ĠÐ±ÐµÑģÐ¿ÑĢÐµÑģÑĤÐ°Ð½Ð½Ð¾":6454,"ĠÐ¿ÐµÑĢÐµÐ±Ð¸Ð»":6455,"Ġhostess":6456,"Ġbuy":6457,"Ġrunning":6458,"Ġstepping":6459,"ĠÑĢÐ°ÑģÑģÐºÐ°Ð·ÑĭÐ²Ð°ÑĤÑĮ":6460,"Ġrapid":6461,"Ġtormented":6462,"Ġmentioned":6463,"Ġlearnt":6464,"ĠÑĦÐ¸Ð³ÑĥÑĢ":6465,"ĠÐĲÑĢÐºÐ°Ð´ÑĮÐµÐ²Ð½Ð°":6466,"ĠÐºÑĢÐ°Ð¹Ð½ÐµÐ¹":6467,"Ġpulled":6468,"ĠÑģÑĤÐ°Ð½ÑĨÐ¸Ð¸":6469,"Ġaccording":6470,"ortune":6471,"Ġstruggle":6472,"ĠÐ²ÐµÐ»Ð¸ÐºÐ¾Ð´ÑĥÑĪ":6473,"ĠÑĤÐµÐ»ÐµÐ³ÑĢÐ°Ð¼":6474,"Ġphysical":6475,"ĠÑĪÐ¸ÑĢÐ¾Ðº":6476,"Ġcontemptu":6477,"ĠÐ¿Ð¾Ð´ÑĤÐ²ÐµÑĢÐ´":6478,"rehensible":6479,"ĠÐŀÐ¿ÑıÑĤÑĮ":6480,"Ġjourney":6481,"Ġpossibility":6482,"Ġescape":6483,"Ġnursery":6484,"Ġprinci":6485,"ĠÐ½ÐµÑģÐ¿ÑĢÐ°Ð²ÐµÐ´Ð»Ð¸Ð²":6486,"ĠÐ½ÐµÐ¿Ð¾Ð½ÑıÑĤ":6487,"ĠÐĴÐ¿ÑĢÐ¾ÑĩÐµÐ¼":6488,"-'":6489,"de":6490,"ges":6491,"kward":6492,"Ð»ÐµÐ·":6493,"ÑĥÑıÑģÑĮ":6494,"Ġwore":6495,"Ġwide":6496,"Ġwarm":6497,"ĠÑģÑĥÑħ":6498,"ĠÐ½Ñĥ":6499,"ĠÐ²Ð¾Ðº":6500,"erial":6501,"ĠÐºÐ°Ñĩ":6502,"ÑĪÐµÐ¼":6503,"Ġmir":6504,"Ġmisf":6505,"Ġmotion":6506,"ĠÐ´ÑĭÑĪ":6507,"ĠÑĩÐ°Ð¹":6508,"ĠÑĩÐ°ÑĪ":6509,"ĠÑĩÐµÑĤÑĭ":6510,"ĠÑĩÐµÑĤÐ²ÐµÑĢ":6511,"ÐµÐ»Ñİ":6512,"ĠÐ¼Ð°ÑĪ":6513,"ĠÐ¼Ð¸Ð½Ð¸":6514,"ĠÐ¼ÑĥÐ·":6515,"Ġlim":6516,"ork":6517,"Ġpar":6518,"ĠÐ·Ð°Ð»Ñĥ":6519,"Ġbeyond":6520,"Ð°Ð²ÑĤÑĢÐ°":6521,"Ġease":6522,"ĠÐ¿Ð¾ÑĪÐ»Ð¸":6523,"Ð°Ð½Ð½ÑĭÐ¼":6524,"ĠÐ³Ð°Ð·":6525,"Ġund":6526,"ÑĨÐµÐ½":6527,"ades":6528,"Ġrub":6529,"ĠTvers":6530,"Ð»Ð¸Ð¹":6531,"ĠLv":6532,"ĠÐĽÑĮÐ²":6533,"chief":6534,"ĠÐ¿Ð¾Ð´Ð°Ð²":6535,"ĠÑĢÐ°Ð·Ð´ÐµÐ»":6536,"Ð½ÑıÐ²":6537,"ĠÑģÐ»ÐµÐ³":6538,"ĠÑģÐ»ÑĭÑħ":6539,"ilt":6540,"ĠVlas":6541,"ĠÐŁÐ°Ð²":6542,"ĠÐŁÐµÑĢÐ²":6543,"acked":6544,"ovsky":6545,"ĠÐ¾Ð´Ð½Ð°ÐºÐ¾":6546,"Ġgoes":6547,"ĠÐľÐµÑĤ":6548,"ĠÑĪÐ»Ð°":6549,"Ġvill":6550,"Ġviv":6551,"artment":6552,"oused":6553,"ĠÐ´Ð²Ð°Ð´ÑĨÐ°ÑĤÑĮ":6554,"Ġpossess":6555,"Ġagitation":6556,"ĠÐ¸Ð¼Ð¸":6557,"Ġspr":6558,"Ġseized":6559,"ĠÐ±Ð¾Ð»ÑĮÐ½Ð¾Ð³Ð¾":6560,"ĠÐ±Ð¾Ð»ÑĮÐ½Ð¾Ð¹":6561,"ĠÐ´ÑĥÐ¼Ð°ÐµÑĤ":6562,"ĠÑĢÐ°ÑģÑħÐ¾Ð´":6563,"ĠÐ´Ð¾ÑģÑĤÐ°Ð²":6564,"ĠÑĥÐ¼Ð°":6565,"Ġthank":6566,"Ð½Ð¾Ð²ÑĮ":6567,"ĠÐ½Ð¾Ð²ÑĭÐ¹":6568,"ĠÐ½Ð¾Ð²ÑĭÐ¼":6569,"ĠÐ¿Ð¾ÑĢÑĤ":6570,"ĠÐ¾ÑĤÐ²ÐµÑĩÐ°Ñı":6571,"ĠRe":6572,"ĠÑĤÑĢÐµÑħ":6573,"ĠÐ³ÑĢÐ°Ð½Ð¸ÑĨÑĥ":6574,"Ġreport":6575,"Ġappreci":6576,"ĠÐĿÐµÑĥÐ¶ÐµÐ»Ð¸":6577,"ĠÐ·Ð°ÐºÐ»ÑİÑĩ":6578,"ĠÑħÐ¾Ð·ÑıÐ¸Ð½":6579,"ĠÐ±Ð¾Ð»ÑĮÑĪÑĥÑİ":6580,"Ġfeared":6581,"Ġdoorway":6582,"ĠÐ¼Ð¾Ð¸":6583,"Ð²Ð¸Ð³":6584,"ĠÑĥÐ¶Ð°ÑģÐ¾Ð¼":6585,"ĠÐ±ÐµÑģÑģ":6586,"ĠÐ¿Ð¾ÑģÐ»ÐµÐ´Ð½Ð¸Ð¹":6587,"ĠÐ»ÑİÐ±Ð¾Ð²ÑĮÑİ":6588,"Ġdespite":6589,"Ġanger":6590,"ashion":6591,"ĠÐ´Ð²Ð¸Ð¶ÐµÐ½Ð¸Ñı":6592,"Ġofficer":6593,"atthew":6594,"Ġdeter":6595,"ĠÐ²Ð½Ð¸Ð¼Ð°Ð½Ð¸Ñı":6596,"ĠÑģÑĤÑĢÐ°ÑģÑĤ":6597,"Ġideas":6598,"ĠÑģÐµÑģÑĤÑĢÑĭ":6599,"Ġswath":6600,"ĠÑĩÐ¸ÑĤÐ°Ð»":6601,"ĠÑĩÐ¸ÑĤÐ°ÑĤÑĮ":6602,"ĠÐ·Ð°Ð½ÑıÑĤÐ¸Ñı":6603,"ĠÐ´ÐµÐ²ÑĥÑĪÐºÐ°":6604,"ĠÐ±ÑĢÐ°ÑĤÑĮ":6605,"Ġpretty":6606,"ĠÐ©ÐµÑĢÐ±Ð°ÑĨÐºÐ¸Ñħ":6607,"ĠÐľÐ¾ÑģÐºÐ²Ñĭ":6608,"Ġregarded":6609,"ĠÑģÑİÑĢ":6610,"ĠÐ¿ÐµÑĢÐµÐ³Ð¾Ð²Ð¾ÑĢ":6611,"ĠÐ±ÑĥÐ¼Ð°Ð¶":6612,"Ġconnected":6613,"Ġsufferings":6614,"ĠÐ½ÑıÐ½Ñı":6615,"ĠÐ²ÑģÐºÑĢÐ¸ÐºÐ½ÑĥÐ»":6616,"ĠÑħÐ»ÐµÐ±":6617,"ĠÑģÐ¾ÑĩÑĥÐ²ÑģÑĤÐ²":6618,"ĠÐ¿Ð¾ÑĢÑĤÑĢÐµÑĤ":6619,"ĠBarbar":6620,"ĠLEVIN":6621,"Ġindepend":6622,"ĠÐ¼ÑĥÐ½Ð´Ð¸ÑĢ":6623,"Ġvanished":6624,"Ġoccurred":6625,"Ġridiculous":6626,"Ġdisagree":6627,"ĠBarbara":6628,"AY":6629,"IS":6630,"Very":6631,"ables":6632,"den":6633,"Ðķ":6634,"Ð»Ð°Ðº":6635,"Ð»ÐµÐ³":6636,"ÑĥÑĢÐ¾Ð²":6637,"inted":6638,"ĠÑģÐ°Ð¿":6639,"Ġsev":6640,"ĠÐ½ÑĥÐ¼":6641,"ĠÐ¿Ð°Ñħ":6642,"ĠÐ¿Ð¾Ð¿ÑĢÐ¾Ñģ":6643,"ĠÐ²Ð½Ð¾Ð²ÑĮ":6644,"ĠÐ¾ÑĤÐ¾":6645,"ĠÐ¾Ñī":6646,"nded":6647,"itated":6648,"Ġbound":6649,"Ġheight":6650,"ĠÐºÐ¾Ð²":6651,"ĠÐºÑĢÐ°":6652,"ÐµÐ½Ð½Ð¾Ð¼":6653,"ĠÐ±ÐµÐ³":6654,"Ġmou":6655,"Ġmine":6656,"ĠÐ´Ð¾Ð¶Ð´":6657,"ÐµÐ»Ð¸Ñĩ":6658,"Ġdign":6659,"ĠÑĤÑĢÑı":6660,"Ġnine":6661,"ÐµÑĢÐ¾Ð¼":6662,"ĠÐ½ÐµÐ¾Ð¿":6663,"ĠÐ¼ÑıÐ³":6664,"Ġlower":6665,"Ð°Ð·Ð´":6666,"ĠÑĥÑĪÐµÐ»":6667,"ĠÑĥÑģÑĤÑĢÐ¾Ð¹":6668,"omfort":6669,"Ð¿Ð°Ð¶":6670,"ĠÑĢÐ¾Ð²":6671,"ĠÑĢÐµÑĩÑĮ":6672,"lebr":6673,"Ġhers":6674,"icked":6675,"Ð°Ð½Ð½ÑĥÑİ":6676,"Ð°Ð½Ð½ÑĭÐ¼Ð¸":6677,"ĠÑįÐºÐ¸":6678,"Ġreve":6679,"etrov":6680,"ĠÑģÐºÐ»Ð°Ð´":6681,"ĠÐ¾ÑĤÑĤ":6682,"Ð¾Ð¶Ð¸ÑĤÑĮ":6683,"ĠÐĿÐ°Ð¿":6684,"Ġrib":6685,"ĠTany":6686,"ays":6687,"ĠÐ²ÑĭÐº":6688,"ĠÐ²ÑĭÐ´":6689,"urope":6690,"ĠHave":6691,"eeper":6692,"chant":6693,"ĠÐ¡Ð°Ð¼":6694,"ĠÐ¿Ð¾Ð´Ð°Ð²Ð°Ñı":6695,"Ġsocial":6696,"iled":6697,"ĠÐŁÐ¾Ð»":6698,"Ġneg":6699,"Ġalthough":6700,"Ġchat":6701,"ĠÐ¿ÐµÑĢÐµÑĪ":6702,"ĠPav":6703,"inded":6704,"ĠÑĪÑĥÐ±":6705,"Ð°Ð±Ð¾Ñĩ":6706,"ĠAnn":6707,"ĠÑģÐ°Ð¼ÑĭÑħ":6708,"ĠÐ²Ð¸Ð´Ð¾Ð¼":6709,"ĠÑģÑĤÐ¾Ð»Ð¾Ð²":6710,"Ġunus":6711,"ĠÐ¿ÑĢÐ¾ÑĦ":6712,"Ð¸ÑĤÐµÐ»ÑĮÐ½ÑĭÐ¹":6713,"Ġspot":6714,"Ġsports":6715,"ĠÑħÐ¾ÑĤÐµÐ»Ð¸":6716,"Ð°Ð»ÑĮÐ½Ð¾Ðµ":6717,"ĠÐ´ÑĥÐ¼Ð°Ñı":6718,"osp":6719,"osy":6720,"ĠÐ¼Ð¾Ð¶ÐµÑĤÐµ":6721,"ĠÑĢÐ°ÑģÑģÑĤ":6722,"ĠÑģÐ¾ÐµÐ´":6723,"ĠÑģÐ¾ÑģÑĤÐ°Ð²Ð»Ñı":6724,"Ġplain":6725,"Ġplans":6726,"Ġteeth":6727,"ĠÐ²ÐµÑĢÐ¸Ð»":6728,"ĠEurope":6729,"ĠÐĳÐ¾Ð»ÑĮ":6730,"ĠÐºÐ½ÑıÐ·Ñı":6731,"ĠÑĥÐ¼Ð¸ÑĢÐ°":6732,"ĠÐ¾ÑģÑĤÐ°Ð»ÑģÑı":6733,"Ġgrou":6734,"ĠÐ¿Ð¾Ð²Ð¾Ð´":6735,"ĠÐĵÐ¾Ð²Ð¾ÑĢ":6736,"Ð¸Ð²ÑĪÐ¸Ðµ":6737,"ĠÐ¿Ð¾ÑĢÐ°":6738,"Ð»ÐµÐ½Ð°":6739,"ĠRE":6740,"ĠÐ£Ð²Ð¸Ð´":6741,"ĠÐºÐ¾Ð¼Ð°Ð½Ð´":6742,"ĠÑĢÐ°Ð·Ð³Ð¾Ð²Ð¾ÑĢÐµ":6743,"Ġrooms":6744,"Ġrepent":6745,"cles":6746,"Ġcarrying":6747,"Ġpassing":6748,"ĠÐ²Ð¾Ð¿ÑĢÐ¾ÑģÐ°":6749,"Ġevil":6750,"ĠÐ·Ð½Ð°ÑİÑĤ":6751,"Ġconsidering":6752,"ĠÐ²Ð¾ÑģÐµÐ¼ÑĮ":6753,"ĠÐ½ÐµÐ´Ð¾Ð²":6754,"ĠÑĩÐ°ÑģÐ°":6755,"ĠÐ·Ð°ÐºÑĢÑĭÐ²":6756,"ĠÐºÐ½ÑıÐ³Ð¸Ð½Ðµ":6757,"ĠÐ¼Ð¾ÐµÐ³Ð¾":6758,"ĠÑĤÐ²Ð¾Ðµ":6759,"ĠÑģÐµÑĢÐ´ÑĨÐ°":6760,"Ġcontinue":6761,"ĠÐ¼Ð¾Ð»Ð¾Ð´ÑĭÐµ":6762,"Ġdrawn":6763,"ĠÐ³ÑĢÐ°ÑĦÐ¸Ð½Ð¸":6764,"Ġdistrict":6765,"Ġjoyful":6766,"Ð°ÑİÑīÐµÐ³Ð¾":6767,"ĠÑĤÑĥÐ´Ð°":6768,"Ġmoral":6769,"ĠÐ¾ÑģÑĤÐ°Ð²Ð¸ÑĤÑĮ":6770,"ĠÐ¸ÑģÐ¿ÑĭÑĤÑĭÐ²Ð°Ð»Ð°":6771,"ĠÐ¿ÑĢÐ¾ÑĪÑĥ":6772,"ĠÐ¿Ð¾Ð»ÑĥÑĩÐ¸Ð»":6773,"Ġbread":6774,"Ġbreath":6775,"ĠÑĢÐ°ÑģÑģÐºÐ°Ð·Ð°Ð»":6776,"ĠÐ¿Ð¾Ð¹Ð´ÐµÐ¼":6777,"Ġlightly":6778,"Ġrealize":6779,"Ġawkward":6780,"ĠÐ¿Ð¾Ð¿ÑĭÑĤ":6781,"ĠÐ¾Ð±ÑīÐµÑģÑĤÐ²Ð°":6782,"ĠÐ³Ð¾ÑģÑĤÐµÐ¹":6783,"Ġcompany":6784,"ĠÐ·ÐµÐ¼Ð»Ñİ":6785,"ĠÑĪÐ°Ð³Ð¾Ð¼":6786,"ĠÐŀÐ±Ð»Ð¾Ð½ÑģÐºÐ¾Ð³Ð¾":6787,"ÑĤÑĢÐ°Ðº":6788,"ĠNobility":6789,"Ġcoldly":6790,"ÐĿÐµ":6791,"Ġofficers":6792,"attered":6793,"ÑİÑīÐµÐ³Ð¾":6794,"fortun":6795,"Ġacquainted":6796,"ĠÐ¿Ð¾ÑģÐ¼Ð¾ÑĤÑĢÐµÐ»Ð°":6797,"Ġincomp":6798,"ĠÐ´ÑĥÑħÐ¾Ð²":6799,"ĠÑĤÐ¾Ð»ÑģÑĤ":6800,"ĠÐ²Ð¿ÐµÑĢÐµÐ´Ð¸":6801,"Ġtort":6802,"ĠÑģÐ¸Ð»ÑĮÐ½Ð¾":6803,"ĠÐ±Ð¾ÑıÐ»ÑģÑı":6804,"Ġcelebr":6805,"ĠÐ·Ð°Ð³Ð¾Ð²Ð¾ÑĢÐ¸Ð»Ð°":6806,"ĠÑģÐ¾Ð³Ð»Ð°ÑģÐµÐ½":6807,"Ġdepri":6808,"Ġformerly":6809,"ĠÐ´ÐµÑģÑıÑĤÑĮ":6810,"Ġexistence":6811,"ĠÐ¾Ð±ÐµÑīÐ°Ð»":6812,"ĠÐ²Ð¾Ð»Ð½ÐµÐ½Ð¸Ðµ":6813,"ĠCommittee":6814,"ĠÐ´ÐµÐ²Ð¾ÑĩÐºÐ°":6815,"Ġwonderful":6816,"Ġappearance":6817,"Ġdelightful":6818,"ĠÐ¿Ð¾Ð³Ð¾Ð²Ð¾ÑĢÐ¸ÑĤÑĮ":6819,"Ġmusic":6820,"ĠÐ²Ð¾ÑĢÐ¾ÑĤ":6821,"Ġsuperf":6822,"Ġlifted":6823,"ĠÐ·Ð°Ð±ÑĭÑĤÑĮ":6824,"ĠÐ¼Ð³Ð½Ð¾Ð²ÐµÐ½Ð¸Ðµ":6825,"ĠÑĦÐ¸Ð·Ð¸ÑĩÐµÑģÐº":6826,"Ġreproach":6827,"Ġpiece":6828,"Ġconvict":6829,"Ġscarcely":6830,"ĠÑĪÐµÐ¿Ð¾ÑĤÐ¾Ð¼":6831,"ĠÐĵÑĢÐ¸ÑĪ":6832,"Ġrailway":6833,"Ġagriculture":6834,"ĠÐŁÐµÑģÑĨÐ¾Ð²":6835,"ĠÐĿÑĭÐ½ÑĩÐµ":6836,"ĠÐ²Ð¾ÐºÑĢÑĥÐ³":6837,"ĠÑįÐºÐ¸Ð¿Ð°Ð¶":6838,"Alex":6839,"For":6840,"On":6841,"One":6842,"bing":6843,"cing":6844,"form":6845,"gn":6846,"ience":6847,"uff":6848,"Ðĳ":6849,"Ġid":6850,"ÑĤÐ¸Ð²":6851,"ÑĤÐ°Ð»Ð°":6852,"ÑģÐ¸ÑĤ":6853,"Ð½Ð°Ð»":6854,"Ð»ÑĥÑĩ":6855,"ÑĢÐµÐ¶Ð´":6856,"Ġwall":6857,"Ġwine":6858,"ĠÑģÑĥÐ¶Ð´":6859,"ĠÑģÐ·Ð°Ð´Ð¸":6860,"ĠÐ¿ÑĥÑģÐº":6861,"ĠÐ²Ð»Ð°":6862,"ĠÐ²Ð°Ð»ÑĮ":6863,"Ð¾Ð²Ð°Ð½Ð¸Ðµ":6864,"Ð¾Ð²Ð»ÐµÑĤ":6865,"Ġfat":6866,"Ġmowing":6867,"Ġmush":6868,"ĠÐ´Ð¾Ð¼Ñĥ":6869,"ÑħÐ¸Ñī":6870,"Ġdim":6871,"ĠÑĤÐµÑĤ":6872,"ĠÑĤÐµÐ½Ð¸":6873,"Ġna":6874,"ÐµÑĢÑĤÐ²":6875,"Ġlack":6876,"ĠÐ¿ÑĢÐ¸Ð»":6877,"ĠÐ¿ÑĢÐ°Ð·Ð´":6878,"anqu":6879,"oted":6880,"othes":6881,"Ð¶Ð¸":6882,"ĠÐ½Ð°ÑģÑĤÑĢÐ¾":6883,"Ġgrace":6884,"ĠÐ¿Ð¾ÑĪ":6885,"ĠIN":6886,"ĠÐ³ÑĢÐ¸":6887,"ĠÐ¾ÑĤÑģ":6888,"ĠÐ¾ÑĤÑĢÐ¸ÑĨ":6889,"Ġradi":6890,"ĠTwo":6891,"Ð°ÑĤÑĥÑĢ":6892,"onsense":6893,"ries":6894,"ĠÐ¿Ð¾Ð´Ñĩ":6895,"ĠÐŁÑĢÐµÐ´":6896,"ĠÐŁÐ¾ÑģÑĤ":6897,"Ġwheels":6898,"ÐµÐ½Ð½Ð¾ÑģÑĤÐ¸":6899,"ĠÑģÐ¿Ð°Ð»":6900,"ĠPlease":6901,"ĠÐ¢Ð¸ÑĤ":6902,"Ġlies":6903,"ÑģÐ»Ð¾Ð²":6904,"Ġintended":6905,"ĠMetrov":6906,"ÑħÐ¾Ð´Ñı":6907,"ĠÑģÐ°Ð¼Ð°Ñı":6908,"ĠÐ²Ð¸Ð´Ð¸ÑĪÑĮ":6909,"ÑĥÑĪÐºÐ°":6910,"ĠÐ¿Ð¾ÐºÐ°Ð·Ð°ÑĤÑĮ":6911,"Ġwearing":6912,"ĠÐ½Ð¸ÑģÐºÐ¾Ð»ÑĮÐºÐ¾":6913,"ĠÐ½Ð¸ÐºÐ¾Ð¼Ñĥ":6914,"ague":6915,"ostya":6916,"Ġtranqu":6917,"ĠÐ²ÐµÑĢÐ¾ÑıÑĤÐ½Ð¾":6918,"ĠÑĢÐ°Ð´Ð¾ÑģÑĤÑĮÑİ":6919,"Ġcloud":6920,"ĠÑģÐ¾Ð±ÑĢ":6921,"ĠÐŃÑĤÐ¾ÑĤ":6922,"Ð¸Ð²ÑĪÐ¸Ñħ":6923,"ĠÐ½Ð¾Ð²ÑĥÑİ":6924,"ÐµÑİÑģÑĮ":6925,"Ġpride":6926,"ĠÑĢÐµÑĪÐ¸ÑĤÑĮ":6927,"ĠÐ¾ÑģÐ¾Ð±ÐµÐ½Ð½Ð¾Ðµ":6928,"ĠÐ·Ð°Ð±ÑĭÐ²":6929,"Ġapparent":6930,"ĠÐ¿ÑĢÐ¸Ð²Ð»ÐµÐº":6931,"Ġcalling":6932,"ĠÐ±Ð¾Ð»ÑĮÑĪÐ¸Ðµ":6933,"ĠÐŁÐµÑĤÑĢ":6934,"ÑģÑĤÐ²ÐµÐ½Ð½Ð¾Ð³Ð¾":6935,"Ġrefer":6936,"ĠÐ¾ÑĤÐ½Ð¾ÑĪÐµÐ½Ð¸Ðµ":6937,"Ġelb":6938,"ĠÑĥÑĤÑĢÐ°":6939,"Ġregiment":6940,"ĠÐ¿ÑĢÐ¸ÑıÑĤÐµÐ»ÑĮ":6941,"Ġsimpl":6942,"ĠÐ¼Ð°ÑĤÐµÑĢÑĮÑİ":6943,"ĠÐºÐ¾Ð½ÑĨÐµ":6944,"ĠÐ½Ð°Ð·Ð²":6945,"ĠStre":6946,"ĠÐ¿Ð¾Ð¹Ð´Ñĥ":6947,"ĠÐ·Ð°ÑĤÐ¸Ñħ":6948,"ĠÐ·Ð°ÑĤÑĢÑĥÐ´":6949,"ĠÑģÐºÐ°Ð¶Ð¸":6950,"Ġsmilingly":6951,"ĠÐ¾Ð±ÑīÐµÑģÑĤÐ²Ðµ":6952,"ÑıÐ³Ñĩ":6953,"ĠÐ¥ÑĢÐ¸":6954,"ushka":6955,"Ġcorrect":6956,"Ġefforts":6957,"Ġrestr":6958,"ĠÐ¿Ð¾Ð³Ð¸Ð±":6959,"utely":6960,"Ġbooks":6961,"ĠÐ¾Ð±ÑīÐµÐ³Ð¾":6962,"Ġadvice":6963,"Ġmistress":6964,"ĠÑĤÐ°Ð¸Ð½":6965,"ĠÐ¿Ð¾ÑģÑĤÐ¾Ð¹":6966,"hold":6967,"Ġpreparing":6968,"ĠÐ²ÐµÑĩÐµÑĢÐ¾Ð¼":6969,"Ġservants":6970,"ĠÐ¿ÐµÑĢÐµÑģÑĤÐ°Ð²Ð°Ñı":6971,"uthor":6972,"Ġwhisper":6973,"ĠÐ´Ð¾ÑģÐ°Ð´Ð½Ð¾":6974,"Ġsunsh":6975,"Ġfrowned":6976,"ĠÐ±ÐµÑĢÐµÐ·":6977,"ĠÐ¾Ð³Ð»ÑıÐ´ÑĭÐ²Ð°Ñı":6978,"ĠÐ²Ð¾Ð»Ð½ÐµÐ½Ð¸Ñı":6979,"ĠÐ·Ð»Ð¾Ð±":6980,"ĠÐ¼ÑĥÐ¶ÑĩÐ¸Ð½":6981,"ĠÐ¶ÐµÑģÑĤÐ¾Ðº":6982,"Ġrecollect":6983,"ĠÐ¿Ð¾ÐºÑĢÐ°ÑģÐ½ÐµÐ»":6984,"ĠÐ¿Ð¾ÐºÑĢÐ°ÑģÐ½ÐµÐ»Ð°":6985,"ĠÐ°Ð½Ð³Ð»Ð¸ÑĩÐ°Ð½":6986,"Ġmuttered":6987,"ĠÐĽÐ¸Ð·Ð°Ð²":6988,"Ġjudge":6989,"ĠÐĳÑĭÐ»Ð¾":6990,"Ġcandle":6991,"Ġmonths":6992,"Ġvalue":6993,"ĠExcell":6994,"ĠÐ½Ð°ÑģÐ»Ð°Ð¶Ð´":6995,"Ġgallop":6996,"Ġconcerned":6997,"Ġfetch":6998,"ĠÐ¿Ð¾ÐºÐ»Ð¾Ð½Ð¸Ð»ÑģÑı":6999,"ĠÑĢÐ°ÑģÐ¿Ð¾ÑĢÑıÐ¶":7000,"ĠÑįÐ½ÐµÑĢÐ³":7001,"Ġactivity":7002,"ĠÐ²Ð³Ð»ÑıÐ´ÑĭÐ²Ð°ÑıÑģÑĮ":7003,"Ġoccasion":7004,"ĠÐ¸Ð·Ð²Ð¾Ð·ÑĩÐ¸Ðº":7005,"Ġprivate":7006,"ĠÐľÐµÑĤÑĢÐ¾Ð²":7007,"Ġdeterm":7008,"ĠTanya":7009,"Ð¾Ð²Ð»ÐµÑĤÐ²Ð¾ÑĢ":7010,"Ġmushroom":7011,",\"":7012,"OM":7013,"UR":7014,"aily":7015,"ey":7016,"hod":7017,"ike":7018,"ips":7019,"iety":7020,"kevich":7021,"lav":7022,"table":7023,"umed":7024,"zz":7025,"Ġice":7026,"ÑĤÐ¸Ðº":7027,"ÑĢÐ°Ð»":7028,"Ġauthor":7029,"ÑĮÑĤÐµ":7030,"Ġwed":7031,"ĠÑģÐ¾ÑĤ":7032,"ĠÑģÐ¾Ð¶":7033,"ÑĩÐµÑģÐº":7034,"ĠÐ¿Ð°Ð¼":7035,"ĠÐ¿Ð°Ð´":7036,"ĠÐ²ÐµÐ´":7037,"ĠÐ²Ð½Ðµ":7038,"ÐºÐ¾Ð¼Ñĥ":7039,"ÐºÐµÐ²Ð¸Ñĩ":7040,"Ġhired":7041,"ĠÐ¾Ð³Ð¾":7042,"ĠÐ¸Ð½Ð¾":7043,"Ð´ÐµÐ²":7044,"Ġbank":7045,"onel":7046,"Ġcro":7047,"Ġfate":7048,"Ġmag":7049,"Ġdu":7050,"Ġdish":7051,"asha":7052,"Ġnonsense":7053,"ÐµÑĢÐºÐ¾Ð²":7054,"Ġlen":7055,"Ġpra":7056,"Ġpushed":7057,"ĠÑĢÐ¾Ð·":7058,"Ġbeat":7059,"utions":7060,"Ð½Ð¸Ñİ":7061,"Ð¾ÑĢÐ°":7062,"lying":7063,"Ġelder":7064,"ÑģÐºÐ°":7065,"stache":7066,"ĠÐ³ÑĥÐ²ÐµÑĢ":7067,"Ð¸Ð²Ð°ÐµÑĤ":7068,"Ð°Ð´Ð»":7069,"ĠÑģÐºÐ¾ÑĤ":7070,"Ð¾ÑĤÐµ":7071,"ĠÐ¾ÑĤÑĩÐ°":7072,"Ð¾Ð¶Ð¸Ð»":7073,"iration":7074,"Ġrare":7075,"ĠTush":7076,"Ð°ÑĤÑĭÐ¹":7077,"ify":7078,"ĠÑģÑĤÑĭ":7079,"ĠLe":7080,"ĠÑįÑĤÐ¸Ð¼Ð¸":7081,"ĠÐ¿Ð¾Ð´Ð°Ð»":7082,"ĠÐŁÐ¾Ð¹Ð´ÐµÐ¼":7083,"Ð¾ÑĪÐ»Ð¾":7084,"ĠÐ¸Ð·ÑĥÑĩ":7085,"ĠÐ¸Ð·Ð²Ð¸":7086,"ÐµÐ¶Ð°Ð»Ð¸":7087,"ÐµÐ¶Ð´Ðµ":7088,"ÑīÐµÐµÑģÑı":7089,"Ġchanging":7090,"ĠÐ¿ÐµÑĢÑĩÐ°ÑĤ":7091,"ĠÐ¢ÑĥÑĪ":7092,"Ġlie":7093,"ĠÐ»ÑİÐ´Ñı":7094,"ĠÐľÑıÐ³":7095,"ĠCour":7096,"ĠMatthew":7097,"Ġupstairs":7098,"Ð¾ÑĩÐºÑĥ":7099,"ĠÐ²Ð¸Ð´Ðµ":7100,"Ġmyst":7101,"Ġsmell":7102,"ĠDarya":7103,"ĠÑĩÑĥÐ²ÑģÑĤÐ²Ð¾Ð¼":7104,"ĠÐ½Ð°Ð´ÐµÐ²":7105,"Ġcomr":7106,"ĠÑģÐ¾ÑģÑĤÐ°Ð²":7107,"ĠÐĲÑĢÐºÐ°Ð´ÑĮÐ¸ÑĩÑĥ":7108,"Ġdisapp":7109,"ĠÐ§ÑĥÐ²ÑģÑĤÐ²":7110,"ĠÐ¡ÑĤÐµÐ¿Ð°Ð½Ñĥ":7111,"ĠÑĥÐ´Ð¾Ð²Ð»ÐµÑĤÐ²Ð¾ÑĢ":7112,"Ġclub":7113,"Ġblue":7114,"Ġspend":7115,"ĠÑģÐ¾Ð±Ð¸ÑĢ":7116,"Ġbetr":7117,"ĠÐ¿Ð¾Ð½Ð¸Ð¼Ð°Ð»Ð°":7118,"Ġgrand":7119,"ĠÐ¿Ð¾Ð½ÑıÐ²":7120,"Ġdesce":7121,"ĠÑģÑĤÑĢÐ¾Ð³":7122,"Ġflushed":7123,"ĠÐ²ÑģÐ¿Ð¾Ð¼Ð½Ð¸ÑĤÑĮ":7124,"ĠÐ²ÑģÐ¿Ð¾Ð¼Ð¸Ð½Ð°Ð»":7125,"ĠÐ²Ð¾Ð¿ÑĢÐ¾ÑģÐ¸ÑĤÐµÐ»ÑĮÐ½Ð¾":7126,"ĠÐ²Ð¾ÑģÑħÐ¸Ñī":7127,"ĠÐ¿ÐµÑĢÐ²Ð¾Ð¹":7128,"Ġapart":7129,"ÑĥÑģÑĤÐ¸Ð»":7130,"ĠPetrov":7131,"ÑģÑĤÐ²ÐµÐ½Ð½ÑĭÐµ":7132,"ĠÐ¿Ð¾ÑģÑĤÐ¾":7133,"Ġaccomp":7134,"ĠÐºÐ¾Ð»ÐµÑģ":7135,"ĠÐ¼Ð°Ð»ÑĭÐ¹":7136,"ĠÑĥÐ¿Ð¾ÑĢ":7137,"Ġcalcul":7138,"ĠÐ¿Ð¾Ð¶Ð¸Ð¼Ð°Ñı":7139,"ĠÐ¾ÑĤÐ½Ð¾ÑĪÐµÐ½Ð¸Ð¹":7140,"ĠÐ¿ÑĢÐ¸Ð±Ð»Ð¸Ð¶":7141,"ruct":7142,"ĠÑģÐ»ÑĭÑĪÐ°ÑĤÑĮ":7143,"Ġwatching":7144,"ĠÑĥÑģÐ¿ÐµÑħ":7145,"ĠÑĤÑĥÐ°Ð»":7146,"Ġcontinually":7147,"Ġpersons":7148,"HEN":7149,"ĠÐ½Ð¾Ð³Ñĥ":7150,"ĠÐ¼ÑĥÐ¶Ð¸ÐºÐ¾Ð²":7151,"Ð²ÐµÑĢÑģÐ¸ÑĤ":7152,"ĠÐ·Ð½Ð°ÐºÐ¾Ð¼ÑĭÑħ":7153,"ĠÑĥÐ´Ð¸Ð²Ð»ÐµÐ½Ð¸ÐµÐ¼":7154,"ĠÐłÐ°Ð·Ð³Ð¾Ð²Ð¾ÑĢ":7155,"ĠÐ·Ð½Ð°ÑĩÐ¸ÑĤÐµÐ»ÑĮÐ½Ð¾":7156,"Ġconduct":7157,"Ġgirls":7158,"Ġhurry":7159,"ĠÑĥÑĩÑĢÐµÐ¶Ð´":7160,"Ġrepeating":7161,"ĠÐ¥Ð¾ÑĢÐ¾ÑĪÐ¾":7162,"ĠÐ¿ÑĢÐ¸Ð½Ð°Ð´Ð»":7163,"ĠÐ´Ð²Ð¸Ð¶ÐµÐ½Ð¸ÐµÐ¼":7164,"ĠÑĥÐ³Ð°Ð´":7165,"ĠÐŀÐ´Ð¸Ð½":7166,"ĠÑģÐ¾ÑģÑĤÐ¾ÑıÐ½Ð¸Ð¸":7167,"Ġgenerally":7168,"Ġvisitor":7169,"ĠÐ¸Ð·Ð±Ð°Ð²":7170,"ĠÐ´Ð°Ð¼Ñĭ":7171,"ĠÐ´Ð¾ÑĩÐµÑĢÐ¸":7172,"ĠÑĩÐ°ÑģÑĤÑĮ":7173,"ĠÐ¶Ð´Ð°Ð»Ð°":7174,"ĠÐ²Ð¾Ð·Ð¼Ð¾Ð¶Ð½Ð¾ÑģÑĤÐ¸":7175,"ĠÑģÐ°Ð´ÑıÑģÑĮ":7176,"duce":7177,"ĠÐ¿Ð°Ð»ÑĮÑĨÐ°Ð¼Ð¸":7178,"ĠÐ¿Ð¾Ð´ÑĢÐ¾Ð±Ð½Ð¾ÑģÑĤ":7179,"Ġabsence":7180,"ĠÐ¿ÑĢÐ¾ÑĩÐµÐ»":7181,"Ġfinger":7182,"Ġmemories":7183,"Ġsucceed":7184,"ĠÑħÑĥÐ´Ð¾Ð¶":7185,"ĠÐ³ÑĢÑĥÐ´ÑĮ":7186,"Ġprofess":7187,"Ġuttered":7188,"Ġbottle":7189,"ĠÐ½Ð°ÑģÐ¼ÐµÑĪÐ»Ð¸Ð²":7190,"Ġeleg":7191,"ĠÐ²ÑĤÐ¾ÑĢÐ¾Ð¹":7192,"ĠUn":7193,"Ġweakness":7194,"Ġbelonged":7195,"ĠÐ¿Ð¾Ð·Ð´Ð½Ð¾":7196,"Ġquarrel":7197,"ĠÑģÐ²ÑıÑīÐµÐ½Ð½Ð¸Ðº":7198,"ĠÐ¡ÐµÑĢÐ¿ÑĥÑħÐ¾Ð²ÑģÐºÐ¾Ð¹":7199,"known":7200,"Ð²Ð¾Ð·ÑĮ":7201,"ĠÐŁÐµÑĤÑĢÐ¸ÑĨÐºÐ¸Ð¹":7202,"ĠÑģÐ½ÐµÐ³":7203,"Ġintelligent":7204,"ĠÐºÐ¾Ð¼Ð¸ÑģÑģÐ¸Ð¸":7205,"ĠÐ¥Ð¾ÑĤÑı":7206,"ĠÑĢÐµÐ»Ð¸Ð³Ð¸Ð¸":7207,"Ġmisfortune":7208,"ĠÑģÐ»ÐµÐ³ÐºÐ°":7209,"Ġvillage":7210,"ĠÑģÑİÑĢÑĤÑĥ":7211,"Ġdisagreeable":7212,"ĠÑģÐ°Ð¿Ð¾Ð³":7213,"Ġmoustache":7214,"ĠÐ¿ÑĢÐ¾ÑĦÐµÑģÑģÐ¾ÑĢ":7215,"Alexis":7216,"ĠTushkevich":7217,"ĠÐ¢ÑĥÑĪÐºÐµÐ²Ð¸Ñĩ":7218,").":7219,"Frou":7220,"LE":7221,"bo":7222,"cuse":7223,"der":7224,"now":7225,"oe":7226,"oes":7227,"Ð»ÐµÐ½Ð¸Ñİ":7228,"Ġaud":7229,"ÑĭÑģ":7230,"ĠÑģÐ¸Ñħ":7231,"ĠÐ¿ÑĮÑı":7232,"ĠÐ²Ð±":7233,"ĠÐ²Ð°ÑĢ":7234,"ites":7235,"isa":7236,"Ġhes":7237,"erable":7238,"ĠÐºÐ¾Ð»ÑĮ":7239,"Ġtop":7240,"Ð¾Ð²Ð°ÑĤÑĮÑģÑı":7241,"ĠÐ±ÐµÐº":7242,"Ġmood":7243,"ÑħÐ°":7244,"ÐµÐ»ÑģÑı":7245,"ashed":7246,"ĠÑĤÐ°Ð¹":7247,"ĠÐ¼Ð°Ð´Ð°Ð¼":7248,"Ġlying":7249,"Ġlamp":7250,"orse":7251,"Ġpardon":7252,"ĠÐ¿ÑĢÐ¾Ð³":7253,"ĠÐ¿ÑĢÐµÐ¿":7254,"Ð¾Ð»Ð°Ð³":7255,"ĠÑĢÐ¾Ð¼":7256,"ĠÑĢÐ°Ð½Ð¾":7257,"ĠÑĢÑĥÐ¼Ñı":7258,"Ġequ":7259,"ĠÐ¶Ð¸Ð»Ð°":7260,"ĠÐ³Ð¸Ð¼":7261,"Ð½ÑĭÑĪ":7262,"ality":7263,"Ġstairs":7264,"ĠÐĿÐ¾ÑĢÐ´":7265,"ading":7266,"Ġrang":7267,"ury":7268,"ĠÑıÐ·":7269,"ift":7270,"ĠÐ¾Ð±Ð¼":7271,"ĠÐļÑĥ":7272,"ÐºÐ¾Ð½Ð¾Ð¼":7273,"chair":7274,"ĠÐ¿ÑĢÐ¸ÑĪÐ»Ð°":7275,"ters":7276,"aret":7277,"Ð¾Ð·Ð½ÑĭÑĪ":7278,"ilar":7279,"ĠÐĲÐ»ÐµÐºÑģÐµÐµÐ¼":7280,"Ġexch":7281,"Ġexcell":7282,"Ġdebt":7283,"ĠBy":7284,"Ġcharm":7285,"ĠWHEN":7286,"ĠÐ¿Ð¾Ð»Ðµ":7287,"ĠÑĪÐ»Ð¾":7288,"Ġami":7289,"ĠÐ´Ð²Ð¸Ð³":7290,"Ġunw":7291,"Ġunfortun":7292,"ÐµÑħÐ°Ð»Ð¸":7293,"Ġsear":7294,"ĠÐ´ÐµÐ»Ð°Ñı":7295,"ĠÐ¡ÑĤÑĢÐµÐ¼":7296,"olonel":7297,"ĠÐ¾ÑģÑĥÐ¶Ð´":7298,"Ġweary":7299,"Ġplat":7300,"Ġplump":7301,"acket":7302,"aped":7303,"Ġsomewhere":7304,"Ġclothes":7305,"ĠÑģÐ´ÐµÐ»Ð°Ð»Ð¸":7306,"ĠÐ¿Ð»Ð°Ðº":7307,"ĠÐ²Ð·Ð³Ð»ÑıÐ´Ðµ":7308,"ĠÐ¸ÑģÐ¿Ð¾ÑĢÑĤ":7309,"Ð¸Ð²ÑĪÐµÐ¼Ñĥ":7310,"abin":7311,"ĠÐ½Ð¾Ð²Ð°Ñı":7312,"ĠÐ½Ð°ÑĩÐ°ÑĤÑĮ":7313,"ERE":7314,"ĠÐ±Ð»ÐµÐ´":7315,"ĠÐ¡ÐµÑĢÐ³ÐµÑİ":7316,"Ġmaterial":7317,"ĠÐ³ÑĢÐ°Ð½Ð¸ÑĨÐµÐ¹":7318,"Ġhousehold":7319,"Ġperm":7320,"ĠÐ¶ÐµÐ»Ð°ÑĤÑĮ":7321,"ĠÐ´Ð¾ÐºÐ°Ð·ÑĭÐ²":7322,"Ġharm":7323,"ĠÐ½ÐµÐ¼Ð½Ð¾Ð³Ð¾":7324,"ĠÐ¶Ð¸Ð²ÐµÑĤ":7325,"ĠÑģÑĭÐ½Ð¾Ð¼":7326,"ĠÐĿÐ¸ÐºÑĤÐ¾":7327,"Ġmethod":7328,"ĠÑĥÑĤÑĢÐ¾":7329,"Ġpersp":7330,"ĠÐ¿ÐµÑĢÐµÐ´Ð°Ð»":7331,"ĠÐ¿ÑĢÐ¾ÑĪÐµÐ¿":7332,"ĠÐ¼ÑĥÐ¶Ð¸ÐºÐ¸":7333,"ĠÐ¿ÑĢÐ¸Ð´ÐµÑĤ":7334,"ĠÐ¿Ð¸ÑģÑĮÐ¼Ð°":7335,"ĠÐ¿Ð¾Ð²ÑĤÐ¾ÑĢÐ¸Ð»Ð°":7336,"ĠÑĪÐ°Ð³Ð¾Ð²":7337,"ÑĪÐ¸Ð¹ÑģÑı":7338,"ĠÐ±ÐµÐ»ÑĭÐµ":7339,"ĠÑĥÐ³Ð»Ñĥ":7340,"ĠÑĥÐ³Ð¾Ð´Ð½Ð¾":7341,"Ġletters":7342,"ĠÑģÐ»ÑĥÐ¶Ð±Ðµ":7343,"Ġdriving":7344,"ÑİÑĤÑģÑı":7345,"Ġmistaken":7346,"ĠAgain":7347,"ĠÑĥÐ½Ð¸Ð²ÐµÑĢÑģÐ¸ÑĤ":7348,"ĠÐ´Ð¾Ð²ÐµÑĢ":7349,"Ġservant":7350,"ĠÑĢÐ°ÑģÐºÐ°Ñı":7351,"ĠÑģÑĤÑĢÐ°Ð½Ð½Ð¾Ðµ":7352,"Ġuncomfort":7353,"ĠÐ¿Ð¾Ð´ÑħÐ¾Ð´Ñı":7354,"Ġstepped":7355,"ĠÐ´Ð°Ð»ÐµÐºÐ¾":7356,"ĠÐ´ÐµÑıÑĤÐµÐ»ÑĮÐ½Ð¾ÑģÑĤÑĮ":7357,"Ġtriump":7358,"ecause":7359,"Ġduties":7360,"ĠÑģÑĤÑĭÐ´Ð½Ð¾":7361,"Ġvexation":7362,"ÑģÑĤÐ¾Ð½":7363,"Ġavoided":7364,"Ġcircum":7365,"ĠMyag":7366,"ĠÐ´Ð¾Ð²Ð¾Ð»ÑĮÐ½Ð¾":7367,"ĠÑĥÐµÑħÐ°ÑĤÑĮ":7368,"ĠÐ¿ÑĢÐµÐ·ÑĢÐ¸ÑĤÐµÐ»ÑĮÐ½Ð¾":7369,"Ġmilk":7370,"Ġthrew":7371,"Ġattractive":7372,"Ġobserved":7373,"ĠÐºÐ¾Ð»ÑıÑģÐºÑĥ":7374,"Ġcatch":7375,"Ġintroduced":7376,"ĠÑĥÐ¹ÑĤÐ¸":7377,"ĠÐ¿Ð¾ÑģÑĤÐ¾ÑıÐ½Ð½Ð¾":7378,"Ġcruel":7379,"ĠÐ¿Ð¾Ð²Ð¾ÑĢÐ°Ñĩ":7380,"Ġfavourite":7381,"Ġsuspic":7382,"ĠÑĩÑĢÐµÐ·Ð²ÑĭÑĩÐ°Ð¹Ð½Ð¾":7383,"ĠÑĦÐ¸Ð³ÑĥÑĢÑĥ":7384,"Ġdestro":7385,"ĠÐ½ÐµÐ·Ð°Ð¼ÐµÑĤÐ½Ð¾":7386,"iversity":7387,"Ð½Ð°Ð½ÑĤ":7388,"ĠTverskaya":7389,"ĠVlasevna":7390,"Ġribb":7391,"ĠAnnushka":7392,"ĠÐ£Ð²Ð¸Ð´Ð°Ð²":7393,"Ġincomprehensible":7394,"ĠCourt":7395,"ĠÐĿÐ¾ÑĢÐ´ÑģÑĤÐ¾Ð½":7396,"Ġuncomfortable":7397,"Wait":7398,"cr":7399,"fa":7400,"for":7401,"gl":7402,"hot":7403,"kov":7404,"mn":7405,"Ð¸Ð°":7406,"Ð»ÑĭÐ¹":7407,"Ġack":7408,"inon":7409,"ÑĮÐµÐ¼":7410,"ÑĮÐ¼Ð¸":7411,"Ġsin":7412,"Ġsky":7413,"ĠÐ¿Ð°Ð»":7414,"ĠÐ²Ð¾Ð²":7415,"ÑĤÐ¾Ð¸Ð½":7416,"Ð´Ñĭ":7417,"Ġbal":7418,"Ġburn":7419,"atic":7420,"erv":7421,"Ġcustom":7422,"Ġfully":7423,"ĠÐ±Ð°Ð½":7424,"ĠÐ±ÑĢÐ¾Ð²":7425,"Ġmad":7426,"ĠÑĩÐ¸ÑģÑĤ":7427,"ÐµÐ»ÐµÐ¹":7428,"Ġdi":7429,"Ġdar":7430,"Ġdied":7431,"ÐµÑĢÐµ":7432,"ÐµÑĢÐµÐ·":7433,"ÐµÑĢÐ°ÑĪ":7434,"ĠÐµÐ²":7435,"ĠÐ¼Ð¾Ðº":7436,"ĠÐ¼Ð°Ð¼Ð°":7437,"Ġline":7438,"Ġpen":7439,"Ġpal":7440,"Ġpill":7441,"ĠÐ¿ÑĢÐ¸Ð»Ð¸Ñĩ":7442,"aris":7443,"oman":7444,"Ġbeard":7445,"Ð¸Ð½Ð°Ð»Ð°":7446,"ĠÐ»ÐµÑĤÐ¾":7447,"Ð¸Ð²Ð°ÐµÐ¼":7448,"ÐµÐ´Ð¾Ð²":7449,"ÑĨÐµÑģ":7450,"ÑĢÐ¾Ðµ":7451,"ĠÐºÐ°ÐºÐ¾Ñİ":7452,"ĠÑģÐºÐ°Ð·Ð°Ð²":7453,"Ġroll":7454,"Ġrod":7455,"Ġrosy":7456,"ĠÑģÐ²Ð¸Ð´":7457,"ĠÑģÐ²ÑıÑĤ":7458,"Ð°ÑĤÐ°":7459,"ĠÐļÐ¾Ð·Ð½ÑĭÑĪ":7460,"ĠSome":7461,"ĠÑģÑĤÐ°Ð²":7462,"ĠLisa":7463,"ĠLinon":7464,"Ð°Ð¶ÐµÑĤÐµ":7465,"ĠÐ¿Ð¾Ð´ÑħÐ²Ð°ÑĤ":7466,"ĠÑĢÐ°Ð·Ð½Ð¾":7467,"ĠÐŁÐ°ÑĢ":7468,"Ġexternal":7469,"elle":7470,"Ġconce":7471,"Ġdegr":7472,"ĠWhere":7473,"Ð½ÑģÐºÐ¸Ð¹":7474,"ÐºÑĥÐ´Ð°":7475,"ĠOF":7476,"ĠÐ»Ð¸Ð¿":7477,"Ġlives":7478,"ĠÐ¾Ð´Ð½Ð¾Ñİ":7479,"ĠMr":7480,"ĠÐ±ÑĥÐ´ÐµÑĪÑĮ":7481,"ĠÐĲÐ»ÐµÐºÑģÐ°Ð½Ð´ÑĢÐ¾Ð²Ð½Ñĭ":7482,"ÐµÑħÐ°ÑĤÑĮ":7483,"Ð¸ÑĤÐµÐ»ÑĮÐ½Ð¾Ð³Ð¾":7484,"Ġspee":7485,"Ġspark":7486,"ĠÑģÐ¼ÐµÐ»Ð¾":7487,"ĠÑģÐ¼ÑıÐ³Ñĩ":7488,"ĠÐ¾ÑĤÐ²ÐµÑĢ":7489,"ĠÐ¿Ð¾ÐºÑĢÐ¾Ð²":7490,"ĠÑĢÐ°ÑģÑģÐ¿":7491,"ĠÑģÐ¾ÐµÐ´Ð¸Ð½":7492,"ÑģÑĤÑĢÐµÐ»":7493,"fulness":7494,"Ð°Ð²ÑĪÐ¸ÐµÑģÑı":7495,"ĠGo":7496,"agne":7497,"Ġproble":7498,"Ġblush":7499,"ĠÑĥÐ¼ÐµÐ»":7500,"ĠÐ½Ð°Ð¿Ð¾Ð¼":7501,"Ġmud":7502,"Ġgrow":7503,"Ð¸Ð²ÑĪÑĥÑİ":7504,"Ġgreen":7505,"Ġattempt":7506,"ĠÐ³Ð¾Ð»Ð¾Ð²Ñĭ":7507,"ĠÐ¾Ð´Ð¸Ð½Ð°ÐºÐ¾Ð²":7508,"ĠÐ¶ÐµÐ½ÑīÐ¸Ð½Ñĥ":7509,"ĠÑħÐ¾Ð·ÑıÐ¸Ð½Ð°":7510,"Ġharness":7511,"ĠÐĶÐ°ÑĢÑĮÐ¸":7512,"ĠÐ²ÑĭÑģÐ¾ÐºÐ¾":7513,"ĠÐ¶Ð¸Ð²Ð¾":7514,"ĠÐ¶Ð¸Ð²Ð¾Ð¿":7515,"Ġrefuse":7516,"ĠÑģÐ¿Ð¾ÐºÐ¾Ð¹ÑģÑĤÐ²Ð¸Ðµ":7517,"ĠÑģÐ¾ÑģÐµÐ´":7518,"ĠÐ¸ÑģÐºÐ°Ð»":7519,"ĠÑģÐ»ÑĥÑĪÐ°Ð»Ð°":7520,"ĠÐ½Ð¾Ð³Ð°Ð¼Ð¸":7521,"ĠStep":7522,"ĠÐºÐ°Ð¶Ð´Ð¾Ð¼":7523,"ÑĥÑģÐºÐ°Ñı":7524,"ĠÐ·Ð½Ð°ÐºÐ¾Ð¼ÑĭÐµ":7525,"ĠÐ´Ð¾ÑĢÐ¾Ð³Ðµ":7526,"ĠÐ´Ð¾ÑĢÐ¾Ð³Ð¾Ð¹":7527,"ĠÐ·ÐµÐ¼Ð»Ðµ":7528,"Ġinsult":7529,"ĠÐ¿ÑĢÐ¸Ð½ÑıÑĤÑĮ":7530,"ĠÑĥÑģÑĤÐ°Ð½Ð¾Ð²":7531,"ĠChurch":7532,"ĠÐ¼Ð½ÐµÐ½Ð¸Ñı":7533,"ĠÐ¤ÐµÐ´":7534,"ĠÐ¤ÑĢÑĥ":7535,"ĠÐ¼Ð¸Ð»Ð°Ñı":7536,"ĠÐ¿Ð°ÑĢÑĤÐ¸Ð¸":7537,"ĠÐµÐ´Ð²Ð°":7538,"ĠÐ´Ð¾ÑģÑĤÐ¾Ð¸Ð½":7539,"ĠÐ²Ð°ÑĪÐµÐ³Ð¾":7540,"aturally":7541,"Ġjoined":7542,"ĠÑģÐ¸Ð»ÑĮÐ½ÐµÐµ":7543,"ĠÐ½Ð°Ð¹Ð´":7544,"Ġcalmly":7545,"Ġhorrid":7546,"ĠÑģÐ»ÐµÐ´ÑĥÑİÑī":7547,"Ġeasily":7548,"ĠÐ»Ð°ÐºÐµÑı":7549,"ĠÐ±ÐµÑģÐ¿Ð¾ÐºÐ¾":7550,"Ġdepart":7551,"Ġpreviously":7552,"Ġextra":7553,"ĠÐ´ÐµÐ²ÑĥÑĪÐºÐ¸":7554,"Ġtouching":7555,"ĠÐ²Ð¾Ð»Ð¾ÑģÑĭ":7556,"Ġinquir":7557,"ĠÐ¼Ð¾Ð»ÑĩÐ°Ð»":7558,"ĠÐ¿ÑĢÐµÐ´Ð¿Ð¾Ð»Ð¾Ð¶":7559,"Ġpapers":7560,"Ġloudly":7561,"ĠÐ¿Ð¾ÑĨÐµÐ»Ð¾Ð²Ð°Ð»":7562,"Ð¸ÑĤÐµÐ»ÐµÐ¼":7563,"Ġbottom":7564,"ĠÐ¾Ð·Ð°Ð±Ð¾Ñĩ":7565,"ĠÐ·Ð°Ð´ÑĥÐ¼Ð°Ð»ÑģÑı":7566,"Ġdeeply":7567,"ĠÐºÑĢÐµÐ¿ÐºÐ¾":7568,"ĠÑħÐ»Ð¾Ð¿":7569,"ĠÑģÐ¿ÑĥÑģÐºÐ°Ñı":7570,"ĠÐ¿ÑĢÐµÐ´ÑģÑĤÐ¾ÑıÑī":7571,"ĠÐºÐ¾ÑĢÐ¼Ð¸Ð»Ð¸":7572,"Ġverand":7573,"Ġheavy":7574,"Ġanxious":7575,"Ġrequired":7576,"ĠÐŁÑĢÐ°Ð²Ð´Ð°":7577,"ĠÑĢÐµÐ´ÐºÐ¾":7578,"ĠÐ£Ð¶Ð°Ñģ":7579,"ĠÐ²Ð¾ÑģÑĤÐ¾ÑĢÐ¶":7580,"ĠÐ·Ð²ÑĥÐºÐ¸":7581,"Ġstretched":7582,"Ġbored":7583,"Ġsurrounded":7584,"ĠTitus":7585,"ĠÐ½ÐµÐ·Ð°Ð²Ð¸ÑģÐ¸Ð¼":7586,"ĠÑĥÑģÐ¸Ð»Ð¸Ñı":7587,"ĠExcellency":7588,"ĠÑģÐ¾Ð¶Ð°Ð»":7589,"Ġdishon":7590,"ĠÐ¿Ð¾ÑģÑĤÐ¾ÑĢÐ¾Ð½":7591,"ĠÐļÑĥÐ·ÑĮ":7592,"Ġplatform":7593,"ĠMyagkaya":7594,"Ġdestroy":7595,"Ġacknow":7596,"IR":7597,"Mama":7598,"OW":7599,"Who":7600,"af":7601,"ais":7602,"abl":7603,"bted":7604,"ium":7605,"natural":7606,"rom":7607,"rid":7608,"vest":7609,"while":7610,"yabin":7611,"ze":7612,"¤ÑĢÑĥ":7613,"Ð¤ÑĢÑĥ":7614,"ÑĤÐ¾Ð¼":7615,"ÑĤÐ°Ðº":7616,"Ð¸ÑģÐ»":7617,"Ð½Ð°Ð¶":7618,"ÑĢÐ°ÑĤÑĮ":7619,"ÑĥÐµÑĤÑģÑı":7620,"iny":7621,"ĠÑģÑħÐ²Ð°ÑĤ":7622,"ĠÐ½ÐµÐ³":7623,"ĠÐ¿Ð»Ð°":7624,"ĠÐ¿ÑĥÐ³":7625,"ÐºÐ°Ðº":7626,"Ð²ÐµÑģÑĤ":7627,"ÑĤÐ¾ÑĢÑĥ":7628,"ĠÐ¸ÑģÑĤ":7629,"Ġbill":7630,"atives":7631,"Ð¾Ð²ÑĭÐ¼":7632,"ĠÐ±Ð°ÑĤ":7633,"ĠÑĩÑĥÐ¶Ð´":7634,"eny":7635,"Ġthirty":7636,"Ġdust":7637,"ĠÑĤÑī":7638,"ÐµÑĢÐ½Ð¾":7639,"Ġlun":7640,"arse":7641,"ĠÑĥÐ»Ð¸":7642,"ĠÐ·Ð¾Ð»":7643,"idence":7644,"Ð¾Ð´Ð²Ð¸Ð¶":7645,"Ġhist":7646,"ĠÐ¿Ð¾ÑıÐ²":7647,"Ġwhist":7648,"Ð°Ð½Ñĥ":7649,"Ġren":7650,"Ġrent":7651,"Ġreins":7652,"Ġyell":7653,"ĠÐ¶ÐµÐ½Ð¸ÑĤÑĮ":7654,"Ġsave":7655,"ÐµÐ´ÐµÑĪÑĮ":7656,"Ð¸ÑĤÑĭ":7657,"Ð¸ÑĤÐµÐ»Ð¸":7658,"als":7659,"Ð¸ÑĩÐ¾Ðº":7660,"ÑģÑĤÐ²Ð¸Ð¸":7661,"ÐµÐºÐ°":7662,"ĠÐºÐ°ÐºÐ¾Ð³Ð¾":7663,"ĠÐºÐ°ÐºÑĥÑİ":7664,"Ġroof":7665,"ĠÑģÐ²Ð°Ð´ÑĮ":7666,"ÑĢÑĥÐ±":7667,"Ð¸Ð´ÑĨ":7668,"ĠÐ¾Ð±Ð½Ð°Ð¶":7669,"ĠSlav":7670,"ribut":7671,"ĠKuz":7672,"ĠÑĤÐ°ÐºÐ¾Ñİ":7673,"Ġsofa":7674,"Ġshan":7675,"Ġshining":7676,"allen":7677,"Ð¾Ð»ÑĮÑĤÐµ":7678,"Ð¾ÑģÑħÐ¾Ð´":7679,"ĠÐĶÐ°Ð¶Ðµ":7680,"ĠÑĢÐ°Ð·ÑĢÑĥÑĪ":7681,"quet":7682,"Ð¼ÑĥÑĩ":7683,"ÑĢÐ°Ñĩ":7684,"ÑģÑĤÐ¸Ð³":7685,"Ġdept":7686,"Ġchamp":7687,"ĠÐ¿ÐµÑĢÐµÐ¶":7688,"ovts":7689,"ĠÐ¢ÑĥÑĢÐ¾Ð²":7690,"ĠÐ¿Ð¾Ð»ÐµÐ·":7691,"ĠÐľÐ°Ñħ":7692,"ĠColonel":7693,"ĠMak":7694,"Ð¾ÑĩÐ½Ð¾":7695,"Ð¾ÑĩÐºÐ¸":7696,"ĠÑĪÑĥÐ¼":7697,"Ġvale":7698,"Ġvague":7699,"ĠÐ²Ð¸Ð´Ñĥ":7700,"Ð°ÑİÑīÐµÐµ":7701,"Ġune":7702,"Ġunp":7703,"ĠÐ»ÑİÐ±Ð¸ÑĪÑĮ":7704,"ĠÐ¸Ð¼Ñı":7705,"ĠÐ´ÐµÐ»Ð°Ð»Ð°":7706,"Ġhanded":7707,"ĠÐ¿Ð¾ÑĤÑĢÐµÐ±":7708,"olog":7709,"Ġtimidly":7710,"ĠÐ´ÑĢÑĥÐ³Ð°Ñı":7711,"ĠÐ¿Ð¾ÐºÐ¾Ñģ":7712,"ĠÑĢÐ°ÑģÑģÑĤÑĢÐ¾":7713,"une":7714,"ĠÑģÑĤÐ°ÑĢÐ¾Ð¹":7715,"ĠÑģÑĤÐ°ÑĢÐ°ÑĤÐµÐ»ÑĮÐ½Ð¾":7716,"Ġoffered":7717,"ĠÐ´Ð¾ÑħÐ¾Ð´":7718,"Ġtrans":7719,"Ð¾Ð½Ð¾Ð²":7720,"Ġlovely":7721,"ĠÐ²Ð¾Ð·ÑĢÐ°Ð¶":7722,"ĠÐĳÐµÐ·":7723,"Ġblood":7724,"ĠÑģÐ´ÐµÐ»Ð°Ð²":7725,"ĠÐ¿Ð¾Ð½Ð¸Ð¼Ð°Ñı":7726,"ĠÑĨÐµÑĢÐºÐ¾Ð²":7727,"Ġbrothers":7728,"ĠÐĵÐ»Ð°Ð´":7729,"ĠÐłÑıÐ±":7730,"ĠRyabin":7731,"ÑĢÐ°ÑģÐ½Ð¾":7732,"ÑĢÐµÐ´ÐºÐ°":7733,"ĠÑĤÑĢÐ¸Ð´ÑĨ":7734,"ĠÐĺÐ²Ð°Ð½Ð¾Ð²Ð¸ÑĩÑĥ":7735,"ĠÑģÐ¼Ð¾ÑĤÑĢÐµÐ»Ð¸":7736,"ĠÐ´ÐµÐ»Ð°ÐµÑĤÑģÑı":7737,"ĠÐ´ÐµÐ»Ð°ÑİÑĤ":7738,"ĠÐ²Ð¾Ð»Ð½Ð¾Ð²":7739,"Ġstopping":7740,"ĠÐºÐ°ÑĢÑĤÐ¾Ñĩ":7741,"ÑģÑĤÐ²ÐµÐ½Ð½Ð°Ñı":7742,"Ġfinding":7743,"Ġpainted":7744,"Ġpainfully":7745,"ĠÐ¿Ð¾ÑģÐ»ÐµÐ´Ð½Ð¸Ðµ":7746,"ĠÑĥÑĤÐ²":7747,"ĠÑħÐ¾Ð·ÑıÐ¹ÑģÑĤÐ²Ðµ":7748,"Ġgreater":7749,"ĠÐ¿ÑĢÐµÐºÑĢÐ°ÑĤ":7750,"ĠÐ½Ð¸ÐºÐ°ÐºÐ¸Ñħ":7751,"Ġfollow":7752,"ĠÐ¼ÑĥÐ¶Ð¸ÐºÐ°":7753,"ĠÐ·Ð°ÑĤÐµÐ¼":7754,"Ġawait":7755,"ĠÐ·Ð°ÑģÐµÐ´":7756,"Ġdrunk":7757,"Ġapproach":7758,"ĠÑĥÑĩÐµÐ½":7759,"ĠÐ·ÐµÐ¼Ð»Ð¸":7760,"ĠÐ¿Ð¾Ð´Ð½ÑıÐ²":7761,"ĠÐ´Ð²Ð¾ÑĢÑı":7762,"ĠÐ¡ÐµÑĢÐµÐ¶Ñĥ":7763,"ĠÐŀÐ´Ð½Ð°ÐºÐ¾":7764,"Ġsuppose":7765,"Ð°Ð²ÑĪÐ¸Ð¹ÑģÑı":7766,"ĠÐ²Ð·Ð´Ð¾ÑĢ":7767,"Ġrapt":7768,"olunte":7769,"Ġpatient":7770,"ĠÐ²ÑĭÑģÐºÐ°Ð·Ð°ÑĤÑĮ":7771,"ĠÑĪÐµÑİ":7772,"ĠÑĪÐµÑģÑĤÑĮ":7773,"Ġtouch":7774,"Ġboys":7775,"Ġpropose":7776,"ĠÐ¿Ð¾Ð´ÑĬÐµÐ·Ð´Ð°":7777,"Ġanimation":7778,"ĠÐ¾Ð±ÑĢÐ°Ð·Ð¾Ð²Ð°Ð½Ð¸Ñı":7779,"ĠÐ²ÑĭÑģÐ¾ÐºÐ¸Ð¹":7780,"ĠÑĢÐ°ÑģÑģÐºÐ°Ð·ÑĭÐ²Ð°Ð»":7781,"ĠÐ¾Ð³Ð»ÑıÐ´ÑĭÐ²Ð°ÑıÑģÑĮ":7782,"Ġsoftly":7783,"ĠÐ¿Ð¾Ð´Ð½Ð¸Ð¼Ð°Ñı":7784,"ĠÐ¸Ð¼ÐµÑİÑĤ":7785,"ĠÐ¾ÑĤÐºÑĢÑĭÐ»":7786,"ĠÑĤÑıÐ¶ÐµÐ»Ð¾Ðµ":7787,"ĠFrou":7788,"Ġhealthy":7789,"ĠÑĢÐ¾Ð±ÐºÐ¾":7790,"ĠÐ²Ð°Ð³Ð¾Ð½":7791,"Ġcouple":7792,"Ġreligious":7793,"Ġhotel":7794,"ĠÐ²Ð·Ð´Ð¾ÑħÐ½ÑĥÐ»":7795,"ĠÐ²ÑģÐºÑĢÐ¸ÐºÐ½ÑĥÐ»Ð°":7796,"Ġengaged":7797,"ĠÐ¼ÐµÑģÑıÑĨÐ°":7798,"ĠÐ°Ð½Ð³Ð»Ð¸ÑĩÐ°Ð½Ð¸":7799,"adiator":7800,"ĠÐºÐ½ÑıÐ¶Ð½Ð°":7801,"Ġfields":7802,"looking":7803,"Ġhumiliation":7804,"Ġarguments":7805,"Ġpocket":7806,"Ġsympathy":7807,"Ġmachine":7808,"ĠTurovts":7809,"ĠÐ¿Ð¾ÑįÑĤÐ¾Ð¼Ñĥ":7810,"ĠÐľÐ°ÑĤÐ²ÐµÐ¹":7811,"Ġentrance":7812,"Ġflew":7813,"ĠÑħÑĢÐ¸ÑģÑĤÐ¸Ð°Ð½":7814,"ĠÐ¿ÑĢÐµÐ²Ð¾ÑģÑħÐ¾Ð´":7815,"ĠGladiator":7816,"Ġbrilliant":7817,"Ġcontemptuously":7818,"ĠÐ¼Ð¸Ð½Ð¸ÑģÑĤÐµÑĢ":7819,"ĠÐ½ÐµÐ¾Ð¿ÑĢÐµÐ´ÐµÐ»":7820,"Ġgroup":7821,"ĠÐ³ÑĢÐ¸Ð±":7822,"ĠÐŁÐ¾ÑģÑĤÐ¾Ð¹":7823,"ĠStremov":7824,"Ġwedd":7825,"ĠÑģÑĤÑĭÐ´Ð°":7826,"glass":7827,"Ġspeech":7828,"Ġverandah":7829,"Ġdepth":7830,"ĠÐ¢ÑĥÑĢÐ¾Ð²ÑĨÑĭ":7831,"Ġvalet":7832,"ĠÐĵÐ»Ð°Ð´Ð¸Ð°":7833,"ĠÐłÑıÐ±Ð¸Ð½Ð¸":7834,"ĠRyabinin":7835,".)":7836,"AN":7837,"As":7838,"Go":7839,"Here":7840,"OT":7841,"Please":7842,"Perhaps":7843,"RONSKY":7844,"ST":7845,"Your":7846,"gy":7847,"io":7848,"jor":7849,"vos":7850,"ÐŃ":7851,"Ġ1":7852,"Ġ2":7853,"Ð¾Ð½Ñĭ":7854,"Ð¸ÑĨÐ°":7855,"ÑģÐµÐ³Ð´Ð°":7856,"Ð½Ð¾Ð³":7857,"Ð»Ð¾Ð±":7858,"ÑĢÐ¸Ð½":7859,"ÑĢÐ¸Ð¼":7860,"ÑĢÐµÑģ":7861,"Ġtask":7862,"heart":7863,"hether":7864,"Ġaston":7865,"ina":7866,"inist":7867,"ĠÑģÐ½Ðµ":7868,"Ġsong":7869,"ĠÐ²ÑĢÐ°Ð³":7870,"ÑĤÐ¾Ðµ":7871,"Ġbag":7872,"Ġbought":7873,"erchief":7874,"ÑģÑĤÐ°ÑĢ":7875,"Ð¾Ð²Ð°Ð»Ð°ÑģÑĮ":7876,"ÐµÐ½ÐµÑĢ":7877,"ÐµÐ½Ð½Ð¾Ð¼Ñĥ":7878,"Ġfold":7879,"ĠÐ±Ð¾Ð¶Ðµ":7880,"Ġmess":7881,"Ġmaint":7882,"Ġmakes":7883,"ĠÐ´Ð½Ð¸":7884,"ĠÐ´Ð½ÐµÐ¹":7885,"Ġdry":7886,"Ġnum":7887,"ÐµÑĢÐ¾Ð²":7888,"ÐµÑĢÐ¿":7889,"Ġlace":7890,"Ġloves":7891,"Ġpas":7892,"Ġporter":7893,"Ġinner":7894,"ĠÑĥÐ½Ñĭ":7895,"ĠÑĥÐ³Ð¾":7896,"ĠÐ·Ð°Ð¶":7897,"Ð½Ð¸ÑĤÑĮÑģÑı":7898,"Ð¾Ð´Ñĥ":7899,"Ġet":7900,"Ð°Ð½Ð½ÑĭÑħ":7901,"Ġyield":7902,"ĠÐ»Ð¾Ð±":7903,"Ð¸Ð²ÑĪÐµÐµ":7904,"Ð°Ð´Ð¾":7905,"Ġaside":7906,"ÑĢÐ¾ÑģÑĤ":7907,"Ġsty":7908,"Ġstoo":7909,"ĠAm":7910,"Ġrust":7911,"ĠÐ²ÑĭÐ´ÐµÑĢÐ¶":7912,"Ð»ÑıÐ»":7913,"ÑĢÑĥÑģ":7914,"Ġbutt":7915,"ĠÑįÑĤÐ¾Ñİ":7916,"Ð½ÑĥÐ»Ð¾":7917,"chik":7918,"riages":7919,"ĠÐ¡Ð¾":7920,"ĠKostya":7921,"Ġshaking":7922,"ĠÐ·Ð°ÑģÑĤÐ°Ð²Ð»Ñı":7923,"ĠÐĶÐ¾Ðº":7924,"ĠÑģÐ»Ð¾Ð¼":7925,"ĠVolunte":7926,"ĠVRONSKY":7927,"aked":7928,"ÑĭÐ²Ð°ÐµÑĤ":7929,"ÐµÐ¶Ð°ÑĤÑĮ":7930,"ÐµÐ¶Ð´Ð°":7931,"Ġalive":7932,"ĠÐ¿Ð¾Ð»Ð¸ÑĤ":7933,"Ġgold":7934,"ĠMlle":7935,"ested":7936,"ĠÑĪÐµÐ´":7937,"Ġlevel":7938,"ĠÐ´Ð²ÐµÐ½":7939,"ĠÑģÑĤÐ¾Ð»Ðµ":7940,"Ġnois":7941,"ĠDuring":7942,"Ġimm":7943,"ĠÐ»ÑİÐ±ÐµÐ·":7944,"ĠÐºÑĢÐµÑģÑĤ":7945,"Ð»Ð¾Ð½Ð¸Ð²":7946,"Ð¸ÑĤÐµÐ»ÑĮÑģÑĤÐ²Ð¾":7947,"ĠÑģÐ¼Ð¾ÑĤÑĢÐ¸":7948,"ĠÑħÐ¾ÑĤÑıÑĤ":7949,"Ġanywhere":7950,"ĠÐ½Ð°Ð´ÐµÐ»":7951,"plex":7952,"ĠÐ¿Ð¾ÐºÑĥÐ¿":7953,"ĠÑĢÐ°ÑģÑĩ":7954,"ĠÑģÐ¾Ð½":7955,"Ġplaces":7956,"odore":7957,"ĠÑģÑĤÐ°ÑĢÐ°Ñı":7958,"ĠÐ´Ð¾ÑģÑĤÐ°Ð²Ð»Ñı":7959,"ĠÐ§ÑĤÐ¾Ð±":7960,"Ġtrous":7961,"ĠÑĩÐµÐ»Ð¾Ð²ÐµÑĩ":7962,"Ġstrained":7963,"Ġbliss":7964,"ĠÐ¿Ð»Ð°Ð½":7965,"ĠÑĥÐ¼Ð¸Ð»":7966,"ÑĢÑıÑĩ":7967,"ĠÐ½ÐµÐ¿Ð¾Ð´Ð²Ð¸Ð¶":7968,"ÐµÑĢÐ¶Ð´":7969,"ĠÐĺÐ²Ð°Ð½Ð¾Ð²Ð½Ñĭ":7970,"ĠÐ¿Ð¾Ð½Ð¸Ð¼Ð°ÐµÑĪÑĮ":7971,"Ġgras":7972,"icking":7973,"Ġproof":7974,"Ġattend":7975,"Ġattitude":7976,"ĠÑĢÐµÑĪÐ¸Ð»ÑģÑı":7977,"Ġmatch":7978,"ĠÑĤÑĢÐµÐ²":7979,"Ġoper":7980,"Ġthrown":7981,"Ġcarry":7982,"Ġperplex":7983,"ĠÐ½ÐµÐ´Ð°Ð²Ð½Ð¾":7984,"ĠÑĥÐ²Ð¸Ð´ÐµÐ»":7985,"ĠÐ»ÑİÐ´ÑĮÐ¼Ð¸":7986,"ĠÐ²Ð¾Ð»Ð¸":7987,"Ġfriendship":7988,"ÑģÑĤÐ²ÐµÐ½Ð½ÑĭÐ¼":7989,"ÑģÑĤÐ²ÐµÐ½Ð½Ð¾Ð¹":7990,"Ġindic":7991,"ĠÐ¼Ð¾Ð»Ð¾Ð´ÑĭÑħ":7992,"Ġdistinct":7993,"Ġjoyfully":7994,"Ġcares":7995,"ĠÐ²ÑģÑıÐºÐ¸Ð¹":7996,"Ġended":7997,"ĠÐ³ÑĥÐ±Ð°Ð¼Ð¸":7998,"Ġdeliber":7999,"ĠÐ¼Ð½Ð¾Ð³Ð¾Ðµ":8000,"ĠÐºÐ¾Ð½ÑĩÐ¸Ð»":8001,"Ġawful":8002,"ĠÐ·Ð½Ð°ÐºÐ¾Ð¼ÑĭÐ¼":8003,"emst":8004,"Ġdrank":8005,"ĠÑģÐºÐ°Ð¶Ð¸ÑĤÐµ":8006,"ĠÐ½ÐµÐ¿ÑĢÐ¸ÑıÑĤÐ½Ð¾Ðµ":8007,"ĠÐ¿ÑĢÐ¾Ð²ÐµÐ»":8008,"ĠÐŁÑĢÐµÐ¶Ð´Ðµ":8009,"ĠÑĪÐ°Ð³Ð°Ð¼Ð¸":8010,"ĠYour":8011,"ĠÐ¿Ð¾Ð´Ð½ÑıÐ»ÑģÑı":8012,"ĠÑĥÑģÑĤÐ°Ð»":8013,"ĠÐ²ÐµÑģÐµÐ»ÑĭÐ¹":8014,"ĠÐ¶ÐµÐ»Ð°ÐµÑĤ":8015,"ĠÐŀÐ´Ð½Ð°":8016,"ĠÐ²ÑĭÑħÐ¾Ð´Ñı":8017,"ĠAlexander":8018,"ĠÑģÐ»ÑĥÐ¶ÐµÐ±":8019,"Ġdiscovered":8020,"ĠÐºÐ½Ð¸Ð³Ð¸":8021,"ĠÑģÐ´ÐµÑĢÐ¶":8022,"Ġjoke":8023,"Ð°Ð´ÑĨÐ°ÑĤÐ¸":8024,"Ġadvant":8025,"Ġsorrow":8026,"ĠÐ·Ð°Ð¼ÐµÑĩÐ°Ð»":8027,"Ġbrightened":8028,"ĠÐ²ÑĩÐµÑĢÐ°ÑĪ":8029,"ĠÑģÐ²ÑıÐ·ÑĮ":8030,"ĠÐ¿ÐµÑĢÐµÐ±Ð¸Ð»Ð°":8031,"Ġcoats":8032,"ĠÐ´Ð¾Ð±ÑĢÑĭÐ¹":8033,"ĠÑīÐµÐº":8034,"theless":8035,"Ġprevious":8036,"ĠÐ±Ð°Ð»Ð»Ð¾ÑĤ":8037,"ĠÐ²Ð·ÑıÐ»ÑģÑı":8038,"ĠÐºÐ°Ð±Ð¸Ð½ÐµÑĤÐµ":8039,"ĠÑĨÐµÐ»ÑĥÑı":8040,"ĠÐ³Ð»ÑĥÐ¿Ð¾":8041,"ĠÐ²Ð¿ÐµÑĩÐ°ÑĤÐ»ÐµÐ½Ð¸Ñı":8042,"Ġloft":8043,"ĠÐ»ÐµÑģÐ°":8044,"ĠÑĤÐ²Ð¾Ñı":8045,"ĠÐ´Ð¾ÑģÐ°Ð´Ð¾Ð¹":8046,"ĠÐ¿Ð¾Ð´ÑĬÐµÐ·Ð¶":8047,"ĠÐ¿Ð»ÐµÑĩÐ¸":8048,"ĠÐ¿ÑĢÐµÐ´Ð¿Ð¾Ð»Ð°Ð³":8049,"Ġrecognize":8050,"ĠÐ¸Ð¼ÐµÑİÑī":8051,"ĠÑĤÐµÑĢÑĢÐ°Ñģ":8052,"ĠÐ½Ð°Ð¿Ð¸ÑģÐ°Ð»":8053,"ĠÐ²Ð»ÑİÐ±Ð»ÐµÐ½Ð°":8054,"Ġcomfortable":8055,"ĠÐ¿Ð»Ð°ÑĤÑĦ":8056,"Ð¸Ð²ÑĪÐ¸Ð¹ÑģÑı":8057,"Ð¸Ð²ÑĪÐµÐ³Ð¾ÑģÑı":8058,"ĠÐ½ÐµÑĢÐ°Ð·":8059,"ĠÑĢÐµÐ»Ð¸Ð³Ð¸":8060,"Ġgrief":8061,"Ġstreet":8062,"ĠÐ¿ÑĢÐµÐ´Ð²Ð¾Ð´Ð¸ÑĤÐµÐ»ÑĮ":8063,"ĠÐ³Ð»ÑĥÐ±Ð¸Ð½Ðµ":8064,"ĠÐ¾ÑģÐ²ÐµÑī":8065,"Ġschools":8066,"Ġbirds":8067,"ĠÑģÐºÑĢÑĭÑĤÑĮ":8068,"Ġmoist":8069,"Ġuntil":8070,"ĠÑģÐ¾Ð´ÐµÑĢÐ¶":8071,"Ġcigaret":8072,"ĠÐ½ÐµÐºÐ¾ÑĤÐ¾ÑĢÑĭÐµ":8073,"Ġhigher":8074,"ĠÐŁÐ¾Ð¶Ð°Ð»ÑĥÐ¹ÑģÑĤÐ°":8075,"Ġforgiveness":8076,"ĠÐ¸ÑģÐºÑĢÐµÐ½Ð½Ð¾":8077,"Ġwaist":8078,"ĠÐ¼ÐµÐ½ÑĮÑĪÐµ":8079,"Ġdisturbed":8080,"ĠZemst":8081,"ĠÐ¿Ð¾Ð»Ð°Ð³Ð°Ñİ":8082,"ĠSuddenly":8083,"ĠÐĿÐ¸ÐºÐ¾Ð»Ð°ÐµÐ²Ð½Ð°":8084,"ĠÐ²ÑģÐ¿ÑĭÑħ":8085,"ĠÐ´Ð²ÐµÑĢÑıÑħ":8086,"ĠÐ¿ÑĢÐ¸Ð¼Ð¸ÑĢ":8087,"ĠÐ½Ð°ÑĤÑĥÑĢ":8088,"ĠÐ·Ð½Ð°Ð¼ÐµÐ½Ð¸ÑĤ":8089,"Ġconfirmed":8090,"ĠÐ½ÐµÐ´Ð¾ÑĥÐ¼":8091,"ĠÐŁÐ¾ÑĩÐµÐ¼Ñĥ":8092,"Ġentreat":8093,"Ġdispleased":8094,"ĠÐ¿Ð¾Ð¼Ð½Ð¸Ð»":8095,"ĠÐ¼ÑĥÐ·Ñĭ":8096,"ĠLvov":8097,"Ġindependent":8098,"Ġrevealed":8099,"ĠÐ½ÐµÐ´Ð¾Ð²Ð¾Ð»ÐµÐ½":8100,"ĠÐ·Ð°ÑĤÑĢÑĥÐ´Ð½":8101,"Ġlength":8102,"ĠÐ³ÑĥÐ²ÐµÑĢÐ½Ð°Ð½ÑĤ":8103,"ĠÐ¿ÑĢÐµÐ¿ÑıÑĤ":8104,"Ġexcellent":8105,"Ġcircumst":8106,"hotin":8107,"Ġchampagne":8108,"ĠÐľÐ°ÑħÐ¾ÑĤ":8109,"Ġwedding":8110,"Dear":8111,"Ex":8112,"Just":8113,"LL":8114,"NA":8115,"Re":8116,"awn":8117,"bel":8118,"bour":8119,"fl":8120,"keeper":8121,"ule":8122,"under":8123,"wed":8124,"wise":8125,"yev":8126,"Ðł":8127,"Ð¾Ñı":8128,"Ð½Ð°Ð²":8129,"Ð»ÐµÐ½Ð¸Ð¸":8130,"hest":8131,"ĠÑģÐ¾Ð¿":8132,"ĠÑģÑĢÐ°Ð²":8133,"ĠÑģÐµÐ½Ð¾":8134,"Ġsigh":8135,"ÑĩÐµÐ½Ð¸":8136,"ĠÐ¿ÑĤÐ¸":8137,"ĠÐ¸Ñī":8138,"ĠÐºÐ¾Ð¼Ñĥ":8139,"ĠÐºÑĥÑģÑĤ":8140,"ĠÐºÐ°ÑĦ":8141,"Ð¾Ð²ÐµÑĤ":8142,"ÑĪÐ¸ÐµÑģÑı":8143,"onom":8144,"Ġfood":8145,"Ġfancy":8146,"Ġfashion":8147,"ĠÐ´ÑĥÐ¿":8148,"ĠÐ´Ð°ÐµÑĤ":8149,"ĠÑĩÐµÑģÑĤÑĮ":8150,"ÐµÐ»ÑİÐ±":8151,"Ġdirty":8152,"Ġnaturally":8153,"ÐµÑĢÑĭ":8154,"ĠÐ¼Ð¸ÑĢÐ°":8155,"Ġlover":8156,"Ġpair":8157,"ĠÐ¿ÑĢÐ¾Ð»":8158,"anim":8159,"Ġinev":8160,"ots":8161,"Ð¾Ð»Ð³Ð¾":8162,"ĠÑĢÐ¾ÑģÑĤ":8163,"Ð½Ð¸ÐºÐµ":8164,"Ð¾ÑĢÑī":8165,"ĠÐ½Ð°Ð¸Ð²":8166,"ĠÐ½Ð°ÑĢÑı":8167,"ĠÐ½Ð°ÑģÑĤÑĥÐ¿":8168,"ĠÐ½Ð°ÑĪÐ»Ð°":8169,"ĠÐ¿Ð¾ÐµÐ´ÐµÑĤ":8170,"ĠIV":8171,"iced":8172,"ĠÑįÐºÐ¾Ð½Ð¾Ð¼":8173,"stand":8174,"ĠÐ»Ð°Ð²":8175,"ĠÐ»Ð°Ð¼Ð¿":8176,"ĠÐ³ÑĥÑģÑĤ":8177,"ĠÐ³ÑĥÐ»Ñı":8178,"Ġformed":8179,"ĠÐĿÐµÐ»ÑĮÐ·Ñı":8180,"Ġrich":8181,"ĠÐ²ÑĭÑĤ":8182,"ĠÐ²ÑĭÑĢ":8183,"ĠÐ²ÑĭÐ´ÑĥÐ¼":8184,"ĠÐ²ÑĭÑĪÐ»Ð¸":8185,"Ġantic":8186,"ural":8187,"Ð¸Ð´Ð¾ÑĢ":8188,"ÐºÐ¾Ð½":8189,"ĠÑģÑĤÐµÑģ":8190,"ĠÑģÑĤÑĥÐ»":8191,"ĠLord":8192,"ĠLiber":8193,"Ġkilled":8194,"rig":8195,"ĠÐ¡Ð¿":8196,"rol":8197,"Ð°Ð¶ÐµÑĤÑģÑı":8198,"Ð°Ð¶Ð¸ÑĤÐµ":8199,"ĠÐ·Ð°ÑĤÐ¾":8200,"ĠÐĶÐµÐ»Ð¾":8201,"ĠÑĢÐ°Ð·Ð¾Ñĩ":8202,"ĠÑĢÐ°Ð·Ð¾ÑĢÐ²":8203,"ĠÐĺÐ»Ð¸":8204,"Ð¼ÑĥÑĢÑı":8205,"ĠÐ¸Ð·Ð¼ÑĥÑĩ":8206,"ĠÐ¸Ð·ÑĢÐµÐ´ÐºÐ°":8207,"Ġsugg":8208,"ĠÐ³Ð¾Ð²Ð¾ÑĢÐ¸":8209,"ĠBE":8210,"Ġchos":8211,"Ġseeking":8212,"isting":8213,"Ġworked":8214,"Ġvain":8215,"ÑĥÑİÑĤ":8216,"Ð¾ÐµÑħ":8217,"ĠÐ²Ð¸Ð´ÐµÐ»Ð¸":8218,"Ġamuse":8219,"Ġnose":8220,"ĠÐ±ÑĥÐ´ÐµÑĤÐµ":8221,"ĠÐ¿ÑĢÐµÐ´Ð»Ð°Ð³":8222,"ĠÐ¸Ð¼ÐµÐ»Ð¸":8223,"Ð¸ÑĤÐµÐ»ÑĮÐ½ÑĭÐµ":8224,"Ð°Ð½Ð¸Ñİ":8225,"ĠÐ±Ð¾Ð»ÑĮÐ½Ð°":8226,"astic":8227,"ĠÐĲÐ»ÐµÐºÑģÐ°Ð½Ð´ÑĢÐ¾Ð²Ð¸ÑĩÐµÐ¼":8228,"ishment":8229,"Ġprec":8230,"ĠÐ½Ð¸ÑĩÐµÐ¼":8231,"Ġoffice":8232,"Ġfeels":8233,"ĠÐķÑģÑĤÑĮ":8234,"ĠÐŃÑĤÐ¸":8235,"ĠÐŃÑĤÐ°":8236,"ĠÑĥÐ²Ð»ÐµÐº":8237,"ĠÑĥÐ²ÐµÐ»Ð¸Ñĩ":8238,"ĠÑĢÐ°Ð´Ð¸":8239,"ĠÐĳÐ¾Ð¶Ðµ":8240,"Ð¸ÑĢÐ°Ð»":8241,"Ġbless":8242,"ĠÑģÐ¾Ð±ÑģÑĤÐ²ÐµÐ½Ð½Ð¾":8243,"ÑĬÑıÑģ":8244,"ĠÐļÐ°ÐºÐ¾Ðµ":8245,"ĠÐ¿Ð¾Ð»Ð¾Ð¶Ð¸Ð²":8246,"Ġletting":8247,"ĠÐ¿Ð¾Ð½ÑıÑĤ":8248,"ĠÐĵÐ»Ð°Ð²":8249,"Ġnewly":8250,"ĠÐ¿ÑĢÐ°Ð²Ð´Ð¸Ð²":8251,"ability":8252,"Ð°ÑĪÐ°":8253,"ĠÐ¿ÑĢÐ¾ÑģÐ¸Ð»":8254,"ĠÐ²Ð¿ÑĢÐ¾ÑĩÐµÐ¼":8255,"Ġhoped":8256,"Ġflowers":8257,"ĠÐ¿Ð¾Ð·Ð¾ÑĢ":8258,"ĠÐ·Ð°Ð¿Ð¸Ñģ":8259,"ĠÐ·Ð°Ð¿Ð»Ð°Ðº":8260,"ĠÑĢÐ°Ð·Ð²ÑıÐ·":8261,"Ġdifference":8262,"ĠÐ·Ð°ÐºÑĢÐ¸ÑĩÐ°Ð»":8263,"ĠÐ·Ð°Ð²Ð¸Ð´":8264,"Ġfever":8265,"Ġseriously":8266,"Ġharvest":8267,"ĠÐºÐ¾ÑĢÐ¸Ð´Ð¾ÑĢ":8268,"ĠÐ¿Ð¾ÑģÑĭÐ»":8269,"Ġwaiter":8270,"Ð¸ÑĩÐµÑģÐºÐ¾Ðµ":8271,"ĠÐ±ÐµÑģÑģÐ¼":8272,"ĠÐ¾ÐºÐ½Ð°":8273,"ĠÐĿÐ¸ÐºÐ¾Ð³Ð´Ð°":8274,"Ġobv":8275,"Ð°ÑİÑīÐ¸Ð¼":8276,"Ġcaress":8277,"ĠÐ´Ð¾ÑĢÐ¾Ð¶":8278,"lessly":8279,"ĠÑĥÑģÐ¿ÐµÐ»":8280,"Ġguard":8281,"Ġgreatly":8282,"Ġsimilar":8283,"ĠÐ»ÐµÐ³ÑĩÐµ":8284,"However":8285,"ĠÐºÐ¾Ð½ÑĩÐ¸ÑĤÑģÑı":8286,"ĠÐĴÐ°ÑĢÐµÐ½ÑĮÐºÐµ":8287,"ĠÐ¿Ð¾Ð¹Ð¼Ð¸":8288,"Ġfrequ":8289,"ĠÐ·Ð½Ð°ÑĩÐµÐ½Ð¸Ñı":8290,"ĠÐ¾ÑĤÐ´Ð°Ð²":8291,"ĠÐ¾ÑĤÐ´Ð°ÑĤÑĮ":8292,"Ġdespise":8293,"ĠÑģÑĩÐ¸ÑĤÐ°Ñİ":8294,"ĠÐ½ÐµÑģÑĩÐ°ÑģÑĤÐ¸Ðµ":8295,"gged":8296,"ĠÑĥÑģÑĤÐ°Ð»Ð¾":8297,"ĠÑĥÑģÑĤÑĢÐµÐ¼":8298,"ĠÐ´ÑĥÑį":8299,"ĠÐ¾ÑĤÐ²ÐµÑĤÐ¸Ð»Ð°":8300,"ĠÐ¿ÑĢÐµÐºÑĢÐ°ÑģÐ½ÑĭÐ¹":8301,"Ġarticle":8302,"ĠÐ¾Ð±ÑĬÑıÑģÐ½Ð¸ÑĤÑĮ":8303,"ĠÐľÐ¸ÑħÐ°Ð¹Ð»Ð¾Ð²Ð½Ñĭ":8304,"ĠÐ¼Ð¸Ð»ÑĭÐ¹":8305,"ÑİÑīÐ¸Ð¹":8306,"Ġimagination":8307,"Ġdifferently":8308,"Ġopportun":8309,"ĠÐ±Ð°ÑĢÐ¸Ð½":8310,"ĠÐ²Ð°Ð¶Ð½Ð¾":8311,"ĠÑģÐ»ÐµÐ·Ð°Ð¼Ð¸":8312,"ĠÐ´ÑĢÑĥÐ·":8313,"Ġballs":8314,"ĠÐ¿ÐµÑĢÐµÐ¼ÐµÐ½Ð¸ÑĤÑĮ":8315,"ĠÐ¿ÑĢÐµÐ·Ð¸ÑĢÐ°":8316,"ĠÐ±ÐµÑģÐ¿Ð¾ÐºÐ¾Ð¹":8317,"ĠÑĪÐ»ÑıÐ¿Ðµ":8318,"ĠEnglishman":8319,"ĠÐºÑĢÑĥÐ³Ð°":8320,"ĠÐ²ÑĭÑģÐºÐ°Ð·ÑĭÐ²":8321,"Ġprevented":8322,"ĠÐ²Ð¾ÑģÐ¿Ð¾Ð¼Ð¸Ð½Ð°Ð½Ð¸Ðµ":8323,"ĠÐĲÐ³Ð°ÑĦÑĮÐ¸":8324,"ĠWithout":8325,"ĠÑģÐ´ÐµÐ»Ð°Ñİ":8326,"Ġplaying":8327,"ĠÑģÐºÐ°ÑĩÐºÐ¸":8328,"ĠÐļÐ½ÑıÐ·ÑĮ":8329,"Ð°Ð²ÑĪÐµÐ³Ð¾ÑģÑı":8330,"ĠÐºÐ°Ð·Ð°Ð»Ð¸ÑģÑĮ":8331,"ĠÐ½Ð°Ð·ÑĭÐ²Ð°Ð»":8332,"ĠÐºÑĥÑĩÐµÑĢÐ°":8333,"ĠÐ±ÑĭÑģÑĤÑĢÑĭÐ¼":8334,"Ġshameful":8335,"ĠÑĤÐµÑĢÐ¿":8336,"ocr":8337,"Ġempt":8338,"Ġrecalling":8339,"Ġtrembled":8340,"ĠÐ²Ð¾Ð¾Ð±ÑĢÐ°Ð¶ÐµÐ½Ð¸Ð¸":8341,"ĠÑĥÑģÑĤÑĢÐ¾Ð¸ÑĤÑĮ":8342,"Ġpulling":8343,"ĠÐ±Ð»Ð°Ð³Ð¾ÑĢÐ¾Ð´":8344,"Ġimprove":8345,"Ġimproper":8346,"ĠÐ±Ð»ÐµÑģÑĤÑıÑīÐ¸Ð¼Ð¸":8347,"ĠÐ·Ð°Ð±Ð¾ÑĤÑĭ":8348,"ĠÑĥÑģÐ¸Ð»Ð¸Ðµ":8349,"Ġmilitary":8350,"Ġseparated":8351,"ĠÐ»ÐµÑģÑĤÐ½Ð¸ÑĨÐµ":8352,"Ġsmooth":8353,"ĠÐ¿ÑĢÐµÐ´Ð²Ð¾Ð´Ð¸ÑĤÐµÐ»Ñı":8354,"ĠÑģÐ¾Ð·Ð½Ð°Ð½Ð¸Ðµ":8355,"ĠÐ½ÐµÐ¸Ð·Ð²ÐµÑģÑĤ":8356,"ĠÑĢÑĥÐºÐ°Ð²":8357,"ĠÐ±Ð¾Ð»ÐµÐ·Ð½Ð¸":8358,"ĠÐļÐ¾ÑĢÑģÑĥ":8359,"ĠÐ¿Ð¾Ð·Ð²Ð¾Ð½":8360,"Ġheavily":8361,"ĠÑĥÑĩÐ°ÑģÑĤÐ¸Ðµ":8362,"ĠÑģÐ½Ð¸Ð¼Ð°Ñı":8363,"ĠÐ¿Ð¾ÑģÐ»ÑĭÑĪÐ°Ð»ÑģÑı":8364,"Ġweek":8365,"Ġvarious":8366,"ĠÐ²Ð¾ÑĪÐµÐ´":8367,"ĠÐ´Ð¸Ð²Ð°Ð½":8368,"Ġdelicate":8369,"Ġperfectly":8370,"ĠÐ²ÐºÑĥÑģ":8371,"ĠÐ½ÐµÑħÐ¾ÑĢÐ¾ÑĪÐ¾":8372,"ĠGovernment":8373,"ĠÐºÐ»Ð°ÑģÑģ":8374,"ĠÐĵÑĢÐ°ÑĦÐ¸Ð½Ñı":8375,"ĠÑģÐ²Ð¾ÑıÑĩÐµÐ½Ð¸":8376,"ĠÐ¾Ð´ÐµÐ²Ð°ÑĤÑĮÑģÑı":8377,"Ġsuperflu":8378,"Ġconviction":8379,"Ġnaive":8380,"ĠÐ¿ÑĢÐ¸Ð²Ð»ÐµÐºÐ°ÑĤÐµÐ»ÑĮ":8381,"ĠÐ¾ÑĤÑĩÐ°ÑģÑĤÐ¸":8382,"ĠÐ»ÑİÐ´ÑıÐ¼":8383,"ĠÐ§ÑĥÐ²ÑģÑĤÐ²Ð¾":8384,"Ġdarling":8385,"Ġdeparture":8386,"Ġextraord":8387,"ĠKuzma":8388,"ĠMakhotin":8389,"ĠVolunteers":8390,"Ġanticip":8391,"Dolly":8392,"elf":8393,"gar":8394,"ibly":8395,"opt":8396,"ric":8397,"ug":8398,"ues":8399,"ume":8400,"vice":8401,"yn":8402,"you":8403,"Ãł":8404,"Ġign":8405,"ÐµÑģÑĤÐ²Ð°":8406,"ÑĢÐµÑħ":8407,"Ġtal":8408,"Ġage":8409,"Ġaunt":8410,"ÑĥÐºÐ°":8411,"ĠÑģÐ¸Ð³":8412,"ĠÑģÑĩÐµÑĤ":8413,"Ġsell":8414,"Ġsides":8415,"Ġsledge":8416,"ĠÐ½ÐµÑĢÐ²":8417,"ĠÐ¿ÑĥÑħ":8418,"ĠÐ²ÐµÐ·Ð´Ðµ":8419,"Ġbow":8420,"Ġbath":8421,"ata":8422,"ĠÐºÐ°Ð»":8423,"ĠÐºÐ°Ñģ":8424,"Ġcol":8425,"Ġfast":8426,"Ġfair":8427,"ĠÐ´Ð°ÑĢ":8428,"ĠÐ´ÑĭÑħ":8429,"ĠÑĩÑĤ":8430,"ĠÑĩÐ¸Ð½Ð¾Ð²":8431,"eng":8432,"Ġdine":8433,"ÑİÐ¼":8434,"Ġnation":8435,"ĠÐ½ÐµÑģÐº":8436,"ormed":8437,"Ġpract":8438,"ĠÐ¿ÑĢÐ¾Ð¹":8439,"Ð¸Ð»ÐµÑĤ":8440,"ĠÑĥÑĢÐ¾Ðº":8441,"ompl":8442,"Ġbeaming":8443,"utor":8444,"Ð¾ÑĢÐ¾":8445,"Ð¾ÑĢÐ¾ÑĤ":8446,"ĠÐ½Ð°ÑĪÐµ":8447,"ĠII":8448,"icule":8449,"Ð°Ð½Ð³":8450,"Ġrevol":8451,"Ġsacr":8452,"ĠÐ»Ð¾Ð¿":8453,"ĠÐ³Ð½ÐµÐ²":8454,"vering":8455,"Ð¾ÑĤÐ²ÐµÑĤ":8456,"ĠÐ¾ÑĤÐ±":8457,"Ð¾Ð±ÑīÐµ":8458,"ÑĢÐ¾Ñİ":8459,"ĠÐĴÐ·":8460,"ĠÐĴÑģÑı":8461,"ĠÐĴÐ¾Ð·":8462,"ĠÐĿÐµÐ¿":8463,"Ġris":8464,"ĠÑģÐ²Ð¸ÑģÑĤ":8465,"ĠÐºÐ¾Ñĩ":8466,"ĠÐºÐ¾Ð½ÑĮ":8467,"Ð»ÑıÐ²":8468,"ĠÑħÐ¼ÑĥÑĢÑı":8469,"ĠÐ¾Ð±Ð²":8470,"ĠÐ¾Ð±ÑģÑĤÐ¾":8471,"ÑĤÐ¾ÑĢÐ¾Ð¿":8472,"ĠÑģÑĤÑĥ":8473,"ĠÑģÑĤÐµÐº":8474,"ĠÐ¿ÑĢÐ¸Ð¿Ð¾Ð´":8475,"ĠÐ¿ÑĢÐ¸ÐµÐ·Ð´Ð°":8476,"ĠÐ¡Ð»ÑĥÑĪ":8477,"roid":8478,"illy":8479,"ĠKors":8480,"ĠÐ¿Ð¾Ð´ÑĥÑĪ":8481,"Ġsole":8482,"Ġshri":8483,"Ġshare":8484,"Ġshadow":8485,"ĠÑĢÐ°Ð·Ð°":8486,"ĠTheodore":8487,"Ð½ÑıÐ»Ð¸":8488,"Ġdogs":8489,"ÑĢÐ¾Ð²Ð¾Ð»ÑĮ":8490,"ĠÐ¿ÐµÑĢÐµÑģ":8491,"ĠWait":8492,"ĠWho":8493,"ĠWhether":8494,"ĠÑģÐ¿Ð¾ÐºÐ¾":8495,"Ġintent":8496,"istic":8497,"istant":8498,"ĠÑģÐ°Ð¼ÑĥÑİ":8499,"Ð°ÑİÑīÐµÐµÑģÑı":8500,"Ġunre":8501,"Ġunnatural":8502,"Ð°Ð¹ÑģÑı":8503,"Ġpoet":8504,"Ġbrid":8505,"Ð¸ÑĤÐµÐ»ÑĮÐ½Ð°":8506,"ĠÐ¶ÐµÐ½Ð°ÑĤ":8507,"ĠÐ¾Ð¿Ð¾Ð¼":8508,"ĠÐ½Ð°Ð´ÐµÐ¶Ð´Ð°":8509,"inking":8510,"ĠÑĥÐ»ÑĭÐ±Ð°Ð»ÑģÑı":8511,"ĠÐ¿Ð¾ÐºÑĢÑĭÑĤ":8512,"Ġweather":8513,"Ġwealth":8514,"ĠNord":8515,"ĠNever":8516,"Ġbecoming":8517,"ĠÐĲÑĢÐºÐ°Ð´ÑĮÐ¸ÑĩÐµÐ¼":8518,"Ġimpat":8519,"Ġglit":8520,"ĠÑģÑĤÐ°ÑĢÑĭÐµ":8521,"Ġoffer":8522,"Ð°Ð²ÑĪÐ¸Ð¼":8523,"aging":8524,"ĠÐ¡ÑĤÐµÐ¿Ð°Ð½Ð¾Ð¼":8525,"Ġteach":8526,"ĠÑĦÐ°Ð»ÑĮ":8527,"ĠÐĳÐ¾Ð»":8528,"Ġcloth":8529,"ĠÑħÐ¾ÑĢÐ¾ÑĪÐ¸Ð¹":8530,"ĠÐ¿Ð»Ð¾ÑĤ":8531,"Ġrole":8532,"ĠÐļÐ°ÐºÐ¾Ð¹":8533,"ĠÐļÐ°ÐºÐ°Ñı":8534,"Ġhappens":8535,"ĠÑģÐ»Ð¾Ð²Ð°Ñħ":8536,"Ġgets":8537,"ĠÐ¾ÑģÐ¾Ð±ÐµÐ½Ð½ÑĭÐ¼":8538,"Ġgrate":8539,"ĠÐ½ÐµÐ²Ð¸Ð½":8540,"ĠÐ¿Ð¾ÑĢÑĥÑĩ":8541,"Ġparted":8542,"ĠÐ¾ÑĤÐ²ÐµÑĩÐ°ÑĤÑĮ":8543,"uding":8544,"ĠÑĢÐµÑĪÐµÐ½Ð¸Ðµ":8545,"ĠÐ½ÑĥÐ¶Ð½Ñĭ":8546,"ĠÐ¡ÐµÑĢÐ³ÐµÐµÐ¼":8547,"ĠÐ£Ð¶Ðµ":8548,"ĠÐºÐ¾Ð¼Ð¿":8549,"Ġmomentary":8550,"ĠÐ·Ð°Ð±Ð»":8551,"ĠÑĤÑĢÐ¾Ð³":8552,"Ġthrowing":8553,"ĠÐ·Ð°Ð¿ÑĥÑĤ":8554,"ĠÐ·Ð°Ð¿Ð»Ð°ÑĤ":8555,"ĠÐĹÐ´ÐµÑģÑĮ":8556,"Ġscent":8557,"Ġpercept":8558,"Ġserved":8559,"ĠÑĥÐ¶Ð°ÑģÐ°":8560,"teen":8561,"Ġindef":8562,"ĠÑĥÐ±Ð¸Ð»":8563,"Ġaccompl":8564,"ĠÐ¼Ð¾Ð»Ð¾Ð´ÑĭÐ¼":8565,"ĠÐ¶Ð¸Ð²Ð¾ÑĤ":8566,"Ġconfidence":8567,"Ġdistance":8568,"ĠÑģÐ¿Ð¾ÐºÐ¾Ð¹ÑģÑĤÐ²Ð¸Ñı":8569,"ĠÑģÐ¾ÑģÑĤÐ¾":8570,"Ġwatched":8571,"ĠÑĥÑģÐ¿ÐµÐ»Ð°":8572,"ĠÐ¾ÑģÑĤÐ°Ð²Ð°ÑĤÑĮÑģÑı":8573,"ÐµÐ·Ð´Ð¾Ð¼":8574,"ĠÐ¿ÑĢÐ¾ÑĪÐ»Ð¾":8575,"Ġinstit":8576,"Ġtreat":8577,"ĠÐ´ÐµÑĢÐµÐ²ÐµÐ½":8578,"ĠÐ¿Ð¾Ð»ÑĥÑĩÐ¸ÑĤÑĮ":8579,"Ġbreathing":8580,"ĠÐ¼ÑĥÐ¶Ð¸ÐºÐ°Ð¼Ð¸":8581,"Ð²ÐµÑĢÑħ":8582,"ĠÐĴÐ°ÑĢÐµÐ½ÑĮÐºÑĥ":8583,"ĠÑģÐ»ÑĥÑĩÐ°Ð¹":8584,"Ġneeds":8585,"ĠÐ³Ð¾ÑĢÐµ":8586,"ĠÐ¾Ð±ÑīÐµÐµ":8587,"ĠÐ´Ð¾ÐºÑĤÐ¾ÑĢÐ¾Ð¼":8588,"ĠÐĿÐ¸ÐºÐ¾Ð»Ð°Ñı":8589,"ĠÐ¿Ð¾Ð´Ð½ÑıÐ»Ð°":8590,"ocking":8591,"ĠÐ½ÐµÑģÑĩÐ°ÑģÑĤÑĮ":8592,"Ġexcuse":8593,"ĠÐ²ÐµÑģÐµÐ»ÑĭÐ¼":8594,"ĠÑģÑĤÐ¾Ð»Ðº":8595,"ĠÑģÑĤÐ¾Ð»Ð¾Ð¼":8596,"Ġconsideration":8597,"ĠÐ´ÐµÑĢÐ¶Ð°Ð»":8598,"ÐĿÐ¾":8599,"ÐĿÑĥ":8600,"ĠÐ²ÑĭÑħÐ¾Ð´Ð¸Ð»":8601,"ĠÑģÐ¾Ð³Ð»Ð°ÑĪ":8602,"ĠÐ¼Ð°Ð»ÐµÐ½ÑĮÐºÑĥÑİ":8603,"ĠÐ¿Ð¾Ð±ÐµÐ´":8604,"ĠÑĢÐ°ÑģÑģÐµÑĢÐ´":8605,"Ġsounded":8606,"Ġridicule":8607,"ÑĥÐ½Ð´Ñĥ":8608,"ĠÐ´Ð°Ð¼Ð°":8609,"Ġpromise":8610,"ĠÑģÐµÑģÑĤÑĢÐ°":8611,"Ġdifficulties":8612,"ĠÐ¶Ð´Ð°Ð»Ð¸":8613,"Ġfalling":8614,"Ġgaze":8615,"ĠÑĥÐ½Ð¸Ð·":8616,"ĠÐ¾Ð¶Ð¸Ð´Ð°Ð»Ð°":8617,"Ġeasier":8618,"Ġlaws":8619,"ĠÐ±ÑĢÐ°Ðº":8620,"Ġforgetting":8621,"Ġpretended":8622,"ĠÐ²Ð¾Ð»Ð¾ÑģÐ°Ð¼Ð¸":8623,"ĠÐ´ÑĢÑĥÐ³Ð¾Ñİ":8624,"ĠÑģÑĢÐµÐ´ÑģÑĤÐ²Ð¾":8625,"ĠÐµÐ·Ð´Ð¸Ð»":8626,"Ġchiefly":8627,"ĠÐ°Ð½Ð³Ð»Ð¸Ð¹":8628,"ĠÐ©ÐµÑĢÐ±Ð°ÑĨÐºÐ¸Ð¹":8629,"Ġbringing":8630,"ĠNothing":8631,"ĠÐ¿ÑĢÐ¸Ð²ÑĭÑĩÐºÐµ":8632,"ĠÑģÐºÐ°ÑĩÐµÐº":8633,"ĠÐ¿Ð»ÐµÑĩÐ¾":8634,"ĠÑģÑĥÑīÐµÑģÑĤÐ²Ð¾":8635,"ĠÑģÐ²Ð¾Ð±Ð¾Ð´Ñĭ":8636,"ĠÑĥÑģÐ¿Ð¾ÐºÐ¾Ð¸ÑĤÑĮ":8637,"Ġtrap":8638,"ĠÐ¾ÑĤÑĩÐ°ÑıÐ½":8639,"Ġgentlemen":8640,"ĠÐ·Ð°ÑģÑĤÐ°Ð»":8641,"AREN":8642,"Ġbroke":8643,"ĠÐ¿ÑĢÐ¸Ð½Ð¸Ð¼Ð°ÑĤÑĮ":8644,"ĠÐ¡ÐºÐ¾Ð»ÑĮÐºÐ¾":8645,"ĠÐĴÐ¾Ð¾Ð±ÑīÐµ":8646,"Ġcreature":8647,"Ð¸ÑĤÐµÐ»ÐµÐ¹":8648,"ĠÐ²Ð°Ð³Ð¾Ð½Ð°":8649,"Ġoneself":8650,"ĠÐ¿ÑĢÐ¸ÑģÑĥÑĤÑģÑĤÐ²Ð¸Ðµ":8651,"ĠÐ¿Ð°Ð¿Ð¸":8652,"ĠÐ·Ð°Ð´ÑĥÐ¼ÑĩÐ¸Ð²":8653,"ĠÐ¾Ð±ÐµÐ¸Ð¼Ð¸":8654,"ĠÐ¼ÐµÑģÑıÑĨ":8655,"ĠÐ¾Ð±ÑĬÑıÑģÐ½ÐµÐ½Ð¸Ñı":8656,"ĠBefore":8657,"ĠÐ¿ÐµÑĢÐµÐ½ÐµÑģ":8658,"ĠÑģÐ¾Ð¾Ð±ÑĢÐ°Ð¶ÐµÐ½Ð¸Ñı":8659,"ĠÐ½ÐµÐ¾Ð±ÑĭÐºÐ½Ð¾Ð²ÐµÐ½Ð½Ð¾":8660,"Ġdeceived":8661,"Ġguessed":8662,"Ġbirth":8663,"ĠÐ¿Ð¾Ð´Ð¾Ð±Ð½Ð¾Ðµ":8664,"ĠÑĥÑħÐ°Ð¶":8665,"Ġhighest":8666,"ĠÐ¶Ð°Ð»Ð¾ÑģÑĤÐ¸":8667,"ĠÐ²Ð¾Ð·ÑĮÐ¼":8668,"ĠÑģÐµÑĢÐµÐ´Ð¸Ð½Ðµ":8669,"Ġfunny":8670,"ĠÐ½ÐµÐ¾Ð¶Ð¸Ð´Ð°Ð½Ð½Ð¾":8671,"ĠÐ¿ÑĢÐµÐ¸Ð¼":8672,"Ġeconom":8673,"ĠÑģÐ¿Ð°Ð»ÑĮÐ½Ñİ":8674,"ĠÐ²Ð¾Ð·Ð´ÑĥÑħÐµ":8675,"ĠÑĢÐ°ÑģÐ¿Ð¾Ð»Ð¾Ð¶ÐµÐ½Ð¸Ð¸":8676,"ĠÐ¿ÑĢÐ¸ÑģÐ»ÑĥÑĪÐ¸Ð²Ð°ÑıÑģÑĮ":8677,"ĠÐ¼Ð½Ð¾Ð³Ð¸Ðµ":8678,"ĠÑĥÑģÐ»Ð¾Ð²Ð¸ÑıÑħ":8679,"ĠÐ·ÑĥÐ±Ñĭ":8680,"sembled":8681,"Ġdangerous":8682,"Ġcheeks":8683,"Ġannounced":8684,"ESS":8685,"Ġfifty":8686,"Ġobstac":8687,"ĠÐ·Ð°ÑīÐ¸Ñī":8688,"Ġdevelopment":8689,"Ġunusual":8690,"Ġtorture":8691,"Ġapparently":8692,"ĠÐ¿Ð°Ð¼ÑıÑĤ":8693,"Ġunfortunate":8694,"Ġmethods":8695,"ĠÐ¿ÑĢÐ¾ÑĪÐµÐ¿ÑĤÐ°Ð»Ð°":8696,"Ġtriumph":8697,"Ġrode":8698,"ĠÑĢÐ°ÑģÑģÐ¿ÑĢÐ°ÑĪ":8699,"hearted":8700,"ĠÐºÐ°ÑĦÑĤ":8701,"ĠLiberal":8702,"ĠÑĢÐ°Ð·Ð¾ÑĩÐ°ÑĢ":8703,"Ġsuperfluous":8704,"ĠÐ¾Ð±ÑģÑĤÐ¾ÑıÑĤÐµÐ»ÑĮ":8705,"ĠKorsun":8706,"ĠÑģÐ¿Ð¾ÐºÐ¾ÐµÐ½":8707,"ĠNordston":8708,"'d":8709,"CH":8710,"Good":8711,"Kitty":8712,"OL":8713,"apt":8714,"book":8715,"come":8716,"cked":8717,"ees":8718,"eve":8719,"hchik":8720,"kes":8721,"occ":8722,"port":8723,"tle":8724,"udd":8725,"vation":8726,"what":8727,"Ðľ":8728,"Ġiz":8729,"Ð½Ð°Ð·":8730,"Ð»Ð°Ð·":8731,"Ð»ÐµÐ½Ð¸Ð¹":8732,"ÑĥÑĦ":8733,"ÑıÐ½ÑĥÐ»":8734,"ÑĭÐ½Ñı":8735,"Ġwip":8736,"Ġsilly":8737,"ĠÐ½Ð°Ð¼Ð¸":8738,"ĠÐ¿ÑĭÑĤ":8739,"ĠÐ²ÐµÐ½":8740,"ĠÐ²ÐµÐ»Ð¸":8741,"ĠÐ²Ð¸Ð½Ñĥ":8742,"Ġhosp":8743,"ĠÐ¾ÑģÐ»":8744,"reg":8745,"Ð²ÑĤÐ¾ÑĢ":8746,"ndered":8747,"ats":8748,"Ġheated":8749,"ÑģÑĤÐ°ÑĤÐ¸":8750,"Ð¾Ð²Ð¾Ð¼":8751,"Ð¾Ð²ÑĭÐµ":8752,"ÐµÐ½Ð±":8753,"ÐµÐ½ÑĤÐ°":8754,"Ġcast":8755,"Ġcows":8756,"Ġfan":8757,"ĠÐ±ÑĥÐº":8758,"Ġmown":8759,"ĠÐ´ÐµÐ¿":8760,"ĠÐ´Ð¸Ðº":8761,"ĠÐ´Ð°Ð»Ð¸":8762,"ĠÐ´Ð°Ñĩ":8763,"ĠÑĩÐ°Ñİ":8764,"Ġdared":8765,"Ġdaught":8766,"Ġdiver":8767,"ĠÑĤÐ°ÑĢ":8768,"ĠÐ½ÐµÑıÑģ":8769,"ĠÐ¼Ð½Ð¾Ñİ":8770,"Ġlaid":8771,"Ġloose":8772,"Ð±ÐµÑĢ":8773,"arrow":8774,"ĠÑĥÑıÑģ":8775,"ĠÑĥÐµÐ´Ð¸Ð½":8776,"ĠÑĢÐ¾ÑģÐº":8777,"iding":8778,"ÐµÐ¼ÑģÑı":8779,"Ð°Ð²ÑĪÐµÐµ":8780,"Ġgest":8781,"Ġgives":8782,"ĠÐ¿Ð¾ÑħÐ¾Ð´":8783,"Ð¸Ð½ÑĤÐµÑĢÐµÑģ":8784,"Ð³Ð°ÑĤÑĮ":8785,"ĠIII":8786,"Ġsadd":8787,"ĠÐ»ÐµÐ½":8788,"ĠÐ»ÐµÑĩ":8789,"Ð¸Ð²Ð¾":8790,"Ð°Ð´Ð¸Ð»":8791,"ÑĨÐµÐ¿":8792,"ĠÐ¾ÑĤÑģÑĤÐ°Ð²":8793,"Ð¾Ð±ÑĢÑı":8794,"Ġforty":8795,"ĠÐºÐ°ÐºÐ¸Ñħ":8796,"ĠAT":8797,"adows":8798,"ĠTH":8799,"ĠTO":8800,"ĠTell":8801,"ayed":8802,"ĠÐ²ÑĭÐ´Ð°":8803,"ĠÐ²ÑĭÑģÑĤÐ°Ð²":8804,"ĠÐºÐ¾Ð½Ñİ":8805,"ÐµÐ³Ð¾ÑĢÐ¾Ð´":8806,"ĠÑıÑĢÐº":8807,"ÑĢÑĥÑĩ":8808,"ĠÑħÐ²":8809,"Ð¸Ð´ÐµÑģÑı":8810,"ĠÐ¾Ð±Ð¸Ð´":8811,"ĠÑģÑĤÑĥÐ´":8812,"Ð°Ð¶Ð¸":8813,"ÐµÐ·Ð´Ñĥ":8814,"ĠÐ¿Ð¾Ð´Ñģ":8815,"Ġsobs":8816,"Ġshy":8817,"Ġshape":8818,"ament":8819,"ĠÐĶÑĢÑĥÐ³":8820,"ander":8821,"ĠÑĢÐ°Ð·Ñĥ":8822,"ĠÑĢÐ°Ð·ÑĢÑĭÐ²":8823,"ÐµÐ½ÑĮÐºÐ°":8824,"ÑĢÐ°ÑģÑĤ":8825,"usal":8826,"ĠVI":8827,"ĠVII":8828,"ĠVIII":8829,"ĠÐŁÐ¾Ð·Ð²":8830,"lfare":8831,"Ġaband":8832,"Ġdeg":8833,"usted":8834,"Ġaltered":8835,"acity":8836,"ĠÐ¿ÐµÑĢÐµÐ»":8837,"ĠWh":8838,"ĠWill":8839,"ĠPro":8840,"ĠON":8841,"ĠÐ¢Ð°Ð¼":8842,"ĠÐ¾Ð´Ð¾Ð±ÑĢÑı":8843,"ĠÐľÐ¾Ð»Ð¾Ð´":8844,"ĠÐľÐ°ÑĤÑĢ":8845,"ĠCome":8846,"ĠMasha":8847,"Ð¾Ð¿Ð¾Ð»":8848,"ĠÑĥÐ¶Ð¸Ð½Ð°":8849,"Ġvict":8850,"ĠÐ²Ð¸Ð´Ð°Ð»Ð°":8851,"Ġamusing":8852,"Ð¸Ð½Ð°Ñħ":8853,"Ġnovel":8854,"Ġuns":8855,"Ġsmart":8856,"Ġmanaged":8857,"ĠÐ¿ÑĢÐ¾ÑģÑĤÐ¸":8858,"Ð¸ÑĤÐµÐ»ÑĮÐ½Ñĭ":8859,"Ġseated":8860,"cient":8861,"Ð°Ð»ÑĮÐ½ÑĭÐµ":8862,"Ġwear":8863,"Ġwelfare":8864,"place":8865,"ĠÐ¼ÑĥÐ¶Ðµ":8866,"assad":8867,"ĠÐ¿Ð¾ÑģÐ»Ð°Ð½":8868,"Ð°Ð²ÑĪÐ¸ÑħÑģÑı":8869,"acks":8870,"acking":8871,"appe":8872,"ĠÑĥÐ²Ð»ÐµÑĩ":8873,"Ġtear":8874,"Ġteaching":8875,"ĠÑĥÐ´Ð¾Ð±":8876,"ĠÐ²ÐµÑĢÑģÑĤ":8877,"ĠÐ²ÐµÑĢÑİ":8878,"Ġstrang":8879,"ĠEmper":8880,"Ġcontented":8881,"ĠÐºÐ½ÑıÐ·":8882,"ĠÐ½Ð°Ð¿Ð¾Ð»":8883,"ĠÐ¿Ð¾Ð¼Ð¸Ð»":8884,"ĠÐ¿Ð¾Ð¼Ð½Ñİ":8885,"ĠÐ¸ÑģÐ¿ÑĢÐ°Ð²":8886,"ĠÐ¾ÑģÐ¾Ð±ÐµÐ½Ð½Ð¾Ð³Ð¾":8887,"Ð»ÐµÐ½Ð½ÑĭÐ¼":8888,"Ð»ÐµÐ½Ð½ÑĭÐ¹":8889,"Ð»ÐµÐ½Ð½ÑĭÐµ":8890,"ĠÐ½ÑĥÐ¶Ð½Ð°":8891,"ĠÐ½ÐµÑĤÐµÑĢÐ¿":8892,"Ġexpressing":8893,"Ġsatisfaction":8894,"Ġadopt":8895,"Ġrelatives":8896,"lovna":8897,"ĠÐ´ÐµÑĤÑģÐºÐ¾Ð¹":8898,"ĠÑĢÐ°Ð·Ð²Ð»ÐµÐº":8899,"ĠÐ·Ð°ÐºÑĢÑĭ":8900,"ĠÑĤÐ²Ð¾Ð¹":8901,"ĠÐ´Ð¾Ð±ÑĢÐ¾Ð²Ð¾Ð»ÑĮ":8902,"ÑģÑĤÐ²ÐµÐ½Ð½ÑĭÐ¹":8903,"Ġordinary":8904,"ÑĥÐ³Ð°":8905,"Ġquestioning":8906,"ĠÑĩÐµÑĢÐ½ÑĭÐ¼Ð¸":8907,"ĠÐ´Ð°ÑģÑĤ":8908,"vial":8909,"Ġacted":8910,"ĠÐ¶Ð¸Ð²Ð¾Ðµ":8911,"Ġconfusion":8912,"Ġdistant":8913,"Ġinvited":8914,"Ġrefusal":8915,"ĠÐ·Ð°Ð´ÐµÑĢÐ¶":8916,"Ġsilver":8917,"ĠÐ¾ÑģÑĤÐ°Ð²Ð¸Ð»":8918,"ĠÐµÑħÐ°Ð»":8919,"ĠÐ¸ÑģÐ¿ÑĭÑĤÐ°Ð»":8920,"Ġinstance":8921,"ĠÐ¿Ð¾Ð»ÑĥÑĩÐ¸Ð²":8922,"ĠÐ½Ð°Ð²ÑģÐµÐ³Ð´Ð°":8923,"ĠÑģÐ¸Ð´ÐµÐ»Ð¸":8924,"ĠÐºÐ¾Ð½ÑĩÐ¸Ð»Ð¾ÑģÑĮ":8925,"ĠÐ²ÐµÐ»Ð¸Ñĩ":8926,"Ġsuffered":8927,"ĠÐ¾Ð³Ð»ÑıÐ½ÑĥÐ»Ð°ÑģÑĮ":8928,"ĠÑĢÐ°Ð±Ð¾ÑĤÑĭ":8929,"ĠÐ·Ð°ÑģÐ½ÑĥÐ»":8930,"Ġvisible":8931,"ĠÐ·Ð½Ð°ÑĩÐ¸Ð»Ð¾":8932,"Ġsisters":8933,"ĠÐ¾ÑĤÑĩÐµÑĤ":8934,"ĠÑĥÐºÐ»Ð°Ð´":8935,"ĠÑħÐ¾Ð´Ð¸Ð»":8936,"ÑıÐ³Ð¸Ð²Ð°Ñı":8937,"ĠÐ¿ÑĢÐ¾Ð²Ð¾Ð¶":8938,"ĠÐ¿Ð¾Ð´Ð½ÑıÐ»":8939,"Ġinsign":8940,"ĠÑģÑĩÐ¸ÑĤÐ°ÑĤÑĮ":8941,"ĠÐ¶ÐµÐ»Ð°Ñİ":8942,"ĠÑĢÐµÐ±ÐµÐ½ÐºÐ¾Ð¼":8943,"Ġdetail":8944,"ĠÐ·Ð°Ð½Ð¸Ð¼Ð°Ð»Ð¾":8945,"Ġterribly":8946,"ĠÐ¿ÑĢÐ¸ÐºÐ°Ð¶ÐµÑĤÐµ":8947,"Ġhighly":8948,"ĠÐ¸Ð³ÑĢÑĥÑĪ":8949,"ĠÐ´ÑĥÑħÐµ":8950,"Ð°Ð»ÑĥÐ¹ÑĤÐµ":8951,"ĠÐ´Ð°Ð²Ð°Ð»":8952,"ĠÐ²Ð°Ð¶Ð½Ð¾Ðµ":8953,"ĠÐ¸Ð·Ð¼ÐµÐ½Ñı":8954,"ĠÐ¸Ð·Ð¼ÐµÐ½Ð¸ÑĤÑĮ":8955,"Ġadvance":8956,"ĠÐ´Ð¾ÑĩÐµÑĢÑĮÑİ":8957,"ĠÐ²ÑģÐºÐ¾ÑĩÐ¸Ð»":8958,"Ġassumed":8959,"ĠÑĢÐ°ÑģÐºÐ°":8960,"Ġhostile":8961,"Ġkeeping":8962,"ĠÐºÑĥÐ¿Ð¸ÑĤÑĮ":8963,"ĠÐ²ÑĭÑģÐºÐ°Ð·":8964,"Ġprevent":8965,"ĠÑģÑĤÐ°ÑĢÐ¸ÐºÐ°":8966,"ĠÑĤÑĭÑģÑıÑĩÐ¸":8967,"ĠÐºÐ»ÐµÐ²":8968,"Ġdirectly":8969,"ĠÐļÐ°ÑĤÐ°Ð²Ð°ÑģÐ¾Ð²Ð°":8970,"Ġpursu":8971,"Ġwoke":8972,"Ġloss":8973,"evedovsky":8974,"Ġcapital":8975,"ĠÑĥÐ´ÐµÑĢÐ¶Ð°ÑĤÑĮ":8976,"ĠÑģÐ´ÐµÐ»Ð°ÐµÑĤ":8977,"Ġpowerful":8978,"ĠÐ³Ð¾Ð´Ñĥ":8979,"ĠÐ¿Ð»ÐµÑĩÐ°Ð¼Ð¸":8980,"ĠÐ³Ð¾ÑģÐ¿Ð¾Ð´Ð¸Ð½":8981,"ĠÐ¾Ð±ÑĢÐ°Ð·Ð¾Ð²Ð°Ð½Ð¸Ðµ":8982,"Ġphr":8983,"ĠÐºÑĥÑĩÐµÑĢ":8984,"ĠÐĵÐ¾Ð»ÐµÐ½Ð¸ÑīÐµÐ²Ð°":8985,"Ġtrivial":8986,"ĠÑĥÐ²ÐµÑĢÐµÐ½":8987,"Ġlearn":8988,"ĠÑĢÐ°Ð±Ð¾ÑĩÐµÐ³Ð¾":8989,"ĠÐ±Ð»Ð°Ð³Ð¾Ð´Ð°ÑĢÑı":8990,"ÑĤÑıÐ½ÑĥÑĤ":8991,"ĠÐ¼Ð°Ð»ÑĮÑĩÐ¸ÐºÐ°":8992,"Ġcollect":8993,"Ġconnection":8994,"ĠÑģÐµÑĢÑĮÐµÐ·Ð½Ð¾":8995,"ĠÐ¼ÑĥÐ¶ÑĩÐ¸Ð½Ñĭ":8996,"ĠÐºÐ°ÑĢÑĤÐ¸Ð½Ñĭ":8997,"Ġdispute":8998,"ĠÐ´Ð¾ÑģÑĤÐ°Ð»":8999,"ĠÐ½ÑĭÐ½ÐµÑĪÐ½Ð¸Ð¹":9000,"ĠÐ¾Ð±Ð»Ð¾Ðº":9001,"Ġpassionate":9002,"ĠÐ³ÑĢÐµÑħ":9003,"Ġannoy":9004,"ĠÐ¾Ð±Ð¾Ð¸Ñħ":9005,"Ġseparate":9006,"ĠÐ¿Ð¾Ð»ÐºÐ¾Ð²Ð½Ð¸Ðº":9007,"ĠÐºÑĢÐµÑģÐ»Ð¾":9008,"Ġdefinitely":9009,"ĠProvin":9010,"Ġslept":9011,"ÐļÐ°Ðº":9012,"ĠÑģÐµÐºÑĢÐµÑĤ":9013,"Ġconcluded":9014,"Ġanxiety":9015,"Ġdeceive":9016,"ĠÐºÐ¾Ð»ÑıÑģÐºÐµ":9017,"ĠÐ´ÑĢÐ¾Ð¶Ð°Ñī":9018,"ĠÐĴÐµÑĢÐ½ÑĥÐ²ÑĪÐ¸ÑģÑĮ":9019,"ĠÐ¾Ð±ÑıÐ·Ð°Ð½Ð½Ð¾ÑģÑĤÐ¸":9020,"Ġhungry":9021,"ĠÐ¿ÑĢÐ¾ÐºÑĢÐ¸ÑĩÐ°Ð»":9022,"Ġecst":9023,"ĠÐ¾ÑĤÑĭÑģÐºÐ¸Ð²Ð°Ñı":9024,"Ġinnoc":9025,"ourable":9026,"ĠÐ¿ÑĢÐ¸Ð³Ð»Ð°Ñģ":9027,"ĠÐ±ÑĥÐ¼Ð°Ð³Ð¸":9028,"Ġembarrassed":9029,"Ġconsequence":9030,"Ġenerget":9031,"Ġextremely":9032,"Ġfulfil":9033,"Ġtaste":9034,"ĠÐķÐ²ÑĢÐ¾Ð¿":9035,"ĠÐ·Ð²Ð¾Ð½Ð¾Ðº":9036,"ĠÐ¼ÑĭÑģÐ»ÑıÐ¼Ð¸":9037,"ĠÑģÑĥÐ¿ÑĢÑĥÐ³":9038,"ĠÑĤÐ°Ð½ÑĨÐµÐ²":9039,"ĠÐ´Ð¾Ð³Ð°Ð´ÑĭÐ²":9040,"ĠÐ¼Ð°Ð»ÐµÐ¹ÑĪÐµÐ³Ð¾":9041,"ĠÐ¿Ð¸ÑĪÐµÑĤ":9042,"ĠÑĤÑıÐ³Ð¾":9043,"Ġfrankly":9044,"ĠÐĴÐ°ÑĢÐ²Ð°ÑĢÐ°":9045,"ĠÐŁÐ°Ð²Ð»Ð¾Ð²":9046,"ĠÐŁÐµÑĢÐ²Ð¾Ðµ":9047,"Ġvividly":9048,"ĠÐ¼ÑĥÐ½Ð´Ð¸ÑĢÐµ":9049,"ĠPavlovna":9050,"Ġdetermined":9051,"Ġprofessor":9052,"ĠÑĢÐ°Ð·Ð½Ð¾Ð¾Ð±ÑĢÐ°Ð·":9053,"Ġconceal":9054,"ĠStephen":9055,"Ġlunch":9056,"Ġyellow":9057,"voshchik":9058,"ĠÐ±Ð°Ð»Ð»Ð¾ÑĤÐ¸ÑĢÐ¾Ð²":9059,"ĠZemstvo":9060,"Ġchosen":9061,"Ġextraordinary":9062,"ĠÑħÐ¼ÑĥÑĢÑıÑģÑĮ":9063,"ĠÐ¿ÑĢÐµÐ¸Ð¼ÑĥÑīÐµ":9064,"Ġizvoshchik":9065,"Ġdaughters":9066,"ĠÑĢÐ¾ÑģÐºÐ¾ÑĪ":9067,"ĠEmperor":9068,"Sh":9069,"ald":9070,"com":9071,"case":9072,"hil":9073,"iently":9074,"kers":9075,"ler":9076,"mon":9077,"ok":9078,"ois":9079,"pes":9080,"pond":9081,"whe":9082,"ĠÐ¦":9083,"Ð¾ÑĤÐ¾":9084,"Ð°ÑģÑĤÐ¸":9085,"Ð½Ð¾Ð¶":9086,"Ð½ÐµÐ¼Ñĥ":9087,"Ð»ÑĥÐ¶":9088,"Ð»ÑĭÐ¼":9089,"ÑĢÐµÐ½":9090,"ÑĢÐ³":9091,"ÑĢÐ¾Ð¹":9092,"ÑĢÐµÐ²":9093,"ÑĢÐµÑī":9094,"Ġtree":9095,"ÑıÐ»Ð¸":9096,"Ġwond":9097,"ĠÑģÐ¸":9098,"ĠÑģÐµÐ»ÑĮ":9099,"ĠÑģÐ½ÑıÐ»":9100,"Ġswing":9101,"Ġsorts":9102,"ĠÐ¿Ñĭ":9103,"ĠÐ¿ÑĪ":9104,"ĠÐ¿ÐµÑģ":9105,"ĠÐ¿ÐµÑĪ":9106,"Ġtheatre":9107,"Ð´ÑĢÑĥÐ³":9108,"Ð°Ð»Ð¾Ð¼":9109,"ĠÐºÐ¾Ð·":9110,"ĠÐºÐ²Ð°ÑĢ":9111,"Ð¾Ð²ÐµÑĢÑĪ":9112,"Ġcough":9113,"Ġfire":9114,"ĠÐ±Ð°Ðº":9115,"ĠÐ´Ð°Ð¹":9116,"ĠÐ´ÑĮÑı":9117,"ÑħÐ¸ÑĤ":9118,"ÑħÐ°ÑĤ":9119,"ĠÑĤÑİ":9120,"ÐµÑĢÐ½Ð¾Ðµ":9121,"ĠÐµÐ´Ñĥ":9122,"ĠÐ½ÐµÑĥÐ¼":9123,"ĠÐ½ÐµÑĥÐ¶ÐµÐ»Ð¸":9124,"ĠÐ½ÐµÐ¾ÑħÐ¾ÑĤ":9125,"esp":9126,"ĠÐ¼ÐµÑĤ":9127,"ĠÐ¼Ð°Ñģ":9128,"Ġlately":9129,"Ġlux":9130,"orney":9131,"Ġpure":9132,"Ġpushing":9133,"Ġpacing":9134,"Ġparent":9135,"ansky":9136,"ĠÑĥÑĩÐ¸ÑĤ":9137,"ĠÑĥÐ»Ð¾Ð¶":9138,"Ð¿ÐµÑĢÐ²":9139,"ĠÑĢÐµÐº":9140,"ĠÑĢÐ¾Ð»ÑĮ":9141,"ĠÑĢÐ°Ð½ÑĮ":9142,"imon":9143,"Ġbeha":9144,"Ð½Ð¸ÑĤ":9145,"Ð¾Ð´Ðµ":9146,"Ð¾ÑĢÐ¾Ð´":9147,"ĠÐ½Ð°ÑĪÐ¸":9148,"Ġgay":9149,"Ġgathe":9150,"ĠÐ¿Ð¾ÑģÐ¼":9151,"ĠÐ¿Ð¾ÑģÐºÐ¾ÑĢ":9152,"Ð³Ð´Ðµ":9153,"ĠIX":9154,"Ġreview":9155,"ÐµÐ²ÐµÐ»":9156,"ĠÐ³ÐµÐ½ÐµÑĢ":9157,"Ð¸Ð²Ð°Ð»Ð¸ÑģÑĮ":9158,"Ð¾Ð³Ð°":9159,"Ġasp":9160,"ĠÐĴÑĩ":9161,"ĠÐĴÐ¸Ð´":9162,"ĠÐĴÐ¾Ñģ":9163,"Ġstir":9164,"Ð¸Ð¼Ð¾Ðµ":9165,"ĠAb":9166,"Ġrow":9167,"ĠÐºÐ¾ÑģÑĤ":9168,"ĠÐºÐ¾Ð½ÐµÑĨ":9169,"Ð»ÑıÑı":9170,"ĠÑıÑĢ":9171,"ĠÑıÑīÐ¸Ðº":9172,"ĠÐ¾Ð±Ñģ":9173,"ĠÐ¾Ð±Ð¾ÑĢ":9174,"ĠÐļÑĥÐ´Ð°":9175,"ĠSomet":9176,"onscious":9177,"ĠÑģÑĤÐ°ÑĢÐ¾":9178,"ction":9179,"ĠHad":9180,"ĠÐĽÑĥÐº":9181,"ĠÐĽÐ¸ÑĨ":9182,"ĠÐ¿ÑĢÐ¸ÑĪ":9183,"ĠÐ¿ÑĢÐ¸Ð¾Ð±ÑĢ":9184,"Ð°Ð¶Ñĥ":9185,"Ġsoot":9186,"Ġshut":9187,"Ġshade":9188,"ĠÐĶÐ°Ð²Ð½Ð¾":9189,"ĠÑĢÐ°Ð·Ð»Ð¸Ñĩ":9190,"ÑĥÐ¶Ð´Ð°":9191,"Ð¾Ð·Ð½Ð°":9192,"ÐµÐ½ÑĮÑı":9193,"Ġwheat":9194,"Ġsuit":9195,"Ġsudden":9196,"ĠÐ°Ð´":9197,"Ð°Ð»Ð¸ÑģÑĤ":9198,"Ġchance":9199,"Ġchoose":9200,"Ġchallen":9201,"ÑĥÑĩÐ½Ð¾":9202,"Ġjaw":9203,"Ġjacket":9204,"ĠÐ¿Ð¾Ð»ÑĩÐ°Ñģ":9205,"ĠÐľÐ°Ð¼Ð°":9206,"ĠMar":9207,"ĠMatre":9208,"Ð¾Ð¿ÑĭÑĤ":9209,"Ġworst":9210,"ĠÑĪÑĤÑĥ":9211,"Ġoutlook":9212,"ĠÐ²Ð¸Ð´Ð¸ÑĤ":9213,"ĠÐĴÑĢÐ¾Ð½ÑģÐºÐ¾Ð¼":9214,"Ġleather":9215,"ĠÐ´Ð²ÑĥÐ¼Ñı":9216,"Ġunion":9217,"Ġunne":9218,"ĠÐ»ÑİÐ±Ð¸ÑĤÐµ":9219,"ÐµÑħÐ°Ð²":9220,"ĠÐ¸Ð¼ÐµÐ½Ð¸":9221,"Ð´ÐµÑģÑıÑĤ":9222,"ĠÐ´ÐµÐ»Ð°Ð»Ð¾ÑģÑĮ":9223,"ĠÐ¾Ð¿Ð¾Ð·Ð´":9224,"ĠÐ½Ð°Ð´ÐµÐ¶Ð´":9225,"ĠÐ¾ÑĤÐ²ÑĢÐ°ÑĤ":9226,"Ġundert":9227,"ĠÐ´ÑĢÑĥÐ³Ð¸Ð¼Ð¸":9228,"ĠÐ´ÑĥÐ¼Ð°Ð»Ð¸":9229,"Ġarch":9230,"ĠNe":9231,"ĠNevedovsky":9232,"ĠÐ½Ð¸Ð¶Ðµ":9233,"ÐµÑĪÑĮÑģÑı":9234,"ĠÑģÑĤÐ°ÑĢÐ°Ð»Ð°ÑģÑĮ":9235,"Ġthinks":9236,"ĠÐ½Ð¸ÐºÑĥÐ´Ð°":9237,"ĠÐ´Ð¾ÑģÑĤÐ¸Ð³":9238,"ĠGener":9239,"Ġconscience":9240,"Ġtem":9241,"ĠÐ²ÐµÑĢÐ½ÑĥÐ»Ð°ÑģÑĮ":9242,"ĠÐ²ÐµÑĢÐ½ÑĥÐ²ÑĪÐ¸ÑģÑĮ":9243,"Ġstrain":9244,"Ġclos":9245,"Ġclover":9246,"Ġclerk":9247,"ĠÑħÐ¾ÑĢÐ¾ÑĪÐµÐµ":9248,"ĠÐ¿Ð»ÐµÐ´":9249,"ĠÐ±Ð¾Ð»Ð¾ÑĤÐ°":9250,"ĠÑģÐ¾Ð±Ñĭ":9251,"ĠÐ·Ð°Ð¼ÐµÐ½":9252,"ÑĢÑıÐ¼":9253,"Ġthanks":9254,"Ġchildhood":9255,"ĠÐ¿Ð¾Ð½Ð¸Ð¼Ð°ÐµÑĤÐµ":9256,"Ġways":9257,"ĠÑĨÐµÐ¿":9258,"ĠÑĨÐµÐ»Ð¾Ð²":9259,"ĠÐ¿ÑĢÐ°Ð²Ð´Ñĥ":9260,"ĠÐ½Ð°ÑĩÐ¸Ð½Ð°Ð»":9261,"Ġpartition":9262,"ĠXII":9263,"ĠXIII":9264,"ĠÐ±ÐµÐ·Ð¾Ð±ÑĢÐ°Ð·":9265,"ĠÐ±Ð»Ð°Ð¶":9266,"ÑĢÐ¾Ð´Ðµ":9267,"ĠÐ¿ÑĢÐ¾ÑģÐ¸Ð»Ð°":9268,"Ġrights":9269,"Ġrightly":9270,"Ġattach":9271,"ĠÐ³Ð¾Ð»Ð¾Ð²Ð°":9272,"ĠÐ£Ð·":9273,"ĠÑĢÐ°Ð·Ð³Ð¾Ð²Ð¾ÑĢÑĭ":9274,"Ġrecovered":9275,"Ġflat":9276,"ĠÑģÑĩÐ°ÑģÑĤÐ¸Ñı":9277,"ĠÐ´ÐµÑĤÑģÐºÑĥÑİ":9278,"ĠÑĩÐ°ÑģÑĥ":9279,"ĠÐ´ÐµÐ»Ð°Ñħ":9280,"Ġkinds":9281,"ĠÐ·Ð°Ð²Ð¸":9282,"ĠThree":9283,"ĠÐºÐ°ÑĢÐµÑĤÑĭ":9284,"ĠÐºÐ¾ÑĢÐ¾Ð²":9285,"Ð¸ÑĩÐµÑģÐºÐ¾Ð¹":9286,"Ð¸ÑĩÐµÑģÐºÐ¸Ñħ":9287,"ĠÑģÑĭÐ½Ñĥ":9288,"Ġpainting":9289,"Ġdistract":9290,"ĠÐ·Ð²ÐµÐ·Ð´":9291,"Ð°ÑİÑīÐ¸Ñħ":9292,"ĠÐ¿Ð¾ÑģÐ»ÐµÐ´Ð½ÐµÐ¹":9293,"Ġcareer":9294,"ĠÐ¾Ð±ÐµÐ´Ð¾Ð¼":9295,"ĠÐ·Ð°Ð´ÑĥÑĪ":9296,"ĠÐ¸Ð½ÑĤÐµÑĢÐµÑģÐ½Ð¾":9297,"ĠÐ¿ÑĢÐ¸ÑıÑĤÐµÐ»Ñı":9298,"Ġsubm":9299,"ĠÑĤÐµÐ°ÑĤ":9300,"ĠÐ¿ÐµÑĢÐµÐ´Ð½ÐµÐ¹":9301,"ĠÐ¼ÑĥÑĩÐ°Ð»Ð¾":9302,"Ġinterf":9303,"Ġinterp":9304,"ĠÐĴÐ°ÑĢÐµÐ½ÑĮÐºÐ¸":9305,"ĠÐºÐ°Ð¶Ð´Ð¾Ðµ":9306,"Ġreality":9307,"ĠÑģÐ»ÑĥÑĩÐ°Ñı":9308,"ĠÐ¿Ð¾Ð¿ÑĢÐ¾Ð±":9309,"Ġmercy":9310,"ĠÐ¾ÑĤÐ´ÑĭÑħ":9311,"ĠÑĢÐ°Ð·Ð´ÑĥÐ¼":9312,"ĠÐ½Ð°ÑħÐ¾Ð´Ð¸Ð»ÑģÑı":9313,"Ġdespised":9314,"ĠÑģÐ²ÐµÑĤÐ¾Ð¼":9315,"Ġveh":9316,"Ġveil":9317,"ĠÐ´Ð²Ð¾ÑĢÑıÐ½ÑģÐº":9318,"ĠÐ¾Ð±ÑĢÐ°Ð·Ð¾Ð¼":9319,"ĠÐ¾ÑĤÐ²ÐµÑĤÐ¸ÑĤÑĮ":9320,"ĠÐ¡ÐµÑĢÐµÐ¶Ðµ":9321,"ĠService":9322,"Ġsentence":9323,"ĠÐ½Ð°ÑĢÐ¾Ð´Ð¾Ð¼":9324,"ĠÐ¿Ð¾Ð³ÑĥÐ±":9325,"ĠÐļÐ¾Ð½ÑģÑĤÐ°Ð½ÑĤÐ¸Ð½Ð°":9326,"ĠÑģÐ¾Ð¾Ð±ÑĢÐ°Ð·":9327,"ĠÐ²Ð¸Ð½Ð¾Ð²Ð°":9328,"ĠÐ²Ð°ÑĪÐµÐ¹":9329,"ĠRussians":9330,"ĠÐ²Ð·Ð´ÑĢÐ¾Ð³":9331,"ĠÐ¸Ð´Ð¸":9332,"ĠÑģÐ°Ð´Ñĥ":9333,"ĠÐ½ÐµÐ¶Ð½Ð¾ÑģÑĤÐ¸":9334,"ÑģÑĤÐ²ÐµÐ½Ð½Ð¾Ñİ":9335,"ĠÑģÐ¿ÑĢÐ°ÑĪÐ¸Ð²":9336,"ĠÑģÐ¿ÑĢÐ°ÑĪÐ¸Ð²Ð°ÑĤÑĮ":9337,"Ġcrown":9338,"ĠÐºÐ¾ÑģÐ¸ÑĤÑĮ":9339,"ĠÐ½ÐµÐ½Ð°ÑĤÑĥÑĢ":9340,"ĠÐ½Ð¾ÑĩÐ¸":9341,"Ġcurly":9342,"ĠÑģÐ¾Ð³Ð»Ð°ÑģÐ¸ÑĤÑĮÑģÑı":9343,"ĠÐ¿ÐµÑĢÐµÑģÑĤÐ°Ð»":9344,"ĠÑĪÐ»ÑıÐ¿Ñĭ":9345,"ĠÐ±Ð»ÐµÑģÑĤÑı":9346,"Ġhostility":9347,"Ġoccupation":9348,"ĠÐ´ÐµÐ²ÑĥÑĪÐºÑĥ":9349,"Ġdropped":9350,"Ġwhiskers":9351,"Ġcomplex":9352,"reshing":9353,"Ġpropri":9354,"Ġpropos":9355,"Ġproposed":9356,"ĠÐ¿ÑĢÐ¾ÑĩÐµÑģÑĤÑĮ":9357,"ĠÐ¸ÑģÐ¿ÑĥÐ³Ð°Ð½Ð½Ð¾":9358,"ĠÑģÑĥÐ´Ð°ÑĢÑĮ":9359,"Ġcapacity":9360,"ĠÐ²ÑĭÐ¹Ð´ÐµÑĤ":9361,"ĠÑĢÐµÐ²Ð½Ð¾ÑģÑĤÐ¸":9362,"Ġembroid":9363,"ÑĢÐ°Ð²Ð»ÑıÑı":9364,"Ġplayed":9365,"Ġsettle":9366,"ĠÐ´Ð¾ÑģÐ°Ð´Ñĭ":9367,"ĠÐ³Ð¾ÑģÐ¿Ð¾Ð´Ð¸Ð½Ð°":9368,"ĠÐ¾Ð±Ð¼Ð°Ð½ÑĭÐ²Ð°ÑĤÑĮ":9369,"ĠÑĥÑģÐ»Ð¾Ð²Ð¸Ð¹":9370,"Ġtormenting":9371,"Ġpointed":9372,"ĠÐ²Ð°ÑĪÐ¸":9373,"Ġstronger":9374,"ĠXVI":9375,"ĠXVII":9376,"ĠÐ¿ÑĢÐ¸Ð·Ð½Ð°Ð²":9377,"ĠÐ½ÐµÐ½Ð°Ð²Ð¸":9378,"Ġcollar":9379,"Ġemotion":9380,"Ġutter":9381,"ĠÐ°ÑĢÑĤÐµÐ»ÑĮ":9382,"ĠÐ½Ð°ÑħÐ¾Ð¶Ñĥ":9383,"ĠÐ¿ÑĢÐ¸ÑģÑĥÑĤÑģÑĤÐ²Ð¸Ð¸":9384,"ĠÐ¿Ð¾Ð¼Ð¾ÑīÐ¸":9385,"ĠÐ¾ÑĤÑĬÐµÐ·Ð´Ð°":9386,"Ġmentally":9387,"Ġsuperior":9388,"Ġlifting":9389,"ĠÐ³Ð¾ÑĢÐ¾Ð´Ðµ":9390,"ĠXIV":9391,"ĠXIX":9392,"Ġmutual":9393,"ĠÐºÐ¾ÑĦÐµ":9394,"ĠÐĽÐ¸Ð·Ð°":9395,"ĠÑģÐµÑĢÐµÐ±":9396,"ĠÐ¿ÐµÑĢÐµÐ½Ð¾Ñģ":9397,"Ġdisgrace":9398,"ĠXXXI":9399,"ĠÑģÐµÐºÑĥÐ½Ð´":9400,"ĠÐ¾ÑĤÐºÑĢÑĭÐ²Ð°Ñı":9401,"ĠÐ²ÑĭÐ±Ð¾ÑĢÑĭ":9402,"Ġmissed":9403,"ĠÐ½ÐµÐ¿ÑĢÐ°Ð²Ð´Ð°":9404,"ĠÐ²Ð¾ÑģÑĤÐ¾ÑĢÐ³":9405,"Ġreflected":9406,"ĠÑĢÐ°Ð·Ð³Ð¾Ð²Ð°ÑĢÐ¸Ð²Ð°Ñı":9407,"Ġmajor":9408,"Ġdepends":9409,"ĠÐ¿Ð¾ÑģÐ»ÑĭÑĪÐ°Ð»Ð¸ÑģÑĮ":9410,"Ġunexpectedly":9411,"netkov":9412,"Ġeyeb":9413,"ĠÐ¾ÑģÑĤÐ°Ð½Ð°Ð²Ð»Ð¸Ð²Ð°ÑıÑģÑĮ":9414,"ĠÐºÑĢÑĥÐ¿":9415,"Ġambassad":9416,"ĠÐ¼ÐµÑĩÑĤ":9417,"ĠÐ·Ð°ÑģÐ¼ÐµÑıÐ»Ð°ÑģÑĮ":9418,"ĠÑģÐ¾ÑĢÐ¾Ðº":9419,"ĠÐ³Ð°Ð»ÑģÑĤ":9420,"ĠÐĿÐµÐ²ÐµÐ´Ð¾Ð²":9421,"ĠÐ¸Ð·Ð²ÐµÑģÑĤÐ¸Ðµ":9422,"ĠCouncil":9423,"Ġdisgusting":9424,"Ġbonnet":9425,"ĠÑĢÑĥÐ¶ÑĮÐµ":9426,"Ġcarpet":9427,"Ġsincerely":9428,"ĠÐ¿ÑĢÐ¸Ð¿Ð¸Ñģ":9429,"ĠÑĦÐ¸Ð³ÑĥÑĢÑĭ":9430,"ĠÑĤÐµÐ»ÐµÐ³ÑĢÐ°Ð¼Ð¼Ñĥ":9431,"ĠÑĩÐ°ÑĪÐºÑĥ":9432,"Ð»ÐµÐ³Ð°Ð½ÑĤ":9433,"ĠÐ½ÑĥÐ¼ÐµÑĢ":9434,"Ġsportsmen":9435,"ĠÐºÐ¾Ð¼Ð°Ð½Ð´Ð¸ÑĢ":9436,"Ġradiant":9437,"Ġrarely":9438,"ĠÐľÑıÐ³ÐºÐ°Ñı":9439,"Ġcomrade":9440,"ĠÐ±ÐµÐºÐ°Ñģ":9441,"ĠÑıÐ·Ñĭ":9442,"Ġexchanged":9443,"Ġpermission":9444,"Ġribbons":9445,"ĠÐ¾Ð´Ð¸Ð½Ð°ÐºÐ¾Ð²Ð¾":9446,"ĠÐ±Ð°ÑĤÑİ":9447,"Ġstyle":9448,"ĠÐĶÐ¾ÐºÑĤÐ¾ÑĢ":9449,"Ġopera":9450,"Ġcigarette":9451,"Ġcircumstances":9452,"ĠÐ±ÐµÑģÑģÐ¼ÑĭÑģÐ»":9453,"Ġopportunity":9454,"ĠÑģÐ¸Ð³Ð°ÑĢ":9455,"ĠKorsunsky":9456,"ÐµÐ½Ð±Ð°ÑĢÐ´":9457,"Ġinsignificant":9458,"ĠÐ¿ÑĪÐµÐ½Ð¸":9459,"ĠÐ±Ð°ÐºÐµÐ½Ð±Ð°ÑĢÐ´":9460,"Ġparents":9461,"Ð¿ÐµÑĢÐ²ÑĭÑħ":9462,"ĠÑĢÐ°Ð½ÑĮÑĪÐµ":9463,"Ġgathered":9464,"ĠÐĽÐ¸ÑĨÐ¾":9465,"ĠMatrena":9466,"Ġunnecessary":9467,"Ġambassador":9468,"Are":9469,"Because":9470,"Tell":9471,"Wh":9472,"ausing":9473,"cour":9474,"een":9475,"fol":9476,"fast":9477,"faced":9478,"kerchief":9479,"lve":9480,"light":9481,"minded":9482,"ointed":9483,"ration":9484,"uce":9485,"uous":9486,"uish":9487,"yst":9488,"Ġer":9489,"ĠQu":9490,"Ð¾Ð½Ðµ":9491,"Ð¸ÑĦ":9492,"Ð¸ÑĨÑĭ":9493,"Ð½ÐµÐ½Ð½Ð¾":9494,"Ð»Ð¾Ð¹":9495,"Ð»Ð°Ð¶":9496,"Ð»ÑĥÑİ":9497,"Ð»ÐµÑĩÑĮ":9498,"Ġtied":9499,"ÑıÐ»Ð¸ÑģÑĮ":9500,"ÑĭÑĤÑĮ":9501,"Ġwound":9502,"Ġsway":9503,"ÑĩÑĤÐ¾Ð¶":9504,"ĠÐ¿Ð¸ÑĢ":9505,"ĠÐ²ÑģÑĮ":9506,"ĠÐ²ÑĢÐµÐ´":9507,"Ġhint":9508,"ĠÐ¾Ñħ":9509,"ĠÐ¾ÑĤÐ¾ÑĢ":9510,"ĠÐ¾ÑģÑĤÐ°Ð²Ð»Ñı":9511,"ĠÐ¾ÑħÐ²Ð°ÑĤ":9512,"Ð´Ð¾Ð²":9513,"iteness":9514,"eding":9515,"Ġben":9516,"Ġban":9517,"Ġborn":9518,"Ġbathing":9519,"Ð¼ÐµÑĢ":9520,"erning":9521,"ÑģÑĤÐ¾Ðº":9522,"ÑģÑĤÐ°Ð½Ð¾Ð²":9523,"ÐµÐ½Ð¾Ðº":9524,"Ġcook":9525,"Ġmot":9526,"Ġmow":9527,"Ġmount":9528,"ĠÑĩÐ¸ÑģÑĤÐ¾":9529,"asons":9530,"ÑİÐ´Ð°":9531,"ĠÑĤÑĥÐ¼":9532,"ĠÑĤÑĥÑĩ":9533,"Ġnarrow":9534,"ĠÐ¼Ð°Ð·":9535,"ĠÐ¼Ð¾ÑģÑĤ":9536,"ĠÐ¼Ð¸ÑĢÐ¾Ð²":9537,"Ġlose":9538,"oro":9539,"orous":9540,"Ġpink":9541,"ĠÐ¿ÑĢÐµÑĢÐ²":9542,"Ġincess":9543,"Ġinex":9544,"Ð±ÐµÐ¶":9545,"ĠÐ·ÑĢ":9546,"ĠÐ·Ð»Ð¾":9547,"Ð¿Ð°ÑĤ":9548,"ĠÑĢÐ¾Ð´Ð°":9549,"lev":9550,"Ġbee":9551,"Ġbeings":9552,"Ġbending":9553,"Ð½Ð¸ÑģÑĤ":9554,"ĠÐ½Ð°ÑĪÐµÐ³Ð¾":9555,"Ð°Ð²ÑĪÐµÑİ":9556,"Ġerect":9557,"Ġgle":9558,"Ġgaily":9559,"Ġwash":9560,"ĠÐ¿Ð¾ÐµÑħÐ°Ð»Ð°":9561,"Ð¸Ð½ÑģÑĤÐ²Ð¾":9562,"Ð³Ð»Ð¸":9563,"icles":9564,"Ð°Ð½Ð½Ð¾Ð¹":9565,"ĠÑįÐ»ÐµÐ³Ð°Ð½ÑĤ":9566,"Ġreasons":9567,"ĠÐ¶Ð¸Ð»Ð¸":9568,"ĠÐ»Ð¸Ð»":9569,"Ð¸ÑĤÐ¾Ð³Ð¾":9570,"ÑĨÐ¸Ñı":9571,"Ð³Ð¾ÑĢÑıÑĩ":9572,"ĠÐ¾ÑĤÑĨÑĥ":9573,"alian":9574,"ĠÐĴÐµÑģÑĮ":9575,"ÑģÑĤÐ²Ð¸Ð¹":9576,"Ġstar":9577,"Ġstro":9578,"Ġstory":9579,"ĠÐĿÐ°ÐºÐ¾":9580,"adays":9581,"Ġras":9582,"Ġrings":9583,"Ġriver":9584,"Ð°ÑĤÐ°ÑĢ":9585,"urb":9586,"ĠÑħÐ¾Ð»":9587,"ĠÑħÐ¸ÑĤ":9588,"ĠÐ¾Ð±ÑıÐ·":9589,"ĠSnetkov":9590,"ĠLook":9591,"ĠÐ¿ÑĢÐ¸ÐµÐ´Ñĥ":9592,"ĠÐ¡Ð½ÐµÑĤ":9593,"ĠÐ²ÑģÐµÑİ":9594,"ĠKAREN":9595,"ĠÐ¿Ð¾Ð´ÑĢÐ°Ð·":9596,"Ġshar":9597,"ames":9598,"ĠÐ·Ð°ÑĪ":9599,"ĠÐ·Ð°ÑħÐ¾ÑĤ":9600,"Ð¾ÑģÐ¿Ð¾Ð´":9601,"anted":9602,"ÐµÑģÐµÐ»":9603,"ĠÐĶÐ¾":9604,"ĠÐĶÐµÐ²":9605,"ĠÐĶÐµÐ¹ÑģÑĤÐ²":9606,"ĠÑĢÐ°Ð·Ð½ÑĭÑħ":9607,"que":9608,"ĠÐŁÐ¾ÑĤ":9609,"ĠÐŁÐ¾Ðº":9610,"Ġexer":9611,"Ġneigh":9612,"ulting":9613,"acon":9614,"ĠÑģÐ¿Ð¸Ð½Ñĥ":9615,"ÐºÑĥÐ¿":9616,"ĠÐ¢Ð°Ð½Ñı":9617,"ÑĥÑĤÑģÑı":9618,"ĠÐ¿Ð¾Ð»Ð½ÑĭÐ¹":9619,"ĠÐ¿Ð¾Ð»Ð½Ð¾Ðµ":9620,"Ġintently":9621,"ĠMore":9622,"Ð¾ÑĩÐºÐ°":9623,"Ġworn":9624,"Ġven":9625,"ÐµÐ³Ñĩ":9626,"ouses":9627,"ĠAnother":9628,"Ġamid":9629,"Ġunim":9630,"Ġunited":9631,"Ġsmoot":9632,"ĠÐ¿ÑĢÐ¾ÑĨÐµÑģ":9633,"Ġagitated":9634,"ĠÐ¿ÑĢÐµÐ´Ð¾":9635,"ĠÐ¸Ð¼ÐµÐ²":9636,"Ġsees":9637,"Ġhandkerchief":9638,"Ð»ÑĭÑĪ":9639,"ĠÐ½Ð°Ð´ÐµÑİÑģÑĮ":9640,"ÑĢÐ¸Ð¿":9641,"ĠÐ´ÑĥÐ¼Ð°ÐµÑĤÐµ":9642,"ĠÐ¾ÑģÐ¼Ð¾ÑĤÑĢ":9643,"ĠÐ·Ð½Ð°Ðº":9644,"ĠÐ¿Ð¾ÐºÐ¾Ð¹":9645,"ÑĢÐµÐ¼Ñı":9646,"Ġyours":9647,"Ġdisli":9648,"Ġdisappe":9649,"ĠÐ¿Ð¾ÑģÐ»Ð°ÑĤÑĮ":9650,"ĠÐ¿Ð¾ÑģÐ»ÑĥÑĪ":9651,"Ġtroubles":9652,"Ġdownstairs":9653,"ĠÐ²ÐµÑĢÑĤ":9654,"Ġproved":9655,"Ð»Ð¸Ð²ÑĭÐ¼":9656,"ĠÑĦÑĢÐ°Ðº":9657,"Ġstrict":9658,"ĠÑĤÐµÐ¼Ð½Ð¾":9659,"ĠÐĳÑĢÐ°ÑĤ":9660,"ĠÐ¾ÑģÑĤÐ°ÐµÑĤÑģÑı":9661,"ĠÐ·Ð°Ð¼Ð¾Ð»":9662,"ÑĤÐµÑģÑĮ":9663,"ĠÐ¿Ð¾Ð»Ð¾Ð¶Ð¸Ð»Ð°":9664,"ĠÐ¿Ð¾Ð²ÐµÐ»":9665,"Ð¸Ð²ÑĪÐ¸Ð¼":9666,"ÑĭÑĪÐ»ÐµÐ½Ð½Ð¾":9667,"ĠÐ½Ð¾Ð²Ð¾Ñİ":9668,"Ġpartly":9669,"Ġremind":9670,"ĠÐ²ÐµÑģÐµÐ»ÑĮ":9671,"ĠÐ´Ð¾Ð¼Ð°ÑĪ":9672,"Ð½Ð¸ÐºÐ°Ð¼Ð¸":9673,"Ġprot":9674,"Ġhoping":9675,"Ġopening":9676,"ĠÐ¼Ð¸Ð½ÑĥÑĤÐ°":9677,"Ġthrow":9678,"Ġrelief":9679,"ĠÐ¿Ð¾Ð·Ð´Ð¾ÑĢÐ¾Ð²":9680,"atherine":9681,"ĠÐ¿ÑĢÐ¸Ð²Ð¾Ð´":9682,"Ð¾ÑĤÐ¸Ð²ÑĪÐ¸ÑģÑĮ":9683,"ĠÐºÑĢÐ°ÑģÐ°Ð²":9684,"ĠÐºÐ½ÑıÐ³Ð¸Ð½Ñİ":9685,"ĠÐ±Ð¾Ð»ÑĮÑĪÐ¸Ð¼":9686,"Ġfem":9687,"ĠÐ´Ð¾ÐºÐ°Ð·":9688,"Ġserve":9689,"ĠÐ¿ÑĢÐ¾Ð´Ð¾Ð»Ð¶Ð°ÑĤÑĮ":9690,"ĠÐ¿ÑĢÐ¾Ð´Ð¾Ð»Ð¶Ð°Ð»Ð¾ÑģÑĮ":9691,"Ġstock":9692,"ĠÑĥÐ·Ð½Ð°":9693,"ĠÑģÐ¸Ð»Ñĥ":9694,"Ġindign":9695,"ĠÐ½ÐµÐ¼ÐµÑĨ":9696,"igned":9697,"Ġaccident":9698,"ĠÐ³ÑĢÐ°ÑĦÐ¸Ð½Ñİ":9699,"Ġpaint":9700,"Ġdisting":9701,"ĠÐ´ÑĥÑĪÐ¾Ð¹":9702,"Ð°ÑİÑīÐ¸Ðµ":9703,"Ġwatering":9704,"Ġregular":9705,"ĠÐ¸ÑģÐºÐ°ÑĤÑĮ":9706,"ĠÐ¸ÑģÐºÐ»ÑİÑĩ":9707,"ĠÑĤÐµÐ¾ÑĢ":9708,"ĠÐ¿ÑĢÐ¾ÑĪÐ»Ð¸":9709,"Ġinterview":9710,"ĠÑģÐ¸Ð´ÐµÐ²":9711,"ĠÐ¼ÑĥÐ¶Ð¸ÐºÐ°Ð¼":9712,"ensive":9713,"ĠÑģÐµÐ¼ÑĮÐµ":9714,"ĠÑĤÑıÐ¶ÐµÑģÑĤÑĮ":9715,"ĠÐ·Ð½Ð°ÐºÐ¾Ð¼ÑĭÐ¹":9716,"ĠÑĥÐ´Ð¸Ð²Ð¸ÑĤÐµÐ»ÑĮÐ½Ð¾":9717,"ĠÐľÐ¸ÑħÐ°":9718,"ĠÐ¾ÑĤÐ´Ð°Ð»":9719,"ĠÐ¾ÑĤÐ´ÐµÐ»ÑĮ":9720,"ĠÐ´ÑĥÑĢÐ½Ð¾Ð³Ð¾":9721,"ĠÐŁÑĢÐµÐº":9722,"ĠÐ¿Ð¾Ð´Ð½ÑıÐ»Ð°ÑģÑĮ":9723,"Ġvelve":9724,"Ġinside":9725,"Ġinsisted":9726,"ĠÑĩÑĥÐ²ÑģÑĤÐ²ÑĥÐµÑĤ":9727,"ĠÐ¿ÑĢÐ¸Ð½ÑĨ":9728,"ĠÐ¿ÑĢÐ¾Ð¸Ð·Ð²ÐµÐ´":9729,"Ð°ÐµÑĪÑĮÑģÑı":9730,"ĠÐ²ÐµÑĩÐµÑĢÐ°":9731,"ĠÐ¿ÑĢÐµÐºÑĢÐ°ÑģÐ½Ð°Ñı":9732,"Ġcorn":9733,"Ġcorrid":9734,"Ġreceiving":9735,"iliation":9736,"ĠÐ½Ð°ÐºÐ°Ð·":9737,"ĠÐ¼Ð¸Ð»Ð»Ð¸":9738,"ÑİÑīÐ¸Ð¼":9739,"ĠÐ¼Ð°Ð»ÐµÐ½ÑĮÐºÐ¸Ð¹":9740,"Ġdriven":9741,"Ġsounds":9742,"ĠÐ±Ð°ÑĢÑħÐ°ÑĤ":9743,"ĠÑģÑĤÑĢÐ°ÑģÑĤÑĮ":9744,"ĠÑģÑĤÑĢÐ°Ð´Ð°Ð½Ð¸Ð¹":9745,"ĠÐ·Ð´Ð¾ÑĢÐ¾Ð²Ð°":9746,"ĠÐ¿Ð¾Ð²ÐµÑĢÐ¸ÑĪÑĮ":9747,"Ġhatred":9748,"ĠÐ¾ÑģÐºÐ¾ÑĢÐ±Ð»Ñı":9749,"ĠÑĩÐ°ÑģÑĤÐ¸":9750,"ĠÐ²ÐµÑģÑĮÐ¼Ð°":9751,"ĠÐ¼ÐµÑĢÑĭ":9752,"ĠÐ¼ÐµÑĢÑĤÐ²":9753,"ĠÐ¿Ð¾ÑģÑĤÐµÐ»Ð¸":9754,"ĠÐ¿Ð¾ÑģÑĤÑĭÐ´":9755,"ĠÐ¸Ð´Ð¸ÑĤÐµ":9756,"Ġhorrified":9757,"ĠÐ½ÐµÐ·Ð½Ð°ÐºÐ¾Ð¼":9758,"ĠÐ±Ð¾ÑıÐ»Ð°ÑģÑĮ":9759,"ĠÑģÐ¿ÑĢÐ°ÑĪÐ¸Ð²Ð°Ñı":9760,"Ġestabl":9761,"ĠÑĥÐ½Ð¸ÑĩÑĤÐ¾Ð¶":9762,"ÑįÑĤÐ¾":9763,"Ġprepar":9764,"ĠÑģÐ¾Ð¼Ð½ÐµÐ½Ð¸Ðµ":9765,"ĠÑĤÐµÐ»ÐµÐ¶":9766,"ĠÐĲÐ½Ð½ÑĥÑĪÐºÐ°":9767,"ĠÐŁÐµÑĤÐµÑĢÐ±ÑĥÑĢÐ³Ð°":9768,"ĠÐ¿ÑĢÐ¸ÑĩÐ¸Ð½Ñĭ":9769,"ĠÐ¿ÑĢÐ¸ÑĩÐ¸Ð½Ð¾Ð¹":9770,"ĠÐ»Ð°ÐºÐµÑİ":9771,"Ġunpleasantness":9772,"ĠÐ½Ð°Ð¿ÑĢÐ°Ð²Ð»ÐµÐ½Ð¸Ðµ":9773,"ĠÐ²Ð¸Ð½Ð¾Ð²Ð°ÑĤÑĭÐ¼":9774,"ĠÐ²ÑħÐ¾Ð´Ð¸Ð»":9775,"Ġoccupations":9776,"Ġabsor":9777,"Ġabsurd":9778,"Ġexisted":9779,"Ġnamely":9780,"ĠÐ¿ÑĢÐ¾ÑĩÐ»Ð°":9781,"ĠÑģÑĢÐµÐ´Ð¸":9782,"Ġsignific":9783,"ĠÑĥÐ´ÐµÑĢÐ¶Ð¸Ð²Ð°Ñı":9784,"Ġconcerning":9785,"Ġembr":9786,"ĠÐ²Ð¾Ð·Ð²ÑĭÑĪ":9787,"Ġdrinking":9788,"Ġperform":9789,"ĠÐºÑĢÐ°ÑģÐ¸Ð²Ð¾Ðµ":9790,"ĠÐĺÐ·Ð²Ð¸":9791,"ĠÐ¼Ð¾Ð»ÑĩÐ°Ð½Ð¸Ðµ":9792,"Ġdoubts":9793,"ĠÐ¾ÑĤÑĩÐ°ÑıÐ½Ð¸Ñı":9794,"ĠXVIII":9795,"ÐĲÑħ":9796,"Ð¾Ð¹ÑĤÐ¸ÑģÑĮ":9797,"ĠÐ¿ÑĢÐ¸Ð½ÑıÐ»ÑģÑı":9798,"Nothing":9799,"ĠÑĥÑģÐ»ÑĭÑħÐ°Ð»Ð°":9800,"ENT":9801,"ĠÐ´ÑĢÑĥÐ¶ÐµÐ»ÑİÐ±":9802,"ĠÐ¿Ð¾ÑĨÐµÐ»Ð¾Ð²Ð°Ð»Ð°":9803,"ĠÐ·Ð°Ð»Ñĭ":9804,"ĠÐ½ÐµÐ±Ð¾":9805,"ĠÐ±Ð»Ð°Ð³Ð¾ÑģÐ»Ð¾Ð²":9806,"ĠÐ¾Ð±Ð»ÐµÐ³Ñĩ":9807,"Ġfalsehood":9808,"ĠÐ·Ð°Ð±ÑĭÐ»Ð°":9809,"ĠÐ¼Ð¸ÑĢÐµ":9810,"Ġsmoke":9811,"Ġresolutely":9812,"ĠÐ¿Ð¾ÐºÐ°Ð·Ð°Ð»Ð°ÑģÑĮ":9813,"Ġcheerfully":9814,"Ġintellect":9815,"Ġdemanded":9816,"Ġconclusion":9817,"ÑĤÐ¾Ð»Ðº":9818,"ĠÐ¿Ð¾Ð½ÑĢÐ°Ð²Ð¸Ð»Ð°ÑģÑĮ":9819,"ustomed":9820,"Ġvalu":9821,"ĠÐ¶ÐµÐ»ÐµÐ·Ð½Ð¾Ð¹":9822,"ĠÐ½Ð°ÑħÐ¼ÑĥÑĢÐ¸Ð»ÑģÑı":9823,"Ġcigar":9824,"ĠÐ¾ÑĤÐ»Ð¸ÑĩÐ½Ð¾":9825,"ĠÐ¿Ð¾Ð»ÑİÐ±Ð¸Ð»Ð°":9826,"ĠÐ½ÐµÐ¾Ð±ÑħÐ¾Ð´Ð¸Ð¼Ð¾ÑģÑĤÑĮ":9827,"ĠÐ²Ð¾ÑĪÐ»Ð¸":9828,"ĠÐ²Ð»Ð¸ÑıÐ½Ð¸Ðµ":9829,"Ġcentre":9830,"ĠÑģÐ²Ð¸Ð´Ð°Ð½Ð¸Ñı":9831,"Ġproperty":9832,"ĠÐ¿Ð¾Ð¼Ð¾Ð»ÑĩÐ°Ð²":9833,"ĠÑĢÐ°ÑģÑģÐºÐ°Ð·Ð°Ð»Ð°":9834,"Ġnoblemen":9835,"ĠÑħÐ¾ÑĢÐ¾ÑĪÐµÐ½ÑĮÐºÐ¾":9836,"Ġincreased":9837,"ĠÑĪÐºÐ¾Ð»Ñĭ":9838,"Ġenergy":9839,"Ġreconciliation":9840,"ĠÑģÑĬÐµÐ·Ð´":9841,"Ġmember":9842,"Ġmembers":9843,"Ġenvy":9844,"Ġrepulsion":9845,"Ġrepulsive":9846,"ĠÐ³ÑĢÑĥÑģÑĤÐ½Ð¾":9847,"ĠÐ¿Ð¾ÑĩÑĤÐ¸ÑĤÐµÐ»ÑĮÐ½Ð¾":9848,"ĠÐ¿Ð»Ð¾ÑħÐ¾":9849,"Ġgloomily":9850,"ĠÑĦÐ¾ÑĢÐ¼Ñĭ":9851,"ĠÐ¿ÑĢÐ¾ÑģÐ¸ÑıÐ»Ð¾":9852,"ĠÐ¿Ð¾Ð´ÑĤÐ²ÐµÑĢÐ´Ð¸Ð»":9853,"Ġdignity":9854,"Ġcelebrated":9855,"Ġelbow":9856,"Ġsimplic":9857,"Ġmushrooms":9858,"ĠÐ¸Ð½Ð¾ÑĢÐ¾Ð´":9859,"Ġelegant":9860,"Ġdebts":9861,"Ġsuspicions":9862,"ĠÐ¶Ð¸Ð²Ð¾Ð¿Ð¸Ñģ":9863,"ĠÐļÑĥÐ·ÑĮÐ¼Ð°":9864,"Ġnumber":9865,"ĠÐ§ÑĤÐ¾Ð±Ñĭ":9866,"Ġdistinctly":9867,"Ġlofty":9868,"Excuse":9869,"Ġempty":9870,"Ġgrateful":9871,"Ġperceptible":9872,"ĠÐ¿Ð¾ÑģÐ»Ð°Ð½Ð½Ð¸ÐºÐ°":9873,"Ġinnocent":9874,"Ġwondered":9875,"ĠÐĴÑĩÐµÑĢÐ°":9876,"ĠÐĽÑĥÐºÐ¸Ñĩ":9877,"ĠÐ¿Ð¾Ð»ÑĩÐ°ÑģÐ°":9878,"ĠGeneral":9879,"Ġeyebrows":9880,"course":9881,"ĠÐĿÐ°ÐºÐ¾Ð½ÐµÑĨ":9882,"ĠÐ¡Ð½ÐµÑĤÐºÐ¾Ð²":9883,"ĠKARENIN":9884,"ĠÐĶÐµÐ¹ÑģÑĤÐ²Ð¸ÑĤÐµÐ»ÑĮÐ½Ð¾":9885,"Ġdisliked":9886,"Ġcorridor":9887,"!...'":9888,"AL":9889,"Al":9890,"St":9891,"ael":9892,"bag":9893,"cer":9894,"chen":9895,"dom":9896,"gan":9897,"has":9898,"hand":9899,"house":9900,"iet":9901,"iev":9902,"of":9903,"oak":9904,"time":9905,"woman":9906,"Ġic":9907,"Ð°Ð¸Ð¼":9908,"ÑĤÐ°ÑĤ":9909,"Ð½ÐµÑĤÑģÑı":9910,"ÑĢÐµÐ¿":9911,"ÑĢÐ¾Ð·":9912,"Ġty":9913,"Ġtail":9914,"hetic":9915,"inated":9916,"ÑĮÐµÑĢ":9917,"ĠÑģÐ°Ð¶":9918,"ĠÑģÐ¾ÑĪ":9919,"ĠÑģÐ¾ÑĪÐµÐ»":9920,"ĠÑģÐ½Ð¾ÑĪ":9921,"ĠÐ½ÐµÐ·Ð´":9922,"ĠÐ²Ñĥ":9923,"ĠÐ²ÐµÑģÑĤÐ¸":9924,"ĠÐ²Ð¾Ð¹ÑĤÐ¸":9925,"resh":9926,"Ġoyst":9927,"Ð´Ð°ÑĤ":9928,"Ġbowing":9929,"Ġbald":9930,"ĠÐºÐ°Ð½":9931,"ĠÐºÐ°Ð´":9932,"ĠÐºÐ°ÑĪ":9933,"Ð¾Ð²ÑĭÐ¹":9934,"ÐµÐ½Ðµ":9935,"ÐµÐ½Ñĥ":9936,"ÐµÐ½ÐµÐ±":9937,"oness":9938,"Ġcere":9939,"Ġcous":9940,"Ġcrying":9941,"Ġcards":9942,"Ġfight":9943,"Ġflying":9944,"ĠÐ´Ð¸":9945,"Ġdance":9946,"Ġdancing":9947,"ĠÑĤÐµÐ»Ð°":9948,"ĠÑĤÐ°ÑĤÐ°ÑĢ":9949,"Ġnone":9950,"Ġnerv":9951,"Ġlot":9952,"Ġlil":9953,"Ġpowers":9954,"ĠÐ¿ÑĢÐµÐ½ÐµÐ±":9955,"anch":9956,"Ġinj":9957,"Ð¸Ð»Ð¸Ð¼":9958,"Ð¾Ð»ÐµÐ·":9959,"ĠÐ·Ð¾Ð½":9960,"ĠÐ·ÑĢÐµÐ½Ð¸Ñı":9961,"ÐµÑĤÐ¸":9962,"ĠÑĢÐ°Ð½":9963,"Ð¾ÑĢÐ¸Ð·":9964,"ĠÐ½Ð°ÑģÑĤÐ°":9965,"Ð¸Ð½ÑĥÐ²":9966,"ication":9967,"Ġreach":9968,"Ġyard":9969,"ĠÐ¶ÑĥÑĢ":9970,".....":9971,"ĠÐ»Ð¶Ð¸":9972,"Ð¸ÑĤÑĭÐ¹":9973,"ĠÑģÐºÐ°Ðº":9974,"ĠÑģÐºÐ²Ð¾Ð·ÑĮ":9975,"ĠÑĤÐ¾Ð½Ñĥ":9976,"ĠÐ¾ÑĤÑģÑĤÑĢÐ°Ð½":9977,"ĠÐ¾ÑĤÐºÑĥÐ´Ð°":9978,"Ð¾Ð¶Ð¸Ð²":9979,"ÑģÑĤÐ²Ð¾Ð²":9980,"ÐµÐºÑĤ":9981,"Ġfort":9982,"Ġrise":9983,"ĠÐ²ÑĭÐ²Ð¾Ð´":9984,"ĠÐ²ÑĭÐ³Ð¾Ð²Ð°ÑĢ":9985,"Ð»Ð¸Ðº":9986,"Ð»ÑıÐ½":9987,"ĠÐļÐ°Ð¿":9988,"ĠSp":9989,"ĠSec":9990,"ĠLuk":9991,"ĠHIS":9992,"rop":9993,"illor":9994,"ichael":9995,"ĠÐ¿Ð¾Ð´Ð°ÑĢ":9996,"ĠÐ¿Ð¾Ð´Ð²Ð¸Ð½Ñĥ":9997,"Ġshot":9998,"Ġshudd":9999,"Ð¸ÐºÐµ":10000,"Ð¸ÐºÐ°":10001,"amber":10002,"ĠÐ·Ð°ÑĪÐµÐ»":10003,"anting":10004,"ĠÑĢÐ°Ð·Ð³Ð¾ÑĢÑıÑĩ":10005,"ĠTheir":10006,"iling":10007,"ĠVarya":10008,"ĠÐŁÐ¸Ð»":10009,"ÐµÑĪÐ¸ÑĤÐµÐ»ÑĮÐ½Ð¾":10010,"Ġnecess":10011,"ĠÐ³Ð¾ÑģÑĤÑĮ":10012,"ĠÐ°Ð»":10013,"ĠÐ³Ð¾Ð²Ð¾ÑĢÐ¸Ð»Ð¾ÑģÑĮ":10014,"ĠBoth":10015,"ĠÐ¿ÐµÑĢÐµÐ³Ð¾ÑĢÐ¾Ð´":10016,"Ġjolly":10017,"ĠÐ»Ð¸Ð±ÐµÑĢ":10018,"ĠÐ¢ÐµÐ±":10019,"ĠÐ¢Ð¾Ð³Ð´Ð°":10020,"ĠÐ¢Ð¾ÑĩÐ½Ð¾":10021,"ĠÐ¾Ð´ÐµÑı":10022,"ĠÐ¾Ð´Ð¾Ð±ÑĢ":10023,"ÐµÐ½Ð¸ÑıÐ¼Ð¸":10024,"ĠÐľÐ¸ÑĤ":10025,"itect":10026,"ĠÑĪÐ»Ð¸":10027,"ĠÑĪÐ°Ð¼Ð¿":10028,"arty":10029,"eless":10030,"ĠÑģÐ°Ð¼ÑĭÐ¼Ð¸":10031,"Ġleaves":10032,"ĠÐ²Ð·ÑıÑĤ":10033,"ĠÐ²Ð·Ð°Ð¸Ð¼":10034,"ĠÑģÑĤÐ¾Ð¸Ð»Ð¾":10035,"Ġnoise":10036,"Ġnobles":10037,"Ġunlike":10038,"Ġunjust":10039,"Ġunknown":10040,"Ġuniversity":10041,"ĠDe":10042,"orted":10043,"ĠÐ»ÑİÐ±Ð¸Ð»Ð¸":10044,"ĠÐ»ÑİÐ±Ð¾Ð¿ÑĭÑĤ":10045,"ĠÐ¸Ð¼ÐµÐ»Ð¾":10046,"ĠÐ³Ð»Ð°Ð´":10047,"ĠÑģÐ¼Ð¸ÑĢ":10048,"Ġseed":10049,"Ġseizing":10050,"Ġanybody":10051,"Ġtheirs":10052,"ĠÐ¾ÑģÐ¼":10053,"pless":10054,"ĠÑĢÐ°ÑģÑĩÐµÑĤ":10055,"dding":10056,"Ġplacing":10057,"ĠKarenins":10058,"ĠÐ¿Ð¾ÑģÐ»Ð°Ð»Ð°":10059,"Ġglove":10060,"ĠÑģÑĤÐ°ÑĢÐ¾Ð³Ð¾":10061,"ĠÐ½Ð¸ÑĩÑĤÐ¾":10062,"ĠÐ´Ð¾ÑģÐº":10063,"ĠÐ§ÐµÑĢÐµÐ·":10064,"Ġsomehow":10065,"Ġconsent":10066,"ĠItalian":10067,"Ġovert":10068,"ĠÑĥÐ´Ð°Ð»":10069,"ĠÐ²ÐµÑĢÐ½ÑĥÑĤÑĮÑģÑı":10070,"Ġusually":10071,"ĠÐ²Ð¾ÑģÐº":10072,"Ġclim":10073,"Ġclock":10074,"Ġspeed":10075,"ĠÐ±Ð¾Ð»Ð¾ÑĤÐ¾":10076,"ĠÑģÐ¾Ð±Ð°ÐºÐ¸":10077,"ĠÐ¾ÑģÑĤÐ°Ð»Ð°ÑģÑĮ":10078,"ÐµÑĤÐµÑģÑĮ":10079,"ĠÐ²Ð·Ð³Ð»ÑıÐ½ÑĥÑĤÑĮ":10080,"ĠÐ¿Ð¾Ð»Ð¾Ð¶Ð¸Ð¼":10081,"Ġgoodness":10082,"mber":10083,"Ð¸Ð²ÑĪÐ¸ÐµÑģÑı":10084,"ĠÐ½ÐµÐ²Ð¸Ð´":10085,"udin":10086,"Ð»ÐµÐ½Ð½Ð°Ñı":10087,"ĠÐ±ÐµÐ·Ð½":10088,"nez":10089,"Ġnevertheless":10090,"Ġprice":10091,"ĠÐºÐ¾Ð¼Ð¸ÑĤ":10092,"Ġhopes":10093,"azz":10094,"Ġthrust":10095,"ÑĤÐ¾ÑıÑīÐµÐµ":10096,"ĠÐ²ÑĭÑĢÐ°Ð¶ÐµÐ½Ð¸Ñİ":10097,"ĠÐ²Ð¾Ð¿ÑĢÐ¾ÑģÐ¾Ð²":10098,"ozd":10099,"Ġscr":10100,"ĠÐ¿ÐµÑĢÐ²Ð¾Ð³Ð¾":10101,"ĠÐ¿ÐµÑĢÐ²Ð°Ñı":10102,"ĠÐ´ÐµÑĤÑıÐ¼":10103,"ĠÑĢÐ°Ð·Ð²Ð¸ÑĤÐ¸":10104,"ÑĢÑĭÐ³":10105,"ĠÐ´ÐµÐ»Ð°Ñİ":10106,"ĠÐºÐ½ÑıÐ³Ð¸Ð½ÐµÐ¹":10107,"ĠÐ·Ð°Ð²ÐµÐ´":10108,"ĠÐ·Ð°Ð²ÑĤÑĢÐ°Ðº":10109,"ĠÐ±Ð¾Ð»ÑĮÑĪÐ¾Ð³Ð¾":10110,"Ġserf":10111,"ĠÐ¼Ð¾Ð¸Ñħ":10112,"ĠÐºÐ°ÑĢÐ¼Ð°Ð½":10113,"Ġyounger":10114,"ĠÐ³Ð»ÑıÐ´ÐµÐ»":10115,"Ġourselves":10116,"ĠÑģÐµÑĢÐ´Ð¸Ð»ÑģÑı":10117,"ĠÐ½ÐµÐ¼Ð½Ð¾Ð¶":10118,"ĠÐ½Ð°ÑģÑĤÐ¾":10119,"ĠÑĥÐ±Ð¾ÑĢ":10120,"ĠÐ²ÑĭÑģÑĪÐµÐ¹":10121,"ikov":10122,"Ġactions":10123,"ĠÐ¶Ð¸Ð²Ñĥ":10124,"ĠÐ¿Ð¾ÑģÐ»ÐµÐ´Ð½ÑİÑİ":10125,"Ġsli":10126,"ĠÐ²Ð·Ð³Ð»ÑıÐ´ÑĭÐ²Ð°Ñı":10127,"ĠXXII":10128,"ĠXXIII":10129,"ĠÐ¸Ð½ÑĤÐµÑĢÐµÑģÐ¾Ð²Ð°Ð»Ð¾":10130,"retched":10131,"Ġcontinuing":10132,"ĠÐ¿ÑĢÐ¸ÑıÑĤÐ½Ð¾Ðµ":10133,"ĠÐ¿ÑĢÐ¾ÑĪÐ»Ð°":10134,"ĠÐºÐ¾Ð½ÑĤÐ¾ÑĢ":10135,"ĠÐºÐ¾Ð½ÑĦ":10136,"ĠÐºÐ¾Ð½ÑĨÐ°":10137,"ĠÐ´ÐµÑĢÐµÐ²Ð½Ð¸":10138,"Ġsoup":10139,"Ġsooner":10140,"jected":10141,"ÐµÑģÑĤÐ¾Ð»ÑİÐ±":10142,"ĠÐ·Ð°ÑĤÐ²Ð¾ÑĢ":10143,"Ġinform":10144,"ÑıÐ³Ð¸Ð²":10145,"ĠÑĥÑĩÑĤÐ¸Ð²":10146,"Ġrepeat":10147,"ĠÐ´Ð²Ð¸Ð¶ÐµÐ½Ð¸Ð¹":10148,"ĠÐ¿ÑĢÐ¾Ð¸Ð·Ð¾ÑĪÐ»Ð¾":10149,"ĠÐ¡ÐµÑĢÐµÐ¶Ð¸":10150,"Ġdefect":10151,"ĠÐ¿ÑĢÐµÐºÑĢÐ°ÑģÐ½ÑĭÐµ":10152,"Ġhumm":10153,"ĠÐ¼Ð½ÐµÐ½Ð¸Ñİ":10154,"ĠÐ¤Ð¸Ð»Ð¸Ð¼":10155,"ĠÐ½Ð°ÑĪÐ°":10156,"ĠÐ¿Ð°ÑĢÑĤÐ¸Ñı":10157,"Ġstraw":10158,"ĠÐ¿Ð¾Ð±ÐµÐ¶Ð°Ð»":10159,"ĠÐ²Ð°ÑĪÐ°":10160,"ĠÐ±Ð°ÑĢÑĭÑĪ":10161,"Ġriding":10162,"ĠÑģÑĤÑĢÐ°ÑĪÐ½Ð¾Ðµ":10163,"ĠÐ¸Ð³ÑĢÐ°":10164,"ĠÑĤÐ¾Ð½ÐºÐ¾":10165,"ĠÐ¾Ð±ÑīÐµÐ¼":10166,"Ġadvised":10167,"ĠÑģÐµÑģÑĤÑĢÑĥ":10168,"ĠÑģÐµÑģÑĤÑĢÐµ":10169,"ĠÐ¾ÑģÐºÐ¾ÑĢÐ±Ð¸ÑĤÑĮ":10170,"ĠÑĩÐ°ÑģÑĤ":10171,"Ġrespected":10172,"ĠÐ½ÐµÐ¶Ð½Ð¾":10173,"ĠÐ½ÐµÐ¶Ð½Ð¾ÑģÑĤÑĮ":10174,"ĠÐ¿Ð¸ÑģÐ°Ð»Ð°":10175,"ÑģÑĤÐ²ÑĥÐ¹":10176,"ĠÐ¿ÑĢÐ¸ÑĩÐ¸Ð½Ñĥ":10177,"Ġpathetic":10178,"ĠÐ²ÑħÐ¾Ð´Ñı":10179,"ĠÑĤÑĭÑģÑıÑĩÑĥ":10180,"Ġabsent":10181,"Ġabsol":10182,"ĠÐ´ÐµÑģÑıÑĤÐ¸":10183,"Ġstaying":10184,"Ð¾Ð¶Ð´ÐµÐ½Ð¸Ñı":10185,"Ġpretence":10186,"ÑĥÑİÑīÐ¸Ð¹":10187,"Ġunconscious":10188,"ĠÑĤÑĢÐµÐ±Ð¾Ð²Ð°Ð½Ð¸Ñı":10189,"Ġsigns":10190,"Ġsignificant":10191,"ĠÑģÐ´ÐµÐ»Ð°Ð½Ð¾":10192,"ĠÐ²Ð¾Ð·Ð²ÑĢÐ°ÑĤ":10193,"Ġanimal":10194,"ĠÑģÐ±Ð»Ð¸Ð¶":10195,"Ġirritable":10196,"ĠÐ³ÑĥÐ±ÐµÑĢÐ½Ð¸Ð¸":10197,"ĠÐ¿Ð¾ÑģÑĤÑĥÐ¿Ð¸Ð»":10198,"Ġruined":10199,"Ġremaining":10200,"ĠÐ¾Ð¶Ð¸Ð²Ð»ÐµÐ½Ð½Ð¾":10201,"ĠÐ»Ð¾Ð¶ÑĮ":10202,"ĠÐ¾ÑģÑĤÐ°Ð½ÐµÑĤÑģÑı":10203,"ART":10204,"Ġcrossing":10205,"ĠÐ½Ð°Ð¿Ð¸ÑģÐ°ÑĤÑĮ":10206,"ĠÐ½Ð°Ð¿Ð¸ÑģÐ°Ð»Ð°":10207,"ĠÐ¾ÑĤÐºÐ°Ð·Ð°Ð»Ð°":10208,"ĠÐ¡ÐºÐ¾ÑĢÐ¾":10209,"ĠÐĲÑĢÐºÐ°Ð´ÑĮÐµÐ²Ð½Ðµ":10210,"ĠÐ¼Ð¾ÑĢÑī":10211,"ĠÑĥÐ²Ð°Ð¶ÐµÐ½Ð¸Ðµ":10212,"ĠÑĤÑĢÐ°Ð²Ñĭ":10213,"Ġglasses":10214,"ĠÐ¾Ð·Ð»Ð¾Ð±":10215,"Ġdevil":10216,"ĠÐºÑĢÑĭÐ»ÑĮÑĨÐ¾":10217,"Ġrecollected":10218,"ĠÑĥÐµÑħÐ°Ð»Ð¸":10219,"Ġcomplicated":10220,"ĠÐŁÐµÑĤÑĢÐ¾Ð²Ð½Ð°":10221,"Ġdiscussing":10222,"Ġdiscussion":10223,"Ġgrieved":10224,"ĠÐ»ÐµÑģÑĤÐ½Ð¸ÑĨÑĥ":10225,"Ġstream":10226,"ĠÑģÑĤÑĢÐ¾Ð³Ð¾Ðµ":10227,"Ġhastened":10228,"ĠÑĪÐ²ÐµÐ¹ÑĨÐ°ÑĢÐ°":10229,"ĠÐºÑĢÐµÑģÐ»Ð°":10230,"Ġthreat":10231,"ĠÐ¿ÑĢÐµÐ´ÑģÐµÐ´":10232,"ÑĤÐµÐ»ÑĮÐ½Ð¾":10233,"ĠÐĿÐ¸ÑģÐºÐ¾Ð»ÑĮÐºÐ¾":10234,"ĠÐŁÑĢÐ°Ð²Ð¾":10235,"Ġsensation":10236,"ĠÐ¿Ð¾Ð´ÑĤÐ²ÐµÑĢÐ¶Ð´":10237,"Ġspoilt":10238,"ĠBaroness":10239,"Ġpurposely":10240,"ĠÐ½ÐµÐºÐ¾Ð³Ð´Ð°":10241,"Ġbirch":10242,"ĠÐ·Ð¸Ð¼Ñĥ":10243,"ĠÐ»ÑĥÐ³Ð°":10244,"ĠÐ¸ÑģÐºÑĢÐµÐ½":10245,"Ġweeks":10246,"ĠÐ´Ð¾Ð±ÑĢÐ¾Ð´ÑĥÑĪÐ½Ð¾":10247,"Ð°ÑĢÐ¾Ð½ÐµÑģ":10248,"ĠÐ¾Ð¿ÑĢÐ°Ð²Ð´ÑĭÐ²":10249,"Ġchoice":10250,"ĠÐ¿Ð¾ÑĢÑıÐ´Ð¾Ñĩ":10251,"Ġincreasing":10252,"Ġtightly":10253,"Ġaccepted":10254,"Ġcheek":10255,"Ġgreeted":10256,"Ġobtained":10257,"ĠÐ´ÑĥÑĪÐµÐ²Ð½Ð¾Ðµ":10258,"Ġironical":10259,"ĠÐ´Ð¾Ð¶Ð¸Ð´Ð°ÑıÑģÑĮ":10260,"ĠÐ·ÐµÑĢÐºÐ°Ð»Ð¾":10261,"ĠANNA":10262,"ĠÐ¢Ð²ÐµÑĢÑģÐºÐ¾Ð¹":10263,"Ġbuilding":10264,"ĠÐ¿ÑĩÐµÐ»":10265,"Ġmeasures":10266,"ĠÐŁÐ¾Ð»Ð¾Ð¶Ð¸Ð¼":10267,"ĠÐ½Ð°Ð´ÐµÑıÐ»ÑģÑı":10268,"ĠÐĽÑĮÐ²Ð¾Ð²":10269,"Ġseven":10270,"ĠÐ¾ÑīÑĥÑī":10271,"ĠÑĤÑĢÑıÑģ":10272,"ĠÐ¿ÐµÑĢÐµÑĪÐµÐ»":10273,"ĠÑģÑĤÐ¾Ð»Ð¾Ð²ÑĥÑİ":10274,"ĠÑģÐ¾ÐµÐ´Ð¸Ð½Ð¸":10275,"Ġdeprived":10276,"ĠÐĵÑĢÐ¸ÑĪÐ°":10277,"Ġsunshine":10278,"ĠÐĽÐ¸Ð·Ð°Ð²ÐµÑĤÐ°":10279,"Ġaccompan":10280,"ĠÐ¡ÑĤÑĢÐµÐ¼Ð¾Ð²":10281,"ĠÐ²Ð¾Ð²ÑģÐµ":10282,"ĠMrs":10283,"Ġproblem":10284,"ĠÐ£Ð¶Ð°ÑģÐ½Ð¾":10285,"ĠÑĤÑĢÐ¸Ð´ÑĨÐ°ÑĤÑĮ":10286,"ĠÑĥÑĤÐ²ÐµÑĢÐ´":10287,"ĠÑĩÐµÐ»Ð¾Ð²ÐµÑĩÐµÑģÐº":10288,"Ġindicating":10289,"ĠÐ¿Ð»Ð°ÑĤÑĦÐ¾ÑĢÐ¼":10290,"ĠÐ²ÑĭÑĢÐ²":10291,"Ġrisen":10292,"Ġbridge":10293,"Ġaccomplished":10294,"ĠÑģÐ¾ÑģÑĤÐ¾Ð¸ÑĤ":10295,"occup":10296,"portant":10297,"Ġhospital":10298,"ĠÐºÐ¾Ð½ÑİÑĪ":10299,"Ġdegree":10300,"Ġphrase":10301,"ĠProvincial":10302,"ĠÐ½ÐµÐ¾ÑħÐ¾ÑĤÐ½Ð¾":10303,"Ġbehaved":10304,"Ġarchitect":10305,"Ġcloser":10306,"ĠÐ¾ÑĤÐ¾ÑĢÐ²":10307,"Ġneighbour":10308,"Ġunimportant":10309,"Ġlilac":10310,"ĠÐ¿ÑĢÐµÐ½ÐµÐ±ÑĢ":10311,"ĠLukich":10312,"ĠÑĪÐ°Ð¼Ð¿Ð°Ð½":10313,"ĠÐ¤Ð¸Ð»Ð¸Ð¼Ð¾Ð½Ð¾Ð²":10314,".,":10315,"AV":10316,"After":10317,"EE":10318,"GH":10319,"ME":10320,"aith":10321,"aff":10322,"bred":10323,"do":10324,"fer":10325,"groom":10326,"iod":10327,"liness":10328,"mar":10329,"no":10330,"rim":10331,"rak":10332,"rated":10333,"uyev":10334,"wh":10335,"ye":10336,"Ġ-":10337,"ÐµÑıÑĤÑĮÑģÑı":10338,"Ð¸Ð½Ð¾":10339,"Ð¸Ð¾Ð½":10340,"Ð¸ÑĨÑĥ":10341,"Ð½ÐµÐ½Ð¸Ð¸":10342,"Ð»ÐµÐ¼":10343,"Ð»Ð¾Ð³":10344,"Ġtie":10345,"Ġtips":10346,"Ġast":10347,"initeness":10348,"ÑĭÐ¶":10349,"Ġwise":10350,"Ġsar":10351,"ĠÐ¿Ð¸Ð»":10352,"ĠÐ¿Ð°Ð»Ð°":10353,"ĠÐ¿ÑĥÐ±":10354,"ĠÐ²ÑĤ":10355,"ĠÐ²ÑĢÐ¾Ð´Ðµ":10356,"Ġhated":10357,"Ġtheory":10358,"rel":10359,"rent":10360,"Ð´Ð°Ð»":10361,"Ð´ÑĪ":10362,"iture":10363,"itive":10364,"itched":10365,"itably":10366,"Ġbod":10367,"atul":10368,"Ġheat":10369,"ĠÐºÐ°Ð²Ð°Ð»":10370,"Ġtoy":10371,"ÑĪÐ¾Ð¹":10372,"ÑĪÐºÐ¸":10373,"Ġcow":10374,"Ġcool":10375,"Ġfit":10376,"ĠÐ±Ð¾Ð¹":10377,"ĠÐ±ÐµÐ»ÑĮ":10378,"ĠÐ±ÑĢÐ¾ÑĪ":10379,"Ġmaz":10380,"ĠÑĩÐ°Ñı":10381,"ĠÑĩÐ°ÐµÐ¼":10382,"ĠÑĩÑĥÐ»":10383,"enced":10384,"Ġthor":10385,"Ġthreshing":10386,"Ġdom":10387,"ĠÑĤÐµÐ½ÑĮ":10388,"ĠÑĤÐ¾Ð¿":10389,"ÐµÑĢÐµÐ±":10390,"ĠÐ½ÐµÐ¾Ð´":10391,"ĠÐ¼Ð¾Ð»ÑĮ":10392,"Ġlines":10393,"orms":10394,"ĠÐ¿ÑĢÐµÑģ":10395,"Ð¸Ð»ÑĮÑı":10396,"Ð°ÐºÑĤ":10397,"ĠÑĥÑģÑĤÐ°Ð²":10398,"ĠÑĥÐ³Ð¾Ð²Ð¾ÑĢ":10399,"ĠÑĥÑĪÐ»Ð°":10400,"ĠÐ·ÑıÑĤ":10401,"ĠÐ·Ð°Ð³Ð¾":10402,"ĠÐ·ÐµÐ»ÐµÐ½":10403,"ÐµÑĤÐºÐ¸":10404,"ĠÑĢÐ¾Ñģ":10405,"idel":10406,"Ð½Ð¸Ð½":10407,"Ð¾Ð´Ð¾Ð²":10408,"Ð¾Ð´Ð¾Ð¹":10409,"Ð¾ÑĢÐºÑĥ":10410,"ĠÐ½Ð°ÑĥÑĩ":10411,"ĠÐ½Ð°ÑģÐºÐ¾Ð»ÑĮÐºÐ¾":10412,"Ð¸Ð½Ð¾Ð¼":10413,"Ð¸Ð½Ð¾Ðº":10414,"Ð¸Ð½Ð°Ð¼Ð¸":10415,"ÑģÐºÐ¾Ñİ":10416,"ĠÐ¶Ð°Ð»ÑĮ":10417,"Ġsauce":10418,"ÐµÐ²Ð¾":10419,"ÐµÐ²Ð°Ð»":10420,"ĠÐ»ÑĮ":10421,"Ð¸Ð²Ð°Ð»Ð°ÑģÑĮ":10422,"Ð¸ÑĤÐ°":10423,"Ð¸ÑĤÑĭÐ¼":10424,"ÑĨÑĥÐ¶":10425,"ÑĨÐ²ÐµÑĤ":10426,"ÑĨÐ¸Ñİ":10427,"ĠÐ¾ÑĤÐ´Ð°":10428,"ĠÐ¾ÑĤÑĨÐ¾Ð¼":10429,"Ð°ÑģÑģ":10430,"alova":10431,"ĠÐĴÑģ":10432,"ĠÐĴÐ¸Ð½Ð¾Ð²":10433,"ÐµÐºÑĤÐ¾ÑĢ":10434,"ĠÐŀÐ½Ð¾":10435,"Ġstick":10436,"Ġstuck":10437,"ĠÐºÐ°ÐºÐ¾Ð¼":10438,"ĠÐĿÐ°ÑĢ":10439,"Ġroused":10440,"Ġrye":10441,"ĠÑģÐ²ÐµÐ´":10442,"ĠÐ²ÑĭÑģÑĤÑĢÐµÐ»":10443,"ĠÑħÐ²Ð°ÑĤ":10444,"ĠÐ¾Ð±Ð»Ð°":10445,"ĠST":10446,"ĠSince":10447,"ĠÑģÑĤÐ°Ðº":10448,"ĠÑģÑĤÑĢÐ¾":10449,"chn":10450,"rier":10451,"right":10452,"ĠÐ¡Ð°ÑĦ":10453,"ĠÐ¡ÐµÐ¹ÑĩÐ°Ñģ":10454,"Ġmel":10455,"ÐµÐ·ÑĤÐ¸":10456,"ĠÐ¿Ð¾Ð´Ð°ÑĤÑĮ":10457,"ĠÐ¿Ð¾Ð´Ð¾ÑĪ":10458,"ĠÐ¿Ð¾Ð´ÑģÑĤÐ°Ð²":10459,"ĠÑĤÐ°ÐºÑĥÑİ":10460,"ĠÑĤÐ°ÐºÐ¸Ð¼Ð¸":10461,"ĠÐ·Ð°ÑħÐ²Ð°ÑĤ":10462,"ĠÐ·Ð°Ð¸Ð½ÑĤÐµÑĢÐµÑģ":10463,"ĠÐĶÐ¾Ð¼":10464,"arest":10465,"ored":10466,"ÐµÐ½ÑĮÑĪ":10467,"ilimon":10468,"ÑĢÐ°Ð½Ð¸Ñĩ":10469,"ÐµÑĪÐ¸Ð²":10470,"ĠÐ¸Ð·Ð»Ð¸ÑĪ":10471,"ĠÐ¸Ð·Ð»Ð°Ð³":10472,"ules":10473,"ÑĭÐ²Ð°Ð»Ð¾":10474,"ĠÐ°ÑĤ":10475,"ĠÐ°ÑĢÐ¸":10476,"Ġconqu":10477,"Ġdeception":10478,"Ġdeacon":10479,"ĠPART":10480,"Ġjer":10481,"Ġjam":10482,"ĠÐ¿Ð¾Ð»Ñĥ":10483,"ÑģÐ»ÐµÐ´":10484,"ĠÐľÐ°ÑĤÑĮ":10485,"ĠMity":10486,"ĠMerk":10487,"ĠMichael":10488,"istocr":10489,"Ġdidn":10490,"ĠÑĢÑĥÐºÐ°":10491,"Ð½Ð¸Ð¼Ð¸":10492,"ĠÑĪÐ°Ð¿":10493,"ÑĥÑİÑīÐµÐµ":10494,"Ð¸Ð·Ð¼":10495,"ĠÐ²Ð¸Ð´Ð¸Ð¼":10496,"ĠÐ·Ð½Ð°Ð½Ð¸Ðµ":10497,"Ġthereby":10498,"Ġlect":10499,"ĠÐ²Ð·Ð°Ð´":10500,"Ġnobody":10501,"ĠÐºÑĢÐ¾ÑĤ":10502,"venue":10503,"Ð¸ÑĤÐµÐ»ÑĮÐ½Ð°Ñı":10504,"Ġspare":10505,"ĠÐ¶ÐµÐ½Ð¸Ð»ÑģÑı":10506,"ĠÐ¾Ð¿ÑĭÑĤ":10507,"ÑĤÐ¸Ñİ":10508,"ĠÐ´ÑĢÑĥÐ³Ñĥ":10509,"Ġeverywhere":10510,"Ġaroused":10511,"Ġaristocr":10512,"ĠNE":10513,"ÑĢÐ°ÑĤÐ½Ð¾":10514,"ĠÐ»Ð¸ÑĨÐ°Ñħ":10515,"Ġcover":10516,"Ġcoarse":10517,"ĠÐ½Ð¸Ð¶":10518,"Ġdislike":10519,"ĠÐ¿Ð¾ÑģÐ»Ð°Ð»":10520,"ÑģÑĤÑĢÐ°Ð´":10521,"Ġotherwise":10522,"Ġoffend":10523,"aper":10524,"Ġconsult":10525,"ĠÐŃÑĤÐ¾Ð³Ð¾":10526,"umn":10527,"umbling":10528,"Ġprov":10529,"Ġprovin":10530,"ĠÑĦÑĢÐ°Ð½":10531,"ĠÑĤÐµÐ¼Ð¸":10532,"ĠÐ²Ð¾Ð·Ð½Ð¸Ðº":10533,"ĠÐĳÐ°ÑĢ":10534,"Ġcloak":10535,"ĠÑħÐ¾ÑĢÐ¾ÑĪÐ¸Ð¼":10536,"ĠÑħÐ¾ÑĢÐ¾ÑĪÐµÐ³Ð¾":10537,"ĠÑħÐ¾ÑĢÐ¾ÑĪÐ¸Ðµ":10538,"Ġturns":10539,"ĠÐ±Ð¾Ð»Ð¸":10540,"ĠÑģÐ¾Ð±ÑĭÑĤ":10541,"ĠÑĥÐ¼ÐµÐ½ÑĮÑĪ":10542,"ĠÐ¾ÑģÑĤÐ°Ð»Ð¾ÑģÑĮ":10543,"ĠÐ¿Ð¾Ð¼ÐµÑĪ":10544,"ĠÐ¿Ð¾Ð¼Ð¸ÑĢ":10545,"ĠÐļÐ°ÐºÐ¸Ðµ":10546,"ĠÐ·Ð°Ð¼Ð¾Ð»Ñĩ":10547,"ĠFilimon":10548,"Ġchildish":10549,"ĠÑģÐ»Ð¾Ð²Ðµ":10550,"ĠÐ¿Ð¾Ð»Ð¾Ð¶Ð¸Ð»":10551,"ÑģÐ¼Ð°ÑĤÑĢ":10552,"ĠÐ¿ÑĢÐ°Ð²Ð¸Ð»":10553,"ĠÐ¿ÑĢÐ°Ð²Ð¸ÑĤÐµÐ»ÑĮ":10554,"Ð¸Ð²ÑĪÐ¸ÑħÑģÑı":10555,"Ġenem":10556,"Ġdesper":10557,"Ġdescri":10558,"ival":10559,"Ġattribut":10560,"ÑĢÐ°ÑģÐ¸Ð²":10561,"ĠÐ·Ð°Ð±ÑĥÐ´":10562,"ĠÐ³ÑĢÐ°Ð½Ð¸ÑĨÑĭ":10563,"ĠÐ¿ÑĢÐµÐ¶Ð½Ð¸Ðµ":10564,"Ġreluct":10565,"Ġevent":10566,"ĠÐ¿ÐµÑĢÐ²ÑĭÐ¼":10567,"ĠÐ¾Ð´Ð¸Ð½Ð¾Ðº":10568,"ĠÐ´ÐµÐ»Ð°ÐµÑĤÐµ":10569,"ĠÑĥÐ²Ð¸Ð´Ð°ÑĤÑĮ":10570,"ĠÐ´Ð¾ÐºÐ»Ð°Ð´":10571,"ĠÐ´Ð¾ÐºÐ°Ð·Ð°ÑĤÑĮ":10572,"ĠÐºÐ°ÑĢÐµÑĤÐµ":10573,"Ġconversations":10574,"ĠÑģÐµÑĢÐ´ÑĨÐµÐ¼":10575,"ĠÐ½Ð°ÑģÑĩÐµÑĤ":10576,"ĠÐ±ÐµÑģÑĩ":10577,"ĠÐ³ÑĢÐ°ÑĦÐ¸Ð½Ðµ":10578,"ĠÐ´ÐµÐ²ÑıÑĤ":10579,"Ġdined":10580,"ĠÐ´Ð¾Ð»Ð¾Ð¶Ð¸ÑĤÑĮ":10581,"ĠÑĥÐ¿ÑĢÐ°Ð²Ð»Ñı":10582,"Ġjoyous":10583,"ĠÐ²ÑģÑıÐºÐ¾Ðµ":10584,"ĠÑģÐ¿Ð¾ÐºÐ¾Ð¹Ð½Ð°":10585,"ĠÑģÐ¿Ð¾ÐºÐ¾Ð¹Ð½ÑĭÐ¼":10586,"ĠÑģÐ¿Ð¾ÐºÐ¾Ð¹Ð½Ð¾Ñİ":10587,"ĠÐºÐ¾Ð¼Ð½Ð°ÑĤ":10588,"ĠÐ¸Ð½ÑĤÐµÑĢÐµÑģÐ¾Ð²":10589,"ĠÑħÐ¾Ð·ÑıÐ¹ÐºÐ°":10590,"retary":10591,"Ġguests":10592,"Ġsubmit":10593,"Ġaffected":10594,"Ġcourt":10595,"ucky":10596,"Ġinterval":10597,"ĠÐºÐ¾Ð½ÑĨ":10598,"Ġtreated":10599,"Ġfinishing":10600,"Ġterror":10601,"ĠÐ½Ð°Ð²ÐµÑĢÐ½Ð¾Ðµ":10602,"ĠÑıÑģÐ½ÐµÐµ":10603,"ĠÑģÐ¸Ð´ÐµÑĤÑĮ":10604,"ĠÐ²ÐµÐ»ÐµÐ»Ð°":10605,"ĠState":10606,"ĠÑģÐµÐ¼ÑĮÐ¸":10607,"ĠÑĢÐ°Ð±Ð¾ÑĤÑĥ":10608,"ĠÐ·Ð°ÑģÐ½ÑĥÑĤÑĮ":10609,"Ġcondem":10610,"ĠÐ³Ð¾ÑĢÐ½Ð¸Ñĩ":10611,"ĠÑĥÐºÐ°Ð·":10612,"Ð³Ð¸Ð±":10613,"ĠÐ²ÑģÑĤÐ°Ð»Ð¸":10614,"Ġcompartment":10615,"ĠÐ´ÐµÐ¹ÑģÑĤÐ²Ð¾Ð²Ð°ÑĤÑĮ":10616,"ĠÐ¿Ð¾Ð²ÑĤÐ¾ÑĢÑıÐ»":10617,"ĠÐ¿ÑĢÐ¾Ð²ÐµÑģÑĤÐ¸":10618,"ĠÐŁÑĢÐ¸Ðº":10619,"Ġinsp":10620,"ĠÐ´Ð²Ð¾ÑĢÐµ":10621,"ĠÑĩÑĥÐ²ÑģÑĤÐ²ÑĥÐµÑĪÑĮ":10622,"Ġlandl":10623,"ĠÑĥÑģÑĤÑĢÐ°":10624,"ĠÐ´ÐµÑĢÐ¶Ð°":10625,"ĠÑģÐ¾ÑģÑĤÐ¾ÑıÐ»Ð°":10626,"ĠÐĴÐ°ÑģÐ¸Ð»ÑĮ":10627,"ĠÐ²ÑģÑĤÑĢÐµÑĩÐµ":10628,"ĠÐ½Ð°ÑĪÐ»Ð¸":10629,"ĠÐ·Ð°Ð½Ð¸Ð¼Ð°Ð»Ð¸":10630,"ĠÐ¼Ð°Ð»ÐµÐ½ÑĮÐºÐ¾Ð¹":10631,"ĠÐ²ÑģÑĤÑĢÐµÑĤÐ¸ÑĤÑĮ":10632,"ĠÑĢÐ°ÑģÑģÑĩÐ¸ÑĤ":10633,"ĠÐ¿ÑĢÑıÐ¼":10634,"ĠÑĢÐ¾Ð´Ð¾Ð²":10635,"ĠÐ¿Ð¾ÑģÐ¼Ð¾ÑĤÑĢÐµÑĤÑĮ":10636,"ĠÐ²Ð°ÑĪÑĥ":10637,"Ġforeign":10638,"Ġriders":10639,"ĠÐĴÐµÑģÐ»Ð¾Ð²ÑģÐºÐ¸Ð¼":10640,"Ġstudied":10641,"ĠÐ±Ð»Ð°Ð³Ð¾Ð¿Ð¾Ð»":10642,"Ġraise":10643,"ĠÐ¿Ð¾Ð²ÐµÑĢÐ½ÑĥÐ»ÑģÑı":10644,"ĠÑĩÐ°ÑģÑĤÑĮÑİ":10645,"ĠÐ¿Ð¾ÑģÑĤÐ°ÑĢ":10646,"Ġrespectful":10647,"Ġrespectfully":10648,"Ġeducated":10649,"skaya":10650,"ĠÑĩÐ¸ÑĤÐ°Ð»Ð°":10651,"Ġcurt":10652,"Ġshouting":10653,"ĠÐ»Ð°ÐºÐµ":10654,"Ġassistant":10655,"Ġcontrast":10656,"ĠÑģÐ¾Ð³Ð»Ð°ÑģÐ¸Ð»ÑģÑı":10657,"ĠÐ½Ð°Ð¿ÑĢÐ°Ð²Ð»ÐµÐ½Ð¸Ñı":10658,"ĠÐºÑĢÑĥÐ³Ð¾Ð¼":10659,"Ġuseless":10660,"ĠÑĢÑĥÑģÑģÐºÐ¾Ð³Ð¾":10661,"ĠÑĢÑĥÑģÑģÐºÐ¸Ñħ":10662,"ĠÑĪÐµÑģÑĤ":10663,"ĠÐºÐ»Ð°Ð½Ñı":10664,"ĠÐ±Ð°Ð»Ðµ":10665,"Ġstayed":10666,"ĠÐ¿ÑĢÐµÐ´ÑģÑĤÐ°Ð²Ð»ÑıÐ»Ð¾ÑģÑĮ":10667,"Ġdirected":10668,"Ġlesson":10669,"Ġdreadfully":10670,"Ġcapable":10671,"ĠÐ½ÑĢÐ°Ð²Ð¸Ð»Ð¾ÑģÑĮ":10672,"ĠÑģÐ¼ÐµÑĪÐ½Ð¾":10673,"Ð¸Ð»ÑĮÐ½Ð¾":10674,"ĠÐ±ÐµÑĢÐµÐ¼":10675,"ĠÐ¿Ð¾ÑĨÐµÐ»":10676,"ĠÐºÐ°Ð·Ð°Ð»ÑģÑı":10677,"ĠÐ¾ÑĤÐ¿ÑĢÐ°Ð²":10678,"Ġrecognizing":10679,"Ġtrave":10680,"ĠÐ¾ÑĤÑĩÐ°ÑıÐ½Ð¸ÐµÐ¼":10681,"ĠÐ±ÑĢÐ¾ÑģÐ¸ÑĤÑĮ":10682,"Ġruin":10683,"Ġimpressions":10684,"ĠÐ´ÐµÐ¹ÑģÑĤÐ²Ð¸ÑĤÐµÐ»ÑĮÐ½Ð¾ÑģÑĤÐ¸":10685,"Ġcarts":10686,"ĠCommander":10687,"ĠÐ¿ÑĢÐ¸ÑħÐ¾Ð´Ð¸Ð»Ð¸":10688,"ĠÐ¸Ð·Ð²ÐµÑģÑĤÐ½ÑĭÐ¹":10689,"ocked":10690,"Ġpaying":10691,"ĠÐ¿ÑĢÐ¸Ð½ÑıÐ»":10692,"ĠÐ¾ÑĤÐºÐ°Ð·Ð°Ð»ÑģÑı":10693,"ĠÐ´ÐµÐ²Ð¾ÑĩÐºÑĥ":10694,"ĠÑģÐ»Ð°Ð²Ð½ÑĭÐ¹":10695,"ĠÐ¿Ð»Ð°ÑĤÐºÐ¾Ð¼":10696,"ĠÐ²ÑģÐ¿Ð¾Ð¼Ð¸Ð½Ð°ÑĤÑĮ":10697,"ĠÐ´ÑĢÑĥÐ¶ÐµÑģÐº":10698,"Ġhabits":10699,"ĠÐºÐ¾Ð»ÑıÑģÐºÐ¸":10700,"Ġdreams":10701,"ÐĴÐ¾ÑĤ":10702,"ĠÐ½Ð°Ð³ÑĢÐ°Ð´":10703,"ĠÐ¼Ð¾ÑĢÐ¾Ð·":10704,"Ð¸ÑĤÐµÐ»ÐµÐ½":10705,"Ġremarkable":10706,"Ġbitter":10707,"Ð½Ð¾ÑģÑĤÐµÐ¹":10708,"Ġsolution":10709,"appho":10710,"ĠÑģÐ»Ð°Ð±Ð¾ÑģÑĤÐ¸":10711,"ĠÐ¸Ð·Ð¼ÐµÐ½Ð¸Ð»Ð¾ÑģÑĮ":10712,"ĠÐ¿Ð¾Ð¼Ð¾ÑīÑĮÑİ":10713,"Ġresults":10714,"Ġdevoted":10715,"Ġrecollection":10716,"ĠÐ½ÑĭÐ½ÐµÑĪÐ½ÐµÐ³Ð¾":10717,"ĠÑĥÐµÑħÐ°Ð»Ð°":10718,"ĠÐ¿Ð¾Ð»Ð¾Ð²Ð¸Ð½Ðµ":10719,"Ð°Ð²ÑĪÐ°ÑıÑģÑı":10720,"Thank":10721,"ÐŀÐ½":10722,"Ð¸Ð¿Ð»Ð¾Ð¼":10723,"Ġresolved":10724,"ĠXXVII":10725,"ĠÐ¿ÑĥÑĤÐ¸":10726,"ĠÐ½ÐµÐ¸Ð·Ð±ÐµÐ¶":10727,"together":10728,"ĠÐºÑĢÐ¾Ð²Ð°ÑĤÐ¸":10729,"ĠÑĦÐ¸Ð·Ð¸ÑĩÐµÑģÐºÐ¸":10730,"Ġsuccessful":10731,"ĠÑģÐ¿Ð¾ÑģÐ¾Ð±Ð½Ð¾ÑģÑĤÑĮ":10732,"Ġsecretary":10733,"ĠÐ²ÑĭÐ±Ð¾ÑĢÐ°Ñħ":10734,"Ġsenses":10735,"Ġhidden":10736,"Ġpieces":10737,"Ġexamining":10738,"Ġintroduce":10739,"ĠÐ²Ð¾Ð·Ð²ÑĢÐ°ÑīÐ°ÑıÑģÑĮ":10740,"Ġsalary":10741,"ĠÐ¿ÑĢÐµÐ´Ð¼ÐµÑĤ":10742,"Ġconfession":10743,"ĠÐ½Ð°ÑħÐ¼ÑĥÑĢÐ¸Ð²ÑĪÐ¸ÑģÑĮ":10744,"ĠÐµÑģÑĤÐµÑģÑĤÐ²ÐµÐ½":10745,"ĠÑĥÐ¼ÐµÑĢÐ»Ð°":10746,"000":10747,"Ġringing":10748,"ĠÐ³ÑĥÐ±ÐµÑĢÐ½ÑģÐºÐ¾Ð³Ð¾":10749,"ĠÐ¿Ð¾Ð¹Ð¼ÐµÑĤ":10750,"ĠÐºÑĢÐ¸ÑĩÐ°Ð»":10751,"ĠÑģÐ¼ÐµÑħÐ¾Ð¼":10752,"Ġsurround":10753,"ĠÐ¶ÐµÐ½Ð¸ÑĤÑĮÑģÑı":10754,"Ġpitied":10755,"ĠÐ¿ÑĢÐ¸Ð³Ð»Ð°ÑĪ":10756,"Ġbridegroom":10757,"Ġencoura":10758,"Ġembarrassment":10759,"ĠÐ½ÐµÑħÐ¾ÑĢÐ¾ÑĪ":10760,"ĠÐ½ÐµÑĥÐ´ÐµÑĢÐ¶":10761,"Ġdismal":10762,"Ġpolitical":10763,"ĠÑĦÑĢÐ°Ð·Ñĥ":10764,"ĠÐ·Ð°Ð²Ð¸ÑģÐ¸ÑĤ":10765,"Ġobtain":10766,"ĠÐ¿ÑĢÐ¾Ð²Ð¾Ð´Ð¸Ð»":10767,"ĠÑģÐ¾Ð»Ð´Ð°ÑĤ":10768,"Ġmillions":10769,"ĠCouncillor":10770,"Ġstriking":10771,"ĠÐ¶Ð°Ð»Ð¾Ð²Ð°Ð½ÑĮÑı":10772,"Ġboldly":10773,"ĠÐ¿Ð¾Ð³Ð»ÑıÐ´ÑĭÐ²":10774,"ĠÐ»Ð°ÑģÐºÐ¾Ð²Ð¾":10775,"ointment":10776,"Ġwrapped":10777,"Ġseverely":10778,"Ġmirror":10779,"ĠÑĩÐµÑĤÑĭÑĢÐµÑħ":10780,"orkuyev":10781,"Ġappreciated":10782,"ĠÐ¿ÐµÑĢÐµÐ³Ð¾Ð²Ð¾ÑĢÐ¸ÑĤÑĮ":10783,"ĠÐ¾ÑĤÐ¾ÑĪÐµÐ»":10784,"Ġgraceful":10785,"ĠÐ¿Ð¾Ð´ÑĩÐ¸Ð½":10786,"Ġtranquill":10787,"Ġrestrain":10788,"ĠÑĥÐ¿Ð¾ÑĢÐ½Ð¾":10789,"Ġsucceeded":10790,"Ġequally":10791,"ĠÐ³Ð¸Ð¼Ð½Ð°Ð·":10792,"ĠÐ¾Ð±Ð¼Ð°Ð½Ð°":10793,"ĠÐ±ÑĢÐ¾Ð²Ð¸":10794,"ĠÑģÐ²Ð¸Ð´Ð°Ð½ÑĮÑı":10795,"ĠÐļÐ¾Ð·Ð½ÑĭÑĪÐµÐ²":10796,"Ġdishonest":10797,"Ġacknowled":10798,"ĠÑĤÑīÐµÑĤ":10799,"ĠÐ°Ð½Ð³Ð»Ð¸ÑĩÐ°Ð½Ð¸Ð½":10800,"ĠTurovtsyn":10801,"Ġdepths":10802,"ÐŃÑĤÐ¾":10803,"ÑĢÐ¸Ð¼ÐµÑĢ":10804,"Ġimmense":10805,"Ġtrousers":10806,"Ġwaistcoat":10807,"Really":10808,"Ġsuggested":10809,"Ġignor":10810,"ĠÑĦÐ°Ð»ÑĮÑĪ":10811,"ĠÐ¿Ð°Ð¼ÑıÑĤÐ¸":10812,"Ġstrangers":10813,"ĠÐºÐ²Ð°ÑĢÑĤÐ¸":10814,"ĠÐ½Ð°Ð´ÐµÐ¶Ð´Ñĭ":10815,"ĠÐ·Ð°Ð´ÑĥÑĪÐµÐ²":10816,"Ġmajority":10817,"Ġdisappeared":10818,"Ġabsorbed":10819,"ĠÐ¸Ð½Ð¾ÑĢÐ¾Ð´ÑĨÐµÐ²":10820,"ĠÐ½ÐµÐ·Ð´Ð¾ÑĢÐ¾Ð²":10821,"Ġoysters":10822,"ĠÐ·Ð¾Ð½ÑĤÐ¸Ðº":10823,"ĠÐ½ÐµÐ¼Ð½Ð¾Ð¶ÐºÐ¾":10824,"Ġsarc":10825,"Ġthorough":10826,"ÑĨÑĥÐ¶ÐµÐ½":10827,"ĠÐ¡Ð°ÑĦÐ¾":10828,"ĠMerkalova":10829,"ĠFilimonovna":10830,"At":10831,"Can":10832,"Every":10833,"OV":10834,"Take":10835,"With":10836,"Will":10837,"eur":10838,"gor":10839,"hus":10840,"land":10841,"my":10842,"oir":10843,"overy":10844,"oke":10845,"then":10846,"uished":10847,"well":10848,"yat":10849,"Ð¬":10850,"Ðĵ":10851,"ÐĹ":10852,"Ġz":10853,"Ð°ÑĪÐ¸":10854,"ÑĤÐ¾Ð¹":10855,"ÑĤÑĢÐ¸":10856,"Ð¸ÐµÐ¹":10857,"Ð¸Ð°Ð»ÑĮ":10858,"ÑģÐ¾ÑĤ":10859,"Ð½Ð¾Ð´":10860,"Ð½ÐµÐ¿":10861,"Ð½Ð°Ð¼Ð¸":10862,"ÑĢÐ°Ñı":10863,"ÑĢÐ°Ð¼Ð¸":10864,"ÑĢÑıÑĤ":10865,"Ġaut":10866,"ÑĭÐ³":10867,"Ġward":10868,"Ġwel":10869,"Ġwings":10870,"Ġwaving":10871,"ĠÑģÐ½Ð¸":10872,"ĠÑģÑĢÐ°Ð·":10873,"ĠÑģÐµÐ½Ð°":10874,"ĠÐ²ÐµÐº":10875,"ÐºÑĤ":10876,"Ġhire":10877,"Ġhanging":10878,"Ġhouses":10879,"ĠÐ¾ÑĨÐµÐ½":10880,"Ġoats":10881,"ĠÐ¸Ñİ":10882,"ĠÐ¸ÑĤÐ°Ð»ÑĮ":10883,"Ð°Ð»ÐµÐºÐ¾":10884,"Ġband":10885,"Ġbased":10886,"ater":10887,"athed":10888,"ĠÐºÐ¾Ð¶":10889,"Ð¾Ð²Ð¾":10890,"Ð¾Ð²Ñĥ":10891,"Ġcrit":10892,"Ġfill":10893,"Ġfait":10894,"ĠÐ±Ð°Ð»Ð°":10895,"ĠÐ±ÑĥÑĢ":10896,"ĠÐ±ÐµÑģÐº":10897,"Ġmale":10898,"ĠÐ´ÐµÑĪ":10899,"ĠÐ´Ð¸Ð¿Ð»Ð¾Ð¼":10900,"ĠÑĩÐµÐ¿":10901,"ĠÑĩÐ¸ÑģÐ»":10902,"Ġdue":10903,"Ġnet":10904,"ÐµÑĢÐµÑĪ":10905,"ĠÐ¼Ð¸Ð»Ð°":10906,"ĠÐ¼ÑĥÑģÐº":10907,"Ð½Ð¾ÑģÑı":10908,"Ġpot":10909,"Ġple":10910,"Ġpow":10911,"Ġpac":10912,"Ġpick":10913,"Ġpince":10914,"Ġpicked":10915,"ĠÐ¿ÑĢÑĥÐ¶":10916,"ĠÐ¿ÑĢÐ¾ÐµÑħ":10917,"ane":10918,"Ġ'-":10919,"Ð±Ð¾":10920,"Ð¾Ð»Ð¾Ð³":10921,"ĠÑĥÐ»Ð¸Ñĩ":10922,"ĠÐ·ÐµÐ»":10923,"ĠÐ·Ð»Ð°":10924,"ĠÐ·Ð°Ð¹":10925,"omen":10926,"omes":10927,"ĠÑĢÐ¶":10928,"ĠÑĢÐ¸Ñģ":10929,"ĠÑĢÑĤÑĥ":10930,"ĠÑĢÑİÐ¼":10931,"Ġbeating":10932,"utation":10933,"lyudin":10934,"ĠÐ½Ð°ÑģÐº":10935,"Ð°Ð²Ð°ÑĤÑĮ":10936,"Ġemp":10937,"Ġgather":10938,"Ð¸Ð½ÐºÑĥ":10939,"icing":10940,"icable":10941,"Ġnotes":10942,"Ġremed":10943,"Ġreleas":10944,"Ġsale":10945,"Ġsaved":10946,"Ġsamov":10947,"ĠÐ»ÐµÐ¶Ð°Ð»":10948,"Ð¸Ð²ÑĭÑĩ":10949,"Ð¸ÑĤÐ¸Ðµ":10950,"Ġur":10951,"ÑĨÐ°Ð¼":10952,"alities":10953,"ĠÐĴÐ¼":10954,"ĠÐĴÐ´ÑĢÑĥÐ³":10955,"Ġforced":10956,"ĠÐŀÐº":10957,"Ġstorm":10958,"ĠÐĿÐ°ÑĤ":10959,"ĠAh":10960,"irts":10961,"ĠÑģÐ²ÐµÑĩ":10962,"ĠÑģÐ²ÐµÑĢÑħ":10963,"ĠTart":10964,"ĠTHA":10965,"ĠÐ²ÑĭÐ²":10966,"ĠÐ²ÑĭÑĢÐ¾Ñģ":10967,"ĠÐ²ÑĭÑģÑĤÐ°Ð²Ð»Ñı":10968,"ĠÐ²ÑĭÑĤÑı":10969,"ĠÐ²ÑĭÑĪÐµÐ´":10970,"Ð»Ð¸Ð³":10971,"Ð°ÑĤÐµÑĢ":10972,"urs":10973,"urka":10974,"Ð´Ð°Ð½Ð¸Ñı":10975,"ĠÑħÐ²Ð°Ð»":10976,"ifice":10977,"Ð¾ÐºÑĥ":10978,"Ð¾ÐºÐµÑĤ":10979,"ĠÐļÐ¾Ð»":10980,"ĠÐļÑĥÑĩ":10981,"ĠÐļÐ°Ð¶ÐµÑĤÑģÑı":10982,"ĠSee":10983,"ĠSappho":10984,"ĠSlyudin":10985,"ĠÐĽÐ¾ÑĪ":10986,"ĠÐĽÑĥÑĩ":10987,"ĠÐ¿ÑĢÐ¸ÐµÐ·Ð´Ðµ":10988,"ĠÐ¡Ð¾ÑĢ":10989,"ĠÐ¡Ð»Ð°Ð²":10990,"Ð½ÐµÑİ":10991,"ĠKorney":10992,"ĠÐ¿Ð¾Ð´Ð´":10993,"ĠÐ¿Ð¾Ð´ÐµÐ¹ÑģÑĤÐ²":10994,"ĠÐ¿Ð¾Ð´Ð²ÐµÑĢ":10995,"ĠÐ¿Ð¾Ð´Ð¾Ð¶Ð´":10996,"ĠÑĤÐ°ÐºÐ¶Ðµ":10997,"Ġsociety":10998,"Ġshown":10999,"Ġshake":11000,"Ġshru":11001,"Ð¸ÐºÑĥ":11002,"Ð¸ÐºÐ¾Ð¼":11003,"ĠÐ·Ð°Ñħ":11004,"ĠÐ·Ð°ÑħÐ¾Ð´":11005,"antas":11006,"ĠÑĢÐ°Ð·Ð½ÑĭÐµ":11007,"ĠÐĺÐ´Ð¸":11008,"ilate":11009,"uses":11010,"akened":11011,"ÐµÑĪÐµ":11012,"Ġexh":11013,"ĠÐ¸Ð·Ð¾":11014,"ĠÐ¸Ð·Ð»Ð¾Ð¶":11015,"ĠÐĽÐµÐ²Ð¸Ð½Ðµ":11016,"Ġfru":11017,"ÑĭÐ²Ð°ÑıÑģÑĮ":11018,"ÑĭÐ²Ð°Ð»Ð¸ÑģÑĮ":11019,"ÑĭÐ²Ð°ÐµÐ¼":11020,"Ġknees":11021,"Ġknocked":11022,"ÐµÐ¶Ðµ":11023,"ĠÐ°Ð¿":11024,"Ġcongr":11025,"Ð°Ð»Ð¸Ð·":11026,"ittered":11027,"ÐµÐ»Ð°ÑģÑĮ":11028,"Ġaloud":11029,"acher":11030,"ĠÑģÐ¿ÑĥÑĤ":11031,"ĠOB":11032,"ĠOur":11033,"Ġseek":11034,"ĠÐ»Ð¸ÑģÑĤ":11035,"Ð¸ÐµÑħ":11036,"Ġque":11037,"ÑĥÑĤÐ°ÑĨ":11038,"ĠÐľÐµÑĢÐº":11039,"ĠCan":11040,"ĠCatherine":11041,"ÑıÑĤÐ°":11042,"esting":11043,"estion":11044,"istening":11045,"Ð¾ÑĩÐºÐµ":11046,"ĠÑĪÑĥÑĢ":11047,"Ġva":11048,"ÑĥÑİÑģÑĮ":11049,"rage":11050,"ĠÐ²Ð¸Ð´Ñı":11051,"ĠÐ²Ð¸Ð´Ð¸ÑĤÐµ":11052,"Ð¸Ð»Ð¸Ð¿Ð¿":11053,"ĠDep":11054,"Ġimpl":11055,"key":11056,"ĠÐ¿ÑĢÐ¾ÑģÑı":11057,"ĠÐ»ÑİÐ±Ñı":11058,"ĠÑĩÑĥÐ²ÑģÑĤÐ²Ð¾Ð²Ð°Ð»Ð¸":11059,"Ġbrows":11060,"ÑĢÐ°Ð²Ð¾":11061,"Ð¸ÑĤÐµÐ»ÑĮÐ½ÑĭÑħ":11062,"ĠÑģÐ¼ÑĭÑģ":11063,"ĠÐ´ÐµÐ»Ð¾Ð¼":11064,"ĠOblonskys":11065,"ĠÑĥÐ»ÑĭÐ±Ð°Ð»Ð°ÑģÑĮ":11066,"ĠÐ¿Ð¾ÐºÑĢÑĭÐ²":11067,"Ġweight":11068,"Ġpregn":11069,"ĠÑģÑĤÐ°ÑĢÑĭÑħ":11070,"ĠÑģÑĤÐ°ÑĢÑĥÑħ":11071,"ĠÑģÑĤÐ°ÑĢÐ¸ÑĩÐ¾Ðº":11072,"Ð°Ð²ÑĪÐµÐ¼":11073,"ĠÐ§ÐµÐ¼":11074,"ĠÐķÐµ":11075,"Ġtend":11076,"Ġprovo":11077,"ĠÑĦÑĢ":11078,"Ð´ÑĥÐº":11079,"ĠEN":11080,"ĠEv":11081,"Ġcontrol":11082,"Ġblind":11083,"ĠÐ¿Ð»Ð°Ð½Ñĭ":11084,"ĠÑģÐ¾Ð±Ð¸ÑĢÐ°":11085,"ĠÑĥÐ¼ÑĢÑĥ":11086,"ĠÑĥÐ¼Ð½ÑĭÐ¹":11087,"ĠÑĥÐ¼ÑĭÑĪÐ»ÐµÐ½Ð½Ð¾":11088,"ĠÐ½Ð°Ð¿ÑĢÐ¸Ð¼ÐµÑĢ":11089,"ĠÐ²Ð·Ð³Ð»ÑıÐ´Ñĥ":11090,"ÑĢÑıÐ¶":11091,"Ġolder":11092,"ĠÑģÐ»Ð¾Ð²Ð¾Ð¼":11093,"ĠÐ¿Ð¾Ð½Ð¸Ð¼Ð°ÑİÑĤ":11094,"Ġtwice":11095,"ĠÐ¿Ð¾Ð²Ð°ÑĢ":11096,"ĠÑĨÐµÐ»Ð¸":11097,"Ġunderstands":11098,"ĠÐĵÐ»Ð°Ð·":11099,"Ġenchant":11100,"ĠÐ½Ð°ÑĩÐ¸Ð½":11101,"Ġenthus":11102,"ÐµÑİÑī":11103,"ĠÑģÑĤÑĢÐµÐ»":11104,"ĠÐ¿ÑĢÐ¾ÑģÐ¸Ð»Ð¸":11105,"Ġanswering":11106,"Ġattached":11107,"ĠÑĢÐµÑĪÐµÐ½Ð¸Ñı":11108,"ĠÑĢÐµÑĪÐµÐ½Ð¾":11109,"ĠÐ½ÑĥÐ¶ÐµÐ½":11110,"ĠÐ·Ð°Ð±Ð¾Ð»":11111,"Ġrepres":11112,"Ġcarriages":11113,"Ġpassage":11114,"ĠÐ¿ÑĢÐµÐ¶Ð½ÐµÐµ":11115,"ĠÐ¿ÑĢÐµÐ¶Ð½Ð¸Ñħ":11116,"ĠÐ¾ÑĤÐºÑĢÐ¾Ð²":11117,"Ġappet":11118,"Ġappointed":11119,"ĠÐĹÐ°Ð²ÑĤÑĢÐ°":11120,"Ġresist":11121,"ĠÐ²Ð¾Ð¿ÑĢÐ¾ÑģÐµ":11122,"ĠÑģÐ¾Ð²ÐµÑĢÑĪÐµÐ½":11123,"ĠÐ¿ÑĢÐ¸Ð²ÐµÐ´":11124,"ĠÐ¿ÑĢÐ¸Ð²ÑıÐ·":11125,"ĠÐºÑĢÐ°ÑģÐ¾ÑĤÐ¾Ð¹":11126,"ĠÐ·Ð°ÐºÑĥÑĢ":11127,"ĠÐ´ÐµÐ»Ð°ÐµÑĪÑĮ":11128,"Ġkindness":11129,"ĠÐ±Ð¾Ð»ÑĮÑĪÐ¸Ð¼Ð¸":11130,"ĠThose":11131,"ĠÐ¿ÑĢÐ¾Ð´Ð¾Ð»Ð¶Ð°Ñı":11132,"Ð°ÑĤÐµÐ»ÑĮÐ½ÑĭÐ¹":11133,"Ð°ÑĤÐµÐ»ÑĮÑģÑĤÐ²Ð¾":11134,"ĠÑĥÐ¶Ð°ÑģÐ½Ð¾Ðµ":11135,"ĠÑģÐ¸Ð»Ð¾Ð¹":11136,"Ð¸ÑĩÐµÑģÐºÐ¸Ð¹":11137,"Ð¸ÑĩÐµÑģÐºÑĥÑİ":11138,"ĠÐ¼Ð¾Ð»Ð¾Ð´Ð¾ÑģÑĤÐ¸":11139,"Ġacting":11140,"ĠÑģÑĭÐ½Ðµ":11141,"ĠÐ´ÐµÐ²ÑıÑĤÑĮ":11142,"Ġdresses":11143,"ĠÐŀÐ±ÐµÐ´":11144,"ĠÐ¾ÐºÐ°Ð·":11145,"ĠÐ¾ÐºÐ°Ð·Ð°Ð»Ð¾ÑģÑĮ":11146,"Ġinvented":11147,"ĠÐ·Ð²Ð°Ð»Ð¸":11148,"ĠÐ¿Ð¾Ð¶ÐµÑĢÑĤÐ²":11149,"ĠÐ¿Ð¾Ð´ÑĥÐ¼Ð°ÑĤÑĮ":11150,"ĠÐ²Ð·Ð³Ð»ÑıÐ´Ñĭ":11151,"ĠÐ²ÑģÑıÐºÐ¾Ð¹":11152,"ĠÐ²ÑģÑıÐºÐ¾Ð¼":11153,"ĠÑħÐ¾Ð·ÑıÐ¹ÑģÑĤÐ²Ð¾Ð¼":11154,"Ġendure":11155,"Ġsubtle":11156,"ĠÐ¾ÑģÑĤÐ°Ð²Ð¸Ð²":11157,"ĠÐ·Ð°Ð³Ð»Ñı":11158,"ĠÐµÑħÐ°Ð»Ð°":11159,"Ġinstinct":11160,"Ġinstruct":11161,"ĠÐ»ÐµÐ³ÐºÐ¸Ð¼":11162,"Ġfinally":11163,"Ġdelay":11164,"ĠÐ¿Ð¾Ð»ÑĥÑĩÐ¸Ð»Ð°":11165,"Ġterms":11166,"Ġbreast":11167,"ĠÐ¿ÑĢÐ¸Ð·Ð²":11168,"ĠÑĢÐ°ÑģÑģÐºÐ°Ð·Ð°ÑĤÑĮ":11169,"ĠÑģÐµÐ¼ÑĮÑİ":11170,"ĠÑĢÐ°Ð±Ð¾ÑĤÐ¾Ð¹":11171,"Ġirre":11172,"ĠÑĥÑģÐ°Ð¼Ð¸":11173,"ĠÐ²ÑģÑĤÐ°ÑĤÑĮ":11174,"Ġcompan":11175,"ĠÐ¡Ð²Ð¸ÑıÐ¶ÑģÐºÐ¸Ð¼":11176,"ĠÐ¡Ð²Ð¸ÑıÐ¶ÑģÐºÐ¾Ð¼Ñĥ":11177,"ĠÐ¿ÑĢÐ¾Ð²ÐµÐ»Ð°":11178,"ĠÑĥÑĩÐ¸ÑĤÐµÐ»ÑĮ":11179,"ĠÐ·ÐµÐ¼Ð»Ñı":11180,"ĠÐŁÑĢÐ¸ÐµÑħ":11181,"ĠÐ±ÐµÐ»ÑĭÑħ":11182,"ĠÐ±ÐµÐ»ÑĭÐ¼Ð¸":11183,"ĠÐļÐ°ÑĢÑĤ":11184,"Ġdivided":11185,"ĠÑģÐ¾ÑģÑĤÐ¾ÑıÐ½Ð¸Ñı":11186,"ĠÐ½Ð°ÐºÐ»Ð¾Ð½":11187,"ĠÐ¤Ð¸Ð»Ð¸Ð¿Ð¿":11188,"Ġgenerosity":11189,"Ġviol":11190,"ĠÐ²Ð¾Ð´Ñĥ":11191,"ĠÐ²ÑģÑĤÑĢÐµÑĤÐ¸Ð»Ð°":11192,"Ġdouble":11193,"Ġdoubted":11194,"ĠÐµÐ´ÐµÐ¼":11195,"ÐµÐ´ÑĥÐµÑĤ":11196,"ĠÑĢÐ°ÑģÑģÑĥÐ´":11197,"ĠÑĢÐ°ÑģÑģÐµÑı":11198,"ĠÐ¼ÑĭÑģÐ»ÑĮÑİ":11199,"Ð¿Ð¾Ð¼Ð¸Ð½Ð°Ð½Ð¸Ðµ":11200,"Ġoppon":11201,"Ġopposed":11202,"ĠÐļÐ°ÑĤÐµÑĢ":11203,"ĠÐĴÐµÑģÐ»Ð¾Ð²ÑģÐºÐ¾Ð³Ð¾":11204,"ĠÑĤÐ¾Ð»Ðº":11205,"Ġjoking":11206,"ĠÑĤÐ¾Ð½ÐºÐ¸Ð¼":11207,"ĠÐ±Ð»Ð°Ð³Ð°":11208,"ĠÑģÐ¸Ð»ÑĮÐ½Ð¾Ðµ":11209,"ounced":11210,"ĠÐ¾Ð±ÑīÐ¸Ð¹":11211,"ĠÐ½Ð°Ð¹Ð´ÐµÑĤ":11212,"Ġlatest":11213,"ĠÑģÑĩÐ°ÑģÑĤÑĮÐµÐ¼":11214,"ĠÐ³Ð¾ÑĤÐ¾Ð²Ð¾":11215,"ĠÐ·Ð°Ð¼ÐµÑĩÐ°Ð»Ð°":11216,"ĠÐ·Ð°Ð¼ÐµÑĩÐ°Ð½Ð¸Ðµ":11217,"Ġparticulars":11218,"ĠÐ±Ð¾Ð¸ÑĤÑģÑı":11219,"ĠÑģÐ¿ÑĢÐ°ÑĪÐ¸Ð²Ð°Ð»Ð°":11220,"ĠÐ¿ÑĢÐ¸ÑģÐ¾":11221,"ĠÐ´Ð¾Ð²Ð¾Ð´Ñĭ":11222,"ĠÐ¾ÑħÐ¾ÑĤÐ°":11223,"ĠÐ¾ÑħÐ¾ÑĤÑĥ":11224,"ĠÐ¿ÑĢÐ¸ÑĩÐ¸Ð½":11225,"ĠÐ¼ÐµÐ´Ð²ÐµÐ´":11226,"ĠÐ½Ð°Ð¿ÑĢÐ°Ð²Ð¾":11227,"ĠÐ²ÑĭÑģÐºÐ°Ð·Ð°Ð»":11228,"ĠÑĢÐ°Ð´Ð¾ÑģÑĤÐ½Ð¾Ðµ":11229,"Ġextent":11230,"ĠÑĢÑĥÑģÑģÐºÐ¸Ðµ":11231,"Ġhopeless":11232,"Ġbuilt":11233,"ĠÐºÐ°Ð±Ð¸Ð½ÐµÑĤÐ°":11234,"Ġpictured":11235,"Ġpictures":11236,"ĠÑĤÑĢÐµÐ±Ð¾Ð²":11237,"ĠÐºÐ½Ð¸Ð³Ðµ":11238,"Ġconcert":11239,"ĠÑĤÐ²Ð¾Ð¸":11240,"ĠÑĤÐ²Ð¾ÐµÐ¹":11241,"ĠÐ±Ð»Ð¸Ð·Ð¾ÑģÑĤÐ¸":11242,"Ġsplendidly":11243,"Ġagreeable":11244,"ĠÐ¿ÑĢÐ¸ÑĤÐ²Ð¾ÑĢÑı":11245,"Ġstrongly":11246,"ĠÐ¿ÑĢÐ¸ÑħÐ¾Ð´Ð¸Ð»":11247,"ĠÑĢÐ°Ð±Ð¾ÑĩÐ¸Ñħ":11248,"ĠÑĢÐ°Ð·Ð²Ð¾Ð´Ðµ":11249,"Ġcrowded":11250,"ĠÐ³ÑĢÑĥÐ´Ð¸":11251,"ĠÐ³ÑĢÑĥÐ´ÑĮÑİ":11252,"ĠÐ½ÐµÐ½Ð°Ð²Ð¸Ð¶Ñĥ":11253,"Ġconnect":11254,"Ġprofit":11255,"ĠÑĥÑģÐ»ÑĭÑħÐ°Ð²":11256,"ĠÑĢÐ°Ð²Ð½Ð¾Ð´ÑĥÑĪÐ½Ð¾":11257,"Ð½Ð¸Ð·Ñĥ":11258,"ĠÑģÐ»Ð°Ð²Ð°":11259,"Ġexception":11260,"ĠÐĲÑĢÐºÐ°Ð´ÑĮÐµÐ²Ð½Ñĭ":11261,"ĠÐºÐ°ÑĢÑĤÐ¸Ð½Ñĥ":11262,"Ġwondering":11263,"ĠÐ°ÑĢÑħÐ¸ÑĤ":11264,"ÑĪÑĥÑİÑģÑı":11265,"Ġcreated":11266,"Ġremarks":11267,"ĠÐ·Ð°Ð»Ðµ":11268,"Ġjumping":11269,"ĠÐłÐ¾ÑģÑģÐ¸":11270,"Ð»Ð°Ð³Ð¾Ð´Ð°ÑĢ":11271,"ĠÐ»ÐµÐ¶Ð°Ð»Ð°":11272,"Ġdisputes":11273,"ĠÐ´Ð¾ÑģÑĤÐ¾Ð¹":11274,"ĠÐ¿ÑĢÐ¸Ð·Ð½Ð°ÑĤÑĮÑģÑı":11275,"ĠÐºÑĢÑĭÐ»ÑĮÑĨÐ°":11276,"Ġprayer":11277,"ĠÐ²Ð·Ð´Ð¾ÑħÐ½ÑĥÐ²":11278,"ĠÐ½Ð¸Ð·ÐºÐ¾":11279,"Ġtruthful":11280,"Ġleading":11281,"Ġscreaming":11282,"Ð¢Ð°Ðº":11283,"Ġbarn":11284,"ĠXXVI":11285,"ĠXXVIII":11286,"ĠÐ¾Ð±ÑĬÑıÑģÐ½ÐµÐ½Ð¸Ðµ":11287,"ĠÑĤÐ¾Ð»Ð¿Ðµ":11288,"ĠÑĤÐ¾Ð»Ð¿Ð°":11289,"Ġhastily":11290,"ĠÐºÑĢÐµÑģÐ»Ðµ":11291,"ĠÐ±Ð¾Ð»ÐµÐ·Ð½ÑĮ":11292,"ĠÑģÑĤÐ°Ð½Ð¾Ð²Ð¸Ð»Ð¾ÑģÑĮ":11293,"Ġunfaith":11294,"ĠÐ½ÐµÑģÑĩÐ°ÑģÑĤÐ½Ð°":11295,"ĠÐºÑĢÑĥÐ¶ÐµÐ²":11296,"ĠÑĢÑĭÐ¶":11297,"ĠÑģÑĤÑĥÐ¿ÐµÐ½ÑĮ":11298,"achel":11299,"ĠÐ¿Ð¾Ð½ÑĢÐ°Ð²Ð¸Ð»ÑģÑı":11300,"Ġexamined":11301,"ĠÐ¿Ð¾Ð»ÑĮÐ·Ñĥ":11302,"ĠÐ²ÑĭÑĢÐ°Ð·Ð¸ÑĤÑĮ":11303,"ĠÐ¾Ð±ÑıÐ·Ð°Ð½Ð½Ð¾ÑģÑĤÑĮ":11304,"Ġsalvation":11305,"ĠÐ¿ÑĢÐµÐ´Ð¼ÐµÑĤÐ°":11306,"Ġbreakfast":11307,"ĠÐ³Ð¾ÑĢÑıÑĩÐ¾":11308,"Ġquarrelled":11309,"ĠÑģÐ¾Ð´ÐµÐ¹ÑģÑĤÐ²":11310,"Ð°Ð½ÑĮÐµÐ¼":11311,"ĠÐ¿ÑĢÐ¾Ð¸ÑģÑħÐ¾Ð´Ð¸Ð»Ð¾":11312,"ĠÐ·Ð¸Ð¼Ñĭ":11313,"ĠXXIV":11314,"ĠXXIX":11315,"Ð°Ð²ÑĪÑĥÑİÑģÑı":11316,"ĠÑĢÑĥÑĩÐºÑĥ":11317,"ĠÐ½ÐµÐ²ÑĭÐ½Ð¾Ñģ":11318,"Ġdisturb":11319,"Ġcommunicated":11320,"Ġfrost":11321,"ĠÐ¼Ð°Ð½ÐµÑĢÐ°":11322,"ĠÐ²ÑĭÐ³Ð¾Ð²Ð¾ÑĢÐ¸ÑĤÑĮ":11323,"ĠGovernor":11324,"Ġmodern":11325,"Ġcarpent":11326,"Ġphilosophy":11327,"ĠÐ½Ð°Ð´ÐµÑıÑģÑĮ":11328,"Ġpersuade":11329,"Ġprinciple":11330,"Ġpossessed":11331,"Ð²Ð¸Ð³Ð°Ñı":11332,"ĠÐ±ÐµÑģÑģÐ¾Ð·Ð½Ð°":11333,"ĠÑħÐ»ÐµÐ±Ð°":11334,"ÐķÑģÐ»Ð¸":11335,"ĠÐ¾ÑīÑĥÐ¿":11336,"ĠÐºÑĢÐ°ÑģÐºÐ°":11337,"ĠÑģÐ¾ÐµÐ´Ð¸Ð½Ñı":11338,"ĠÐ¿Ð¾Ð²Ð¾Ð´ÑĮÑı":11339,"ĠÐĵÐ¾Ð²Ð¾ÑĢÑıÑĤ":11340,"ÐĿÐµÑĥÐ¶ÐµÐ»Ð¸":11341,"ĠÐĵÑĢÐ¸ÑĪÑĥ":11342,"Only":11343,"Ġtranquil":11344,"ĠÐ¥ÑĢÐ¸ÑģÑĤÐ°":11345,"Ġgalloping":11346,"Ġoccasionally":11347,"ĠÐ¸Ð·Ð²Ð¾Ð·ÑĩÐ¸ÐºÐ°":11348,"Ġduel":11349,"Ġbeaten":11350,"Ġdisappro":11351,"ĠÐ¸Ð·Ð±Ð°Ð²Ð¸ÑĤÑĮÑģÑı":11352,"Ġamiable":11353,"Ġperspiring":11354,"ĠÐ¿ÑĢÐ¸Ð»Ð¸ÑĩÐ¸Ñı":11355,"ĠÐ¿Ð¾ÐºÑĢÐ¾Ð²Ð¸ÑĤÐµÐ»ÑĮ":11356,"ĠÐ½Ð°Ð¿Ð¾Ð¼Ð¸Ð½Ð°":11357,"ĠÐ¤ÐµÐ´Ð¾ÑĢ":11358,"ĠÐ¿ÑĥÐ³Ð¾Ð²":11359,"ĠÐ¶ÐµÐ½Ð¸ÑĤÑĮÐ±Ñĭ":11360,"ĠÑĨÐµÑĢÐºÐ¾Ð²ÑĮ":11361,"ĠÐ·Ð°ÑģÐµÐ´Ð°Ð½Ð¸Ðµ":11362,"ĠÐłÑıÐ±Ð¸Ð½Ð¸Ð½":11363,"ĠÐ½ÐµÐ¿Ð¾Ð´Ð²Ð¸Ð¶Ð½Ð¾":11364,"ĠÑĢÐµÐ»Ð¸Ð³Ð¸Ð¾Ð·":11365,"ĠÐ·Ð°Ð¿Ð»Ð°ÐºÐ°Ð»Ð°":11366,"ĠÐ¿ÑĢÐ¾Ð¹Ð´ÐµÑĤ":11367,"ĠÐ¡Ð»ÑĥÑĪÐ°Ñİ":11368,"Ġshrill":11369,"Ġglittering":11370,"ĠÑħÐ²Ð¾ÑģÑĤ":11371,"ĠÑĥÐ¶Ð¸Ð½Ð°ÑĤÑĮ":11372,"ĠÐºÐ½ÑıÐ·ÐµÐ¼":11373,"ĠÑĤÑıÐ³Ð¾ÑĤ":11374,"Shall":11375,"Ġluxury":11376,"ĠÐ¿Ð¾ÑģÐºÐ¾ÑĢÐµÐµ":11377,"ĠSometimes":11378,"Ġpropriety":11379,"ĠÑģÐµÑĢÐµÐ±ÑĢÑı":11380,"ĠÐ±Ð°ÑĤÑİÑĪÐºÐ°":11381,"ĠÐ¼Ð°Ð·ÑĥÑĢ":11382,"Ð¾ÑģÐ¿Ð¾Ð´Ð¸":11383,"ĠÐŁÐ¾ÑĤÐ¾Ð¼Ñĥ":11384,"Ġexerc":11385,"Ġvenom":11386,"ĠÐ·Ð°Ð¼Ð¾Ð»Ðº":11387,"ĠÐľÐ¸ÑħÐ°Ð¸Ð»":11388,"Ġvelvet":11389,"Ġpreparations":11390,"Ġsimplicity":11391,"ĠSecretary":11392,"ĠÐ¢ÐµÐ±Ðµ":11393,"Ġaccompanied":11394,"occupied":11395,"Ġmazurka":11396,"idelity":11397,"ĠÑĦÑĢÐ°Ð½ÑĨÑĥÐ¶ÐµÐ½":11398,"ĠÑģÐ¾Ð±ÑĭÑĤÐ¸Ðµ":11399,"Ġlandlord":11400,"Ġautumn":11401,"ĠÑģÑĢÐ°Ð·Ñĥ":11402,"Ġemphas":11403,"Ġsamovar":11404,"ĠTartar":11405,"Ġcongratul":11406,"ĠÐľÐµÑĢÐºÐ°Ð»":11407,"ĠÑģÐ¼ÑĭÑģÐ»Ð°":11408,"ĠÐĵÐ»Ð°Ð·Ð°":11409,"Ġenthusi":11410,"AC":11411,"LONSKY":11412,"Never":11413,"VER":11414,"give":11415,"gthen":11416,"hip":11417,"ique":11418,"lin":11419,"los":11420,"mony":11421,"mois":11422,"ns":11423,"oked":11424,"she":11425,"uced":11426,"wife":11427,"zen":11428,"ĠÑĪÐµÐµ":11429,"Ð¾ÑĤÐ¾Ñĩ":11430,"ÑĤÐ°Ð»":11431,"Ð¸ÑĢÑĥ":11432,"Ð½ÐµÐ½Ð¸Ðµ":11433,"Ð»ÑĭÐµ":11434,"Ð»ÑĥÐ±":11435,"Ġtact":11436,"Ġau":11437,"Ġavenue":11438,"ÑıÐ½ÑĥÑĤ":11439,"Ġwit":11440,"ĠÑģÐµ":11441,"ĠÑģÐµÐ½Ð¸":11442,"ĠÑģÐ½Ð¸Ð·Ñĥ":11443,"Ġsought":11444,"Ġscience":11445,"Ġscient":11446,"ĠÐ¿ÐµÐ´":11447,"ĠÐ¿Ð°Ð½ÑĤ":11448,"ĠÐ²Ð¸Ð»":11449,"ĠÐ²Ð¸Ð½Ð°":11450,"Ġhol":11451,"ĠÐ¾ÑĢÑĥÐ´":11452,"rees":11453,"ÑĤÐ¾ÑĦ":11454,"ĠÐ¸Ð´Ñĥ":11455,"Ð´Ð¸ÑĤÐµ":11456,"oughed":11457,"Ġble":11458,"Ġbachel":11459,"ises":11460,"isions":11461,"erve":11462,"ÑģÑĤÐµÐ¹":11463,"Ð¾Ð²ÑĥÑİ":11464,"Ð¾Ð²ÑĭÑħ":11465,"Ð¾Ð²ÑĭÐ¼Ð¸":11466,"oning":11467,"onic":11468,"Ġcord":11469,"Ġfish":11470,"Ġfilling":11471,"ĠÐ±Ð¾Ð´":11472,"ĠÐ±ÐµÐ¶Ð°ÑĤÑĮ":11473,"ĠÐ±Ð°ÑĢÐ¾Ð½ÐµÑģ":11474,"ĠÐ±Ð¸Ð½Ð¾Ðº":11475,"Ġmass":11476,"ĠÑĩÐµÑģÑĤÐ¾Ð»ÑİÐ±":11477,"Ġded":11478,"Ġdanced":11479,"ĠÑĤÐ°Ð»":11480,"ĠÑĤÑĥÑĢ":11481,"ese":11482,"Ġlest":11483,"Ġlosing":11484,"Ġlime":11485,"orps":11486,"Ġpite":11487,"Ġpour":11488,"Ġpav":11489,"Ġpausing":11490,"anwhile":11491,"aries":11492,"ĠÑĥÐµÐ·Ð´":11493,"ĠÑĥÐµÐ´ÐµÑĤ":11494,"ĠÐ·Ð°Ð¼Ð¸":11495,"Ġbeef":11496,"Ð¾Ð´Ñı":11497,"Ð¾Ð´Ð¸ÑĤÑĮ":11498,"Ð¾ÑĢÐ¾Ð¶":11499,"Ð¹ÑĤÐ¸":11500,"Ð°Ð²ÑĪÐµÐµÑģÑı":11501,"Ġeh":11502,"Ġeld":11503,"Ġgra":11504,"Ġgently":11505,"ĠÐ¿Ð¾ÑģÐµ":11506,"Ð³Ð°Ð»":11507,"ĠIl":11508,"icine":11509,"Ġreward":11510,"Ġrevo":11511,"Ġreaching":11512,"Ġyawn":11513,"ĠÐ¶Ð´Ñĥ":11514,"ĠÐ»Ð¾Ð¼":11515,"ĠÐ»ÐµÐ´":11516,"ĠÐĲÐ»":11517,"Ð¸Ð²Ð¾Ðµ":11518,"Ð¸Ð²Ð°ÑİÑĤ":11519,"ÑīÑĥÑĢ":11520,"verse":11521,"Ġassembled":11522,"ĠÐ¾ÑĤÑĢÐµÐº":11523,"alf":11524,"alt":11525,"ĠÐĴÐµÐ½":11526,"ĠÐĴÐ¾ÑĢÐºÑĥ":11527,"ÑģÑĤÐ²Ð°Ñħ":11528,"ÑģÑĤÐ²ÑĥÑİÑī":11529,"ĠÐŀÐºÐ¾Ð½Ñĩ":11530,"Ġstables":11531,"Ð¸Ð¼Ð¿Ð°ÑĤ":11532,"ĠAF":11533,"Ġride":11534,"ĠÐ²ÑĭÐ¶":11535,"Ð»ÑıÑıÑģÑĮ":11536,"ĠÑıÐ´Ð¾Ð²":11537,"oos":11538,"ÑĢÑĥÐ³Ð¾":11539,"ĠÑħÐ¾ÑħÐ¾ÑĤ":11540,"ĠÐ¾Ð±Ð½Ð¸Ð¼":11541,"ĠÐ¾Ð±ÑħÐ¾Ð´":11542,"ĠSchool":11543,"ĠSoro":11544,"ĠÑģÑĤÐ¸Ñħ":11545,"ĠLike":11546,"ĠHim":11547,"ĠÐ¿ÑĢÐ¸Ð³Ð¾Ð²Ð°ÑĢ":11548,"ĠÐ¿ÑĢÐ¸Ð¹ÑĤÐ¸":11549,"Ġkill":11550,"ĠÐ¡Ð½Ð°ÑĩÐ°Ð»Ð°":11551,"ĠÐ¿Ð¾Ð´Ð¾Ð¹Ð´Ñı":11552,"Ġsob":11553,"Ġshop":11554,"Ġshows":11555,"Ð¸ÐºÐ¾Ð²":11556,"ÐµÐ»ÑĮÐ½Ð¸Ðº":11557,"ĠÐĶÐ²":11558,"ĠÐĶÐ¾Ð»Ð¶":11559,"ĠÐĶÐ°Ð¹ÑĤÐµ":11560,"ĠÐĶÐµÑĤÐ¸":11561,"anding":11562,"ĠÑĢÐ°Ð·Ð¾Ð±ÑĢ":11563,"ĠÑĢÐ°Ð·ÑĬÑıÑģ":11564,"ĠÐĺÐ¼":11565,"Ð¼ÑĥÑĤ":11566,"ĠVorkuyev":11567,"aker":11568,"Ġframe":11569,"pposing":11570,"ĠHeaven":11571,"ĠBol":11572,"Ġalter":11573,"aci":11574,"Ġchimed":11575,"ĠÐ¿ÐµÑĢÐµÑĩ":11576,"ĠWH":11577,"ĠWERE":11578,"ĠÑģÐ¿ÑĢÐ°Ð²":11579,"ĠÑģÐ¿Ð°ÑģÑĤÐ¸":11580,"ĠPR":11581,"ĠPok":11582,"ĠPilate":11583,"Ġje":11584,"Ġlikes":11585,"ĠÐ¾Ð´ÐµÑĤ":11586,"ĠÐ¿Ð¾Ð»Ñı":11587,"ĠÐ¿Ð¾Ð»Ð½Ð¾":11588,"ĠÐ¿Ð¾Ð»ÐºÐ°":11589,"Ġintol":11590,"Ġgolos":11591,"ĠÐľÐ°ÑĪÐ°":11592,"ĠMaman":11593,"ĠMinist":11594,"Ð¾ÑĩÐµÐº":11595,"Ð¾ÑĩÐ¸Ð»Ð°":11596,"ĠÑĪÐ»Ñİ":11597,"Ġvig":11598,"raph":11599,"atever":11600,"ĠÐ´Ð²Ð¸Ð½Ñĥ":11601,"ĠÑģÑĤÐ¾Ð»Ð¸":11602,"ĠDid":11603,"ĠÐ¿ÑĢÐ¾Ð¸Ð³":11604,"ortion":11605,"ĠÐĲÐ»ÐµÐºÑģÐ°Ð½Ð´ÑĢÐ¾Ð²Ð½Ñĥ":11606,"venient":11607,"Ġbranch":11608,"ĠÑģÐ¼ÐµÐ»":11609,"ĠÑģÐ¼Ð¾ÑĢÑī":11610,"Ð´ÐµÑĤÑĮ":11611,"ĠÐ´ÐµÐ»Ð°Ð»Ð¸":11612,"ĠÐ´ÐµÐ»Ð°Ð¼Ð¸":11613,"cies":11614,"ĠÐ´ÑĢÑĥÐ³Ð¾Ð¼Ñĥ":11615,"ĠNOT":11616,"ĠNata":11617,"ploy":11618,"Ð°ÐµÑĤÐµÑģÑĮ":11619,"ĠÐ¼ÑĥÐ¶ÑĮÑı":11620,"ĠÑģÐ¾ÑĥÑģ":11621,"ĠÐ½Ð¸Ð³Ð´Ðµ":11622,"ieux":11623,"ĠÐ§ÐµÐ³Ð¾":11624,"apit":11625,"Ġjustify":11626,"Ġtrif":11627,"Ġtram":11628,"Ġtechn":11629,"Ġteacher":11630,"umbled":11631,"Ġprog":11632,"Ġprocess":11633,"Ġproceed":11634,"Ð»Ð¸Ð²ÑĭÐµ":11635,"ÑĥÐ±ÐµÑĢ":11636,"ĠÑĦÐ°Ð¼":11637,"ĠÑĦÑĥÑĢ":11638,"ĠÐ²Ð¾ÑģÑĮ":11639,"ĠEr":11640,"ĠEgor":11641,"ĠÑħÐ¾ÑĢÐ¾ÑĪÐ¸":11642,"Ġblank":11643,"ĠÑģÐ´ÐµÐ»Ð°Ð»Ð¾ÑģÑĮ":11644,"Ġspending":11645,"ĠÑģÐ¾Ð±Ð»ÑİÐ´":11646,"ĠÐ¼Ð¾Ð»Ð¸ÑĤ":11647,"ĠÐ¾ÑģÑĤÐ°ÑĤÑĮÑģÑı":11648,"ÑĬÑİÑĤ":11649,"Ġthanked":11650,"ĠÐ¿Ð¾Ð»Ð¾Ð¶ÐµÐ½Ð¸Ñİ":11651,"ÐµÑĢÐ´Ð¸Ð½":11652,"ĠÐĺÐ²Ð°Ð½Ð¾Ð²Ð½Ñĥ":11653,"ĠÐ¿Ð¾Ð½Ð¸Ð¼Ð°Ð»Ð¸":11654,"ĠÐ¾ÑģÐ¾Ð±ÐµÐ½Ð½ÑĥÑİ":11655,"Ġgrant":11656,"ĠÑĨÐ°ÑĢ":11657,"Ġdesyat":11658,"ĠÐ½Ð°ÑĩÐ°Ð»Ð¾ÑģÑĮ":11659,"Ġhusbands":11660,"Ġreminded":11661,"ĠÐ²ÐµÑģÐµÐ»Ð°":11662,"Ð»ÐµÐ½Ð¾":11663,"Ð»ÐµÐ½Ð½ÑĭÑħ":11664,"Ð»ÐµÐ½Ð½ÑĥÑİ":11665,"ĠÐ±ÐµÐ·Ð²Ñĭ":11666,"ization":11667,"Ġpron":11668,"Ġanswers":11669,"ĠÑĢÐµÑĪÐ¸Ð»Ð°":11670,"Ġheads":11671,"Ġholy":11672,"ĠÑĢÐ°Ð·Ð³Ð¾Ð²Ð¾ÑĢÐ¾Ð²":11673,"Ġwrink":11674,"ĠÐ³ÑĢÐ°ÑĨÐ¸":11675,"Ġrecover":11676,"Ġpassions":11677,"Ġrelated":11678,"Ġappl":11679,"ĠÑģÐ¼Ð¾ÑĤÑĢÐ¸ÑĤ":11680,"ĠÐ²ÑģÐ¿Ð¾Ð¼Ð¸Ð½Ð°Ð»Ð°":11681,"Ġevents":11682,"Ġevoked":11683,"Ġscented":11684,"loved":11685,"Ġperiod":11686,"ĠÐ¿ÐµÑĢÐ²ÑĭÐµ":11687,"ĠÑĢÐ°Ð·Ð²Ð¸ÑĤÐ¸Ðµ":11688,"haired":11689,"Ġbelow":11690,"ÑĢÑĭÐ·":11691,"ĠÐ·Ð°ÐºÑĥÑģ":11692,"ĠÐ·Ð°ÐºÑĢÑĭÑĤ":11693,"ĠÑĥÐ²Ð¸Ð´Ð¸ÑĪÑĮ":11694,"ĠÐ·Ð°Ð²ÑıÐ·":11695,"ĠÐ±Ð¾Ð»ÑĮÑĪÐ¸Ñħ":11696,"ĠÐ±Ð¾Ð»ÑĮÑĪÐ¸Ð½ÑģÑĤÐ²Ð¾":11697,"Ġdoors":11698,"ĠÐ²Ð¼ÐµÑĪ":11699,"ĠÐ¼Ð¾ÐµÐ¼":11700,"ĠÐºÐ°ÑĢÑĮ":11701,"ĠÐºÐ°ÑĢÐµÑĤÐ°":11702,"ĠÐĶÐ°ÑĢÑĮÑİ":11703,"ĠÐ´Ð¾Ð±ÑĢÐ¾":11704,"roval":11705,"rovsk":11706,"ĠÑģÐ¸Ð»Ðµ":11707,"ĠÑģÐ¸Ð»Ð°Ð¼Ð¸":11708,"ÑĥÐ³Ð¸":11709,"ĠÑģÐµÑĢÐ´ÑĨÑĥ":11710,"ĠÐ½Ð°ÑģÑĥÐ¿":11711,"ĠÐ½Ð°ÑģÑĤÐ¾ÑıÑīÐµÐµ":11712,"ĠÐ¿Ð¾ÑģÐ¾Ð²ÐµÑĤ":11713,"ĠÐ¾ÑģÑĤÐ°Ð½Ð¾Ð²Ð¸Ð²ÑĪÐ¸ÑģÑĮ":11714,"Ð¸ÑĩÐµÑģÐºÐ¾Ð³Ð¾":11715,"Ð¸ÑĩÐµÑģÐºÐ¸Ð¼":11716,"ĠÐ¼Ð¾Ð»Ð¾Ð´Ð¾Ð³Ð¾":11717,"ĠÑĩÐµÑĢÑĤ":11718,"ĠÐ³ÑĢÐ°ÑĦÐ°":11719,"Ġexpectation":11720,"Ġdecor":11721,"ĠÐ»ÑĥÑĩÑĪÐµÐµ":11722,"Ġfamous":11723,"ÑĤÑĥÐ´Ð°":11724,"Ġinvent":11725,"Ð°ÑİÑīÐµÐ¹":11726,"Ð°ÑİÑīÑĥÑİ":11727,"Ġcareful":11728,"Ġslip":11729,"ÑıÑīÐµÐ³Ð¾":11730,"ĠÐ·Ð°Ð´ÑĢÐ¾Ð¶":11731,"ĠÐ¸Ð½ÑĤÐµÑĢÐµÑģÑĭ":11732,"ĠÐ¸Ð½ÑĤÐµÑĢÐµÑģÐ¾Ð²Ð°Ð»ÑģÑı":11733,"ĠÑĥÑĤÑĢÐµÐ½":11734,"ĠÑħÐ¾Ð·ÑıÐ¹ÐºÐ¾Ð¹":11735,"Ġchem":11736,"Ġcheese":11737,"ĠÐ¾ÑģÑĤÐ°Ð²Ð°Ð»Ð¾ÑģÑĮ":11738,"Ġafford":11739,"ĠÐ¿ÐµÑĢÐµÐ´Ð°ÑĤÑĮ":11740,"ĠÐ¼Ð°ÑĤÐµÑĢ":11741,"ĠÐ»ÐµÐ³ÐºÐ¾Ð¼":11742,"ĠÐ¿ÑĢÐ¾ÑĤÐ¸Ð²Ð½Ð¾":11743,"ĠÐ·Ð°Ð¼ÐµÑĤÐ½Ð¾":11744,"ÐµÐ·Ð¶Ð°Ñı":11745,"ÐµÐ·Ð¶Ð°Ð¹":11746,"ĠÐ¿ÑĢÐ¸Ð·Ð½Ð°ÑĤÑĮ":11747,"Ġawake":11748,"ĠÑģÐ»ÑĥÑĩÐ°Ñİ":11749,"ĠÑģÐºÐ°Ð¶ÐµÑĪÑĮ":11750,"ĠÐ¿ÑĢÐ¸Ð´ÐµÑĤÑģÑı":11751,"ĠÑĥÑģÐ¾Ð²ÐµÑĢÑĪ":11752,"ĠÐ·Ð½Ð°ÑĩÐ¸ÑĤÐµÐ»ÑĮÐ½ÑĭÐ¼":11753,"Ġbelief":11754,"ĠÑĥÐºÐ¾ÑĢÐ¸Ð·":11755,"ĠÑħÐ¾Ð´Ð¸Ð»Ð°":11756,"Ġinformed":11757,"Ġinfidelity":11758,"ĠÐ½Ð°ÑħÐ¾Ð´Ð¸ÑĤÑģÑı":11759,"ĠÐ·ÐµÐ¼Ð»ÐµÐ´":11760,"ĠÐ¿Ð¾Ð´Ð½ÑıÐ»Ð¸ÑģÑĮ":11761,"unting":11762,"ĠÐ±ÐµÐ»Ð¾Ð¹":11763,"ĠÐ²ÑĭÐ¿Ð¸Ñģ":11764,"ĠÐ²ÑĭÐ¿ÑĢÑıÐ¼":11765,"ĠÐ³Ð»Ð°Ð²Ð½ÑĭÐ¹":11766,"gging":11767,"ĠÑģÑĩÐ°ÑģÑĤÐ»Ð¸Ð²Ñĭ":11768,"ĠÐ´ÐµÑĢÐ¶Ð°ÑĤÑĮ":11769,"ĠÐ´ÐµÑĢÐ¶Ð°Ð»Ð°":11770,"ĠÐ´ÐµÑĢÐ¶Ð°ÑģÑĮ":11771,"ĠÐ¾Ð±ÑĬÑıÑģÐ½ÑıÑĤÑĮ":11772,"ĠÐľÐ¸ÑħÐ°Ð¹Ð»Ð¾Ð²Ð°":11773,"ĠÐ½Ð°ÑĢÐ¾Ð´Ðµ":11774,"ĠÐ¼Ð¸Ð»Ð¾Ðµ":11775,"ĠÑħÐ¾Ð»Ð¾Ð´Ð½ÑĭÐ¼":11776,"ĠÑħÐ¾Ð»Ð¾Ð´Ð½ÑĭÐ¹":11777,"ĠÐ²Ð¾Ð´Ðµ":11778,"lected":11779,"ĠÐĽÐ¸Ð´Ð¸Ñİ":11780,"ĠÐ¼Ð°Ð»ÐµÐ½ÑĮÐºÐ¸Ðµ":11781,"ĠÐļÐ¾Ð½ÑģÑĤÐ°Ð½ÑĤÐ¸Ð½Ñĥ":11782,"ĠÐµÐ´ÑĥÑĤ":11783,"ĠÐµÐ´ÐµÑĤÐµ":11784,"ĠÑĢÐ¾Ð´Ð½ÑĭÑħ":11785,"ĠFrenchman":11786,"cular":11787,"Ġwindows":11788,"Ġoppressed":11789,"Ġincon":11790,"ĠÐ¸Ð·Ð±ÑĢÐ°Ð½":11791,"ĠÐĴÐµÑģÐ»Ð¾Ð²ÑģÐºÐ¾Ð¼Ñĥ":11792,"Ġjoin":11793,"Ġprompt":11794,"ĠÐ´Ð°Ð²Ð°ÑĤÑĮ":11795,"ĠÐ´Ð°Ð²Ð°Ñı":11796,"ĠÐ¾Ð±ÑīÐµÐ¼Ñĥ":11797,"Ġadvise":11798,"Ġswall":11799,"Ġswift":11800,"Ġadmired":11801,"ĠÐ³Ð¾ÑĤÐ¾Ð²Ñĭ":11802,"ĠÐ·Ð°Ð¼ÐµÑĩÐ°Ð½Ð¸Ñı":11803,"ĠÐ½ÐµÐ¶Ð½Ð¾ÑģÑĤÑĮÑİ":11804,"ĠÐ¨Ð²ÐµÐ¹ÑĨÐ°ÑĢ":11805,"skin":11806,"ĠÐºÐ¾ÑģÑĥ":11807,"ĠÐºÐ¾ÑģÑĭ":11808,"ification":11809,"ĠÐ½ÐµÐ½ÑĥÐ¶":11810,"ĠÐ¿ÐµÑĢÐµÐ¼ÐµÐ½Ð°":11811,"ĠÐ³Ð¾ÑģÐ¿Ð¾Ð´Ð°":11812,"ĠÐ¿ÑĢÐ¸ÑĩÐµÑģ":11813,"ĠÐ·Ð°Ð½ÑıÑĤÐ°":11814,"ĠÑīÐµÐºÐ¸":11815,"Ġuseful":11816,"ĠÑĢÑĥÑģÑģÐºÐ¸Ð¹":11817,"ĠÐ²Ð¾ÑģÐ¿Ð¾Ð¼Ð¸Ð½Ð°Ð½Ð¸Ð¹":11818,"ĠÐ²Ð¾ÑģÐ¿Ð¾Ð¼Ð¸Ð½Ð°Ð½Ð¸Ð¸":11819,"ĠÐ¿ÑĢÐµÐ´ÑģÑĤÐ°Ð²Ð»ÑıÐ»Ð¸ÑģÑĮ":11820,"Ġfigures":11821,"ĠÐ±Ð¾ÑĢÐ¾Ð»":11822,"Ġpretending":11823,"ĠÑģÑĥÐ´Ð¸ÑĤÑĮ":11824,"ĠÑģÑĢÐµÐ´ÑģÑĤÐ²Ð°":11825,"Ġpleasantly":11826,"ĠÐµÐ·Ð´Ð¸Ð»Ð¸":11827,"Ġuncle":11828,"ĠÐ¾Ð¿ÑĢÐµÐ´ÐµÐ»ÐµÐ½Ð½Ð¾":11829,"ĠÑĤÑĢÐµÐ±Ð¾Ð²Ð°Ð»":11830,"ĠÐºÐ½Ð¸Ð³Ð°":11831,"ĠÐ»ÐµÑģÑĥ":11832,"Ġeducational":11833,"ĠÐ²ÑĭÐ¹Ð´Ñı":11834,"ĠÐ¿Ð¾Ð´ÑħÐ¾Ð´Ð¸Ð»":11835,"ĠÐ¼ÐµÑģÑĤÑĥ":11836,"ĠÑģÐ²Ð¾Ð±Ð¾Ð´Ñĥ":11837,"ĠÐ¿ÑĢÐµÐ´Ð»Ð¾Ð¶Ð¸Ð»":11838,"ĠÐ¼Ð¾Ð»ÑĩÐ°Ð½Ð¸Ñı":11839,"Ġsleeping":11840,"Ġburnt":11841,"Ġtrace":11842,"Ġsenseless":11843,"ĠÐ³ÑĥÐ±ÐµÑĢÐ½Ð°":11844,"ĠÐ²ÐµÑīÐµÐ¹":11845,"ĠÐ´Ð»Ð¸Ð½Ð½ÑĭÐ¼Ð¸":11846,"ĠÐ¿ÑĢÐ¾ÑīÐµÐ½Ð¸Ñı":11847,"ĠÑĥÐ²ÐµÑĢÐµÐ½Ð°":11848,"Ġguilt":11849,"ÐĲÐ½":11850,"Ġdarkness":11851,"ĠÐ¿ÑĢÐ¸ÑħÐ¾Ð´Ð¸Ð»Ð¾":11852,"Ġtroubled":11853,"ĠÐ³Ð¾ÑĢÐ´Ð¾ÑģÑĤÑĮ":11854,"ĠÐ±Ð»Ð°Ð³Ð¾Ð´Ð°ÑĢÑİ":11855,"ĠÐ¿ÐµÑĢÐµÐ³Ð»Ñı":11856,"Ġemploy":11857,"ĠÐ´ÐµÐ²Ð¾ÑĩÐºÐµ":11858,"ĠÐ¼ÑĥÐ¶ÑĩÐ¸Ð½Ð°":11859,"ĠÐºÐ°ÑĢÑĤÐ¸Ð½Ðµ":11860,"Ġwonderfully":11861,"Ġsinging":11862,"Ġhundreds":11863,"ĠÐºÐ¾ÑĢÐ¾ÑĤÐºÐ¾":11864,"ÐĴÑģÐµ":11865,"Ð¸ÑĤÐ¾Ð½Ñĭ":11866,"ĠÐ¶ÐµÑģÑĤÐ¾Ð¼":11867,"ĠÐļÐ°ÑĢÐµÐ½Ð¸Ð½Ñĥ":11868,"ĠÑĤÑĢÐ°Ð²Ñĥ":11869,"ĠÑģÐ»Ð°Ð±Ð¾ÑģÑĤÑĮ":11870,"ĠÐ¿ÑĢÐ¸ÑģÑĥÑĤÑģÑĤÐ²Ð¸Ñı":11871,"Ġcourage":11872,"ĠÐ´Ð¾ÑģÑĤÐ°ÑĤÑĮ":11873,"ĠÐ¿Ð¾Ð¼Ð¾ÑīÑĮ":11874,"Ġexplaining":11875,"Ġmuscles":11876,"Ġlawn":11877,"ĠGrand":11878,"ĠÑģÐ¸ÑıÑı":11879,"Ġstrengthen":11880,"ĠÐ¿Ð¾Ð»Ð¾Ð²Ð¸Ð½Ñĭ":11881,"Ġdiscussed":11882,"ÐŀÐ½Ð°":11883,"Ġliter":11884,"Ġelement":11885,"Ġbarrier":11886,"ĠÑĩÑĥÐ¶Ð¾Ð¹":11887,"Ġstruggling":11888,"ĠÑģÐ¾Ð·Ð½Ð°Ð½Ð¸ÐµÐ¼":11889,"ĠÐ¿ÑĥÑĤÐµÑĪÐµ":11890,"Ġhaste":11891,"ĠÐ¿Ð¾ÐºÐ°Ð·Ð°Ð»ÑģÑı":11892,"ĠÑģÐ¾ÑĩÐ¸Ð½":11893,"Ġphysically":11894,"ĠÐ¿Ð¾ÑģÑĤÐ°Ð²Ð¸Ð»":11895,"ĠÐļÐ¾ÑĢÐ½ÐµÐ¹":11896,"Ġjudged":11897,"ĠÐ¾Ð¿ÑĥÑģÑĤÐ¸Ð²":11898,"ĠÐ¾ÑģÐ²ÐµÐ¶":11899,"Ġattracted":11900,"ĠÑģÑĤÑĢÐ°ÑħÐ°":11901,"ĠÑĩÐ»ÐµÐ½Ñĭ":11902,"ĠÑģÐµÐºÑĥÐ½Ð´Ñĥ":11903,"Ġpetition":11904,"ĠÐ¾Ð±Ð´ÑĥÐ¼Ð°ÑĤÑĮ":11905,"Ġreproached":11906,"Ġcandles":11907,"Ġuniforms":11908,"Ġcatching":11909,"Ġhiding":11910,"ĠÐ½Ð°ÑĩÐ¸Ð½Ð°ÐµÑĤ":11911,"ĠÐ¾Ð¶Ð¸Ð´Ð°Ð½Ð¸Ñı":11912,"ĠÐ²ÑĭÐ³Ð¾Ð´Ñĭ":11913,"ĠMeanwhile":11914,"ĠÐµÑģÑĤÐµÑģÑĤÐ²ÐµÐ½Ð½Ð¾":11915,"ĠÑģÑĤÐ°ÑĤÑĮÐ¸":11916,"ĠÑģÑĤÐ°ÑĤÑĮÑİ":11917,"Ġscarlet":11918,"Ġindeed":11919,"ĠÐ±ÑĥÐ´ÑĥÑīÐµÐ¹":11920,"ĠÐ²Ð½Ð¸Ð·Ñĥ":11921,"ĠÐ±Ð¾ÐºÐ¾Ð¼":11922,"Ġstretching":11923,"Ġagricultural":11924,"Ð¸Ð²ÑĪÐ°ÑıÑģÑı":11925,"ĠÐ¸Ð·Ð±ÐµÐ³Ð°Ñı":11926,"ĠÐ¸ÑģÑĤÐ¾ÑĢÐ¸Ñİ":11927,"ĠÑģÑĥÐ¼Ð°Ñģ":11928,"ĠÑĩÐµÑģÑĤÐ½ÑĭÐ¹":11929,"ĠÐ½Ð°ÑģÑĤÐ¾ÑıÑīÐ°Ñı":11930,"ĠÑģÑģÐ¾ÑĢÐ°":11931,"ĠÑģÑģÐ¾ÑĢÑĭ":11932,"ĠÐ²Ð»Ð¸ÑıÐ½Ð¸ÐµÐ¼":11933,"ĠÐºÐ°Ð¿Ð¸ÑĤ":11934,"ĠÑĤÐµÐ¿ÐµÑĢÐµÑĪ":11935,"Ġsternly":11936,"ĠÑģÐ¿ÑĢÐ°Ð²ÐµÐ´Ð»Ð¸Ð²Ð¾":11937,"ĠÐ¿ÑĢÐ¾ÑĪÐµÐ´ÑĪÐµÐµ":11938,"ĠÐ³ÑĢÑıÐ·Ð¸":11939,"ĠÑģÐ²Ð¸Ð´Ð°Ð½Ð¸Ðµ":11940,"ĠÐ¿Ð¾Ð¼Ð¾Ð»ÑĩÐ°Ð»":11941,"ĠÑĦÐ¸Ð³ÑĥÑĢÐ°":11942,"ÑĢÐ¾Ð¿ÐµÐ¹":11943,"Ġfrock":11944,"Ġnobleman":11945,"cript":11946,"kina":11947,"ĠÐ½ÐµÑĩÐ¸ÑģÑĤÐ¾":11948,"ĠÐ¿ÑĢÐ¸Ð¼Ð¸ÑĢÐµÐ½Ð¸Ñı":11949,"Ġannounce":11950,"ÑĥÐ»ÑıÑĢ":11951,"ĠÐ°ÐºÐºÑĥ":11952,"ĠÐ¿Ð¾ÐºÐ°ÑĩÐ¸Ð²Ð°Ñı":11953,"Ġconfirm":11954,"Ġobstin":11955,"ĠÐ²Ð¸Ð·Ð³":11956,"Ġmodest":11957,"Ġrejoined":11958,"ĠÐ¾ÑĤÐ½Ð¾ÑģÐ¸ÑĤÐµÐ»ÑĮÐ½Ð¾":11959,"ĠÐ½ÐµÐ¿ÑĢÐ¸Ð»Ð¸ÑĩÐ½Ð¾":11960,"Ġphilosoph":11961,"Ġgloomy":11962,"ÑĥÐ¹ÑĤÐµ":11963,"ĠÑĩÑĥÐ´ÐµÑģ":11964,"ĠÐŁÐ¾Ð»Ð¾Ð¶ÐµÐ½Ð¸Ðµ":11965,"ĠÐ½Ð°ÑĩÐ°Ð»ÑĮÐ½Ð¸Ðº":11966,"Ġmirac":11967,"Ġmotionless":11968,"Ġappreciate":11969,"Ġswaths":11970,"ĠÐ±ÑĢÐ°ÑĤÑĮÐµÐ²":11971,"ĠÐĿÐ°Ð¿ÑĢÐ¾ÑĤÐ¸Ð²":11972,"ĠÐ²ÑĭÐºÐ°Ð·ÑĭÐ²":11973,"ĠÐ½Ð°ÑģÑĤÑĢÐ¾ÐµÐ½Ð¸Ðµ":11974,"ĠÐ¾ÑĤÑģÑĥÑĤ":11975,"Ġreferring":11976,"ĠÑģÐ¾ÑĤÐ½Ð¸":11977,"Ġmagn":11978,"Ġpraise":11979,"ĠÐŁÐ¾Ð¹Ð´ÐµÐ¼ÑĤÐµ":11980,"Ġmyster":11981,"Ġbetrayed":11982,"ĠÐ¿ÑĢÐ¸Ð½Ð°Ð´Ð»ÐµÐ¶":11983,"Ġhesitation":11984,"ĠÑĢÐ¾Ð¼Ð°Ð½":11985,"ĠÐ¿Ð»Ð°ÐºÐ°ÑĤÑĮ":11986,"ĠÐ´Ð¾Ð²ÐµÑĢÐ¸Ðµ":11987,"ĠÐ¿Ð¾Ð²Ð¾ÑĢÐ°ÑĩÐ¸Ð²Ð°Ñı":11988,"Ġburning":11989,"ĠÑħÐ»Ð¾Ð¿Ð¾ÑĤ":11990,"Ġhistory":11991,"ĠÐ¿ÑĢÐµÐºÑĢÐ°ÑĤÐ¸ÑĤÑĮ":11992,"Ġawaiting":11993,"ĠÐĵÐ»Ð°Ð´Ð¸Ð°ÑĤÐ¾ÑĢ":11994,"ĠÐ´Ð²ÐµÐ½Ð°Ð´ÑĨÐ°ÑĤÑĮ":11995,"Ġgrasped":11996,"Ġperplexity":11997,"Ġadvantage":11998,"ĠÐ·Ð½Ð°Ð¼ÐµÐ½Ð¸ÑĤÑĭÐ¹":11999,"Ġentreaty":12000,"ĠÐ¿ÑĢÐµÐ¿ÑıÑĤÑģÑĤÐ²Ð¸Ñı":12001,"ĠÐľÐ°ÑħÐ¾ÑĤÐ¸Ð½Ð°":12002,"ĠÑģÐ¾Ð¿ÐµÑĢ":12003,"ĠÐ¿ÑĢÐ¾Ð»ÐµÑĤ":12004,"ĠÐ½Ð°ÑĢÑıÐ´":12005,"ĠÐĵÐ»Ð°Ð²Ð½Ð¾Ðµ":12006,"ĠÐļÐ¾ÑĢÑģÑĥÐ½ÑģÐºÐ¸Ð¹":12007,"Ġtalent":12008,"ĠÐºÐ°Ð»Ð¾ÑĪ":12009,"ĠÐĴÐ·Ð³Ð»Ñı":12010,"ĠÐĿÐµÐ¿ÑĢÐµÐ¼ÐµÐ½Ð½Ð¾":12011,"Ġintentions":12012,"Ġunreason":12013,"ĠÐ¾Ð¿Ð¾Ð¼Ð½Ð¸ÑĤÑĮÑģÑı":12014,"ĠÐ½ÐµÑģÑĩÐ°ÑģÑĤÑĮÐµ":12015,"ĠÐ¾ÑģÐ»Ð°Ð±":12016,"regard":12017,"Ġgesture":12018,"Ð¸Ð´ÐµÑģÑıÑĤÐ¸":12019,"ĠÐ¿Ð¾Ð¼Ð¸Ð»ÑĥÐ¹":12020,"Ġenergetic":12021,"ĠÐķÐ²ÑĢÐ¾Ð¿Ðµ":12022,"ĠÐ¿ÐµÑĪÐºÐ¾Ð¼":12023,"Ġcoughing":12024,"ĠÑģÐ¾Ð±ÑĭÑĤÐ¸Ñı":12025,"ĠÑģÐ»ÑĥÑĩÐ°ÑıÑħ":12026,"Whom":12027,"Ġswaying":12028,"ĠÐ¿ÑĢÐ¸Ð½ÑĨÐ¸Ð¿":12029,"Ġtype":12030,"Ġceremony":12031,"Ġcousin":12032,"Ġnervous":12033,"ĠÐļÐ°Ð¿Ð¸ÑĤÐ¾Ð½Ñĭ":12034,"Ġshuddered":12035,"Ġnecessity":12036,"Ġdefects":12037,"Ġhummocks":12038,"ĠÐ¿ÑĢÐµÐ½ÐµÐ±ÑĢÐµÐ³":12039,"Ð´ÑĪÐ½ÐµÐ¿":12040,"Ð¸Ð»ÑĮÑıÑĢ":12041,"ĠÐ·ÑıÑĤÑı":12042,"ĠÐĴÐ¸Ð½Ð¾Ð²Ð°ÑĤ":12043,"ĠÐ¸Ð·Ð»Ð°Ð³Ð°ÑĤÑĮ":12044,"ĠMitya":12045,"Ġprovincial":12046,"ĠÑģÐ½Ð¸Ñģ":12047,"Ġcritic":12048,"Ġremedy":12049,"ĠTHAT":12050,"ĠÐĽÑĥÑĩÑĪÐµ":12051,"ĠÐ¡Ð¾ÑĢÐ¾Ðº":12052,"ĠOBLONSKY":12053,"ĠDepartment":12054,"Ġvenomous":12055,"moiselle":12056,"ĠÐ¿Ð°Ð½ÑĤÐ°Ð»Ð¾":12057,"Ġpavil":12058,"Ġeldest":12059,"Ġrevoir":12060,"ĠÐŀÐºÐ¾Ð½ÑĩÐ¸Ð²":12061,"ĠSorokina":12062,"ĠPokrovsk":12063,"Ġgoloshes":12064,"ĠÑĪÐ»ÑİÐ¿":12065,"ĠNataly":12066,"ÑĬÑİÑĤÐ°Ð½ÑĤ":12067,"ĠÑĥÑģÐ¾Ð²ÐµÑĢÑĪÐµÐ½":12068,":--":12069,"Be":12070,"RI":12071,"TH":12072,"TUR":12073,"cle":12074,"cut":12075,"cont":12076,"gown":12077,"ipt":12078,"iosity":12079,"pal":12080,"past":12081,"pber":12082,"who":12083,"work":12084,"ymn":12085,"zed":12086,"Ð£":12087,"ĠÃł":12088,"ÐµÐµÑĪÑĮ":12089,"ÐµÑģÑĤÐ²Ð¾":12090,"ÑĤÑĭÐ¹":12091,"ÑĤÐ°ÑĪ":12092,"Ð¸ÑģÐºÐ¾Ð¹":12093,"ÑģÐ¾Ðº":12094,"ÑģÐ¸Ñı":12095,"Ð»Ð¾Ð³Ð¾":12096,"Ð»ÐµÐ¿":12097,"Ð»Ð°Ð½Ð´":12098,"Ð»ÑĥÐ¿":12099,"Ð»ÐµÐ½Ð½Ð¾Ðµ":12100,"ÑĢÐ¸Ð²":12101,"ÑĢÑĭÐ¼":12102,"Ġtant":12103,"Ġtiny":12104,"Ġtutor":12105,"ÑĥÑĢÐ°":12106,"inister":12107,"ÑıÐµÑĤ":12108,"ÑĮÐµÑĤ":12109,"ÑĭÑģÐ»Ð¸":12110,"Ġwid":12111,"Ġwalt":12112,"ĠÑģÑĥ":12113,"ĠÑģÐ°Ð»":12114,"Ġske":12115,"Ġsang":12116,"Ġsank":12117,"ĠÐ¿ÐµÐ»":12118,"ĠÐ²ÑĤÐ¾":12119,"ĠÐ²Ð¸Ñģ":12120,"ĠÐ²Ð¾Ð½":12121,"ĠÐ²Ð²ÐµÑĢÑħ":12122,"ĠÐ²Ð»Ð°Ð¶":12123,"Ġhither":12124,"rew":12125,"Ð²ÐµÐ¶":12126,"ĠÐ¸Ð´Ðµ":12127,"Ð´ÑĢÐ°Ð²":12128,"itim":12129,"itating":12130,"Ġbust":12131,"Ġbond":12132,"atively":12133,"iser":12134,"ĠÐºÐ°Ð»Ð°":12135,"ĠÐºÑĥÑĪ":12136,"ĠÐºÐ»Ð°Ð´":12137,"Ġtooth":12138,"ÑĪÐµÑĢ":12139,"ÐµÐ½Ð½Ñĭ":12140,"Ġcra":12141,"Ġcav":12142,"Ġfired":12143,"Ġfaut":12144,"Ġfool":12145,"ĠÐ±Ð°Ñģ":12146,"ĠÐ±Ð¾Ñģ":12147,"Ġmowers":12148,"ĠÐ´ÐµÑĢ":12149,"ĠÐ´Ð¾Ð¶":12150,"ĠÐ´Ð°Ð¹ÑĤÐµ":12151,"Ġthus":12152,"Ġdare":12153,"ĠÑĤÐµÑģ":12154,"Ð½Ð°ÑģÑĤ":12155,"ĠÐ½ÐµÑĥÐ´Ð°":12156,"Ġlang":12157,"ories":12158,"Ġpace":12159,"Ġpained":12160,"Ġpoured":12161,"Ð°ÐºÐ°":12162,"Ð°ÐºÐµÐ¹":12163,"Ð±Ð¾Ð¼":12164,"Ð¾Ð»ÑİÐ±":12165,"ĠÑĥÑĪÐ¸":12166,"ĠÑĥÑģÑĤÑĥÐ¿":12167,"ĠÐ·ÐµÐ²":12168,"ÐµÑĤÐµÐ»ÑĮ":12169,"ĠÑĢÐµ":12170,"ĠÑĢÐ°":12171,"ĠÑĢÑı":12172,"ĠÑĢÐµÐ¿":12173,"ĠÑĢÐµÐºÐ¸":12174,"Ġbees":12175,"uts":12176,"utin":12177,"Ð½Ð¸ÑĪ":12178,"Ð¾Ð´Ð¾Ð»":12179,"Ð·ÑĥÐ±":12180,"Ð¾ÑĢÑĭ":12181,"Ð¾ÑĢÐµÑĩ":12182,"ÐµÐ¼ÑıÐ½":12183,"ĠÐ½Ð°Ñĥ":12184,"ĠÐ½Ð°ÑĢÑĥÐ¶":12185,"ĠÐ½Ð°ÑĤÑıÐ½ÑĥÑĤ":12186,"Ġgymn":12187,"Ġwashing":12188,"Ġwashed":12189,"ĠÐ¿Ð¾ÑģÐº":12190,"ĠÐ¿Ð¾ÑĤÐ¾Ð»":12191,"ĠÐ¿Ð¾ÑĪÐ»Ð¾":12192,"ĠÐ¿Ð¾ÐµÑħÐ°Ð»Ð¸":12193,
[...]
